  t
h e
  a
t h
  s
a n
  w
n d
  h
e d
t o
e r
  b
i n
w a
r e
  f
  T
i t
o u
a s
h a
  l
  i
T h
  d
e n
  c
a r
  p
a y
  m
m e
v e
o m
a t
  o
h i
l e
s a
n e
i s
n g
o n
  n
e y
i m
t e
l l
i d
a l
k e
o r
c a
s t
  g
e a
o o
  S
l a
n t
l o
l i
o t
i l
a d
a i
u n
r i
u t
w i
e t
a m
s h
i r
p l
e l
b i
s e
w e
r o
d e
b e
e s
  r
r y
H e
  H
d a
m a
h o
l y
i g
e e
i e
o w
n o
t i
s o
  "
m o
f o
T i
  u
f r
c e
p p
r a
O n
a p
  y
p e
t t
l d
b o
  e
S h
u l
c k
d o
y o
  I
c o
g e
c h
t r
p o
u s
a w
o k
t a
a c
r d
n a
b a
u r
g h
o g
u p
  v
o f
i c
b u
  L
o y
u g
f u
g o
o l
p y
n c
L i
w h
d i
  B
a v
  k
e c
  M
' s
T o
m i
w o
a k
f e
p a
f i
r t
s i
. "
g i
o v
n y
e w
s m
y e
o p
i k
I t
h t
p i
g a
! "
k i
e m
g r
t s
a g
u c
u e
m y
p r
y s
o d
e v
r s
n i
r k
e i
  A
a u
f a
s k
S a
c l
i v
s u
  j
S u
f l
M a
a b
r r
B u
p u
b l
s s
n k
n n
r n
n s
b r
e x
r u
? "
t u
u d
w n
u m
k n
i a
B e
s p
s c
c r
' t
t y
a x
o s
e p
l t
g s
  O
h u
W h
m p
y i
o c
o i
l s
m m
f t
i f
c t
A n
d d
j u
  W
Y o
o b
e f
M o
S p
l u
u i
M i
m u
a f
i o
f f
o x
c y
o a
S o
g g
  J
r m
  F
m b
v i
s w
  Y
L u
b y
q u
s l
, "
B o
H i
c u
k y
W e
L e
j o
  D
b b
x c
x p
r f
i p
� �
N o
g l
h r
Y e
D o
C a
  E
h y
F r
A m
o e
s n
J a
A s
  C
s y
z e
e g
I n
t w
y m
l f
E v
r g
u b
  q
i z
D a
g u
w l
k a
y a
K i
x t
u f
i x
' m
J o
r c
  K
a z
d u
F i
p s
  P
A f
w r
  N
A t
y u
L o
F l
u a
z z
  R
p h
W o
A l
v a
g n
d v
  G
o h
n j
B i
z y
  z
z i
e b
i b
M r
j a
� �
J u
J i
R e
J e
e k
c c
a h
" .
G o
v y
O k
C o
z o
W i
n f
O h
G r
H o
P l
l v
C h
E m
P e
O K
S t
  Z
R o
M y
M u
  -
B l
l b
L a
E l
P a
I f
G i
O f
H a
P i
P o
D u
W a
T r
A r
B r
Z o
T e
M e
T V
D i
  3
S e
N e
U n
B a
R a
F o
Z i
  U
T w
  '
O u
y g
O w
B y
Y u
a e
G e
R u
I s
C l
e q
K a
S n
k u
T u
n p
y l
' d
E n
x y
R i
" ,
S i
T a
P u
E a
O r
A b
. .
N i
D e
Y a
P r
Q u
S k
  x
K e
Z a
  V
S l
S m
y d
D r

  
F a
N a
C r
C u
  Q
Z e
' .
A u
G u
A d
G a
A c
A v
H u
! '
E x
h h
C i
M m
y r
V i
. '
A h
a a
F e
S c
F u
  X
N u
U h
S w
  

O t
E d
O p
E w
  1
? '
   
U p
? !
y n
- -
C e
I m
R y
G l
' "
E r
U s
L y
' ,
' '
  2
O x
K n
A g
1 0
w w
H m
, '
  5
W r
O v
� �
U g
K y
M s
G w
I g
R h
O s
  4
' ?
0 0
A w
I r
" !
O c
E t
O P
T H
Y i
U m
' !
N G
O O
? ,
1 2
u h
S y
: "
S H
C R
R A
E s
2 0
O N
E g
A R
  $
R O
N O
  9
! ?
u u
S T
  `
  8
R r
O y
I N
! ,
O M
L A
C y
A N
A B
  7
  .
S N
C K
B A
5 0
S P
R E
E R
A C
! !
  (
_ _
3 0
  !
i i
E S
S E
W O
V E
! .
  6
O W
O U
H I
E e
y y
` .
N E
L O
I T
E E
9 9
. `
! `
\ "
M E
E X
A Y
A T
A M
A A
  ,
` ,
T I
S I
S A
R R
P s
G O
E c
E N
B z
A L
5 5
� �
S s
R I
K r
E T
  _
  :
  *
U R
L I
I P
? `
�� �
��� �
�� �
��� �
   
 
 z zz
 z uc
 zuc ch
 zucch in
 zucchin i
 z oo
 zoo s
 zoo ke
 zooke e
 zookee p
 zookeep er
 zookeeper s
 z o
 zo om
 zoom s
 zoom in
 zoomin g
 zoom er
 zoom ed
 zo ne
 z ip
 zip s
 z in
 zin g
 z ig
 zig z
 zigz a
 zigza g
 zigzag s
 zigzag g
 zigzagg y
 zigzagg in
 zigzaggin g
 zigzagg ed
 z i
 zi pp
 zipp in
 zippin g
 zipp er
 zipper s
 zipp ed
 z er
 zer o
 zero s
 z ap
 z ag
 zag s
 zag g
 zagg in
 zaggin g
 z a
 za pp
 zapp ed
 y u
 yu m
 yum m
 yumm y
 yumm ie
 yummie st
 yumm i
 yummi er
 yu c
 yuc k
 yuck y
 y ow
 yow l
 yowl ed
 y ou
 you th
 youth s
 youth f
 youthf u
 youthfu l
 you s
 you r
 your s
 yours e
 yourse l
 yoursel v
 yourselv e
 yourselve s
 yoursel f
 you n
 youn g
 young s
 youngs t
 youngst er
 young er
 young e
 younge s
 younges t
 y o
 yo l
 yol k
 yo g
 yog u
 yogu r
 yogur t
 yogurt s
 yog h
 yogh u
 yoghu r
 yoghur t
 yog a
 y i
 yi pp
 yipp ed
 yi el
 yiel d
 yield s
 yield in
 yieldin g
 yield ed
 y et
 y es
 y el
 yel p
 yelp s
 yelp in
 yelpin g
 yelp ed
 y ea
 yea h
 y e
 ye st
 yest er
 yester d
 yesterd a
 yesterda y
 ye ll
 yell s
 yell o
 yello w
 yellow s
 yell in
 yellin g
 yell ed
 ye as
 yeas t
 ye ar
 year s
 year n
 y ay
 y ar
 yar n
 yar d
 yard s
 y an
 yan k
 yank e
 yanke d
 y a
 ya w
 yaw n
 yawn s
 yawn in
 yawnin g
 yawn ed
 ya c
 yac h
 yach t
 yacht s
 w r
 wr o
 wro t
 wrot e
 wro n
 wron g
 wrong e
 wronge d
 wr i
 wri t
 writ t
 writt e
 writte n
 writ i
 writi n
 writin g
 writing s
 writ he
 writ e
 write s
 write r
 writer s
 wri s
 wris t
 wrist s
 wri n
 wrin k
 wrink l
 wrinkl y
 wrinkl i
 wrinkli n
 wrinklin g
 wrinkl e
 wrinkle s
 wrinkle d
 wri g
 wrig g
 wrigg l
 wriggl y
 wriggl i
 wriggli n
 wrigglin g
 wriggl e
 wriggle s
 wriggle d
 wr e
 wre s
 wres t
 wrest l
 wrestl e
 wre n
 wren c
 wrenc he
 wrenche s
 wrenc h
 wre c
 wrec k
 wreck s
 wreck e
 wrecke d
 wre a
 wrea th
 wr a
 wra th
 wra p
 wrap s
 wrap p
 wrapp i
 wrappi n
 wrappin g
 wrapp e
 wrappe r
 wrapper s
 wrappe d
 w o
 wo w
 wo v
 wov e
 wove n
 wo u
 wou n
 woun d
 wound s
 wound e
 wounde d
 wou l
 woul d
 would n
 wo r
 wor th
 worth y
 worth w
 worthw h
 worthwh i
 worthwhi l
 worthwhil e
 worth l
 worthl e
 worthle s
 worthles s
 wor s
 wors t
 wors h
 worsh i
 worshi p
 wors e
 wor r
 worr y
 worry i
 worryi n
 worryin g
 worr i
 worri e
 worrie s
 worrie d
 worried l
 worriedl y
 wor n
 wor m
 worm s
 wor l
 worl d
 world s
 wor k
 work s
 works h
 worksh o
 worksho p
 work o
 worko u
 workou t
 work i
 worki n
 workin g
 work e
 worke r
 worker s
 worke d
 work b
 workb e
 workbe n
 workben c
 workbenc h
 wor e
 wor d
 word s
 wo o
 woo l
 wool l
 wooll y
 woo f
 woof s
 woof e
 woofe d
 woo d
 wood w
 woodw o
 woodwo r
 woodwor k
 woodwork e
 woodworke r
 wood s
 woods m
 woodsm an
 wood p
 woodp e
 woodpe c
 woodpec k
 woodpeck e
 woodpecke r
 wood l
 woodl an
 woodlan d
 wood e
 woode n
 woode d
 wood c
 woodc u
 woodcu t
 woodcut t
 woodcutt e
 woodcutte r
 woodcutter s
 wo n
 won k
 wonk y
 won d
 wond r
 wondr o
 wondro u
 wondrou s
 wond e
 wonde r
 wonder s
 wonder m
 wonderm e
 wonderme n
 wondermen t
 wonder l
 wonderl an
 wonderlan d
 wonder i
 wonderi n
 wonderin g
 wondering l
 wonderingl y
 wonder f
 wonderf u
 wonderfu l
 wonderful l
 wonderfull y
 wonder e
 wondere d
 wo m
 wom e
 wome n
 wom an
 wo l
 wol v
 wolv e
 wolve s
 wol f
 wolf e
 wolfe d
 wo k
 wok e
 woke n
 wo b
 wob b
 wobb l
 wobbl y
 wobbl i
 wobbli n
 wobblin g
 wobbl e
 wobble s
 wobble d
 w i
 wi z
 wiz a
 wiza r
 wizar d
 wizard s
 wi v
 wiv e
 wive s
 wi th
 with s
 withs t
 with o
 witho u
 withou t
 with i
 withi n
 wi t
 wit s
 wit n
 witn e
 witne s
 witnes s
 witness e
 witnesse d
 wit he
 withe r
 wither e
 withere d
 wit c
 witc he
 witche s
 witc h
 wi s
 wis t
 wis p
 wisp s
 wis he
 wishe s
 wishe d
 wis h
 wish i
 wishi n
 wishin g
 wis e
 wise s
 wises t
 wise r
 wise l
 wisel y
 wis d
 wisd o
 wisdo m
 wisdom s
 wi r
 wir e
 wire s
 wi p
 wip i
 wipi n
 wipin g
 wip e
 wipe s
 wipe d
 wi n
 win t
 wint e
 winte r
 winter y
 winter t
 wintert i
 winterti m
 wintertim e
 winter s
 win s
 win n
 winn i
 winni n
 winnin g
 winn e
 winne r
 winner s
 win k
 wink s
 wink i
 winki n
 winkin g
 wink e
 winke r
 winker s
 winke d
 win g
 wing s
 wings p
 wingsp an
 win e
 win d
 wind y
 wind s
 wind o
 windo w
 window s
 windows i
 windowsi l
 windowsil l
 wind m
 windm i
 windmi l
 windmil l
 wind i
 windi n
 windin g
 wind e
 winde d
 win c
 winc e
 wince d
 wi l
 wil t
 wilt i
 wilti n
 wiltin g
 wilt e
 wilte d
 wil l
 will s
 will i
 willi n
 willin g
 willing n
 willingn e
 willingne s
 willingnes s
 willing l
 willingl y
 wil d
 wild n
 wildn e
 wildne s
 wildnes s
 wild l
 wildl y
 wildl i
 wildli f
 wildlif e
 wild f
 wildf l
 wildfl o
 wildflo w
 wildflow e
 wildflowe r
 wildflower s
 wild e
 wilde s
 wildes t
 wilde r
 wilder n
 wildern e
 wilderne s
 wildernes s
 wi g
 wig s
 wig g
 wigg l
 wiggl y
 wiggl i
 wiggli n
 wigglin g
 wiggl e
 wiggle s
 wiggle r
 wiggle d
 wi f
 wif e
 wi d
 wid th
 wid e
 wide s
 wides t
 wide r
 wide n
 widen i
 wideni n
 widenin g
 widen e
 widene d
 wide l
 widel y
 wi c
 wic k
 wick e
 wicke d
 wicked l
 wickedl y
 w he
 whe r
 wher e
 where v
 wherev e
 whereve r
 where a
 wherea b
 whereab o
 whereabo u
 whereabou t
 whereabout s
 whe n
 when e
 whene v
 whenev e
 wheneve r
 whe e
 whee z
 whee l
 wheel s
 wheel i
 wheel e
 wheele d
 wheel c
 wheelc h
 wheelch a
 wheelcha i
 wheelchai r
 wheel b
 wheelb a
 wheelba r
 wheelbar r
 wheelbarr o
 wheelbarro w
 whe a
 whea t
 w h
 wh y
 wh o
 who s
 whos e
 who o
 whoo s
 whoos h
 whoosh i
 whooshi n
 whooshin g
 whoo p
 whoop i
 whoopi n
 whoopin g
 whoop e
 whoope d
 whoo f
 who m
 who l
 whol e
 who e
 whoe v
 whoev e
 whoeve r
 wh i
 whi z
 whiz z
 whizz i
 whizzi n
 whizzin g
 whizz e
 whizze d
 whi t
 whit e
 white s
 white b
 whiteb o
 whitebo a
 whiteboa r
 whiteboar d
 whi s
 whis t
 whist l
 whistl i
 whistli n
 whistlin g
 whistl e
 whistle s
 whistle r
 whistle d
 whis p
 whisp e
 whispe r
 whisper s
 whisper i
 whisperi n
 whisperin g
 whisper e
 whispere r
 whispere d
 whis k
 whisk e
 whiske r
 whisker s
 whisker e
 whiskere d
 whiske d
 whi r
 whir r
 whirr i
 whirri n
 whirrin g
 whirr e
 whirre d
 whir l
 whirl w
 whirlw i
 whirlwi n
 whirlwin d
 whirl p
 whirlp o
 whirlpo o
 whirlpoo l
 whirl i
 whirli n
 whirlin g
 whirl e
 whirle d
 whi p
 whip s
 whip p
 whipp i
 whippi n
 whippin g
 whipp e
 whippe d
 whi n
 whin n
 whinn y
 whinn i
 whinni e
 whinnie s
 whinnie d
 whin i
 whini n
 whinin g
 whin e
 whine s
 whine d
 whi m
 whim p
 whimp e
 whimpe r
 whimper s
 whimper i
 whimperi n
 whimperin g
 whimper e
 whimpere d
 whi l
 whil s
 whils t
 whil e
 whi f
 whif f
 whi c
 whic he
 whiche v
 whichev e
 whicheve r
 whic h
 whe t
 whet he
 whethe r
 wh a
 wha t
 what e
 whate v
 whatev e
 whateve r
 wha l
 whal e
 whale s
 wha c
 whac k
 w e
 we t
 wet t
 wett i
 wetti n
 wettin g
 wett e
 wette r
 wet s
 wets u
 wetsu i
 wetsui t
 wetsuit s
 wet n
 wetn e
 wetne s
 wetnes s
 wet l
 wetl an
 wetlan d
 we s
 wes t
 we r
 wer e
 were n
 we p
 wep t
 we n
 wen t
 we l
 wel l
 well i
 welli n
 wellin g
 well e
 welle d
 well b
 wellb e
 wellbe i
 wellbei n
 wellbein g
 wel c
 welc o
 welco m
 welcom i
 welcomi n
 welcomin g
 welcom e
 welcome s
 welcome d
 we i
 wei r
 weir d
 weird e
 weirde s
 weirdes t
 weirde r
 wei g
 weig he
 weighe d
 weig h
 weigh t
 weight s
 weigh s
 weigh i
 weighi n
 weighin g
 we e
 wee p
 weep s
 weep i
 weepi n
 weepin g
 weep e
 weepe d
 wee k
 week s
 week l
 weekl y
 week e
 weeke n
 weeken d
 weekend s
 wee d
 weed s
 weed i
 weedi n
 weedin g
 we d
 wed g
 wedg e
 wedge d
 wed d
 wedd i
 weddi n
 weddin g
 wedding s
 we b
 web s
 web c
 webc a
 webca m
 web b
 webb e
 webbe d
 we a
 wea v
 weav i
 weavi n
 weavin g
 weav e
 weave d
 wea t
 weat he
 weathe r
 wea r
 wear y
 wear s
 wear i
 weari n
 wearin g
 weari l
 wearil y
 wea p
 weap o
 weapo n
 weapon s
 wea l
 weal th
 wealth y
 wealth i
 wealthi e
 wealthie r
 wea k
 weak n
 weakn e
 weakne s
 weaknes s
 weakness e
 weaknesse s
 weak l
 weakl y
 weak e
 weake r
 w an
 wan t
 want s
 want i
 wanti n
 wantin g
 want e
 wante d
 wan n
 wann a
 wan d
 wand s
 wand e
 wande r
 wander s
 wander i
 wanderi n
 wanderin g
 wandering s
 wander e
 wandere d
 w a
 wa y
 way s
 wa x
 wa v
 wav y
 wav i
 wavi n
 wavin g
 wav e
 wave s
 wave r
 waver e
 wavere d
 wave d
 wa t
 wat e
 wate r
 water y
 water s
 water m
 waterm e
 waterme l
 watermel o
 watermelo n
 water i
 wateri n
 waterin g
 water f
 waterf a
 waterfa l
 waterfal l
 water e
 watere d
 wat c
 watc he
 watche s
 watche r
 watche d
 watc h
 watch i
 watchi n
 watchin g
 watch f
 watchf u
 watchfu l
 wa s
 was t
 wast i
 wasti n
 wastin g
 wast e
 waste f
 wastef u
 wastefu l
 waste d
 was p
 wasp s
 was n
 wasn t
 was he
 washe s
 washe r
 washe d
 was h
 wash i
 washi n
 washin g
 wash c
 washc l
 washcl o
 washclo th
 wash a
 washa b
 washab l
 washabl e
 wa r
 war y
 war t
 wart s
 war s
 war r
 warr i
 warri o
 warrio r
 warrior s
 war n
 warn s
 warn i
 warni n
 warnin g
 warning s
 warn e
 warne d
 war m
 warm th
 warm s
 warm l
 warml y
 warm i
 warmi n
 warmin g
 warm e
 warme s
 warmes t
 warme r
 warme d
 war e
 ware h
 wareh o
 wareho u
 warehou s
 warehous e
 war d
 ward r
 wardr o
 wardro b
 wardrob e
 wardrobe s
 war b
 warb l
 warbl e
 warble r
 wa l
 wal n
 waln u
 walnu t
 wal l
 wall s
 wall e
 walle t
 wallet s
 wal k
 walk s
 walk i
 walki n
 walkin g
 walki e
 walk e
 walke r
 walke d
 wa k
 wak i
 waki n
 wakin g
 wak e
 wake s
 wa i
 wai t
 wait s
 wait r
 waitr e
 waitre s
 waitres s
 wait i
 waiti n
 waitin g
 wait e
 waite r
 waiter s
 waite d
 wai s
 wais t
 waist s
 wai l
 wail e
 waile d
 wa h
 wa g
 wag s
 wag o
 wago n
 wagon s
 wag g
 wagg y
 wagg l
 waggl e
 waggle d
 wagg i
 waggi n
 waggin g
 wagg e
 wagge d
 wa f
 waf t
 waft i
 wafti n
 waftin g
 waf f
 waff l
 waffl e
 waffle s
 wa d
 wad i
 wadi n
 wadin g
 wad e
 wade d
 wad d
 wadd l
 waddl i
 waddli n
 waddlin g
 waddl e
 waddle s
 waddle d
 v ro
 vro om
 vroom in
 vroomin g
 v ow
 vow s
 vow in
 vowin g
 vow ed
 v om
 vom it
 v o
 vo y
 voy a
 voya ge
 vo l
 vol un
 volun te
 volunte er
 volunteer s
 volunteer ed
 vol u
 volu me
 vol c
 volc an
 volcan o
 volcano s
 volcano e
 volcanoe s
 vo id
 vo i
 voi ce
 voi c
 voic es
 vo ca
 voca b
 vocab u
 vocabu l
 vocabul ar
 vocabular y
 v it
 vit a
 vita m
 vitam in
 vitamin s
 v is
 vis it
 visit s
 visit in
 visitin g
 visit ed
 vis i
 visi to
 visito r
 visitor s
 visi o
 visio n
 visi b
 visib le
 v ir
 vir u
 viru s
 vir t
 virt u
 virtu e
 v in
 vin t
 vint a
 vinta g
 vintag e
 vin e
 vine y
 viney a
 vineya r
 vineyar d
 vine s
 vine g
 vineg a
 vinega r
 v ig
 vig or
 vigor ou
 vigorou s
 vigorous l
 vigorousl y
 v ie
 vie w
 view s
 v id
 vid e
 vide o
 video s
 v i
 vi v
 viv id
 vi o
 vio le
 viole t
 violet s
 vio l
 viol in
 violin s
 violin i
 violini s
 violinis t
 viol en
 violen t
 violen c
 violenc e
 vi ll
 vill a
 villa in
 villain s
 villa g
 villag er
 villager s
 villag e
 village s
 vi c
 vic to
 victo r
 victor y
 victor i
 victori o
 victorio u
 victoriou s
 victori e
 victorie s
 vic t
 vict im
 vi b
 vib r
 vibr at
 vibrat i
 vibrati o
 vibratio n
 vibration s
 vibrat e
 vibr an
 vibran t
 v er
 ver y
 ver s
 vers i
 versi o
 versio n
 ver b
 v en
 ven u
 venu s
 ven t
 vent u
 ventu re
 ventu r
 ventur in
 venturin g
 ventur ed
 ven o
 veno m
 v el
 vel ve
 velve t
 v at
 v as
 vas t
 vast n
 vastn e
 vastne s
 vastnes s
 vas e
 vase s
 v ar
 var i
 vari ou
 variou s
 vari e
 varie t
 variet y
 v ap
 vap or
 v an
 van s
 van i
 vani s
 vanis he
 vanishe s
 vanishe d
 vanis h
 vanish i
 vanishi n
 vanishin g
 vani l
 vanil l
 vanill a
 van d
 vand a
 vanda l
 vandal i
 vandali s
 vandalis m
 v am
 v al
 val ve
 val u
 valu in
 valuin g
 valu ed
 valu e
 value s
 valu a
 valua b
 valuab le
 valuable s
 val le
 valle y
 valley s
 val id
 v ac
 vac u
 vacu u
 vacuu m
 vacuum ed
 vac at
 vacat i
 vacati o
 vacatio n
 vacation s
 v a
 va in
 u se
 use s
 use le
 usele s
 useles s
 use f
 usef u
 usefu l
 u sa
 usa b
 usab le
 u s
 us u
 usu al
 usu a
 usua ll
 usuall y
 us in
 usin g
 us he
 ushe r
 usher e
 ushere d
 us ed
 u r
 ur g
 urg in
 urgin g
 urg es
 urg en
 urgen t
 urgent l
 urgentl y
 urg ed
 urg e
 u p
 up wa
 upwa r
 upwar d
 upward s
 up st
 upst a
 upsta i
 upstai r
 upstair s
 up s
 ups id
 upsid e
 ups et
 upset t
 upsett in
 upsettin g
 up ri
 upri g
 uprig h
 uprigh t
 up p
 upp er
 up on
 up lo
 uplo a
 uploa d
 upload ed
 up d
 upd at
 updat ed
 up c
 upc om
 upcom in
 upcomin g
 up be
 upbe at
 u nt
 unt y
 unty in
 untyin g
 unt w
 untw is
 untwis t
 untwist ed
 unt id
 untid y
 unt i
 unti l
 unti ed
 unti e
 untie s
 unt an
 untan g
 untang l
 untangl e
 untangle s
 untangle d
 u ng
 ung u
 ungu ar
 unguar d
 unguard ed
 ung r
 ungr at
 ungrat e
 ungrate f
 ungratef u
 ungratefu l
 u ne
 une x
 unex p
 unexp e
 unexpe c
 unexpec t
 unexpect ed
 unexpected l
 unexpectedl y
 une v
 unev en
 une as
 uneas y
 u nd
 und r
 undr e
 undre s
 undres s
 undress e
 undresse d
 und o
 undo n
 undon e
 und i
 undi s
 undis t
 undist u
 undistu r
 undistur b
 undisturb e
 undisturbe d
 undi d
 und e
 unde t
 undet e
 undete r
 undeter r
 undeterr e
 undeterre d
 unde r
 under w
 underw e
 underwe a
 underwea r
 underw a
 underwa t
 underwat e
 underwate r
 under s
 unders t
 underst o
 understo o
 understoo d
 underst an
 understan d
 understand s
 understand i
 understandi n
 understandin g
 understanding l
 understandingl y
 under n
 undern e
 underne a
 undernea th
 under g
 underg r
 undergr o
 undergro w
 undergrow th
 under e
 undere s
 underes t
 underest i
 underesti m
 underestim a
 underestima t
 underestimat e
 under c
 underc o
 underco v
 undercov e
 undercove r
 und a
 unda u
 undau n
 undaun t
 undaunt e
 undaunte d
 u m
 um b
 umb re
 umbre l
 umbrel l
 umbrell a
 umbrella s
 u l
 ul t
 ult im
 ultim at
 ultimat e
 ultimate l
 ultimatel y
 u g
 ug ly
 ug li
 ugli er
 ugli e
 uglie st
 ug h
 u d
 ud d
 udd er
 t y
 ty r
 tyr e
 tyre s
 tyr a
 tyra n
 tyran t
 ty p
 typ i
 typi n
 typin g
 typ e
 type s
 ty i
 tyi n
 tyin g
 t w
 tw o
 tw i
 twi t
 twit t
 twitt e
 twitte r
 twitter i
 twitteri n
 twitterin g
 twitter e
 twittere d
 twit c
 twitc h
 twitch y
 twitch i
 twitchi n
 twitchin g
 twitch e
 twitche d
 twi s
 twis t
 twist y
 twist s
 twist i
 twisti n
 twistin g
 twist e
 twiste r
 twiste d
 twi r
 twir l
 twirl y
 twirl s
 twirl i
 twirli n
 twirlin g
 twirl e
 twirle d
 twi n
 twin s
 twin k
 twink l
 twinkl y
 twinkl i
 twinkli n
 twinklin g
 twinkl e
 twinkle s
 twinkle d
 twin e
 twi l
 twil i
 twili g
 twilig h
 twiligh t
 twi g
 twig s
 twi c
 twic e
 tw e
 twe n
 twen t
 twent y
 twe l
 twel v
 twelv e
 twe e
 twee z
 tweez e
 tweeze r
 tweezer s
 twee t
 tweet i
 tweeti n
 tweetin g
 tweet e
 tweete d
 t u
 tu t
 tut u
 tut o
 tuto r
 tutor s
 tu s
 tus k
 tusk s
 tu r
 tur t
 turt l
 turtl e
 turtle s
 tur r
 turr e
 turre t
 turret s
 tur q
 turq u
 turqu o
 turquo i
 turquoi s
 turquois e
 tur n
 turn s
 turns t
 turnst i
 turnsti l
 turnstil e
 turn i
 turni n
 turnin g
 turn e
 turne d
 tur k
 turk e
 turke y
 turkey s
 tur b
 turb a
 turba n
 tu n
 tun n
 tunn e
 tunne l
 tunnel s
 tun i
 tun e
 tune s
 tune r
 tun a
 tuna s
 tu m
 tum m
 tumm y
 tumm i
 tummi e
 tummie s
 tum b
 tumb l
 tumbl i
 tumbli n
 tumblin g
 tumbl e
 tumble d
 tu l
 tul i
 tuli p
 tulip s
 tu g
 tug s
 tug g
 tugg i
 tuggi n
 tuggin g
 tugg e
 tugge d
 tu c
 tuc k
 tuck s
 tuck i
 tucki n
 tuckin g
 tuck e
 tucke r
 tucker e
 tuckere d
 tucke d
 tu b
 tub s
 tub e
 tube s
 t r
 tr y
 try i
 tryi n
 tryin g
 tr u
 tru t
 trut h
 truth f
 truthf u
 truthfu l
 tru s
 trus t
 trust y
 trust w
 trustw o
 trustwo r
 trustwor t
 trustwort h
 trustworth y
 trust s
 trust i
 trusti n
 trustin g
 trusting l
 trustingl y
 trust e
 truste d
 tru n
 trun k
 trunk s
 trun d
 trund l
 trundl e
 trundle d
 tru m
 trum p
 trump e
 trumpe t
 trumpet s
 trumpet i
 trumpeti n
 trumpetin g
 trumpet e
 trumpete d
 tru l
 trul y
 tru f
 truf f
 truff l
 truffl e
 tru e
 tru d
 trud g
 trudg i
 trudgi n
 trudgin g
 trudg e
 trudge d
 tru c
 truc k
 truck s
 truck e
 trucke r
 tr o
 tro w
 trow e
 trowe l
 tro v
 trov e
 tro u
 trou t
 trou s
 trous e
 trouse r
 trouser s
 trou g
 troug h
 trou b
 troub l
 troubl i
 troubli n
 troublin g
 troubl e
 trouble s
 troubles o
 troubleso m
 troublesom e
 trouble m
 troublem a
 troublema k
 troublemak e
 troublemake r
 trouble d
 tro t
 trot t
 trott i
 trotti n
 trottin g
 trott e
 trotte d
 trot s
 tro p
 trop i
 tropi c
 tropic a
 tropica l
 trop h
 troph y
 troph i
 trophi e
 trophie s
 tro m
 trom b
 tromb o
 trombo n
 trombon e
 tro l
 trol l
 troll e
 trolle y
 tr i
 tri u
 triu m
 trium p
 triump h
 triumph a
 triumpha n
 triumphan t
 triumphant l
 triumphantl y
 tri p
 trip s
 trip p
 tripp i
 trippi n
 trippin g
 tripp e
 trippe d
 trip o
 tripo d
 trip e
 tripe d
 tri o
 tri n
 trin k
 trink e
 trinke t
 trinket s
 tri m
 trim m
 trimm i
 trimmi n
 trimmin g
 trimm e
 trimme r
 trimme d
 tri l
 tril l
 trill e
 trille d
 tri k
 trik e
 tri g
 trig g
 trigg e
 trigge r
 trigger s
 tri e
 trie s
 trie d
 tri c
 tric y
 tricy c
 tricyc l
 tricycl e
 tric k
 trick y
 trick s
 tricks t
 trickst e
 trickste r
 trick l
 trickl i
 trickli n
 tricklin g
 trickl e
 trickle d
 trick i
 tricki n
 trickin g
 trick e
 tricke d
 tric e
 trice r
 tricer a
 tricera t
 tricerat o
 tricerato p
 triceratop s
 tri a
 tria n
 trian g
 triang u
 triangu l
 triangul a
 triangula r
 triang l
 triangl e
 triangle s
 tria l
 tr e
 tre s
 tres p
 tresp a
 trespa s
 trespas s
 trespass i
 trespassi n
 trespassin g
 trespass e
 trespasse r
 tre n
 tren d
 tren c
 trenc h
 tre m
 trem o
 tremo r
 trem e
 treme n
 tremen d
 tremend o
 tremendo u
 tremendou s
 trem b
 tremb l
 trembl i
 trembli n
 tremblin g
 trembl e
 tremble s
 tremble d
 tre k
 trek k
 trekk e
 trekke d
 tre e
 tree t
 treet o
 treeto p
 treetop s
 tree s
 tree h
 treeh o
 treeho u
 treehou s
 treehous e
 tre a
 trea t
 treat y
 treat s
 treat m
 treatm e
 treatme n
 treatmen t
 treat i
 treati n
 treatin g
 treat e
 treate d
 trea s
 treas u
 treasu r
 treasur e
 treasure s
 treasure d
 trea d
 tread m
 treadm i
 treadmi l
 treadmil l
 trea c
 treac h
 treach e
 treache r
 treacher o
 treachero u
 treacherou s
 tr a
 tra y
 tray s
 tra v
 trav e
 trave l
 travel s
 travel l
 travell i
 travelli n
 travellin g
 travell e
 travelle r
 traveller s
 travelle d
 travel i
 traveli n
 travelin g
 travel e
 travele r
 traveler s
 travele d
 tra s
 tras h
 trash c
 trashc a
 trashca n
 tra p
 trap s
 trap p
 trapp i
 trappi n
 trappin g
 trapp e
 trappe d
 tra n
 tran s
 trans p
 transp o
 transpo r
 transpor t
 transport e
 transporte d
 trans f
 transf o
 transfo r
 transfor m
 transform i
 transformi n
 transformin g
 transform e
 transforme d
 transform a
 transforma t
 transformat i
 transformati o
 transformatio n
 transf i
 transfi x
 transfix e
 transfixe d
 tran q
 tranq u
 tranqu i
 tranqui l
 tranquil i
 tranquili z
 tranquiliz e
 tranquilize r
 tranquili t
 tranquilit y
 tran c
 tranc e
 tra m
 tram p
 tramp o
 trampo l
 trampol i
 trampoli n
 trampolin e
 tramp l
 trampl e
 trample d
 tra i
 trai n
 train s
 train i
 traini n
 trainin g
 train e
 traine r
 trainer s
 traine d
 trai l
 trail s
 trail i
 traili n
 trailin g
 trail e
 traile r
 traile d
 tra g
 trag e
 trage d
 traged y
 tra f
 traf f
 traff i
 traffi c
 tra d
 trad i
 tradi t
 tradit i
 traditi o
 traditio n
 tradition s
 tradi n
 tradin g
 trad e
 trade s
 trade r
 trade d
 tra c
 trac t
 tract o
 tracto r
 tractor s
 trac k
 track s
 track e
 tracke d
 trac i
 traci n
 tracin g
 trac e
 trace d
 t o
 to y
 toy s
 toy b
 toyb o
 toybo x
 to w
 tow n
 town s
 towns p
 townsp e
 townspe o
 townspeo p
 townspeop l
 townspeopl e
 towns f
 townsf o
 townsfo l
 townsfol k
 tow e
 towe r
 tower s
 tower i
 toweri n
 towerin g
 tower e
 towere d
 towe l
 towel s
 tow a
 towa r
 towar d
 toward s
 to u
 tou s
 tous l
 tousl i
 tousli n
 touslin g
 tou r
 tour s
 tour n
 tourn a
 tourna m
 tournam e
 tourname n
 tournamen t
 tournament s
 tour i
 touri s
 touris t
 tou g
 toug h
 tough e
 toughe s
 toughes t
 toughe r
 tou c
 touc h
 touch i
 touchi n
 touchin g
 touch e
 touche s
 touche d
 to t
 tot a
 tota l
 total l
 totall y
 to s
 tos s
 toss i
 tossi n
 tossin g
 toss e
 tosse s
 tosse d
 to r
 tor t
 tort o
 torto i
 tortoi s
 tortois e
 tor n
 torn a
 torna d
 tornad o
 tornado s
 tornado e
 tornadoe s
 tor m
 torm e
 torme n
 tormen t
 tor e
 tor c
 torc h
 torch e
 torche s
 to p
 top s
 top p
 topp l
 toppl e
 topple d
 topp i
 toppi n
 toppin g
 topping s
 topp e
 toppe d
 top i
 topi c
 topic s
 to o
 too t
 toot h
 tooth y
 tooth p
 toothp i
 toothpi c
 toothpic k
 toothpick s
 toothp a
 toothpa s
 toothpas t
 toothpast e
 tooth b
 toothb r
 toothbr u
 toothbru s
 toothbrus h
 toothbrush e
 toothbrushe s
 tooth a
 tootha c
 toothac h
 toothach e
 toot e
 toote d
 too l
 tool s
 tool k
 toolk i
 toolki t
 tool b
 toolb o
 toolbo x
 too k
 to n
 ton s
 ton i
 toni g
 tonig h
 tonigh t
 ton g
 tong u
 tongu e
 tongue s
 ton e
 tone s
 to m
 tom o
 tomo r
 tomor r
 tomorr o
 tomorro w
 tom a
 toma t
 tomat o
 tomato e
 tomatoe s
 to l
 tol l
 tol e
 tole r
 toler a
 tol d
 to k
 tok e
 toke n
 token s
 to i
 toi l
 toil e
 toile t
 toilet s
 to g
 tog e
 toge t
 toget h
 togeth e
 togethe r
 together n
 togethern e
 togetherne s
 togethernes s
 to e
 toe s
 toe d
 to d
 tod d
 todd l
 toddl e
 toddle r
 toddler s
 toddle d
 tod a
 toda y
 to c
 toc k
 tock i
 tocki n
 tockin g
 tock e
 tocke d
 to a
 toa s
 toas t
 toast y
 toast s
 toast e
 toaste r
 toaste d
 toa d
 toad s
 toads t
 toadst o
 toadsto o
 toadstoo l
 toadstool s
 t i
 ti t
 tit l
 titl e
 title s
 ti s
 tis s
 tiss u
 tissu e
 tissue s
 ti r
 tir i
 tiri n
 tirin g
 tir e
 tire s
 tire l
 tirel e
 tirele s
 tireles s
 tireless l
 tirelessl y
 tire d
 tired n
 tiredn e
 tiredne s
 tirednes s
 ti p
 tip t
 tipt o
 tipto e
 tiptoe s
 tiptoe d
 tip s
 tip p
 tipp y
 tipp i
 tippi n
 tippin g
 tipp e
 tippe d
 ti n
 tin y
 tin s
 tin k
 tink l
 tinkl i
 tinkli n
 tinklin g
 tinkl e
 tinkle d
 tink e
 tinke r
 tinker i
 tinkeri n
 tinkerin g
 tin i
 tini e
 tinie s
 tinies t
 tinie r
 tin g
 ting l
 tingl y
 tingl i
 tingli n
 tinglin g
 tingl e
 tin e
 tine s
 ti m
 tim i
 timi d
 timid l
 timidl y
 tim e
 time s
 time r
 tim b
 timb e
 timbe r
 timber s
 ti l
 til t
 tilt s
 tilt e
 tilte d
 til l
 til e
 tile s
 ti g
 tig h
 tigh t
 tight r
 tightr o
 tightro p
 tightrop e
 tight n
 tightn e
 tightne s
 tightnes s
 tight l
 tightl y
 tight e
 tighte s
 tightes t
 tighte r
 tighte n
 tighten s
 tighten i
 tighteni n
 tightenin g
 tighten e
 tightene d
 tig e
 tige r
 tiger s
 ti e
 tie s
 tie d
 ti d
 tid y
 tidy i
 tidyi n
 tidyin g
 tid i
 tidi n
 tidi l
 tidil y
 tidi e
 tidie s
 tidies t
 tidie r
 tidie d
 tid e
 tide s
 tide p
 tidep o
 tidepo o
 tidepoo l
 tidepool s
 ti c
 tic k
 tick s
 tick l
 tickl y
 tickl i
 tickli s
 ticklis h
 tickli n
 ticklin g
 tickl e
 tickle s
 tickle d
 tick i
 ticki n
 tickin g
 tick e
 ticke t
 ticket s
 ticke d
 ti a
 tia r
 tiar a
 t h
 th y
 thy m
 thym e
 th u
 thu s
 thu n
 thun d
 thund e
 thunde r
 thunder s
 thunders t
 thunderst o
 thundersto r
 thunderstor m
 thunderstorm s
 thunder o
 thundero u
 thunderou s
 thunder i
 thunderi n
 thunderin g
 thunder e
 thundere d
 thunder c
 thunderc l
 thundercl o
 thunderclo u
 thunderclou d
 thundercloud s
 thundercl a
 thundercla p
 thu m
 thum p
 thump s
 thump i
 thumpi n
 thumpin g
 thump e
 thumpe d
 thum b
 thumb s
 thu d
 th r
 thr u
 thru s
 thrus t
 thrust i
 thrusti n
 thrustin g
 thr o
 thro w
 throw s
 throw n
 throw i
 throwi n
 throwin g
 throw e
 throwe r
 thro u
 throu g
 throug h
 through o
 througho u
 throughou t
 thro n
 thron e
 thro a
 throa t
 thr i
 thri v
 thriv i
 thrivi n
 thrivin g
 thriv e
 thri l
 thril l
 thrill i
 thrilli n
 thrillin g
 thrill e
 thrille d
 thri f
 thrif t
 thr e
 thre w
 thre e
 thre a
 threa t
 threat s
 threat e
 threate n
 threaten i
 threateni n
 threatenin g
 threaten e
 threatene d
 threa d
 thread s
 thread i
 threadi n
 threadin g
 th o
 tho u
 thou s
 thous a
 thousa n
 thousan d
 thousand s
 thou g
 thoug h
 though t
 thought s
 thought f
 thoughtf u
 thoughtfu l
 thoughtful n
 thoughtfuln e
 thoughtfulne s
 thoughtfulnes s
 thoughtful l
 thoughtfull y
 tho s
 thos e
 tho r
 thor o
 thoro u
 thorou g
 thoroug h
 thorough l
 thoroughl y
 thor n
 thorn y
 thorn s
 th i
 thi s
 thi r
 thir t
 thirt y
 thirt e
 thirte e
 thirtee n
 thir s
 thirs t
 thirst y
 thir d
 thi n
 thin n
 thinn e
 thinne r
 thin k
 think s
 think i
 thinki n
 thinkin g
 think e
 thinke r
 thin g
 thing s
 thi e
 thie v
 thiev e
 thieve s
 thie f
 thi c
 thic k
 thick e
 thicke s
 thickes t
 thicke r
 thicke n
 thicken e
 thickene d
 th e
 the y
 the s
 thes e
 the r
 ther m
 therm o
 thermo s
 thermo m
 thermom e
 thermome t
 thermomet e
 thermomete r
 thermometer s
 ther e
 ther a
 thera p
 therap i
 therapi s
 therapis t
 the n
 the m
 them s
 thems e
 themse l
 themsel v
 themselv e
 themselve s
 them e
 the i
 thei r
 their s
 the b
 theb o
 thebo y
 the a
 thea t
 theat r
 theatr e
 theat e
 theate r
 th a
 tha w
 tha t
 tha n
 than k
 thank s
 thank i
 thanki n
 thankin g
 thank f
 thankf u
 thankfu l
 thankful n
 thankfuln e
 thankfulne s
 thankfulnes s
 thankful l
 thankfull y
 thank e
 thanke d
 t e
 te x
 tex t
 text u
 textu r
 textur e
 texture s
 te s
 tes t
 test s
 test i
 testi n
 testin g
 test e
 teste d
 te r
 ter r
 terr o
 terro r
 terr i
 terri t
 territ o
 territo r
 territor y
 terri f
 terrif y
 terrify i
 terrifyi n
 terrifyin g
 terrif i
 terrifi e
 terrifie d
 terrifi c
 terri b
 terrib l
 terribl y
 terribl e
 terr a
 terra i
 terrai n
 ter m
 term s
 term i
 te n
 ten t
 tent s
 tent h
 tent a
 tenta t
 tentat i
 tentati v
 tentativ e
 tentative l
 tentativel y
 tenta c
 tentac l
 tentacl e
 tentacle s
 ten s
 tens i
 tensi o
 tensio n
 tens e
 ten n
 tenn i
 tenni s
 ten d
 tend i
 tendi n
 tendin g
 tend e
 tende r
 tender n
 tendern e
 tenderne s
 tendernes s
 tender l
 tenderl y
 tende d
 ten a
 te m
 tem p
 temp t
 tempt i
 tempti n
 temptin g
 tempt e
 tempte d
 tempt a
 tempta t
 temptat i
 temptati o
 temptatio n
 temp o
 tempo r
 tempor a
 tempora r
 temporar y
 temp l
 templ e
 temple s
 temp e
 tempe r
 temper a
 tempera t
 temperat u
 temperatu r
 temperatur e
 temperature s
 te l
 tel l
 tell s
 tell i
 telli n
 tellin g
 tel e
 tele v
 telev i
 televi s
 televis i
 televisi o
 televisio n
 television s
 tele s
 teles c
 telesc o
 telesco p
 telescop e
 tele p
 telep h
 teleph o
 telepho n
 telephon e
 telephone s
 te e
 tee t
 teet h
 teet e
 teete r
 tee m
 teem i
 teemi n
 teemin g
 te d
 ted d
 tedd y
 teddy b
 teddyb e
 teddybe a
 teddybea r
 tedd i
 teddi e
 teddie s
 te c
 tec h
 tech n
 techn i
 techni q
 techniq u
 techniqu e
 technique s
 techni c
 technic i
 technici a
 technicia n
 te a
 tea s
 teas p
 teasp o
 teaspo o
 teaspoo n
 teaspoon s
 teas i
 teasi n
 teasin g
 teas e
 tease s
 tease d
 tea r
 tear y
 tear s
 tear i
 teari n
 tearin g
 tear f
 tearf u
 tearfu l
 tea p
 teap o
 teapo t
 tea m
 team w
 teamw o
 teamwo r
 teamwor k
 team s
 team m
 teamm a
 teamma t
 teammat e
 teammate s
 tea l
 tea c
 teac u
 teacu p
 teacup s
 teac h
 teach i
 teachi n
 teachin g
 teaching s
 teach e
 teache s
 teache r
 teacher s
 t a
 ta x
 tax i
 taxi s
 tax e
 taxe s
 ta u
 tau t
 tau n
 taun t
 taunt s
 taunt i
 taunti n
 tauntin g
 taunt e
 taunte d
 tau g
 taug h
 taugh t
 ta t
 tat t
 tatt y
 tatt l
 tattl e
 tattle t
 tattlet a
 tattleta l
 tattletal e
 tatt e
 tatte r
 tatter e
 tattere d
 ta s
 tas t
 tast y
 tast i
 tasti n
 tastin g
 tasti e
 tastie s
 tasties t
 tastie r
 tast e
 taste s
 taste r
 taste d
 tas k
 task s
 task e
 taske d
 ta r
 tar t
 tar p
 tar g
 targ e
 targe t
 target s
 ta p
 tap s
 tap p
 tapp i
 tappi n
 tappin g
 tapp e
 tappe d
 tap i
 tapi n
 tapin g
 tap e
 tape s
 tape d
 ta n
 tan t
 tant r
 tantr u
 tantru m
 tantrum s
 tan k
 tank s
 tan g
 tang y
 tang l
 tangl e
 tangle d
 ta m
 tam e
 tame r
 tame d
 tam b
 tamb o
 tambo u
 tambou r
 tambour i
 tambouri n
 tambourin e
 tambourine s
 ta l
 tal o
 talo n
 talon s
 tal l
 tall i
 talli e
 tallie d
 tall e
 talle s
 talles t
 talle r
 tal k
 talk s
 talk i
 talki n
 talkin g
 talk e
 talke r
 talke d
 talk a
 talka t
 talkat i
 talkati v
 talkativ e
 tal e
 tale s
 tale n
 talen t
 talent s
 talent e
 talente d
 ta k
 tak i
 taki n
 takin g
 tak e
 take s
 take r
 take o
 takeo f
 takeof f
 take n
 ta i
 tai l
 tail s
 tail o
 tailo r
 ta g
 tag s
 tag g
 tagg e
 tagge r
 tagge d
 ta d
 tad p
 tadp o
 tadpo l
 tadpol e
 tadpole s
 ta c
 tac o
 taco s
 tac k
 tack l
 tackl i
 tackli n
 tacklin g
 tackl e
 tackle d
 ta b
 tab l
 tabl e
 table t
 table s
 tables p
 tablesp o
 tablespo o
 tablespoo n
 table c
 tablec l
 tablecl o
 tableclo t
 tableclot h
 tab b
 tabb y
 s y
 sy s
 sys t
 syst e
 syste m
 sy r
 syr u
 syru p
 syr i
 syri n
 syrin g
 syring e
 sy n
 syn t
 synt he
 synthe s
 synthes i
 synthesi z
 synthesiz e
 synthesize r
 syn c
 sy m
 sym p
 symp a
 sympa th
 sympath y
 sympath i
 sympathi s
 sympathis e
 sympathise d
 sympa t
 sympat he
 sympathe t
 sympathet i
 sympatheti c
 sympathetic a
 sympathetica l
 sympathetical l
 sympatheticall y
 sym b
 symb o
 symbo l
 symbol s
 symbol i
 symboli z
 symboliz e
 symbolize s
 symbolize d
 s w
 sw u
 swu n
 swun g
 swu m
 sw o
 swo r
 swor e
 swor d
 sword s
 sword f
 swordf i
 swordfi s
 swordfis h
 swo o
 swoo s
 swoos h
 swoo p
 swoop s
 swoop i
 swoopi n
 swoopin g
 swoop e
 swoope d
 swo l
 swol l
 swoll e
 swolle n
 sw i
 swi t
 swit c
 switc he
 switche s
 switche d
 switc h
 switch i
 switchi n
 switchin g
 swi s
 swis he
 swishe s
 swishe d
 swis h
 swish i
 swishi n
 swishin g
 swi r
 swir l
 swirl s
 swirl i
 swirli n
 swirlin g
 swirl e
 swirle d
 swi p
 swip e
 swipe d
 swi n
 swin g
 swing s
 swings e
 swingse t
 swing i
 swingi n
 swingin g
 swing e
 swi m
 swim s
 swims u
 swimsu i
 swimsui t
 swimsuit s
 swim m
 swimm i
 swimmi n
 swimmin g
 swimm e
 swimme r
 swimmer s
 swi f
 swif t
 swift l
 swiftl y
 sw e
 swe r
 swer v
 swerv e
 swerve d
 swe p
 swep t
 swe l
 swel l
 swell i
 swelli n
 swellin g
 swe e
 swee t
 sweet s
 sweet n
 sweetn e
 sweetne s
 sweetnes s
 sweet l
 sweetl y
 sweet i
 sweeti e
 sweetie s
 sweet he
 sweethe a
 sweethea r
 sweethear t
 sweetheart s
 sweet e
 sweete s
 sweetes t
 sweete r
 sweete n
 swee p
 sweep i
 sweepi n
 sweepin g
 swe a
 swea t
 sweat y
 sweat i
 sweati n
 sweatin g
 sweat e
 sweate r
 sweater s
 swea r
 sw a
 swa y
 sway i
 swayi n
 swayin g
 sway e
 swaye d
 swa t
 swat t
 swatt i
 swatti n
 swattin g
 swatt e
 swatte r
 swatte d
 swa r
 swar m
 swarm i
 swarmi n
 swarmin g
 swa p
 swap p
 swapp e
 swappe d
 swa n
 swan s
 swa m
 swam p
 swa l
 swal l
 swall o
 swallo w
 swallow s
 swallow i
 swallowi n
 swallowin g
 swallow e
 swallowe d
 s u
 su s
 sus p
 susp i
 suspi c
 suspic i
 suspici o
 suspicio u
 suspiciou s
 suspicious l
 suspiciousl y
 suspicio n
 suspicion s
 susp e
 suspe n
 suspen s
 suspens e
 suspe c
 suspec t
 su r
 sur v
 surv i
 survi v
 surviv e
 survive d
 surv e
 surve y
 survey e
 surveye d
 sur r
 surr o
 surro u
 surrou n
 surroun d
 surround i
 surroundi n
 surroundin g
 surrounding s
 surround e
 surrounde d
 surr e
 surre n
 surren d
 surrend e
 surrende r
 surrender i
 surrenderi n
 surrenderin g
 surrender e
 surrendere d
 sur p
 surp r
 surpr i
 surpri s
 surpris i
 surprisi n
 surprisin g
 surprising l
 surprisingl y
 surpris e
 surprise s
 surprise d
 sur g
 surg e
 surge r
 surger y
 surge d
 sur f
 surf s
 surf i
 surfi n
 surfin g
 surf e
 surfe r
 surfer s
 surfe d
 surf b
 surfb o
 surfbo a
 surfboa r
 surfboar d
 surfboard s
 surf a
 surfa c
 surfac e
 surface s
 surface d
 sur e
 sure l
 surel y
 su p
 sup r
 supr i
 supri s
 supris e
 suprise d
 sup p
 supp o
 suppo s
 suppos e
 suppose d
 suppo r
 suppor t
 support s
 support i
 supporti v
 supportiv e
 supporti n
 supportin g
 support e
 supporte d
 supp l
 suppl y
 supply i
 supplyi n
 supplyin g
 suppl i
 suppli e
 supplie s
 supplie d
 supp e
 suppe r
 sup e
 supe r
 super v
 superv i
 supervi s
 supervis o
 superviso r
 supervis i
 supervisi o
 supervisio n
 supervis e
 super p
 superp o
 superpo w
 superpow e
 superpowe r
 superpower s
 super m
 superm a
 superma r
 supermar k
 supermark e
 supermarke t
 super he
 superhe r
 superher o
 superhero e
 superheroe s
 su n
 sun s
 suns h
 sunsh i
 sunshi n
 sunshin y
 sunshin e
 suns e
 sunse t
 sunset s
 suns c
 sunsc r
 sunscr e
 sunscre e
 sunscree n
 sun r
 sunr i
 sunri s
 sunris e
 sunrise s
 sunr a
 sunra y
 sunray s
 sun n
 sunn y
 sunn i
 sunni n
 sunnin g
 sunni e
 sun l
 sunl i
 sunli t
 sunli g
 sunlig h
 sunligh t
 sun k
 sun h
 sunh a
 sunha t
 sun g
 sung l
 sungl a
 sungla s
 sunglas s
 sunglass e
 sunglasse s
 sun f
 sunf l
 sunfl o
 sunflo w
 sunflow e
 sunflowe r
 sunflower s
 sun d
 sund a
 sunda e
 sun b
 sunb u
 sunbu r
 sunbur n
 sunburn e
 sunburne d
 sunb l
 sunbl o
 sunblo c
 sunbloc k
 sunb e
 sunbe a
 sunbea m
 sunbeam s
 sunb a
 sunba th
 sunba t
 sunbat he
 su m
 sum s
 sum m
 summ o
 summo n
 summon e
 summone d
 summ i
 summi t
 summ e
 summe r
 summer t
 summert i
 summerti m
 summertim e
 summer s
 su l
 sul k
 sulk s
 sulk i
 sulk e
 sulke d
 su i
 sui t
 suit s
 suit e
 suite d
 suit c
 suitc a
 suitca s
 suitcas e
 suitcase s
 suit a
 suita b
 suitab l
 suitabl e
 su g
 sug g
 sugg e
 sugge s
 sugges t
 suggest s
 suggest i
 suggesti o
 suggestio n
 suggestion s
 suggesti n
 suggestin g
 suggest e
 suggeste d
 sug a
 suga r
 sugar y
 su f
 suf f
 suff e
 suffe r
 suffer s
 suffer i
 sufferi n
 sufferin g
 suffering s
 suffer e
 suffere d
 su e
 sue d
 su d
 sud s
 suds y
 sud d
 sudd e
 sudde n
 sudden l
 suddenl y
 su c
 suc k
 suck i
 sucki n
 suckin g
 suck e
 sucke r
 sucker s
 sucke d
 suc h
 suc c
 succ u
 succu l
 succul e
 succule n
 succulen t
 succ e
 succe s
 succes s
 success f
 successf u
 successfu l
 successful l
 successfull y
 success e
 successe s
 succe e
 succee d
 succeed i
 succeedi n
 succeedin g
 succeed e
 succeede d
 su b
 sub w
 subw a
 subwa y
 sub t
 subt r
 subtr a
 subtra c
 subtrac t
 subtract i
 subtracti n
 subtractin g
 sub s
 subs t
 subst a
 substa n
 substan c
 substanc e
 subs i
 subsi d
 subsid e
 sub m
 subm a
 subma r
 submar i
 submari n
 submarin e
 sub j
 subj e
 subje c
 subjec t
 subject s
 s t
 st y
 sty l
 styl i
 styli s
 stylis t
 stylis h
 styli n
 stylin g
 styl e
 style s
 style d
 st u
 stu t
 stut t
 stutt e
 stutte r
 stutter e
 stuttere d
 stu r
 stur d
 sturd y
 sturd i
 sturdi e
 sturdie r
 stu p
 stup i
 stupi d
 stu n
 stun t
 stunt s
 stun n
 stunn i
 stunni n
 stunnin g
 stunn e
 stunne d
 stun g
 stu m
 stum p
 stump e
 stumpe d
 stum b
 stumb l
 stumbl i
 stumbli n
 stumblin g
 stumbl e
 stumble s
 stumble d
 stu f
 stuf f
 stuff y
 stuff i
 stuffi n
 stuffin g
 stuff e
 stuffe d
 stu d
 stud y
 study i
 studyi n
 studyin g
 stud i
 studi o
 studi e
 studie s
 studie d
 stud e
 stude n
 studen t
 student s
 stu c
 stuc k
 stu b
 stub b
 stubb o
 stubbo r
 stubbor n
 stubborn n
 stubbornn e
 stubbornne s
 stubbornnes s
 stubborn l
 stubbornl y
 stubb e
 stubbe d
 st r
 str u
 stru t
 strut t
 strutt e
 strutte d
 stru n
 strun g
 stru m
 strum s
 strum m
 strumm i
 strummi n
 strummin g
 strumm e
 strumme d
 stru g
 strug g
 strugg l
 struggl i
 struggli n
 strugglin g
 struggl e
 struggle s
 struggle d
 stru c
 struc t
 struct u
 structu r
 structur e
 structure s
 struc k
 str o
 stro n
 stron g
 strong l
 strongl y
 strong e
 stronge s
 stronges t
 stronge r
 stro l
 strol l
 stroll s
 stroll i
 strolli n
 strollin g
 stroll e
 strolle r
 strolle d
 stro k
 strok i
 stroki n
 strokin g
 strok e
 stroke s
 stroke d
 stro d
 strod e
 str i
 stri v
 striv i
 strivi n
 strivin g
 striv e
 strive d
 stri p
 strip s
 strip p
 stripp e
 strippe d
 strip e
 stripe s
 stripe d
 stri n
 strin g
 string y
 string s
 stri k
 strik i
 striki n
 strikin g
 strik e
 strike s
 strike r
 striker r
 strikerr y
 stri d
 strid e
 stride s
 stri c
 stric t
 str e
 stre w
 strew n
 stre t
 stret c
 stretc he
 stretche s
 stretche r
 stretche d
 stretc h
 stretch y
 stretch i
 stretchi n
 stretchin g
 stre s
 stres s
 stress e
 stresse d
 stre n
 stren g
 streng th
 strength s
 streng t
 strengt he
 strengthe n
 stre e
 stree t
 street s
 street l
 stre a
 strea m
 stream s
 stream i
 streami n
 streamin g
 stream e
 streame r
 streamer s
 streame d
 strea k
 streak s
 streak e
 streake d
 str a
 stra y
 stray e
 straye d
 stra w
 straw s
 straw b
 strawb e
 strawbe r
 strawber r
 strawberr y
 strawberr i
 strawberri e
 strawberrie s
 stra t
 strat e
 strate g
 strateg y
 stra p
 strap s
 strap p
 strapp e
 strappe d
 stra n
 stran g
 strang e
 strange s
 stranges t
 strange r
 stranger s
 strange l
 strangel y
 stran d
 strand s
 strand e
 strande d
 stra i
 strai n
 strain e
 straine d
 strai g
 straig h
 straigh t
 straight e
 straighte n
 straighten e
 straightene d
 st o
 sto w
 stow a
 stowa w
 stowaw a
 stowawa y
 sto v
 stov e
 stove s
 sto r
 stor y
 story t
 storyt e
 storyte l
 storytel l
 storytell i
 storytelli n
 storytellin g
 storytell e
 storytelle r
 storyteller s
 story b
 storyb o
 storybo o
 storyboo k
 storybook s
 stor m
 storm y
 storm s
 storm e
 storme d
 stor i
 stori n
 storin g
 stori e
 storie s
 stor e
 store s
 store o
 storeo w
 storeow n
 storeown e
 storeowne r
 store k
 storek e
 storeke e
 storekee p
 storekeep e
 storekeepe r
 store d
 stor a
 stora g
 storag e
 sto p
 stop w
 stopw a
 stopwa t
 stopwat c
 stopwatc h
 stop s
 stop p
 stopp i
 stoppi n
 stoppin g
 stopp e
 stoppe d
 sto o
 stoo p
 stoop e
 stoope d
 stoo l
 stoo d
 sto n
 ston e
 stone s
 sto m
 stom p
 stomp s
 stomp i
 stompi n
 stompin g
 stomp e
 stompe d
 stom a
 stoma c
 stomac h
 stomach s
 stomach a
 stomacha c
 stomachac he
 sto l
 stol e
 stole n
 sto c
 stoc k
 stock i
 stocki n
 stockin g
 stocking s
 st i
 sti t
 stit c
 stitc he
 stitche s
 stitche d
 stitc h
 stitch i
 stitchi n
 stitchin g
 sti r
 stir s
 stir r
 stirr i
 stirri n
 stirrin g
 stirr e
 stirre r
 stirre d
 sti n
 stin k
 stink y
 stink s
 stin g
 sting y
 sting s
 sting i
 stingi n
 stingin g
 sting e
 stinge r
 stinger s
 sti l
 stil l
 sti f
 stif f
 sti c
 stic k
 stick y
 stick s
 stick i
 sticki n
 stickin g
 stick e
 sticke r
 sticker s
 st e
 ste w
 ste th
 steth o
 stetho s
 stethos c
 stethosc o
 stethosco p
 stethoscop e
 stethoscope s
 ste r
 ster n
 stern n
 sternn e
 sternne s
 sternnes s
 stern l
 sternl y
 ste p
 step s
 steps t
 stepst o
 stepsto o
 stepstoo l
 step p
 stepp i
 steppi n
 steppin g
 stepp e
 steppe d
 ste m
 stem s
 ste g
 steg o
 stego s
 stegos a
 stegosa u
 stegosau r
 stegosaur u
 stegosauru s
 ste e
 stee r
 steer s
 steer i
 steeri n
 steerin g
 steer e
 steere d
 stee p
 steep e
 steepe r
 stee l
 stee d
 ste a
 stea m
 steam y
 steam i
 steami n
 steamin g
 steam e
 steame d
 stea l
 steal th
 stealth i
 stealthi l
 stealthil y
 steal s
 steal i
 steali n
 stealin g
 stea k
 steak s
 steak h
 steakh o
 steakho u
 steakhou s
 steakhous e
 stea d
 stead y
 stead i
 steadi l
 steadil y
 steadi e
 steadie d
 st a
 sta y
 stay s
 stay i
 stayi n
 stayin g
 stay e
 staye d
 sta t
 stat u
 statu e
 statue s
 stat i
 stati o
 statio n
 station s
 station m
 stationm a
 stationma s
 stationmas t
 stationmast e
 stationmaste r
 stat e
 sta s
 stas h
 sta r
 star v
 starv i
 starvi n
 starvin g
 star t
 start s
 start l
 startl i
 startli n
 startlin g
 startl e
 startle d
 start i
 starti n
 startin g
 start e
 starte r
 starte d
 star s
 star r
 starr y
 star l
 starl i
 starli g
 starlig h
 starligh t
 star i
 stari n
 starin g
 star f
 starf r
 starfr u
 starfru i
 starfrui t
 starf i
 starfi s
 starfis h
 star e
 stare s
 stare d
 star c
 starc h
 sta p
 stap l
 stapl e
 staple r
 sta n
 stan d
 stand s
 stand i
 standi n
 standin g
 stand a
 standa r
 standar d
 standard s
 sta m
 stam p
 stamp s
 stamp i
 stampi n
 stampin g
 stamp e
 stampe d
 stam m
 stamm e
 stamme r
 stammer e
 stammere d
 sta l
 stal l
 stall s
 stal k
 stalk s
 stal e
 sta i
 stai r
 stair s
 stair c
 stairc a
 stairca s
 staircas e
 stai n
 stain s
 stain e
 staine d
 sta g
 stag e
 sta f
 staf f
 staff s
 sta d
 stad i
 stadi u
 stadiu m
 stadium s
 sta c
 stac k
 stack s
 stack i
 stacki n
 stackin g
 stack e
 stacke d
 sta b
 stab l
 stabl e
 stable s
 stab b
 stabb e
 stabbe d
 s q
 sq u
 squ i
 squi s
 squis he
 squishe s
 squishe d
 squis h
 squish y
 squish i
 squishi n
 squishin g
 squishi e
 squi r
 squir t
 squirt s
 squirt i
 squirti n
 squirtin g
 squirt e
 squirte d
 squir r
 squirr e
 squirre l
 squirrel s
 squir m
 squirm s
 squirm i
 squirmi n
 squirmin g
 squirm e
 squirme d
 squi n
 squin t
 squint i
 squinti n
 squintin g
 squint e
 squinte d
 squi g
 squig g
 squigg l
 squiggl y
 squiggl e
 squiggle s
 squiggle d
 squi d
 squ e
 sque l
 squel c
 squelc h
 sque e
 squee z
 squeez i
 squeezi n
 squeezin g
 squeez e
 squeeze s
 squeeze r
 squeeze d
 sque a
 squea l
 squeal s
 squeal i
 squeali n
 squealin g
 squeal e
 squeale d
 squea k
 squeak y
 squeak s
 squeak i
 squeaki n
 squeakin g
 squeak e
 squeake d
 squ a
 squa w
 squaw k
 squawk s
 squawk i
 squawki n
 squawkin g
 squawk e
 squawke d
 squa t
 squat t
 squatt e
 squatte d
 squa s
 squas he
 squashe s
 squashe d
 squas h
 squash y
 squa r
 squar e
 square s
 squa b
 squab b
 squabb l
 sq e
 sqe a
 sqea l
 s p
 sp y
 spy g
 spyg l
 spygl a
 spygla s
 spyglas s
 sp u
 spu t
 sput t
 sputt e
 sputte r
 sputter e
 sputtere d
 spu r
 spur t
 spurt e
 spurte d
 spu n
 sp r
 spr u
 spru n
 sprun g
 spr o
 spro u
 sprou t
 sprout s
 sprout i
 sprouti n
 sproutin g
 sprout e
 sproute d
 spr i
 spri t
 sprit z
 sprit e
 spri n
 sprin t
 sprint e
 sprinte d
 sprin k
 sprink l
 sprinkl i
 sprinkli n
 sprinklin g
 sprinkl e
 sprinkle s
 sprinkle r
 sprinkler s
 sprinkle d
 sprin g
 spring y
 spring t
 springt i
 springti m
 springtim e
 spring s
 spring i
 springi n
 springin g
 spring h
 springh a
 springha r
 springhar e
 spri g
 spr e
 spre a
 sprea d
 spread s
 spread i
 spreadi n
 spreadin g
 spr a
 spra y
 spray s
 spray i
 sprayi n
 sprayin g
 spray e
 spraye r
 sprayer s
 spraye d
 spra n
 spran g
 spra i
 sprai n
 sp o
 spo u
 spou t
 spout e
 spoute d
 spo t
 spot t
 spott i
 spotti n
 spottin g
 spott e
 spotte d
 spot s
 spot l
 spotl i
 spotli g
 spotlig h
 spotligh t
 spotl e
 spotle s
 spotles s
 spo r
 spor t
 sport s
 spo o
 spoo n
 spoon s
 spoon f
 spoonf u
 spoonfu l
 spoonful s
 spoon e
 spoone d
 spoo l
 spoo k
 spook y
 spook e
 spooke d
 spo n
 spon g
 spong e
 sponge s
 spo k
 spok e
 spoke s
 spoke n
 spo i
 spoi l
 spoil t
 spoil s
 spoil i
 spoili n
 spoilin g
 spoil e
 spoile d
 spo e
 sp l
 spl u
 splu t
 splut t
 splutt e
 splutte r
 spl o
 spl i
 spli t
 split t
 splitt i
 splitti n
 splittin g
 split s
 spli n
 splin t
 splint e
 splinte r
 splinter s
 splinter e
 splintere d
 spl e
 sple n
 splen d
 splend i
 splendi d
 spl a
 spla t
 splat t
 splatt e
 splatte r
 splatter e
 splattere d
 spla s
 splas he
 splashe s
 splashe r
 splashe d
 splas h
 splash y
 splash i
 splashi n
 splashin g
 sp i
 spi t
 spit t
 spitt i
 spitti n
 spittin g
 spit s
 spit e
 spi r
 spir i
 spiri t
 spirit s
 spir a
 spira l
 spiral s
 spiral l
 spirall i
 spiralli n
 spirallin g
 spi n
 spin s
 spin n
 spinn i
 spinni n
 spinnin g
 spinn e
 spinne r
 spin e
 spine s
 spin a
 spina c
 spinac h
 spi l
 spil t
 spil l
 spill s
 spill i
 spilli n
 spillin g
 spill e
 spille d
 spi k
 spik y
 spik e
 spike s
 spi g
 spig o
 spigo t
 spi e
 spie s
 spie d
 spi d
 spid e
 spide r
 spider s
 spi c
 spic y
 spicy n
 spicyn u
 spicynu t
 spic i
 spici n
 spicin e
 spicine s
 spicines s
 spici e
 spicie s
 spicies t
 spicie r
 spic e
 spice y
 spice s
 spi a
 spia c
 spiac y
 sp e
 spe w
 spew e
 spewe d
 spe n
 spen t
 spen d
 spend s
 spend i
 spendi n
 spendin g
 spe l
 spel l
 spell s
 spell i
 spelli n
 spellin g
 spell e
 spelle r
 spelle d
 spe e
 spee d
 speed y
 speed s
 speed i
 speedi n
 speedin g
 speedi l
 speedil y
 speed e
 speede d
 spee c
 speec he
 speeche s
 speec h
 speech l
 speechl e
 speechle s
 speechles s
 spe d
 spe c
 spec t
 spect a
 specta t
 spectat o
 spectato r
 spectator s
 specta c
 spectac u
 spectacu l
 spectacul a
 spectacula r
 spec k
 speck s
 speck l
 speckl e
 speckle d
 spec i
 speci f
 specif i
 specifi c
 speci e
 specie s
 speci a
 specia l
 special n
 specialn e
 specialne s
 specialnes s
 special l
 speciall y
 special i
 speciali s
 specialis t
 spe a
 spea r
 spear s
 spea k
 speak s
 speak i
 speaki n
 speakin g
 speak e
 speake r
 speaker s
 sp a
 spa t
 spat u
 spatu l
 spatul a
 spa r
 spar s
 spars e
 spar r
 sparr o
 sparro w
 sparrow s
 spar k
 spark y
 spark s
 spark l
 sparkl y
 sparkl i
 sparkli n
 sparklin g
 sparkli e
 sparklie r
 sparkl e
 sparkle s
 sparkle r
 sparkle d
 spark i
 sparki n
 sparkin g
 spark e
 sparke d
 spar i
 spari n
 sparin g
 sparing l
 sparingl y
 spar e
 spare d
 spa n
 span n
 spann e
 spanne d
 span k
 spank i
 spanki n
 spankin g
 spa g
 spag he
 spaghe t
 spaghet t
 spaghett i
 spa d
 spad e
 spade s
 spa c
 spac i
 spaci o
 spacio u
 spaciou s
 spac e
 space s
 spaces h
 spacesh i
 spaceshi p
 spaceship s
 space m
 spacem a
 spacema n
 s o
 so w
 so u
 sou v
 souv e
 souve n
 souven i
 souveni r
 souvenir s
 sou th
 sou r
 sour n
 sourn e
 sourne s
 sournes s
 sour c
 sourc e
 sou p
 soup s
 sou n
 soun d
 sound s
 sound l
 soundl y
 sound i
 soundi n
 soundin g
 sound e
 sounde d
 sou l
 soul s
 sou g
 soug h
 sough t
 so r
 sor t
 sort s
 sort i
 sorti n
 sortin g
 sort e
 sorte d
 sor r
 sorr y
 sorr o
 sorro w
 sorrow s
 sor e
 sore n
 soren e
 sorene s
 sorenes s
 sor c
 sorc e
 sorce r
 sorcer e
 sorcere r
 so p
 sop h
 soph i
 sophi s
 sophis t
 sophist i
 sophisti c
 sophistic a
 sophistica t
 so oo
 so o
 soo th
 sooth i
 soothi n
 soothin g
 soothing l
 soothingl y
 soo t
 soot he
 soothe d
 soo n
 soon e
 soone r
 so n
 son s
 son g
 song s
 so m
 som e
 some w
 somew he
 somewhe r
 somewher e
 some th
 someth i
 somethi n
 somethin g
 something s
 some t
 somet i
 someti m
 sometim e
 sometime s
 some r
 somer s
 somers a
 somersa u
 somersau l
 somersaul t
 somersault s
 some p
 somep l
 somepl a
 somepla c
 someplac e
 some o
 someo n
 someon e
 some h
 someh o
 someho w
 some d
 somed a
 someda y
 some b
 someb o
 somebo d
 somebod y
 so l
 sol v
 solv i
 solvi n
 solvin g
 solv e
 solve s
 solve r
 solver s
 solve d
 sol u
 solu t
 solut i
 soluti o
 solutio n
 solution s
 sol o
 sol i
 soli d
 sol e
 sole m
 solem n
 solemn l
 solemnl y
 sol d
 sold i
 soldi e
 soldie r
 soldier s
 sol a
 sola r
 so i
 soi l
 so g
 sog g
 sogg y
 so f
 sof t
 soft n
 softn e
 softne s
 softnes s
 soft l
 softl y
 soft e
 softe s
 softes t
 softe r
 softe n
 soften e
 softene d
 sof a
 sofa s
 so d
 sod a
 so c
 soc k
 sock s
 sock e
 socke t
 soc i
 soci a
 socia l
 soc c
 socc e
 socce r
 so b
 sob s
 sob b
 sobb i
 sobbi n
 sobbin g
 sobb e
 sobbe d
 so a
 soa r
 soar s
 soar i
 soari n
 soarin g
 soar e
 soare d
 soa p
 soap y
 soap s
 soa k
 soak s
 soak i
 soaki n
 soakin g
 soak e
 soake d
 s n
 sn u
 snu g
 snug l
 snugl y
 snug g
 snugg l
 snuggl y
 snuggl i
 snuggli n
 snugglin g
 snuggl e
 snuggle s
 snuggle d
 snu c
 snuc k
 sn o
 sno w
 snow y
 snow s
 snows t
 snowst o
 snowsto r
 snowstor m
 snow p
 snowp l
 snowpl o
 snowplo w
 snowp i
 snowpi g
 snow m
 snowm e
 snowme n
 snowm a
 snowma n
 snow i
 snowi n
 snowin g
 snow f
 snowf l
 snowfl a
 snowfla k
 snowflak e
 snowflake s
 snowf a
 snowfa l
 snowfal l
 snow e
 snowe d
 snow d
 snowd r
 snowdr o
 snowdro p
 snow b
 snowb a
 snowba n
 snowban k
 snowba l
 snowbal l
 snowball s
 sno u
 snou t
 sno r
 snor t
 snort s
 snort i
 snorti n
 snortin g
 snort e
 snorte d
 snor k
 snork e
 snorke l
 snorkel s
 snor i
 snori n
 snorin g
 snor e
 snore s
 snore d
 sno o
 snoo z
 snooz i
 snoozi n
 snoozin g
 snooz e
 snooze d
 snoo p
 snoop i
 snoopi n
 snoopin g
 sno b
 sn i
 sni p
 snip s
 snip p
 snipp i
 snippi n
 snippin g
 snipp e
 snippe d
 sni f
 snif f
 sniff s
 sniff l
 sniffl i
 sniffli n
 snifflin g
 sniffl e
 sniffle s
 sniffle d
 sniff i
 sniffi n
 sniffin g
 sniff e
 sniffe d
 sni c
 snic k
 snick e
 snicke r
 snicker e
 snickere d
 sn e
 sne e
 snee z
 sneez y
 sneez i
 sneezi n
 sneezin g
 sneez e
 sneeze s
 sneeze d
 snee r
 sneer e
 sneere d
 sne a
 snea k
 sneak y
 sneak s
 sneak i
 sneaki n
 sneakin g
 sneaki l
 sneakil y
 sneak e
 sneake r
 sneaker s
 sneake d
 sn a
 sna t
 snat c
 snatc he
 snatche s
 snatche d
 snatc h
 snatch i
 snatchi n
 snatchin g
 sna r
 snar l
 snarl s
 snarl i
 snarli n
 snarlin g
 snarl e
 snarle d
 sna p
 snap s
 snaps h
 snapsh o
 snapsho t
 snap p
 snapp i
 snappi n
 snappin g
 snapp e
 snappe d
 sna k
 snak i
 snaki n
 snakin g
 snak e
 snake s
 sna i
 snai l
 snail s
 sna g
 snag g
 snagg e
 snagge d
 sna c
 snac k
 snack s
 snack i
 snacki n
 snackin g
 snack e
 snacke d
 s m
 sm u
 smu g
 smu d
 smud g
 smudg e
 smudge s
 smudge d
 sm o
 smo o
 smoo th
 smooth s
 smooth n
 smoothn e
 smoothne s
 smoothnes s
 smooth l
 smoothl y
 smooth i
 smoothi e
 smoothie s
 smoo t
 smoot he
 smoothe s
 smoothes t
 smoothe r
 smoothe d
 smoo s
 smoos he
 smooshe d
 smo k
 smok y
 smok i
 smoki n
 smokin g
 smok e
 smoke y
 smoke s
 smokes t
 smokest a
 smokesta c
 smokestac k
 smoke d
 smo g
 smo c
 smoc k
 sm i
 smi r
 smir k
 smirk e
 smirke d
 smi l
 smil i
 smili n
 smilin g
 smili e
 smil e
 smile y
 smile s
 smile d
 sm e
 sme l
 smel t
 smel l
 smell y
 smell s
 smell i
 smelli n
 smellin g
 smell e
 smelle d
 sme a
 smea r
 smear s
 smear e
 smeare d
 sm a
 sma s
 smas he
 smashe d
 smas h
 smash i
 smashi n
 smashin g
 sma r
 smar t
 smart s
 smart n
 smartn e
 smartne s
 smartnes s
 smart l
 smartl y
 smart e
 smarte s
 smartes t
 smarte r
 sma l
 smal l
 small e
 smalle s
 smalles t
 smalle r
 sma c
 smac k
 smack i
 smacki n
 smackin g
 smack e
 smacke d
 s l
 sl y
 sl u
 slu r
 slur p
 slurp i
 slurpi n
 slurpin g
 slurp e
 slurpe d
 slu n
 slun k
 slu m
 slum p
 slump e
 slumpe d
 slum b
 slumb e
 slumbe r
 slu g
 sl o
 slo w
 slow s
 slow l
 slowl y
 slow i
 slowi n
 slowin g
 slow e
 slowe s
 slowes t
 slowe r
 slowe d
 slo th
 slo t
 slo s
 slos he
 sloshe d
 slo p
 slop e
 sl i
 sli t
 slit he
 slithe r
 slither s
 slither i
 slitheri n
 slitherin g
 slither e
 slithere d
 sli p
 slip s
 slip p
 slipp i
 slippi n
 slippin g
 slipp e
 slippe r
 slipper y
 slipper s
 slippe d
 sli n
 slin k
 slink e
 slinke d
 slin g
 sling s
 slings h
 slingsh o
 slingsho t
 sli m
 slim y
 slim e
 sli g
 slig h
 sligh t
 slight l
 slightl y
 slight e
 slighte s
 slightes t
 sli d
 slid i
 slidi n
 slidin g
 slid e
 slide s
 sli c
 slic k
 slick e
 slic i
 slici n
 slicin g
 slic e
 slice s
 slice d
 sl e
 sle p
 slep t
 sle i
 slei g
 sleig h
 sle e
 slee v
 sleev e
 sleeve s
 slee p
 sleep y
 sleepy s
 sleepy he
 sleepyhe a
 sleepyhea d
 sleep s
 sleep o
 sleepo v
 sleepov e
 sleepove r
 sleepover s
 sleep i
 sleepi n
 sleepin g
 sleepin e
 sleepine s
 sleepines s
 sleepi l
 sleepil y
 sleepi e
 sleepie r
 slee k
 sle d
 sled s
 sled d
 sledd i
 sleddi n
 sleddin g
 sl a
 sla v
 slav e
 slave s
 sla s
 slas he
 slashe d
 sla p
 slap s
 slap p
 slapp i
 slappi n
 slappin g
 slapp e
 slappe d
 sla m
 slam s
 slam m
 slamm i
 slammi n
 slammin g
 slamm e
 slamme d
 s k
 sk y
 sky l
 skyl i
 skyli n
 skylin e
 sk u
 sku n
 skun k
 skunk s
 sku l
 skul l
 skull s
 sk i
 ski t
 skit t
 ski s
 ski r
 skir t
 skirt s
 ski p
 skip s
 skip p
 skipp i
 skippi n
 skippin g
 skipp e
 skippe r
 skippe d
 ski n
 skin s
 skin n
 skinn y
 skinn i
 skinni e
 skinnie r
 ski m
 skim m
 skimm i
 skimmi n
 skimmin g
 ski l
 skil l
 skill s
 skill f
 skillf u
 skillfu l
 skill e
 skille d
 skil f
 skilf u
 skilfu l
 ski i
 skii n
 skiin g
 ski e
 skie s
 ski d
 skid d
 skidd e
 skidde d
 sk e
 ske t
 sket c
 sketc he
 sketche d
 sketc h
 ske p
 skep t
 skept i
 skepti c
 skeptic a
 skeptica l
 ske l
 skel e
 skele t
 skelet o
 skeleto n
 skeleton s
 sk a
 ska t
 skat i
 skati n
 skatin g
 skat e
 skate s
 skate d
 skate b
 skateb o
 skatebo a
 skateboa r
 skateboar d
 s i
 si z
 siz z
 sizz l
 sizzl i
 sizzli n
 sizzlin g
 sizzl e
 siz e
 size s
 size d
 si x
 six t
 sixt y
 sixt e
 sixte e
 sixtee n
 si t
 sit u
 situ a
 situa t
 situat i
 situati o
 situatio n
 situation s
 sit t
 sitt i
 sitti n
 sittin g
 sit s
 sit e
 site s
 si s
 sis t
 sist e
 siste r
 sister s
 si r
 sir e
 sire n
 siren s
 si p
 sip s
 sip p
 sipp i
 sippi n
 sippin g
 sipp e
 sippe d
 si n
 sin k
 sink s
 sink i
 sinki n
 sinkin g
 sin i
 sini s
 sinis t
 sinist e
 siniste r
 sin g
 sing s
 sings o
 singso n
 singson g
 sing l
 singl e
 sing i
 singi n
 singin g
 sing e
 singe r
 singer s
 singe d
 sin c
 sinc e
 since r
 sincer e
 sincere l
 sincerel y
 si m
 sim p
 simp l
 simpl y
 simpl i
 simpl e
 simple s
 simples t
 simple r
 sim i
 simi l
 simil a
 simila r
 si l
 sil v
 silv e
 silve r
 silver y
 silver w
 silverw a
 silverwa r
 silverwar e
 sil l
 sill y
 sill i
 silli n
 sillin e
 silline s
 sillines s
 silli e
 sillie s
 sillies t
 sillie r
 sil k
 silk y
 sil e
 sile n
 silen t
 silent l
 silentl y
 silen c
 silenc e
 si g
 sig n
 sign s
 sign i
 signi n
 signin g
 signi f
 signif i
 signifi c
 signific a
 significa n
 sign e
 signe d
 sign a
 signa t
 signat u
 signatu r
 signatur e
 signa l
 signal s
 signal i
 signali n
 signalin g
 signal e
 signale r
 sig he
 sighe d
 sig h
 sigh t
 sight s
 sight i
 sighti n
 sightin g
 sigh s
 sigh i
 sighi n
 sighin g
 si f
 sif t
 si e
 si d
 sid e
 side w
 sidew a
 sidewa y
 sideway s
 sidewa l
 sidewal k
 side s
 side l
 sidel i
 sideli n
 sidelin e
 sideline s
 side k
 sidek i
 sideki c
 sidekic k
 side c
 sidec a
 sideca r
 si c
 sic k
 sick n
 sickn e
 sickne s
 sicknes s
 sick e
 sicke r
 si b
 sib l
 sibl i
 sibli n
 siblin g
 sibling s
 s he
 she r
 sher i
 sheri f
 sherif f
 she l
 shel v
 shelv e
 shelve s
 shel t
 shelt e
 shelte r
 shelter s
 shelter i
 shelteri n
 shelterin g
 shelter e
 sheltere d
 shel l
 shell s
 shel f
 she e
 shee t
 sheet s
 shee r
 shee p
 sheep i
 sheepi s
 sheepis h
 sheepish l
 sheepishl y
 she d
 shed s
 s h
 sh y
 shy n
 shyn e
 shyne s
 shynes s
 shy l
 shyl y
 sh u
 shu t
 shut t
 shutt l
 shuttl e
 shutt i
 shutti n
 shuttin g
 shutt e
 shutte r
 shutter s
 shut s
 shut i
 shuti n
 shutin g
 shu s
 shus he
 shushe d
 shu f
 shuf f
 shuff l
 shuffl i
 shuffli n
 shufflin g
 shuffl e
 shuffle d
 shu d
 shud d
 shudd e
 shudde r
 shudder e
 shuddere d
 sh r
 shr u
 shru n
 shrun k
 shrunk e
 shrunke n
 shru g
 shrug s
 shrug g
 shrugg i
 shruggi n
 shruggin g
 shrugg e
 shrugge d
 shru b
 shrub s
 shr i
 shri v
 shriv e
 shrive l
 shrivel e
 shrivele d
 shri n
 shrin k
 shrink s
 shrink i
 shrinki n
 shrinkin g
 shri m
 shrim p
 shrimp s
 shri e
 shrie k
 shriek s
 shriek e
 shrieke d
 shr e
 shre d
 shred d
 shredd e
 shr a
 shra n
 shran k
 sh o
 sho w
 show s
 show n
 show i
 showi n
 showin g
 show e
 showe r
 shower s
 shower e
 showere d
 showe d
 sho v
 shov i
 shovi n
 shovin g
 shov e
 shove l
 shovel s
 shovel i
 shoveli n
 shovelin g
 shovel e
 shovele d
 shove d
 sho u
 shou t
 shout s
 shout i
 shouti n
 shoutin g
 shout e
 shoute d
 shou l
 shoul d
 should n
 should e
 shoulde r
 shoulder s
 sho t
 shot s
 sho r
 shor t
 short s
 short l
 shortl y
 short e
 shorte r
 short c
 shortc u
 shortcu t
 shortcut s
 shor e
 shore l
 shorel i
 shoreli n
 shorelin e
 sho p
 shop s
 shop p
 shopp i
 shoppi n
 shoppin g
 shopp e
 shoppe r
 shopper s
 shoppe d
 shop k
 shopk e
 shopke e
 shopkee p
 shopkeep e
 shopkeepe r
 shopkeeper s
 sho o
 shoo t
 shoot s
 shoot i
 shooti n
 shootin g
 shoot e
 shoote r
 shooter s
 shoo k
 shoo i
 shooi n
 shooin g
 shoo e
 shooe s
 shooe d
 sho n
 shon e
 sho e
 shoe s
 shoe l
 shoel a
 shoela c
 shoelac e
 shoelace s
 shoe b
 shoeb o
 shoebo x
 sho c
 shoc k
 shock s
 shock i
 shocki n
 shockin g
 shock e
 shocke d
 sh i
 shi v
 shiv e
 shive r
 shiver y
 shiver s
 shiver i
 shiveri n
 shiverin g
 shiver e
 shivere d
 shi r
 shir t
 shirt s
 shi p
 ship w
 shipw r
 shipwr e
 shipwre c
 shipwrec k
 ship s
 shi n
 shin y
 shin n
 shinn i
 shinni n
 shinnin g
 shin i
 shini n
 shinin g
 shini e
 shinie s
 shinies t
 shinie r
 shin g
 shing l
 shingl e
 shingle s
 shin e
 shine y
 shine s
 shine d
 shi m
 shim m
 shimm i
 shimmi e
 shimmie d
 shimm e
 shimme r
 shimmer y
 shimmer i
 shimmeri n
 shimmerin g
 shimmer e
 shimmere d
 shi f
 shif t
 shift i
 shifti n
 shiftin g
 shift e
 shifte d
 shi e
 shie l
 shiel d
 shield s
 shield i
 shieldi n
 shieldin g
 shield e
 shielde d
 sh hh
 sh h
 she p
 shep he
 shephe r
 shepher d
 sh a
 sha v
 shav i
 shavi n
 shavin g
 shav e
 shave d
 sha t
 shat t
 shatt e
 shatte r
 shatter e
 shattere d
 sha r
 shar p
 sharp l
 sharpl y
 sharp i
 sharpi n
 sharpin g
 sharp e
 sharpe s
 sharpes t
 sharpe r
 sharpe n
 sharpen i
 sharpeni n
 sharpenin g
 sharpen e
 sharpene d
 shar k
 shark s
 shar i
 shari n
 sharin g
 shar e
 share s
 share d
 sha p
 shap i
 shapi n
 shapin g
 shap e
 shape s
 shape d
 sha m
 sham p
 shamp o
 shampo o
 shampoo s
 sham e
 shame f
 shamef u
 shamefu l
 shameful l
 shamefull y
 sha l
 shal l
 shall o
 shallo w
 shallow s
 sha k
 shak y
 shak i
 shaki n
 shakin g
 shak e
 shake s
 shake r
 shaker s
 shake n
 sha d
 shad y
 shad o
 shado w
 shadow s
 shad e
 shade s
 shade d
 sha c
 shac k
 s e
 se w
 sew s
 sew n
 sew i
 sewi n
 sewin g
 sew e
 sewe d
 se v
 sev e
 seve r
 sever e
 severe l
 severel y
 sever a
 severa l
 seve n
 seven t
 sevent y
 sevent e
 sevente e
 seventee n
 se t
 set u
 setu p
 set t
 sett l
 settl i
 settli n
 settlin g
 settl e
 settle d
 sett i
 setti n
 settin g
 setting s
 set s
 se s
 ses s
 sess i
 sessi o
 sessio n
 session s
 ses a
 sesa m
 sesam e
 se r
 ser v
 serv i
 servi n
 servin g
 servi c
 servic e
 serv e
 serve s
 serve r
 serve d
 serv a
 serva n
 servan t
 servant s
 ser i
 seri o
 serio u
 seriou s
 serious l
 seriousl y
 ser e
 sere n
 seren i
 sereni t
 serenit y
 se q
 seq u
 sequ i
 sequi n
 sequin s
 se p
 sep a
 sepa r
 separ a
 separa t
 separat i
 separati o
 separatio n
 separati n
 separatin g
 separat e
 separate s
 separate l
 separatel y
 separate d
 se n
 sen t
 sent e
 sente n
 senten c
 sentenc e
 sentence s
 sen s
 sens i
 sensi t
 sensit i
 sensiti v
 sensitiv e
 sensi n
 sensin g
 sensi b
 sensib l
 sensibl e
 sens e
 sense d
 sens a
 sensa t
 sensat i
 sensati o
 sensatio n
 sen d
 send s
 send i
 sendi n
 sendin g
 send e
 sende r
 se l
 sel v
 selv e
 selve s
 sel l
 sell s
 sell i
 selli n
 sellin g
 sell e
 selle r
 seller s
 sel f
 self l
 selfl e
 selfle s
 selfles s
 self i
 selfi s
 selfis h
 selfish n
 selfishn e
 selfishne s
 selfishnes s
 selfish l
 selfishl y
 sel e
 sele c
 selec t
 select i
 selecti o
 selectio n
 selecti n
 selectin g
 select e
 selecte d
 se i
 sei z
 seiz e
 seize d
 se e
 see s
 sees a
 seesa w
 seesaw s
 see p
 see n
 see m
 seem s
 seem i
 seemi n
 seemin g
 seeming l
 seemingl y
 seem e
 seeme d
 see k
 seek i
 seeki n
 seekin g
 seek e
 seeke r
 see i
 seei n
 seein g
 see d
 seed s
 seed l
 seedl i
 seedli n
 seedlin g
 se c
 sec u
 secu r
 secur i
 securi t
 securit y
 securi n
 securin g
 secur e
 secure l
 securel y
 secure d
 sec t
 sect i
 secti o
 sectio n
 section s
 sec r
 secr e
 secre t
 secret s
 secret l
 secretl y
 secret i
 secreti v
 secretiv e
 secret a
 secreta r
 secretar y
 sec o
 seco n
 secon d
 second s
 se a
 sea w
 seaw e
 seawe e
 seawee d
 seaw a
 seawa t
 seawat e
 seawate r
 sea t
 seat s
 seat i
 seati n
 seatin g
 seat e
 seate d
 seat b
 seatb e
 seatbe l
 seatbel t
 seatbelt s
 sea s
 seas o
 seaso n
 season s
 season i
 seasoni n
 seasonin g
 seas i
 seasi d
 seasid e
 seas he
 seashe l
 seashel l
 seashell s
 seas h
 seash o
 seasho r
 seashor e
 sea r
 sear c
 searc he
 searche s
 searche d
 searc h
 search i
 searchi n
 searchin g
 sea m
 seam s
 seams t
 seamst r
 seamstr e
 seamstre s
 seamstres s
 sea l
 seal s
 seal e
 seale d
 sea h
 seah o
 seaho r
 seahor s
 seahors e
 seahorse s
 sea g
 seag u
 seagu l
 seagul l
 seagull s
 sea b
 seab i
 seabi r
 seabir d
 seabird s
 s c
 sc u
 scu t
 scut t
 scutt l
 scuttl i
 scuttli n
 scuttlin g
 scuttl e
 scuttle d
 scu r
 scur v
 scurv y
 scur r
 scurr y
 scurry i
 scurryi n
 scurryin g
 scurr i
 scurri e
 scurrie d
 scu l
 scul p
 sculp t
 sculpt u
 sculptu r
 sculptur e
 sculpture s
 sculpt i
 sculpti n
 sculptin g
 sc r
 scr u
 scru n
 scrun c
 scrunc he
 scrunche d
 scrunc h
 scru m
 scrum p
 scrump t
 scrumpt i
 scrumpti o
 scrumptio u
 scrumptiou s
 scru f
 scruf f
 scruff y
 scru b
 scrub s
 scrub b
 scrubb i
 scrubbi n
 scrubbin g
 scrubb e
 scrubbe d
 scr o
 scro l
 scrol l
 scr i
 scri b
 scrib b
 scribb l
 scribbl i
 scribbli n
 scribblin g
 scribbl e
 scribble s
 scribble d
 scr e
 scre w
 screw s
 screw e
 screwe d
 screw d
 screwd r
 screwdr i
 screwdri v
 screwdriv e
 screwdrive r
 screwdriver s
 scre e
 scree n
 screen s
 screen i
 screeni n
 screenin g
 scree c
 screec he
 screeche d
 screec h
 screech i
 screechi n
 screechin g
 scre a
 screa m
 scream s
 scream i
 screami n
 screamin g
 scream e
 screame d
 scr a
 scra t
 scrat c
 scratc he
 scratche s
 scratche d
 scratc h
 scratch y
 scratch i
 scratchi n
 scratchin g
 scra p
 scrap s
 scrap e
 scrape s
 scrape d
 scrap b
 scra m
 scram b
 scramb l
 scrambl e
 scramble d
 scra b
 scrab b
 scrabb l
 scrabbl e
 scrabble d
 sc o
 sco w
 scow l
 scowl i
 scowli n
 scowlin g
 scowl e
 scowle d
 sco u
 scou r
 scour e
 scoure d
 sco r
 scor p
 scorp i
 scorpi o
 scorpio n
 scor i
 scori n
 scorin g
 scor e
 score s
 score d
 sco o
 scoo t
 scoot i
 scooti n
 scootin g
 scoot e
 scoote r
 scooter s
 scooter e
 scootere d
 scoote d
 scoo p
 scoop s
 scoop i
 scoopi n
 scoopin g
 scoop e
 scoope d
 sco l
 scol d
 scold s
 scold i
 scoldi n
 scoldin g
 scold e
 scolde d
 sco f
 scof f
 scoff e
 scoffe d
 sc i
 sci s
 scis s
 sciss o
 scisso r
 scissor s
 sci e
 scie n
 scien t
 scient i
 scienti s
 scientis t
 scientist s
 scien c
 scienc e
 sc he
 sche d
 sched u
 schedu l
 schedul e
 sc h
 sch o
 scho o
 schoo l
 school y
 schooly a
 schoolya r
 schoolyar d
 school w
 schoolw o
 schoolwo r
 schoolwor k
 school s
 sc e
 sce p
 scep t
 scept i
 scepti c
 sceptic a
 sceptica l
 scept e
 scepte r
 sce n
 scen t
 scent s
 scen e
 scene s
 scene r
 scener y
 scen a
 scena r
 scenar i
 scenari o
 scenario s
 sc a
 sca v
 scav e
 scave n
 scaven g
 scaveng e
 scavenge r
 sca t
 scat t
 scatt e
 scatte r
 scatter s
 scatter i
 scatteri n
 scatterin g
 scatter e
 scattere d
 scatte d
 sca r
 scar y
 scar v
 scarv e
 scarve s
 scar s
 scar r
 scarr e
 scarre d
 scar i
 scari n
 scarin g
 scari e
 scarie s
 scaries t
 scarie r
 scar f
 scarf s
 scar e
 scare s
 scare d
 scared y
 scared e
 scarede r
 scare c
 scarec r
 scarecr o
 scarecro w
 scarecrow s
 sca n
 scan s
 scan n
 scann e
 scanne r
 scanne d
 sca m
 scam p
 scamp e
 scampe r
 scamper i
 scamperi n
 scamperin g
 scamper e
 scampere d
 sca l
 scal y
 scal e
 scale s
 s a
 sa y
 say s
 say i
 sayi n
 sayin g
 sa x
 sax o
 saxo p
 saxop h
 saxoph o
 saxopho n
 saxophon e
 sa w
 saw s
 saw i
 sawi n
 sawin g
 saw e
 sawe d
 sa v
 sav o
 savo u
 savou r
 savour i
 savouri n
 savourin g
 savour e
 savoure d
 savo r
 savor y
 savor i
 savori n
 savorin g
 savor e
 savore d
 sav i
 savi n
 savin g
 saving s
 sav e
 save s
 save r
 save d
 sav a
 sava n
 savan n
 savann a
 savanna h
 sa u
 sau t
 saut �
 saut� �
 sauté e
 sautée d
 sau s
 saus a
 sausa g
 sausag e
 sausage s
 sau n
 saun t
 saunt e
 saunte r
 saunter e
 sauntere d
 sau c
 sauc y
 sauc e
 sauce s
 sauce r
 saucer s
 sa t
 sat i
 sati s
 satis f
 satisf y
 satisfy i
 satisfyi n
 satisfyin g
 satisf i
 satisfi e
 satisfie d
 satisf a
 satisfa c
 satisfac t
 satisfact i
 satisfacti o
 satisfactio n
 sat e
 sate l
 satel l
 satell i
 satelli t
 satellit e
 satellite s
 sat c
 satc he
 satche l
 sa r
 sar d
 sard i
 sardi n
 sardin e
 sardine s
 sa p
 sap p
 sapp h
 sapph i
 sapphi r
 sapphir e
 sapphire s
 sap l
 sapl i
 sapli n
 saplin g
 sa n
 san k
 san g
 san d
 sand y
 sand w
 sandw i
 sandwi c
 sandwic he
 sandwiche s
 sandwic h
 sand s
 sands t
 sandst o
 sandsto r
 sandstor m
 sand p
 sandp i
 sandpi t
 sand e
 sande d
 sand c
 sandc a
 sandca s
 sandcas t
 sandcast l
 sandcastl e
 sandcastle s
 sandca r
 sandca k
 sandcak e
 sand b
 sandb o
 sandbo x
 sandbox e
 sandboxe s
 sandb a
 sandba g
 sandbag s
 sand a
 sanda l
 sandal s
 sa m
 sam p
 samp l
 sampl e
 sample s
 sample d
 sam e
 sa l
 sal v
 sal u
 salu t
 salut e
 salute d
 sal t
 salt y
 sal s
 sals a
 sal o
 salo n
 sal m
 salm o
 salmo n
 sal i
 sali v
 saliv a
 sal e
 sale s
 sales p
 salesp e
 salespe r
 salesper s
 salespers o
 salesperso n
 sales m
 salesm a
 salesma n
 sal a
 sala m
 salam a
 salama n
 salaman d
 salamand e
 salamande r
 sala d
 salad s
 sa i
 sai l
 sail s
 sail o
 sailo r
 sailor s
 sail i
 saili n
 sailin g
 sail e
 saile d
 sail c
 sailc l
 sailcl o
 sailclo th
 sail b
 sailb o
 sailbo a
 sailboa t
 sai d
 sa g
 sag e
 sa f
 saf e
 safe t
 safet y
 safe s
 safes t
 safe r
 safe l
 safel y
 safe k
 safek e
 safeke e
 safekee p
 safekeep i
 safekeepi n
 safekeepin g
 saf a
 safa r
 safar i
 safari s
 sa d
 sad n
 sadn e
 sadne s
 sadnes s
 sad l
 sadl y
 sad d
 sadd l
 saddl e
 saddle s
 saddle d
 sadd e
 sadde s
 saddes t
 sadde r
 sadde n
 sadden e
 saddene d
 sa c
 sac r
 sacr i
 sacri f
 sacrif i
 sacrifi c
 sacrific e
 sacr e
 sacre d
 sac k
 sack s
 sack i
 sacki n
 sackin g
 sack e
 sacke d
 r un
 run wa
 runwa y
 run s
 run n
 runn y
 runn in
 runnin g
 runn er
 runner s
 run a
 runa wa
 runawa y
 r u
 ru st
 rust y
 rust le
 rustle s
 rust l
 rustl in
 rustlin g
 rustl ed
 rust ed
 ru sh
 rush in
 rushin g
 ru s
 rus he
 rushe s
 rushe d
 ru ng
 rung s
 ru m
 rum ou
 rumou r
 rumour s
 rum or
 rum m
 rumm a
 rumma g
 rummag in
 rummagin g
 rummag ed
 rummag e
 rum b
 rumb le
 rumb l
 rumbl in
 rumblin g
 rumbl ed
 ru le
 rule s
 ru l
 rul in
 rulin g
 rul er
 ruler s
 rul ed
 ru in
 ruin s
 ruin ed
 ru i
 ruin in
 ruinin g
 ru g
 rug s
 ru f
 ruf f
 ruff le
 ruffle s
 ruff l
 ruffl in
 rufflin g
 ruffl ed
 ru de
 ru d
 rud er
 rud en
 ruden e
 rudene s
 rudenes s
 rud el
 rudel y
 ru bi
 rubi e
 rubie s
 ru b
 rub y
 rub s
 rub ed
 rub b
 rubb le
 rubb is
 rubbis h
 rubb in
 rubbin g
 rubb er
 rubber y
 rubber s
 rubb ed
 r ou
 rou t
 rout in
 routin e
 rout e
 route s
 rou nd
 round s
 round e
 rounde s
 roundes t
 rounde r
 rounde d
 round a
 rounda b
 roundab o
 roundabo u
 roundabou t
 rou g
 roug he
 roughe r
 roug h
 rough n
 roughn e
 roughne s
 roughnes s
 rough l
 roughl y
 r ot
 rot t
 rott in
 rottin g
 rott en
 rott ed
 rot s
 rot at
 r oo
 roo t
 root s
 root ed
 roo st
 roost er
 rooster s
 roo k
 roo f
 roof to
 roofto p
 rooftop s
 roof s
 roof er
 r om
 rom an
 roman t
 romant i
 romanti c
 r it
 rit u
 ritu a
 ritua l
 r is
 ris k
 risk y
 risk s
 risk in
 riskin g
 ris in
 risin g
 ris en
 ris e
 rise s
 r in
 rin s
 rins ed
 rins e
 rinse s
 rin k
 rin g
 ring s
 ring m
 ringm a
 ringma s
 ringmas t
 ringmast er
 r im
 r id
 rid in
 ridin g
 rid i
 ridi c
 ridic u
 ridicu l
 ridicul ou
 ridiculou s
 rid er
 rider s
 rid e
 ride s
 rid d
 ridd le
 riddle s
 ridd en
 r h
 rh y
 rhy th
 rhyth m
 rhythm s
 rhythm i
 rhythmi c
 rhy me
 rhyme s
 rhy m
 rhym ed
 rh in
 rhin o
 rhino s
 rhino c
 rhinoc er
 rhinocer o
 rhinocero s
 rhinoceros e
 rhinocerose s
 r et
 ret re
 retre a
 retrea t
 retreat ed
 r ed
 red u
 redu c
 reduc e
 red s
 red e
 red d
 redd e
 redde s
 reddes t
 redde r
 r e
 re q
 req u
 requ i
 requi re
 require s
 re p
 rep re
 repre s
 repres e
 represe n
 represen t
 represent s
 represent in
 representin g
 represent ed
 re g
 reg re
 regre t
 regret t
 regrett in
 regrettin g
 regrett ed
 regret s
 regret f
 regretf u
 regretfu l
 regretful l
 regretfull y
 regret ed
 re f
 ref re
 refre s
 refres he
 refreshe d
 refres h
 refresh m
 refreshm e
 refreshme n
 refreshmen t
 refresh in
 refreshin g
 re as
 reas s
 reass u
 reassu re
 r ay
 ray s
 r at
 rat t
 ratt l
 rattl in
 rattlin g
 rattl ed
 rattl e
 rat s
 rat he
 rathe r
 r as
 ras p
 rasp y
 rasp b
 raspb er
 raspber r
 raspberr y
 raspberr i
 raspberri e
 raspberrie s
 ras he
 rashe s
 ras h
 ras c
 rasc a
 rasca l
 rascal s
 r ar
 rar er
 r an
 ran g
 rang e
 range r
 ranger s
 ran d
 rand o
 rando m
 random l
 randoml y
 ran c
 ranc he
 ranche r
 ranc h
 r am
 ram p
 ramp s
 ram b
 ramb un
 rambun c
 rambunc t
 rambunct i
 rambuncti ou
 rambunctiou s
 r ai
 rai nd
 raind r
 raindr o
 raindro p
 raindrop s
 rai n
 rain in
 rainin g
 r ad
 rad is
 radis he
 radishe s
 radis h
 rad i
 radi o
 radio s
 radi at
 radiat in
 radiatin g
 radiat ed
 radi an
 radian t
 radian c
 radianc e
 r a
 ra z
 raz or
 razor s
 ra w
 ra v
 rav en
 raven s
 ra re
 rare s
 rares t
 rare l
 rarel y
 ra p
 rap to
 rapto r
 rap id
 rapid l
 rapidl y
 ra ke
 rake s
 ra k
 rak in
 rakin g
 rak ed
 ra is
 rais in
 raisin s
 raisin g
 rais ed
 rais e
 raise s
 rain y
 rain w
 rainw a
 rainwa t
 rainwat er
 rain s
 rains to
 rainsto r
 rainstor m
 rain ed
 rain c
 rainc o
 rainco a
 raincoa t
 raincoat s
 rainc l
 raincl o
 rainclo u
 rainclou d
 raincloud s
 rain b
 rainb o
 rainbo w
 rainbow s
 ra il
 rail wa
 railwa y
 rail s
 rail in
 railin g
 railing s
 ra g
 rag s
 rag in
 ragin g
 rag g
 ragg ed
 ragged y
 rag ed
 rag e
 ra f
 raf t
 raft s
 raft in
 raftin g
 raf f
 raff le
 ra c
 rac o
 raco on
 rac ke
 racke t
 rac k
 rac in
 racin g
 rac es
 rac er
 racer s
 rac ed
 rac e
 race h
 raceh or
 racehor s
 racehors e
 race c
 racec ar
 rac c
 racc o
 racco on
 raccoon s
 ra bi
 rabi e
 rabie s
 ra b
 rab b
 rabb it
 rabbit s
 q ui
 qui z
 quiz z
 quizz es
 qui et
 quiet l
 quietl y
 quiet er
 quiet en
 quieten ed
 qui ck
 quick s
 quicks an
 quicksan d
 quick ly
 quick er
 quick en
 quicken ed
 q ue
 que st
 quest i
 questi on
 question s
 question in
 questionin g
 question ed
 que en
 queen s
 p y
 py th
 pyth o
 pytho n
 py r
 pyr a
 pyra m
 pyram i
 pyrami d
 pyramid s
 py j
 pyj a
 pyja m
 pyjam as
 p u
 pu z
 puz z
 puzz l
 puzzl ed
 puzzl e
 puzzle s
 pu t
 put t
 putt in
 puttin g
 put s
 pu s
 pus he
 pushe s
 pushe d
 pus h
 push y
 push u
 pushu p
 pushup s
 push in
 pushin g
 pu re
 pu r
 pur s
 purs u
 pursu it
 pursu e
 purs e
 purse s
 pur r
 purr s
 purr in
 purrin g
 purr ed
 pur p
 purp o
 purpo s
 purpos e
 purpose s
 purp l
 purpl e
 pur c
 purc h
 purch as
 purchas ed
 purchas e
 pu p
 pup p
 pupp y
 pupp i
 puppi e
 puppie s
 pupp e
 puppe t
 puppet s
 puppet e
 puppete er
 pup i
 pupi l
 pupil s
 pu n
 pun i
 puni s
 punis he
 punishe s
 punishe d
 punis h
 punish m
 punishm en
 punishmen t
 punishment s
 punish in
 punishin g
 pun c
 punc t
 punct u
 punctu re
 punc he
 punche d
 punc h
 pu m
 pum p
 pump s
 pump k
 pumpk in
 pumpkin s
 pump in
 pumpin g
 pump ed
 pu l
 pul s
 puls e
 pul p
 pul l
 pull s
 pull in
 pullin g
 pull ed
 pu g
 pu f
 puf f
 puff y
 puff s
 puff in
 puffin g
 puff ed
 pu d
 pud d
 pudd l
 puddl e
 puddle s
 pudd in
 puddin g
 pu c
 puc k
 puck er
 pucker ed
 pu b
 pub l
 publ i
 publi c
 p re
 pre y
 pre v
 prev i
 previ o
 previo u
 previou s
 prev e
 preve n
 preven t
 prevent s
 prevent in
 preventin g
 prevent ed
 prev a
 preva i
 prevai l
 pre t
 pret z
 pretz e
 pretze l
 pretzel s
 pret t
 prett y
 prett i
 pretti er
 pretti e
 prettie s
 pretties t
 pret e
 prete nd
 pretend s
 pretend i
 pretendi n
 pretendin g
 pretend e
 pretende d
 pre s
 pres s
 press in
 pressin g
 press ed
 press e
 presse s
 pres i
 presi d
 presid e
 preside n
 presiden t
 pres er
 preser v
 pres e
 prese n
 presen t
 present s
 present in
 presentin g
 present ed
 present a
 presenta t
 presentat i
 presentati o
 presentatio n
 presen c
 presenc e
 pres c
 presc h
 presch o
 prescho o
 preschoo l
 pre p
 prep p
 prepp in
 preppin g
 prep a
 prepa r
 prepar in
 preparin g
 prepar ed
 prepar a
 prepara t
 preparat i
 preparati o
 preparatio n
 preparation s
 pre f
 pref er
 prefer s
 prefer r
 preferr ed
 prefer e
 prefere n
 preferen c
 preferenc e
 preference s
 pre d
 pred i
 predi c
 predic t
 predict ed
 pre c
 prec i
 preci s
 precis e
 preci o
 precio u
 preciou s
 prec a
 preca u
 precau t
 precaut i
 precauti o
 precautio n
 precaution s
 p r
 pr y
 pry in
 pryin g
 pr u
 pru n
 prun in
 prunin g
 prun ed
 prun e
 prune s
 pr ou
 prou d
 proud l
 proudl y
 proud er
 proud e
 proude s
 proudes t
 pr o
 pro v
 prov in
 provin g
 prov i
 provi d
 provid in
 providin g
 provid ed
 provid e
 provide s
 prov en
 prov ed
 prov e
 pro t
 prot e
 prote s
 protes t
 protest s
 protest ed
 prote in
 prote c
 protec to
 protecto r
 protec t
 protect s
 protect in
 protectin g
 protect i
 protecti v
 protectiv e
 protective l
 protectivel y
 protecti o
 protectio n
 protect ed
 pro s
 pros p
 prosp er
 prosper o
 prospero u
 prosperou s
 prosp e
 prospe c
 prospec t
 pro p
 prop s
 prop p
 propp ed
 prop o
 propo s
 propos ed
 propos a
 proposa l
 prop er
 proper t
 propert y
 proper l
 properl y
 prop e
 prope l
 propel l
 propell er
 propeller s
 pro o
 proo f
 pro n
 pron g
 prong s
 pro m
 prom p
 promp t
 prompt l
 promptl y
 prom o
 promo t
 prom i
 promi s
 promis in
 promisin g
 promis ed
 promis e
 promise s
 pro j
 proj e
 proje c
 projec t
 project s
 pro g
 prog re
 progre s
 progres s
 progress ed
 prog r
 progr a
 progra m
 pro f
 prof u
 profu s
 profus e
 profuse l
 profusel y
 prof e
 profe s
 profes s
 profess o
 professo r
 profess i
 professi o
 professio n
 profession a
 professiona l
 pro d
 prod u
 produ c
 produc t
 product s
 product i
 producti v
 productiv e
 produc ed
 produc e
 produce s
 prod d
 prodd ed
 pro c
 proc l
 procl a
 procla i
 proclai m
 proclaim ed
 proc e
 proce s
 proces s
 proce e
 procee d
 proceed ed
 pro b
 prob l
 probl e
 proble m
 problem s
 prob a
 proba b
 probab l
 probabl y
 pr in
 prin t
 print s
 print er
 printer s
 print ed
 prin c
 princ i
 princi p
 princip a
 principa l
 princ e
 prince s
 princes s
 princess e
 princesse s
 pr i
 pri z
 priz ed
 priz e
 prize s
 pri v
 priv a
 priva t
 privat e
 priva c
 privac y
 pri s
 pris o
 priso n
 prison er
 print in
 printin g
 pri ed
 pri e
 prie s
 pries t
 pri d
 prid e
 pride s
 pri c
 pric k
 prick l
 prickl y
 prickl e
 prickle s
 prick ed
 pric e
 price y
 price s
 price l
 pricel e
 pricele s
 priceles s
 predic a
 predica m
 predicam e
 predicame n
 predicamen t
 pred a
 preda t
 predat o
 predato r
 predator s
 press u
 pressu re
 prepa re
 prepare s
 pr an
 pran k
 prank s
 pran c
 pranc i
 pranci n
 prancin g
 pranc e
 prance d
 pr a
 pra y
 pray s
 pray in
 prayin g
 pray er
 prayer s
 pray ed
 pra i
 prai s
 prais in
 praisin g
 prais ed
 prais e
 praise s
 pra c
 prac t
 pract i
 practi s
 practis in
 practisin g
 practis ed
 practis e
 practi c
 practic in
 practicin g
 practic ed
 practic e
 practice s
 practic a
 practica l
 practical l
 practicall y
 p ou
 pou t
 pout y
 pout s
 pout in
 poutin g
 pout ed
 pou r
 pour s
 pour in
 pourin g
 pour er
 pour ed
 pou nd
 pound s
 pound i
 poundi n
 poundin g
 pound e
 pounde d
 pou n
 poun c
 pounc in
 pouncin g
 pounc ed
 pounc e
 pounce s
 pou c
 pouc he
 pouche s
 pouc h
 p o
 po w
 pow er
 power s
 power l
 powerl e
 powerle s
 powerles s
 power f
 powerf u
 powerfu l
 powerful l
 powerfull y
 power ed
 pow d
 powd er
 powder y
 powder s
 po th
 poth o
 potho l
 pothol e
 po t
 pot t
 pott y
 pott er
 potter y
 pot s
 pot i
 poti to
 potito e
 poti o
 potio n
 potion s
 pot en
 poten t
 potent i
 potenti a
 potentia l
 pot a
 pota to
 potato e
 potatoe s
 po s
 pos t
 post u
 postu re
 post s
 post m
 postm an
 post er
 poster s
 post ed
 post c
 postc ar
 postcar d
 postcard s
 pos s
 poss u
 possu m
 poss i
 possi b
 possib l
 possibl y
 possibl e
 possib i
 possibi l
 possibil it
 possibilit y
 possibilit i
 possibiliti e
 possibilitie s
 poss e
 posse s
 posses s
 possess i
 possessi o
 possessio n
 possession s
 possess ed
 pos it
 posit i
 positi v
 positiv e
 positi o
 positio n
 position s
 position ed
 pos i
 positiv it
 positivit y
 pos ed
 pos e
 pose s
 po r
 por t
 port s
 port r
 portr a
 portra it
 port i
 porti o
 portio n
 port a
 porta l
 por r
 porr i
 porri d
 porrid g
 porridg e
 por k
 por c
 porc he
 porche s
 porc h
 porc e
 porce l
 porcel a
 porcela in
 po p
 pop u
 popu l
 popul ar
 popular it
 popularit y
 pop s
 pops i
 popsi c
 popsic l
 popsicl e
 popsicle s
 pop p
 popp y
 popp in
 poppin g
 popp i
 poppi e
 poppie s
 popp er
 popp ed
 popp a
 pop c
 popc o
 popco r
 popcor n
 po o
 poo r
 poor l
 poorl y
 poor er
 poo p
 poo l
 pool s
 poo f
 poof y
 poof ed
 poo c
 pooc h
 po nd
 pond s
 pond e
 ponde r
 ponder i
 ponderi n
 ponderin g
 ponder e
 pondere d
 po n
 pon y
 pony t
 ponyt a
 ponyta i
 ponytai l
 ponytail s
 pon i
 poni e
 ponie s
 po m
 pom s
 pom p
 pomp o
 pompo m
 pom e
 pome g
 pomeg r
 pomegr an
 pomegran a
 pomegrana t
 pomegranat e
 po l
 pol l
 poll u
 pollu t
 pollut in
 pollutin g
 pollut i
 polluti o
 pollutio n
 pollut ed
 poll en
 pol k
 polk a
 pol it
 polit e
 polite n
 politen e
 politene s
 politenes s
 polite l
 politel y
 pol i
 poli s
 polis he
 polishe s
 polishe d
 polis h
 polish in
 polishin g
 poli c
 polic y
 polic e
 police m
 policem en
 policemen s
 policem an
 pol e
 pole s
 pol ar
 po k
 pok in
 pokin g
 pok er
 pok ed
 pok e
 poke s
 po in
 poin t
 point y
 point s
 point er
 point ed
 po i
 poi s
 pois o
 poiso n
 poison ou
 poisonou s
 poison ed
 point in
 pointin g
 po e
 poe t
 poet s
 poet r
 poetr y
 poe m
 poem s
 po d
 pod s
 po c
 poc u
 pocu s
 poc k
 pock e
 pocke t
 pocket s
 pocket k
 pocketk n
 pocketkn i
 pocketkni f
 pocketknif e
 pocket f
 pocketf u
 pocketfu l
 po a
 poa c
 poac he
 p m
 p l
 pl u
 plu s
 plus h
 plush i
 plushi e
 plu n
 plun k
 plun g
 plung er
 plung ed
 plung e
 plu m
 plum s
 plum p
 plum m
 plumm e
 plumme t
 plummet ed
 plum b
 plumb er
 plu g
 plug s
 plug g
 plugg ed
 plu c
 pluc k
 pluck in
 pluckin g
 pluck ed
 pl o
 plo w
 plo t
 plot t
 plott ed
 plo p
 plop p
 plopp ed
 pl i
 pli g
 plig h
 pligh t
 pl en
 plen t
 plent y
 pl e
 ple d
 pled g
 pledg ed
 ple as
 pleas u
 pleasu re
 pleasure s
 pleas ed
 pleas e
 pleas an
 pleasan t
 pleasant l
 pleasantl y
 ple a
 plea d
 plead in
 pleadin g
 pleading l
 pleadingl y
 plead ed
 pl as
 plas t
 plast i
 plasti c
 plast er
 pl an
 plan t
 plant s
 plant i
 planti n
 plantin g
 plant e
 plante d
 plant a
 planta i
 plantai n
 plan s
 plan n
 plann i
 planni n
 plannin g
 plann e
 planne r
 planne d
 plan k
 plank t
 plankt o
 plankto n
 plank s
 plan e
 plane t
 planet s
 planet a
 planeta r
 planetar i
 planetari u
 planetariu m
 plane s
 plane d
 pl a
 pla y
 play th
 playth i
 playthi n
 playthin g
 plaything s
 play t
 playt i
 playti m
 playtim e
 playtime s
 play s
 plays e
 playse t
 play r
 playr o
 playro o
 playroo m
 play m
 playm a
 playma t
 playmat e
 playmate s
 play in
 playin g
 play h
 playh ou
 playhou s
 playhous e
 play g
 playg r
 playgr ou
 playgrou p
 playgrou nd
 play f
 playf u
 playfu l
 playful l
 playfull y
 play er
 player s
 play ed
 play d
 playd ou
 playdou g
 playdoug h
 playd a
 playda t
 playdat e
 playdate s
 pla t
 plat y
 platy p
 platyp u
 platypu s
 plat f
 platf o
 platfo r
 platfor m
 plat e
 plate s
 pla in
 pla i
 plai d
 pla c
 plac in
 placin g
 plac ed
 plac e
 place s
 p it
 pit y
 pit t
 pitt er
 pit s
 pit c
 pitc he
 pitche s
 pitche r
 pitche d
 pitc h
 pitch f
 pitchf o
 pitchfo r
 pitchfor k
 p in
 pin s
 pin n
 pinn ed
 pin k
 pink y
 pink s
 pink l
 pinkl e
 pink i
 pin e
 pine s
 pine c
 pinec o
 pineco n
 pinecon e
 pinecone s
 pine a
 pinea p
 pineap p
 pineapp l
 pineappl e
 pin c
 pinc he
 pinche s
 pinche r
 pincher s
 pinche d
 pinc h
 pinch y
 pin a
 pina t
 pinat a
 p i
 pi �
 pi� �
 piñ a
 piña t
 piñat a
 pi z
 piz z
 pizz as
 pizz a
 pi x
 pix i
 pixi e
 pi s
 pis to
 pisto l
 pistol s
 pi r
 pir ou
 pirou e
 piroue t
 pirouet t
 pirouett e
 pir a
 pira t
 pirat e
 pirate s
 pi q
 piq u
 piqu ed
 pi p
 pip in
 pipin g
 pip e
 pipe s
 pinch in
 pinchin g
 pi l
 pil o
 pilo t
 pilot s
 pil l
 pill s
 pill o
 pillo w
 pillow s
 pil in
 pilin g
 pil ed
 pil e
 pile s
 pi g
 pig t
 pigt a
 pigta i
 pigtai l
 pigtail s
 pig s
 pig l
 pigl e
 pigle t
 pig g
 pigg y
 pig e
 pige o
 pigeo n
 pigeon s
 pi er
 pier c
 pierc ed
 pi e
 pie s
 pie c
 piec in
 piecin g
 piec e
 piece s
 pi c
 pic t
 pict u
 pictu re
 picture s
 pictu r
 pictur ed
 pic s
 pic n
 picn i
 picni c
 picnic s
 picnic k
 picnick in
 picnickin g
 pic k
 pick y
 pick s
 pick l
 pickl e
 pickle s
 pick in
 pickin g
 pick er
 pick ed
 pick e
 picke t
 pi an
 pian o
 piano s
 p ha
 pha r
 phar m
 pharm a
 pharma c
 pharmac y
 pharmac i
 pharmaci s
 pharmacis t
 p h
 ph y
 phy s
 phys i
 physi c
 physic a
 physica l
 ph r
 phr as
 phras e
 phrase s
 ph o
 pho to
 photo s
 photos h
 photosh o
 photosho o
 photoshoo t
 photo g
 photog r
 photogr a
 photogra p
 photograp he
 photographe r
 photographer s
 photograp h
 photograph s
 pho n
 phon e
 phone s
 p er
 per s
 pers u
 persu a
 persua s
 persuas i
 persuasi v
 persuasiv e
 persuasi o
 persuasio n
 persua d
 persuad i
 persuadi n
 persuadin g
 persuad ed
 persuad e
 pers p
 persp e
 perspe c
 perspec t
 perspect i
 perspecti v
 perspectiv e
 pers o
 perso n
 person s
 person a
 persona l
 personal i
 personali t
 personalit y
 personalit i
 personaliti e
 personalitie s
 pers i
 persi s
 persis t
 persist i
 persisti n
 persistin g
 persist ed
 persist e
 persiste n
 persisten t
 persisten c
 persistenc e
 per p
 perp l
 perpl e
 perple x
 perplex ed
 per m
 perm i
 permi t
 permit t
 permitt i
 permitti n
 permittin g
 permitt ed
 permit s
 permi s
 permis s
 permiss i
 permissi o
 permissio n
 perm an
 perman e
 permane n
 permanen t
 permanent l
 permanentl y
 per k
 perk y
 perk s
 perk ed
 per i
 peri s
 peris he
 perishe d
 per h
 perh a
 perha p
 perhap s
 per f
 perf u
 perfu m
 perfum ed
 perfum e
 perfume s
 perf o
 perfo r
 perfor m
 perform s
 perform i
 performi n
 performin g
 perform ed
 perform an
 performan c
 performanc e
 performance s
 perf e
 perfe c
 perfec t
 perfect l
 perfectl y
 perfect i
 perfecti o
 perfectio n
 perfecti n
 perfectin g
 per c
 perc he
 perche d
 perc h
 p en
 pen s
 pen n
 penn y
 penn i
 penni e
 pennie s
 pen g
 peng u
 pengu in
 penguin s
 pen c
 penc i
 penci l
 pencil s
 pen a
 pena l
 penal t
 penalt y
 p ed
 ped d
 pedd l
 peddl i
 peddli n
 peddlin g
 peddl e
 ped a
 peda l
 pedal s
 pedal l
 pedall i
 pedalli n
 pedallin g
 pedal i
 pedali n
 pedalin g
 p e
 pe w
 pe t
 pet u
 petu n
 petun i
 pet t
 pett in
 pettin g
 pett ed
 pet s
 pet r
 petr i
 petri f
 petrif i
 petrifi ed
 pet a
 peta l
 petal s
 pe s
 pes t
 pest s
 pest er
 pester i
 pesteri n
 pesterin g
 pes k
 pesk y
 pers e
 perse v
 persev er
 persever ed
 persever e
 persever an
 perseveran c
 perseveranc e
 perform er
 performer s
 pe p
 pep p
 pepp er
 pepper s
 pepper o
 peppero n
 pepperon i
 pepper m
 pepperm i
 peppermi n
 peppermin t
 pe o
 peo p
 peop l
 peopl e
 people s
 peo n
 peon y
 pe nd
 pend u
 pendu l
 pendul u
 pendulu m
 pend an
 pendan t
 pe l
 pel t
 pe g
 peg s
 pe er
 peer s
 peer i
 peeri n
 peerin g
 peer ed
 pe ed
 pe e
 pee s
 pee p
 peep s
 peep in
 peepin g
 peep h
 peeph o
 peepho l
 peephol e
 peep ed
 pee l
 peel s
 peel in
 peelin g
 peel ed
 pee k
 peek s
 peek in
 peekin g
 peek ed
 pee in
 peein g
 peddl ed
 pedall ed
 pedal ed
 pe c
 pec u
 pecu l
 pecul i
 peculi ar
 pec k
 peck s
 peck in
 peckin g
 peck ed
 pe b
 peb b
 pebb l
 pebbl e
 pebble s
 pe as
 peas an
 peasan t
 pe ar
 pear s
 pear l
 pearl s
 pe an
 pean u
 peanu t
 peanut s
 pe a
 pea k
 peak in
 peakin g
 peak ed
 pea c
 peac o
 peaco c
 peacoc k
 peac he
 peache s
 peac h
 peac e
 peace f
 peacef u
 peacefu l
 peaceful n
 peacefuln e
 peacefulne s
 peacefulnes s
 peaceful l
 peacefull y
 p as
 pas to
 pasto r
 pas t
 past u
 pastu re
 pasture s
 past r
 pastr y
 pastr i
 pastri e
 pastrie s
 past i
 pasti m
 pastim e
 past e
 paste l
 pastel s
 past a
 pas s
 pass w
 passw o
 passwo r
 passwor d
 pass p
 passp o
 passpo r
 passpor t
 passport s
 pass in
 passin g
 pass i
 passi o
 passio n
 passion a
 passiona t
 passionat e
 pass er
 passer b
 passerb y
 pass ed
 pass e
 passe s
 passe n
 passen g
 passeng er
 passenger s
 pass a
 passa g
 passag e
 passage wa
 passagewa y
 passageway s
 p ar
 par t
 part y
 part s
 part n
 partn er
 partner s
 part in
 partin g
 part i
 parti ed
 parti e
 partie s
 parti c
 partic l
 particl e
 particle s
 partic i
 partici p
 particip an
 participan t
 participant s
 particip a
 participa t
 participat e
 part ed
 par s
 pars l
 parsl e
 parsle y
 par r
 parr o
 parro t
 parrot s
 par l
 parl o
 parlo r
 par k
 park s
 park k
 parkk e
 parkke e
 parkkee p
 parkkeep er
 park in
 parkin g
 park g
 parkg o
 parkgo er
 parkgoer s
 park ed
 par c
 parc h
 parch m
 parchm en
 parchmen t
 parc e
 parce l
 par a
 para m
 param ed
 paramed i
 paramedi c
 paramedic s
 para d
 parad i
 paradi s
 paradis e
 parad e
 parade s
 para c
 parac h
 parach u
 parachu t
 parachut e
 parachute s
 p an
 pan t
 pant s
 pant r
 pantr y
 pant i
 panti n
 pantin g
 pant e
 pante d
 pan s
 pan i
 pani c
 panic s
 panic k
 panick i
 panicki n
 panickin g
 panick e
 panicke d
 pan g
 pang o
 pango l
 pangol i
 pangoli n
 pangolin s
 pan d
 pand a
 panda s
 pan c
 panc a
 panca k
 pancak e
 pancake s
 p a
 pa y
 pay s
 pay o
 payo f
 payof f
 pay m
 paym en
 paymen t
 pay in
 payin g
 pay ed
 pa w
 paw s
 paw n
 pawn s
 paw ed
 pa v
 pav e
 pave m
 pavem en
 pavemen t
 pa u
 pau s
 paus in
 pausin g
 paus ed
 paus e
 pause s
 pa th
 path w
 pathw a
 pathwa y
 pathway s
 path s
 pa t
 pat t
 patt in
 pattin g
 patt er
 patter n
 pattern s
 patt ed
 pat s
 pat r
 patr o
 patro l
 patrol l
 patroll ed
 patr i
 patri o
 patrio t
 patriot i
 pat i
 pati o
 pati en
 patien t
 patient s
 patient l
 patientl y
 patien c
 patienc e
 pat c
 patc he
 patche s
 patche d
 patc h
 patch y
 patch in
 patchin g
 past as
 pa re
 pare n
 paren t
 parent s
 partic u
 particu l
 particul ar
 particular l
 particularl y
 pa p
 pap p
 papp a
 pap er
 paper w
 paperw o
 paperwo r
 paperwor k
 paper s
 paper c
 paperc l
 papercl i
 papercli p
 paperclip s
 pap a
 pa m
 pa l
 pal s
 pal m
 palm s
 pal er
 pal e
 pale t
 palet t
 palett e
 pal as
 pal a
 pala c
 palac e
 palace s
 pa j
 paj a
 paja m
 pajam as
 pa in
 pain t
 paint s
 paints e
 paintse t
 paint er
 painter s
 paint ed
 paint b
 paintb r
 paintbr u
 paintbru s
 paintbrus he
 paintbrushe s
 paintbrus h
 paintb o
 paintbo x
 pain s
 pain f
 painf u
 painfu l
 painful l
 painfull y
 pa i
 pai r
 pair s
 paint in
 paintin g
 painting s
 pai l
 pail s
 pai d
 pa g
 pag er
 pag e
 page s
 pa d
 pad s
 pad l
 padl o
 padlo c
 padloc k
 pad d
 padd l
 paddl in
 paddlin g
 paddl ed
 paddl e
 paddle s
 padd in
 paddin g
 padd ed
 pa c
 pac k
 pack s
 pack in
 packin g
 pack ed
 pack e
 packe t
 packet s
 pack a
 packa g
 packag e
 package s
 pac in
 pacin g
 pac ed
 pac e
 pace s
 o y
 oy s
 oys t
 oyst er
 oyster s
 o x
 ox y
 oxy g
 oxyg en
 o w
 ow n
 own s
 own in
 ownin g
 own er
 owner s
 own ed
 ow l
 owl s
 ow i
 owi e
 ow e
 o ve
 ove r
 over p
 overp o
 overpo w
 overpow er
 o v
 over w
 overw o
 overwo r
 overwor k
 overwork ed
 overw he
 overwhe l
 overwhel m
 overwhelm i
 overwhelmi n
 overwhelmin g
 overwhelm e
 overwhelme d
 over t
 overt u
 overtu r
 overtur n
 overturn ed
 overt a
 overta k
 overtak e
 over r
 overr e
 overre a
 overrea c
 overreac t
 over n
 overn i
 overni g
 overnig h
 overnigh t
 over l
 overl o
 overlo o
 overloo k
 overlook i
 overlooki n
 overlookin g
 overlook ed
 overlo a
 overloa d
 over j
 overj o
 overjo y
 overjoy ed
 over he
 overhe a
 overhea r
 overhear d
 overhea d
 over g
 overg r
 overgr o
 overgro w
 overgrow n
 over f
 overf l
 overfl o
 overflo w
 overflow i
 overflowi n
 overflowin g
 overflow ed
 over d
 overd o
 over c
 overc o
 overco m
 overcom i
 overcomi n
 overcomin g
 overcom e
 overc a
 overca m
 overcam e
 over b
 overb o
 overbo a
 overboa r
 overboar d
 over a
 overa l
 overal l
 overall s
 ov en
 oven s
 ov at
 ovat i
 ovati o
 ovatio n
 ov a
 ova l
 oval s
 o t
 ot t
 ott er
 otter s
 ot he
 othe r
 other w
 otherw i
 otherwi s
 otherwis e
 other s
 o s
 os t
 ost r
 ostr i
 ostri c
 ostric he
 ostriche s
 ostric h
 o r
 or p
 orp h
 orph an
 orphan a
 orphana g
 orphanag e
 or n
 orn a
 orna m
 ornam en
 ornamen t
 ornament s
 or i
 ori g
 orig in
 origin s
 origin a
 origina l
 original l
 originall y
 original i
 originali t
 originalit y
 or g
 org an
 organ s
 organ i
 organi z
 organiz i
 organizi n
 organizin g
 organiz e
 organize s
 organize r
 organize d
 organiz a
 organiza t
 organizat i
 organizati o
 organizatio n
 organi s
 organis i
 organisi n
 organisin g
 organis e
 organise r
 organiser s
 organise d
 or d
 ord in
 ordin a
 ordina r
 ordinar y
 ord er
 order s
 order l
 orderl y
 order i
 orderi n
 orderin g
 order ed
 ord e
 orde a
 ordea l
 or c
 orc he
 orche s
 orches t
 orchest r
 orchestr a
 orc ha
 orcha r
 orchar d
 or b
 orb it
 or an
 oran g
 orang e
 orange s
 o p
 op t
 opt i
 opti o
 optio n
 option s
 opti m
 optim i
 optimi s
 optimis t
 optimist i
 optimisti c
 optimis m
 op p
 opp o
 oppo s
 oppos it
 opposit e
 oppo r
 oppor t
 opport u
 opportu n
 opportun it
 opportunit y
 opportunit i
 opportuniti e
 opportunitie s
 oppo n
 oppon en
 opponen t
 op in
 opin i
 opini o
 opinio n
 opinion s
 op er
 oper a
 opera to
 operato r
 opera t
 operat i
 operati o
 operatio n
 operation s
 operati n
 operatin g
 operat ed
 operat e
 opera s
 op en
 open s
 open n
 openn e
 openne s
 opennes s
 open in
 openin g
 open er
 open ed
 o o
 oo z
 ooz in
 oozin g
 ooz e
 oo p
 oop s
 oo he
 oohe d
 oo h
 ooh in
 oohin g
 o n
 on wa
 onwa r
 onwar d
 onward s
 on to
 on l
 onl y
 onl in
 onlin e
 on i
 oni o
 onio n
 onion s
 on e
 one s
 ones e
 onese l
 onesel f
 on c
 onc e
 on b
 onb o
 onbo ar
 onboar d
 o me
 ome l
 omel e
 omele t
 omelet t
 omelett e
 omelet s
 o l
 ol i
 oli ve
 olive s
 ol d
 old s
 old er
 old e
 olde s
 oldes t
 o k
 ok ay
 ok a
 oka p
 okap i
 o in
 oin t
 oint m
 ointm e
 ointme n
 ointmen t
 oin k
 oink s
 oink ed
 o i
 oi l
 oil y
 oil s
 oil in
 oilin g
 oil ed
 o h
 o g
 og re
 o f
 of t
 oft en
 of f
 off i
 offi c
 offic i
 offici a
 officia l
 offic er
 officer s
 offic e
 off er
 offer s
 offer i
 offeri n
 offerin g
 offering s
 offer ed
 off e
 offe nd
 offend e
 offende d
 o d
 od o
 odo r
 od d
 odd s
 o c
 oc to
 octo p
 octop u
 octopu s
 octopus e
 octopuse s
 oc e
 oce an
 ocean s
 oc c
 occ u
 occu r
 occur r
 occurr ed
 occ as
 occas i
 occasi o
 occasio n
 occasion s
 occasion a
 occasiona l
 occasional l
 occasionall y
 o b
 ob v
 obv i
 obvi ou
 obviou s
 obvious l
 obviousl y
 ob s
 obs t
 obst a
 obsta c
 obstac l
 obstacl e
 obstacle s
 obs er
 obser v
 observ i
 observi n
 observin g
 observ ed
 observ e
 observe s
 observ an
 observan t
 observ a
 observa t
 observat i
 observati o
 observatio n
 observation s
 obs e
 observ er
 ob l
 obl i
 obli g
 oblig ed
 oblig e
 ob j
 obj e
 obje c
 objec t
 object s
 ob ed
 obed i
 obedi e
 obedie n
 obedien t
 obedient l
 obedientl y
 obedien c
 obedienc e
 ob e
 obe y
 obey in
 obeyin g
 obey ed
 o at
 oat s
 oat me
 oatme a
 oatmea l
 oatmeal s
 o as
 oas i
 oasi s
 o ar
 oar s
 o a
 oa k
 n u
 nu z
 nuz z
 nuzz le
 nuzzle s
 nuzz l
 nuzzl in
 nuzzlin g
 nuzzl ed
 nu t
 nut t
 nutt y
 nut s
 nut r
 nutr it
 nutrit i
 nutriti o
 nutritio u
 nutritiou s
 nutritio n
 nutr i
 nutri en
 nutrien t
 nutrient s
 nu r
 nur t
 nurt u
 nur s
 nurs er
 nurser y
 nurs e
 nurse s
 nu m
 num b
 numb er
 number s
 number i
 numberi n
 numberin g
 number ed
 nu g
 nug g
 nugg e
 nugge t
 nugget s
 nu d
 nud g
 nudg ed
 nudg e
 nudge s
 n ou
 nou r
 nour i
 nouri s
 nouris h
 nourish in
 nourishin g
 nou n
 n on
 non s
 nons en
 nonsen se
 n om
 n o
 no z
 noz z
 nozz le
 no w
 now he
 nowhe r
 nowher e
 no ve
 nove l
 novel s
 no th
 noth i
 nothi n
 nothin g
 nothing n
 nothingn e
 nothingne s
 nothingnes s
 no t
 not i
 noti c
 notic in
 noticin g
 notic ed
 notic e
 notice s
 not ed
 not e
 note s
 note b
 noteb o
 notebo o
 noteboo k
 notebook s
 no s
 nos y
 nos t
 nost r
 nostr i
 nostri l
 nostril s
 nost a
 nosta l
 nostal g
 nostalg i
 nos in
 nosin e
 nosine s
 nosines s
 nos e
 nose s
 no r
 nor th
 nor m
 norm a
 norma l
 normal l
 normall y
 no on
 no o
 noo k
 nook s
 noo d
 nood le
 noodle s
 no ne
 none t
 nonet he
 nonethe l
 nonethel e
 nonethele s
 nonetheles s
 no is
 nois y
 nois i
 noisi er
 noisi e
 noisie s
 noisies t
 nois e
 noise s
 no d
 nod s
 nod d
 nodd le
 noddle s
 nodd in
 noddin g
 nodd ed
 no b
 nob o
 nobo d
 nobod y
 nob le
 n in
 nin e
 nine t
 ninet y
 ninet e
 ninete e
 ninetee n
 n i
 ni p
 nip p
 nipp in
 nippin g
 ni m
 nim b
 nimb l
 nimbl y
 ni g
 nig h
 nigh t
 night t
 nightt i
 nightti me
 night s
 nights t
 nightst an
 nightstan d
 night m
 nightm a
 nightma re
 nightmare s
 night l
 nightl y
 night in
 nightin g
 nighting a
 nightinga l
 nightingal e
 night f
 nightf a
 nightfa l
 nightfal l
 ni e
 nie c
 niec e
 ni c
 nic k
 nick n
 nickn a
 nickna me
 nic er
 nic e
 nice s
 nices t
 nice l
 nicel y
 ni b
 nib b
 nibb le
 nibble s
 nibb l
 nibbl in
 nibblin g
 nibbl ed
 n er
 ner v
 nerv o
 nervo u
 nervou s
 nervous n
 nervousn e
 nervousne s
 nervousnes s
 nervous l
 nervousl y
 nerv e
 nerve s
 n at
 nat u
 natu re
 natu r
 natur a
 natura l
 natural l
 naturall y
 nat i
 nati o
 natio n
 nation s
 nation a
 nationa l
 n as
 nas t
 nast y
 n ar
 nar r
 narr o
 narro w
 narrow l
 narrowl y
 narrow ed
 narr a
 narra to
 narrato r
 narra t
 n an
 nan n
 nann y
 n a
 na v
 nav y
 nav i
 navi g
 navig at
 navigat e
 na u
 nau g
 naug h
 naugh t
 naught y
 naught i
 naughti l
 naughtil y
 na p
 nap s
 nap p
 napp in
 nappin g
 napp er
 napp ed
 nap k
 napk in
 napkin s
 na me
 name s
 na m
 nam in
 namin g
 nam ed
 na i
 nai ve
 nai l
 nail s
 nail ed
 na d
 nad a
 m y
 my s
 mys t
 myst i
 mysti c
 mystic a
 mystica l
 myst er
 myster y
 myster i
 mysteri o
 mysterio u
 mysteriou s
 mysterious l
 mysteriousl y
 mysteri e
 mysterie s
 mys e
 myse l
 mysel f
 m u
 mu z
 muz z
 muzz l
 muzzl e
 mu t
 mut t
 mutt er
 mutter i
 mutteri n
 mutterin g
 mutter ed
 mu s
 mus t
 must y
 must n
 must er
 muster ed
 must ar
 mustar d
 must a
 musta c
 mustac he
 mustache s
 mus i
 musi c
 music i
 musici an
 musician s
 music a
 musica l
 musical s
 mus h
 mush y
 mush r
 mushr o
 mushro o
 mushroo m
 mushroom s
 mus e
 muse u
 museu m
 museum s
 mus c
 musc l
 muscl e
 muscle s
 muscle m
 musclem an
 mu r
 mur m
 murm u
 murmu r
 murmur ed
 mur k
 murk y
 mur a
 mura l
 mural s
 mu n
 mun c
 munc he
 munche d
 munc h
 munch in
 munchin g
 mu m
 mum s
 mum m
 mumm y
 mumm i
 mummi e
 mummie s
 mumm a
 mum b
 mumb l
 mumbl in
 mumblin g
 mumbl ed
 mu l
 mul t
 mult i
 multi p
 multip l
 multipl i
 multipli c
 multiplic a
 multiplica t
 multiplicat i
 multiplicati o
 multiplicatio n
 multipl e
 multi c
 multic o
 multico l
 multicol o
 multicolo r
 multicolor ed
 mul e
 mule s
 mu g
 mug s
 mu f
 muf f
 muff l
 muffl ed
 muff in
 muffin s
 mu d
 mud d
 mudd y
 mudd i
 mu c
 muc k
 muck y
 muc h
 m ou
 mou th
 mouth s
 mouth p
 mouthp i
 mouthpi e
 mouthpie c
 mouthpiec e
 mouth f
 mouthf u
 mouthfu l
 mou s
 mous i
 mousi e
 mous e
 mouse h
 mouseh o
 mouseho l
 mousehol e
 mou r
 mour n
 mourn in
 mournin g
 mourn f
 mournf u
 mournfu l
 mourn ed
 mou nd
 mound s
 mou n
 moun t
 mount ed
 mount a
 mounta in
 mountain s
 mountains i
 mountainsi d
 mountainsid e
 mou l
 moul d
 mould in
 mouldin g
 mould ed
 m o
 mo w
 mow in
 mowin g
 mow er
 mo v
 mov in
 movin g
 mov i
 movi e
 movie s
 mov ed
 mov e
 move s
 move m
 movem en
 movemen t
 movement s
 mo to
 moto r
 motor s
 motor ed
 motor c
 motorc y
 motorcy l
 motorcyl e
 motorcyl c
 motorcylc e
 motorcy c
 motorcyc l
 motorcycl e
 motorcycle s
 motor b
 motorb o
 motorbo a
 motorboa t
 motorb i
 motorbi k
 motorbik e
 motorbike s
 mo th
 mo t
 mot i
 moti v
 motiv a
 motiva t
 motivat i
 motivati o
 motivatio n
 motivat ed
 motivat e
 moti o
 motio n
 motion s
 motion l
 motionl e
 motionle s
 motionles s
 motion in
 motionin g
 motion ed
 mot he
 mothe r
 mother s
 mot e
 mote l
 mo s
 mos t
 most l
 mostl y
 mos s
 mos q
 mosq u
 mosqu i
 mosqui to
 mosquito s
 mosquito e
 mosquitoe s
 mo re
 mo r
 mor s
 mors e
 morse l
 mor n
 morn in
 mornin g
 morning s
 mor a
 mora l
 moral s
 mo p
 mop s
 mop p
 mopp in
 moppin g
 mopp ed
 mop in
 mopin g
 mo o
 moo s
 moos e
 moo n
 moon s
 moon l
 moonl i
 moonli g
 moonlig h
 moonligh t
 moon b
 moonb e
 moonbe a
 moonbea m
 moo in
 mooin g
 moo ed
 moo d
 mo n
 mon th
 month s
 mon s
 mons t
 monst er
 monster s
 mon k
 monk s
 monk e
 monke y
 monkey s
 mon i
 moni e
 monie s
 mon e
 mone y
 mon ar
 monar c
 monarc h
 mo m
 mom s
 mom m
 momm y
 momm i
 mommi e
 mommie s
 momm a
 mom en
 momen t
 moment s
 mo l
 mol l
 moll y
 mol e
 mole s
 mol d
 mold y
 mold s
 mold in
 moldin g
 mold ed
 mo i
 moi s
 mois t
 moist u
 moistu re
 mo ha
 moha w
 mohaw k
 mo d
 mod er
 moder n
 moder a
 modera t
 moderat i
 moderati o
 moderatio n
 mod e
 mode s
 modes t
 modest y
 modest l
 modestl y
 mode l
 model s
 mo c
 moc k
 mock in
 mockin g
 mock ed
 mo an
 moan e
 moane d
 mo a
 moa t
 m mm
 m it
 mit t
 mitt s
 mitt e
 mitte n
 mitten s
 m in
 min u
 minu t
 minut e
 minute s
 minu s
 min t
 mint y
 mint s
 min i
 mini s
 minis t
 minist er
 mini m
 minim u
 minimu m
 mini a
 minia t
 miniat u
 miniatu r
 miniatur e
 min er
 miner s
 miner a
 minera l
 mineral s
 min e
 mine s
 m i
 mi x
 mix y
 mix t
 mixt u
 mixtu re
 mix in
 mixin g
 mix er
 mixer s
 mix ed
 mix e
 mixe s
 mi s
 mis u
 misu s
 misus e
 misu nd
 misund e
 misunde r
 misunder s
 misunders t
 misunderst o
 misundersto o
 misunderstoo d
 mis t
 mist y
 mist er
 mist a
 mista k
 mistak en
 mistak e
 mistake s
 mis s
 miss l
 missl e
 miss in
 missin g
 miss i
 missi o
 missio n
 missi l
 missil e
 missile s
 miss ed
 miss e
 misse s
 mis p
 misp l
 mispl a
 mispla c
 misplac ed
 mis f
 misf o
 misfo r
 misfor t
 misfort u
 misfortu n
 misfortun e
 mis er
 miser y
 miser a
 misera b
 miserab l
 miserabl e
 mis c
 misc h
 misch i
 mischi e
 mischie v
 mischiev ou
 mischievou s
 mischievous l
 mischievousl y
 mischie f
 mis b
 misb e
 misbe ha
 misbeha v
 misbehav in
 misbehavin g
 misbehav ed
 misbehav e
 mi r
 mir r
 mirr o
 mirro r
 mirror s
 mirror ed
 mir a
 mira g
 mirag e
 mira c
 mirac u
 miracu l
 miracul ou
 miraculou s
 miraculous l
 miraculousl y
 mirac l
 miracl e
 miracle s
 mi nd
 mind s
 mind i
 mindi n
 mindin g
 mind f
 mindf u
 mindfu l
 mind e
 minde d
 min in
 minin g
 mi m
 mim i
 mimi c
 mi l
 mil l
 mill i
 milli o
 millio n
 million s
 mill er
 mil k
 milk y
 milk s
 milks ha
 milksha k
 milkshak e
 milkshake s
 milk in
 milkin g
 mil it
 milit a
 milita r
 militar y
 mil e
 mile s
 mil d
 mild er
 mild e
 milde s
 mildes t
 mi g
 mig r
 migr a
 mig h
 migh t
 might y
 might i
 mighti e
 mightie s
 mighties t
 mi d
 mid s
 mids t
 mid n
 midn i
 midni g
 midnig h
 midnigh t
 mid d
 midd l
 middl e
 mid a
 mida i
 midai r
 mi c
 mic r
 micr o
 micro wa
 microwa v
 microwav e
 micro s
 micros c
 microsc o
 microsco p
 microscop e
 microscope s
 micro p
 microp h
 microph o
 micropho n
 microphon e
 microphone s
 mic e
 m er
 mer r
 merr y
 merr i
 merri l
 merril y
 mer m
 merm a
 merma i
 mermai d
 mermaid s
 mer e
 mere l
 merel y
 mer c
 merc y
 merc u
 mercu r
 mercur y
 merc h
 merch an
 merchan t
 merchant s
 m en
 men u
 menu s
 men t
 ment i
 menti o
 mentio n
 mention s
 mention in
 mentionin g
 mention ed
 ment a
 menta l
 men a
 mena c
 menac in
 menacin g
 m ed
 med i
 medi u
 mediu m
 medi t
 medit a
 medita t
 meditat e
 medi c
 medic i
 medici n
 medicin e
 medicine s
 medic a
 medica l
 med d
 medd l
 meddl e
 med a
 meda l
 medal s
 m e
 me w
 mew ed
 me th
 meth o
 metho d
 method s
 me t
 met re
 metre s
 met er
 met e
 mete o
 meteo r
 meteor it
 meteorit e
 met a
 meta l
 me s
 mes s
 mess y
 mess in
 messin g
 mess i
 messi er
 messi e
 messie s
 messies t
 mess en
 messen g
 messeng er
 mess ed
 mess e
 messe s
 mess a
 messa g
 messag e
 message s
 mes m
 mesm er
 mesmer i
 mesmeri z
 mesmeriz i
 mesmerizi n
 mesmerizin g
 mesmeriz ed
 mesmeri s
 mesmeris ed
 merri er
 me o
 meo w
 meow s
 meow in
 meowin g
 meow ed
 me nd
 mend i
 mendi n
 mendin g
 mend e
 mende d
 me m
 mem o
 memo r
 memor y
 memor i
 memori z
 memoriz in
 memorizin g
 memori e
 memorie s
 memor a
 memora b
 memorab l
 memorabl e
 mem en
 memen to
 mem b
 memb er
 member s
 me l
 mel t
 melt y
 melt s
 melt in
 meltin g
 melt ed
 mel o
 melo n
 melon s
 melo d
 melod y
 melod i
 melodi ou
 melodiou s
 melodi e
 melodie s
 melodi c
 me e
 mee t
 meet s
 meet in
 meetin g
 meeting s
 mee k
 me c
 mec h
 mech an
 mechan i
 mechani c
 mechanic s
 mechanic a
 mechanica l
 me as
 meas u
 measu re
 measure s
 measure m
 measurem e
 measureme n
 measuremen t
 measurement s
 measu r
 measur in
 measurin g
 measur er
 measur ed
 me an
 mean w
 meanw h
 meanwh i
 meanwhi l
 meanwhil e
 mean t
 meant i
 meanti m
 meantim e
 mean s
 mean n
 meann e
 meanne s
 meannes s
 mean l
 meanl y
 mean i
 meani n
 meanin g
 meaning s
 meaning f
 meaningf u
 meaningfu l
 meani e
 mean e
 meane s
 meanes t
 meane r
 mean d
 meand e
 meande r
 meander e
 meandere d
 me a
 mea t
 meat s
 meat b
 meatb a
 meatba l
 meatbal l
 meatball s
 mea l
 meal t
 mealt i
 mealti m
 mealtim e
 meal s
 mea d
 mead o
 meado w
 meadow s
 m ay
 may o
 mayo r
 mayo n
 mayon n
 mayonn a
 mayonna i
 mayonnai s
 mayonnais e
 may b
 mayb e
 m as
 mas t
 mast er
 master p
 masterp i
 masterpi e
 masterpie c
 masterpiec e
 masterpiece s
 master i
 masteri n
 masterin g
 master ed
 mas s
 mass i
 massi v
 massiv e
 mass e
 masse u
 masseu s
 masseus e
 mass a
 massa g
 massag in
 massagin g
 massag er
 massag ed
 massag e
 massage s
 mas k
 mask s
 mas he
 mashe d
 mas h
 mas c
 masc o
 masco t
 masc a
 masca r
 mascar a
 m ar
 mar v
 marv e
 marve l
 marvel ou
 marvelou s
 marvel l
 marvell ou
 marvellou s
 marvell ed
 marvel in
 marvelin g
 marvel ed
 mar s
 mars h
 marsh m
 marshm a
 marshma l
 marshmal l
 marshmall o
 marshmallo w
 marshmallow s
 mar r
 marr y
 marry in
 marryin g
 marr i
 marri ed
 marri a
 marria g
 marriag e
 mar m
 marm a
 marma l
 marmal a
 marmala d
 marmalad e
 mar k
 mark s
 mark in
 markin g
 marking s
 mark er
 marker s
 mark ed
 mark e
 marke t
 market s
 market p
 marketp l
 marketpl a
 marketpla c
 marketplac e
 mar c
 marc he
 marche s
 marche r
 marcher s
 marche d
 marc h
 march in
 marchin g
 mar b
 marb l
 marbl e
 marble s
 m an
 man y
 man t
 mant r
 mantr a
 mant e
 mante l
 mantel p
 mantelp i
 mantelpi e
 mantelpie c
 mantelpiec e
 man s
 mans i
 mansi o
 mansio n
 man n
 mann e
 manne r
 manner s
 man g
 mang o
 man e
 mane s
 man d
 mand a
 manda l
 mandal a
 man a
 mana g
 manag i
 managi n
 managin g
 manag e
 manage s
 manage r
 manage d
 m a
 ma z
 maz e
 maze s
 ma th
 math s
 ma t
 mat u
 matu re
 mat t
 matt re
 mattre s
 mattres s
 mattress e
 mattresse s
 matt er
 matter s
 matter ed
 matt ed
 mat s
 mat he
 mathe m
 mathem a
 mathema t
 mathemat i
 mathemati c
 mathematic s
 mathematic a
 mathematica l
 mat er
 mater i
 materi a
 materia l
 material s
 mat e
 mate y
 matey s
 mate s
 mat c
 matc he
 matche s
 matche d
 matc h
 match in
 matchin g
 match b
 matchb o
 matchbo x
 matchbox e
 matchboxe s
 ma p
 map s
 map p
 mapp ed
 map l
 mapl e
 ma m
 mam m
 mamm y
 mamm a
 mamma l
 mam a
 ma l
 mal l
 mall ar
 mallar d
 ma k
 mak in
 makin g
 mak er
 maker s
 mak e
 make u
 makeu p
 make s
 makes h
 makesh i
 makeshi f
 makeshif t
 make o
 makeo v
 makeov er
 ma j
 maj o
 majo r
 maj e
 maje s
 majes t
 majest y
 majest i
 majesti c
 ma in
 main t
 maint e
 mainte n
 mainten an
 maintenan c
 maintenanc e
 main s
 mains a
 mainsa i
 mainsai l
 ma i
 maint a
 mainta in
 mai l
 mail s
 mail m
 mailm en
 mailm an
 mail in
 mailin g
 mail ed
 mail b
 mailb o
 mailbo x
 mailbox e
 mailboxe s
 mai d
 maid s
 maids er
 maidser v
 maidserv an
 maidservan t
 maid en
 ma g
 mag p
 magp i
 magpi e
 mag n
 magn i
 magni f
 magnif y
 magnify in
 magnifyin g
 magnif i
 magnifi c
 magnific en
 magnificen t
 magn e
 magne t
 magnet s
 mag i
 magi c
 magic i
 magici an
 magician s
 magic a
 magica l
 magical l
 magicall y
 mag en
 magen t
 magent a
 mag a
 maga z
 magaz in
 magazin e
 magazine s
 ma d
 mad l
 madl y
 mad e
 mad d
 madd er
 mad a
 mada m
 ma c
 mac h
 mach in
 machin er
 machiner y
 machin e
 machine s
 mac ar
 macar o
 macaro n
 macaron i
 mac a
 maca w
 l y
 ly in
 lyin g
 l u
 lu x
 lux u
 luxu r
 luxur y
 luxur i
 luxuri ou
 luxuriou s
 luxuri e
 luxurie s
 lu s
 lus h
 lus c
 lusc i
 lusci ou
 lusciou s
 lu re
 lu r
 lur k
 lurk in
 lurkin g
 lurk ed
 lu n
 lun g
 lung s
 lung f
 lungf i
 lungfi s
 lungfis h
 lung ed
 lun c
 lunc he
 lunche s
 lunc h
 lunch t
 luncht i
 lunchti m
 lunchtim e
 lunch r
 lunchr o
 lunchro o
 lunchroo m
 lunch b
 lunchb o
 lunchbo x
 lunchbox e
 lunchboxe s
 lu m
 lum p
 lump y
 lump s
 lum b
 lumb er
 lumber j
 lumberj a
 lumberja c
 lumberjac k
 lu l
 lul l
 lull a
 lulla b
 lullab y
 lu g
 lug g
 lugg ed
 lugg a
 lugga g
 luggag e
 luggage s
 lu c
 luc k
 luck y
 luck i
 lucki l
 luckil y
 lucki er
 lucki e
 luckie s
 luckies t
 l ou
 lou n
 loun g
 loung in
 loungin g
 loung e
 lou d
 loud s
 louds p
 loudsp e
 loudspe a
 loudspea k
 loudspeak er
 loud n
 loudn e
 loudne s
 loudnes s
 loud l
 loudl y
 loud er
 loud e
 loude s
 loudes t
 l o
 lo y
 loy a
 loya l
 loyal t
 loyalt y
 lo w
 low er
 lower s
 lower i
 loweri n
 lowerin g
 lower ed
 low e
 lowe s
 lowes t
 lo v
 lov in
 lovin g
 loving l
 lovingl y
 lov er
 lover s
 lov ed
 lov e
 love s
 love l
 lovel y
 lovel i
 loveli e
 lovelie s
 lovelies t
 lo t
 lot u
 lotu s
 lot s
 lot i
 loti o
 lotio n
 lo s
 los t
 los s
 los in
 losin g
 los er
 loser s
 los e
 lose s
 lo p
 lop s
 lops i
 lopsi d
 lopsid ed
 lo o
 loo t
 loo s
 loos er
 loos e
 loose n
 loosen ed
 loo p
 loop y
 loop s
 loop in
 loopin g
 loop ed
 loo m
 loom in
 loomin g
 loo k
 look s
 look ou
 lookou t
 look in
 lookin g
 look ed
 lo n
 lon g
 long in
 longin g
 longing l
 longingl y
 long er
 long ed
 long e
 longe s
 longes t
 lon e
 lone s
 lones o
 loneso m
 lonesom e
 lone l
 lonel y
 lonel in
 lonelin e
 loneline s
 lonelines s
 lonel i
 loneli er
 lo l
 lol l
 loll y
 lolly p
 lollyp o
 lollypo p
 loll i
 lolli p
 lollip o
 lollipo p
 lollipop s
 lolli e
 lollie s
 lo g
 log s
 log o
 lo f
 lof t
 lo d
 lod g
 lodg ed
 lodg e
 lo c
 loc k
 lock s
 lock in
 lockin g
 lock er
 lock ed
 loc a
 loca t
 locat i
 locati o
 locatio n
 locat ed
 locat e
 loca l
 local s
 lo b
 lob b
 lobb y
 lo an
 loan e
 loane d
 lo a
 loa v
 loav e
 loave s
 loa f
 loa d
 load s
 load in
 loadin g
 load ed
 l l
 ll a
 lla m
 llam a
 l it
 lit t
 litt l
 littl e
 little s
 littles t
 litt er
 litter ed
 litt e
 l in
 lin k
 link s
 link ed
 lin g
 ling er
 linger ed
 lin er
 lin ed
 lin e
 line s
 l i
 li z
 liz r
 lizr d
 liz a
 liza r
 lizar d
 lizard s
 li v
 liv in
 livin g
 living r
 livingr o
 livingro o
 livingroo m
 liv ed
 liv e
 live s
 live n
 live l
 livel y
 livel i
 li s
 lis t
 list s
 list l
 listl e
 listle s
 listles s
 list ed
 list e
 liste n
 listen s
 listen in
 listenin g
 listen er
 listener s
 listen ed
 li q
 liq u
 liqu i
 liqui d
 liquid s
 li p
 lip s
 lips t
 lipst i
 lipsti c
 lipstic k
 lipstick s
 li o
 lio n
 lion s
 lion e
 lione s
 liones s
 lin in
 linin g
 li m
 lim p
 limp s
 limp in
 limpin g
 limp ed
 lim it
 limit s
 lim e
 lime s
 lim b
 li l
 lil y
 lil l
 lill y
 lil i
 lili e
 lilie s
 li k
 lik in
 likin g
 lik ed
 lik e
 like s
 like l
 likel y
 li g
 lig h
 ligh th
 lighth o
 lightho u
 lighthou s
 lighthous e
 ligh t
 light s
 light n
 lightn in
 lightnin g
 lightn e
 lightne s
 lightnes s
 light l
 lightl y
 light in
 lightin g
 light er
 lighter s
 light e
 lighte s
 lightes t
 lighte n
 lighten in
 lightenin g
 light b
 lightb u
 lightbu l
 lightbul b
 li f
 lif t
 lift s
 lift in
 liftin g
 lift ed
 lif e
 life t
 lifet i
 lifeti m
 lifetim e
 life l
 lifel o
 lifelo n
 lifelon g
 lifel in
 lifelin e
 lifel i
 lifeli k
 lifelik e
 lifel e
 lifele s
 lifeles s
 life g
 lifeg u
 lifegu a
 lifegua r
 lifeguar d
 li ed
 li e
 lie s
 li d
 lid s
 li c
 lic k
 lick s
 lick in
 lickin g
 lick ed
 lic e
 lice n
 licen s
 licens e
 license s
 licen c
 licenc e
 li b
 lib r
 libr a
 libra r
 librar y
 librar i
 librari an
 librarian s
 li a
 lia r
 l ed
 led g
 ledg e
 l e
 le v
 lev er
 lever s
 lev e
 leve l
 level s
 le t
 let t
 lett u
 lettu c
 lettuc e
 lett in
 lettin g
 lett er
 letter s
 letter b
 letterb o
 letterbo x
 let s
 le s
 les s
 less o
 lesso n
 lesson s
 le p
 lep t
 le o
 leo p
 leop a
 leopa r
 leopar d
 leopard s
 le nd
 lend s
 lend i
 lendi n
 lendin g
 le n
 len t
 len s
 lens e
 lense s
 len g
 leng th
 le m
 lem u
 lemu r
 lemur s
 lem o
 lemo n
 lemon s
 lemon a
 lemona d
 lemonad e
 le i
 lei s
 leis u
 leisu re
 leisure l
 leisurel y
 le g
 leg s
 leg o
 leg g
 legg ed
 leg e
 lege nd
 leg a
 lega l
 le f
 lef to
 lefto v
 leftov e
 leftove r
 lef t
 le c
 lec t
 lect u
 lectu re
 lecture s
 lectu r
 lectur er
 le as
 leas t
 leas he
 leashe s
 leas h
 le an
 lean s
 lean i
 leani n
 leanin g
 lean e
 leane d
 le a
 lea v
 leav in
 leavin g
 leav e
 leave s
 lea t
 leat he
 leathe r
 lea r
 lear n
 learn t
 learn s
 learn in
 learnin g
 learn er
 learner s
 learn ed
 lea p
 leap t
 leap s
 leap in
 leapin g
 leap ed
 lea k
 leak y
 leak s
 leak in
 leakin g
 leak ed
 lea f
 leaf y
 leaf s
 lea d
 lead s
 lead in
 leadin g
 lead er
 leader s
 leaders h
 leadersh i
 leadershi p
 l as
 las t
 last s
 last l
 lastl y
 last in
 lastin g
 last ed
 las s
 lass o
 las er
 laser s
 las a
 lasa g
 lasag n
 lasagn e
 l an
 lan t
 lant e
 lante r
 lanter n
 lantern s
 lan g
 lang u
 langu a
 langua g
 languag e
 language s
 lan e
 lan d
 land s
 lands c
 landsc a
 landsca p
 landscap e
 landscape s
 land m
 landm a
 landma r
 landmar k
 landmark s
 land i
 landi n
 landin g
 land e
 lande d
 l a
 la z
 laz y
 laz in
 lazin e
 lazine s
 lazines s
 laz i
 lazi l
 lazil y
 lazi e
 lazie s
 lazies t
 la y
 lay s
 lay in
 layin g
 lay er
 layer s
 lay ed
 la w
 law y
 lawy er
 lawyer s
 law s
 law n
 lawn m
 lawnm o
 lawnmo w
 lawnmow er
 law m
 lawm e
 lawme n
 la v
 lav e
 lave nd
 lavend e
 lavende r
 lav a
 la u
 lau nd
 laund r
 laundr y
 lau n
 laun c
 launc he
 launche r
 launche d
 launc h
 lau g
 laug he
 laughe d
 laug h
 laugh t
 laught er
 laugh s
 laugh in
 laughin g
 la t
 lat he
 lathe r
 lat er
 lat e
 late s
 lates t
 late l
 latel y
 lat c
 latc he
 latche d
 latc h
 la r
 lar g
 larg er
 larg e
 large s
 larges t
 la p
 lap to
 lapto p
 laptop s
 lap s
 lap p
 lapp in
 lappin g
 lapp ed
 la m
 lam p
 lamp s
 lamps ha
 lampsha d
 lampshad e
 lamp p
 lampp o
 lamppo s
 lamppos t
 lam e
 lam b
 lamb s
 la k
 lak e
 lake s
 lakes i
 lakesi d
 lakesid e
 la i
 lai r
 lai d
 la g
 lag g
 la d
 lad y
 lady b
 ladyb u
 ladybu g
 ladybug s
 ladyb i
 ladybi r
 ladybir d
 lad l
 ladl ed
 ladl e
 lad i
 ladi e
 ladie s
 lad d
 ladd er
 ladder s
 la c
 lac k
 lac e
 lace s
 la b
 lab ou
 labou r
 lab o
 labo r
 labor a
 labora to
 laborato r
 laborator y
 lab e
 labe l
 label s
 label l
 labell ed
 label ed
 k we
 kwe e
 kwee p
 k o
 ko i
 ko al
 koal a
 k no
 kno c
 knoc k
 knock s
 knock in
 knockin g
 knock ed
 kno b
 knob s
 k ne
 kne w
 kne l
 knel t
 kne e
 knee s
 knee l
 kneel s
 kneel in
 kneelin g
 kneel ed
 kne a
 knea d
 k na
 kna ck
 k n
 kn ow
 know s
 know n
 know l
 knowl ed
 knowled g
 knowledg e
 knowledge a
 knowledgea b
 knowledgeab l
 knowledgeabl e
 know in
 knowin g
 knowing l
 knowingl y
 kn ot
 knot t
 knott ed
 knot s
 kn it
 knit t
 knitt in
 knittin g
 knitt ed
 knit s
 kn ig
 knig h
 knigh t
 knight s
 knight ed
 kn i
 kni ve
 knive s
 kni f
 knif e
 k it
 kit t
 kitt y
 kitty p
 kittyp o
 kittypo o
 kittypoo l
 kitt e
 kitte n
 kitten s
 kit e
 kite s
 kit c
 kitc he
 kitche n
 k is
 kis s
 kiss in
 kissin g
 kiss er
 kiss ed
 kiss e
 kisse s
 k in
 kin g
 king s
 king d
 kingd o
 kingdo m
 k id
 kid s
 kid n
 kidn a
 kidna p
 kidnap p
 kidnapp ed
 kid d
 kidd o
 kidd in
 kiddin g
 kidd i
 kiddi e
 k i
 ki wi
 ki w
 kiw is
 ki o
 kio s
 kios k
 ki nd
 kind s
 kind n
 kindn e
 kindne s
 kindnes s
 kind l
 kindl y
 kindl i
 kindli n
 kindlin g
 kind he
 kindhe a
 kindhea r
 kindhear t
 kindheart e
 kindhearte d
 kind e
 kinde s
 kindes t
 kinde r
 kinder g
 kinderg a
 kinderga r
 kindergar t
 kindergart e
 kindergarte n
 kind a
 ki lo
 kilo s
 kilo g
 kilog r
 kilogr a
 kilogra m
 ki ll
 kill in
 killin g
 kill ed
 ki ck
 kick s
 kick in
 kickin g
 kick er
 kick ed
 kick b
 kickb a
 kickba ll
 ki b
 kib b
 kibb le
 k ey
 key s
 key h
 keyh o
 keyho le
 key b
 keyb o
 keybo ar
 keyboar d
 k er
 ker n
 kern e
 kerne l
 kernel s
 k ay
 kay a
 kaya k
 kayak s
 kayak in
 kayakin g
 kayak ed
 k ar
 k an
 kan g
 kang a
 kanga r
 kangar o
 kangaro o
 kangaroo s
 j ut
 jut t
 jutt in
 juttin g
 j un
 jun k
 junk y
 junky ar
 junkyar d
 j ug
 jug s
 jug g
 jugg le
 jugg l
 juggl in
 jugglin g
 juggl er
 juggl ed
 j u
 ju st
 just i
 justi c
 justic e
 ju ng
 jung le
 jungle s
 ju m
 jum py
 jum p
 jump s
 jump in
 jumpin g
 jump er
 jumper s
 jump ed
 jum b
 jumb l
 jumbl ed
 ju ic
 juic y
 juic ie
 juicie st
 juic es
 juic er
 ju i
 jui ce
 ju d
 jud ge
 judge m
 judgem en
 judgemen t
 judgement a
 judgementa l
 jud g
 judg m
 judgm en
 judgmen t
 judg in
 judgin g
 judg es
 judg ed
 ju b
 j oy
 joy s
 joy r
 joyr id
 joyrid e
 joy ou
 joyou s
 joy f
 joyf ul
 joyful ne
 joyfulne s
 joyfulnes s
 joyf u
 joyfu ll
 joyfull y
 j ou
 jou r
 jour n
 journ e
 journe y
 journey s
 journey in
 journeyin g
 journey ed
 journ a
 journa l
 journal s
 j ol
 jol t
 jolt ed
 j ok
 jok in
 jokin g
 jok er
 jok ed
 j og
 jog s
 jog g
 jogg l
 jogg in
 joggin g
 jogg er
 jogger s
 jogg ed
 j o
 jo ll
 joll y
 joll i
 jolli er
 jolli e
 jollie s
 jollies t
 jo ke
 joke s
 jokes t
 jokest er
 jo in
 join s
 join ed
 jo i
 join in
 joinin g
 jo b
 job s
 j it
 jit t
 jitt er
 jitter y
 j in
 jin g
 jing l
 jingl y
 jingl ed
 jingl e
 j ig
 jig sa
 jigsa w
 jig g
 jigg le
 jigg l
 jiggl in
 jigglin g
 jiggl ed
 j i
 jingl in
 jinglin g
 j ew
 jew el
 jewel s
 jewel r
 jewelr y
 jewel er
 j et
 jet t
 jett y
 jet s
 jet p
 jetp a
 jetpa c
 jetpac k
 j er
 jer k
 j ee
 jee p
 jeep s
 j e
 je we
 jewe ll
 jewell er
 jeweller y
 je st
 jest er
 je ll
 jell y
 jelly f
 jellyf is
 jellyfis h
 jelly b
 jellyb e
 jellybe an
 jellybean s
 jell i
 jelli e
 jellie s
 je er
 jeer ed
 je an
 jean s
 je al
 jeal ou
 jealou s
 jealous y
 j ay
 j aw
 jaw s
 j ar
 jar s
 j an
 jan i
 jani t
 janit o
 janito r
 j am
 jam s
 jam m
 jamm ed
 j al
 jal a
 jala p
 jalap en
 jalapen o
 jalapeno s
 j ag
 jag g
 jagg ed
 j ac
 jac ke
 jacke t
 jacket s
 j a
 ja z
 jaz z
 jazz y
 ja ke
 ja il
 jail er
 ja ck
 jack s
 i v
 iv y
 i s
 is s
 iss u
 issu e
 is n
 is l
 isl an
 islan d
 island s
 i r
 ir re
 irre s
 irres p
 irresp o
 irrespo n
 irrespon s
 irrespons i
 irresponsi b
 irresponsib l
 irresponsibl e
 ir o
 iro n
 iron s
 iron in
 ironin g
 iron ed
 i nd
 ind u
 indu l
 indul g
 indulg e
 ind o
 indo o
 indoo r
 indoor s
 ind i
 indi v
 indiv i
 indivi d
 individ u
 individu a
 individua l
 indi g
 indig o
 indi c
 indic a
 indica t
 indicat e
 indicate d
 ind e
 inde x
 inde e
 indee d
 i n
 in v
 inv it
 invit in
 invitin g
 inv in
 invin c
 invinc i
 invinci b
 invincib l
 invincibl e
 inv e
 inve s
 inves t
 invest i
 investi g
 investig a
 investiga t
 investigat in
 investigatin g
 inve n
 inven t
 invent in
 inventin g
 inv a
 inva d
 invad in
 invadin g
 in t
 int r
 intr o
 intro d
 introd u
 introdu c
 introduc in
 introducin g
 intr i
 intri g
 intrig u
 intrigu in
 intriguin g
 int i
 inti m
 intim i
 intimi d
 intimid a
 intimida t
 intimidat in
 intimidatin g
 in s
 ins t
 inst in
 instin c
 instinc t
 instinct s
 instinct i
 instincti v
 instinctiv e
 instinctive l
 instinctivel y
 ins p
 insp i
 inspi r
 inspir in
 inspirin g
 insp e
 inspe c
 inspec t
 inspect in
 inspectin g
 ins i
 insi s
 insis t
 insist in
 insistin g
 in n
 inn in
 innin g
 in f
 inf in
 infin i
 infini t
 infinit e
 in c
 inc re
 incre a
 increa s
 increas in
 increasin g
 increasing l
 increasingl y
 inc o
 inco m
 incom in
 incomin g
 inc l
 incl u
 inclu d
 includ in
 includin g
 inc h
 inch in
 inchin g
 i m
 im p
 imp u
 impu l
 impul s
 impuls e
 imp re
 impre s
 impres s
 impress i
 impressi v
 impressiv e
 impressive l
 impressivel y
 impressi o
 impressio n
 impress ed
 imp r
 impr o
 impro v
 improv in
 improvin g
 improv ed
 improv e
 improve m
 improvem e
 improveme n
 improvemen t
 improvement s
 imp o
 impo s
 impos s
 imposs i
 impossi b
 impossib l
 impossibl e
 impo r
 impor t
 import an
 importan t
 important l
 importantl y
 importan c
 importanc e
 imp e
 impe nd
 impend i
 impendi n
 impendin g
 imp a
 impa t
 impat i
 impati e
 impatie n
 impatien t
 impatient l
 impatientl y
 impatien c
 impatienc e
 impa c
 impac t
 im m
 imm ed
 immed i
 immedi a
 immedia t
 immediat e
 immediate l
 immediatel y
 imm e
 imme n
 immen s
 immens e
 immense l
 immensel y
 im it
 imit a
 imita t
 imitat ed
 imitat e
 im a
 ima g
 imag in
 imagin ed
 imagin e
 imagine s
 imagin a
 imagina t
 imaginat i
 imaginati v
 imaginativ e
 imaginati o
 imaginatio n
 imagination s
 imagina r
 imaginar y
 imag i
 imagin in
 imaginin g
 imag e
 image s
 i l
 il l
 ill u
 illu s
 illus t
 illust r
 illustr a
 illustra t
 illustrat i
 illustrati o
 illustratio n
 illustration s
 illus i
 illusi o
 illusio n
 illu m
 illum in
 illumin a
 illumina t
 illuminat ed
 ill n
 illn e
 illne s
 illnes s
 illness e
 illnesse s
 ill e
 ille g
 illeg a
 illega l
 i g
 ig n
 ign o
 igno re
 ignore s
 igno r
 ignor in
 ignorin g
 ignor ed
 ignor an
 ignoran t
 ignoran c
 ignoranc e
 ign it
 ignit i
 igniti o
 ignitio n
 ig l
 igl o
 iglo o
 igloo s
 i f
 i d
 id e
 ide n
 iden t
 ident i
 identi f
 identif y
 identif i
 identifi ed
 ide as
 ide a
 idea l
 i c
 ic y
 ic k
 ick y
 ic in
 icin g
 ic i
 ici c
 icic l
 icicl e
 icicle s
 ic ed
 ic e
 ice c
 icec re
 icecre a
 icecrea m
 h y
 hy p
 hyp e
 hype r
 hy m
 hym n
 hy e
 hye n
 hyen a
 hy d
 hyd r
 hydr an
 hydran t
 hydr a
 hydra t
 hydrat e
 hydrate d
 h u
 hu t
 hut c
 hutc h
 hu s
 hus t
 hust l
 hustl e
 hus k
 husk s
 hus he
 hushe d
 hus h
 hus b
 husb an
 husban d
 husband s
 hu r
 hur t
 hurt s
 hurt i
 hurti n
 hurtin g
 hurt f
 hurtf u
 hurtfu l
 hur r
 hurr y
 hurry i
 hurryi n
 hurryin g
 hurr i
 hurri e
 hurrie s
 hurrie d
 hurried l
 hurriedl y
 hurri c
 hurric an
 hurrican e
 hurricane s
 hur d
 hurd l
 hurdl e
 hu nd
 hund r
 hundr e
 hundre d
 hundred s
 hu n
 hun t
 hunt s
 hunt i
 hunti n
 huntin g
 hunt e
 hunte r
 hunter s
 hunte d
 hun g
 hung r
 hungr y
 hungr i
 hungri l
 hungril y
 hungri e
 hungrie r
 hung e
 hunge r
 hu m
 hum s
 hum p
 hum o
 humo r
 hum m
 humm i
 hummi n
 hummin g
 humming b
 hummingb i
 hummingbi r
 hummingbir d
 humm e
 humme d
 hum i
 humi l
 humil i
 humili t
 humilit y
 hum b
 humb l
 humbl y
 humbl e
 humble d
 hum an
 human s
 hu l
 hul l
 hul a
 hu h
 hu g
 hug s
 hug g
 hugg i
 huggi n
 huggin g
 hugg e
 hugge d
 hug e
 hu f
 huf f
 huff i
 huffi n
 huffin g
 huff e
 huffe d
 hu e
 hue s
 hu d
 hud d
 hudd l
 huddl e
 huddle d
 h o
 ho w
 how l
 howl s
 howl i
 howli n
 howlin g
 howl e
 howle d
 how e
 howe v
 howev e
 howeve r
 ho v
 hov e
 hove r
 hover i
 hoveri n
 hoverin g
 hover e
 hovere d
 ho u
 hou s
 hous e
 house w
 housew o
 housewo r
 housewor k
 house s
 hou r
 hour s
 ho t
 hot t
 hott e
 hotte s
 hottes t
 hotte r
 hot n
 hotn e
 hotne s
 hotnes s
 hot e
 hote l
 hot d
 hotd o
 hotdo g
 hotdog s
 ho s
 hos t
 host s
 host e
 hoste s
 hostes s
 hos p
 hosp i
 hospi t
 hospit a
 hospita l
 hospital s
 hospital i
 hospitali t
 hospitalit y
 hos e
 hose s
 ho r
 hor s
 hors e
 horse s
 horses h
 horsesh o
 horsesho e
 hor r
 horr o
 horro r
 horr i
 horri f
 horrif i
 horrifi e
 horrifie d
 horri b
 horrib l
 horribl e
 hor n
 horn s
 horn e
 horne t
 hornet s
 horne d
 hor i
 hori z
 horiz o
 horizo n
 ho p
 hop t
 hopt o
 hopto p
 hoptop u
 hoptopu s
 hop s
 hops c
 hopsc o
 hopsco t
 hopscot c
 hopscotc h
 hopscotch i
 hopscotchi n
 hopscotchin g
 hop p
 hopp y
 hopp i
 hoppi n
 hoppin g
 hopp e
 hoppe r
 hoppe d
 hop i
 hopi n
 hopin g
 hop e
 hope s
 hope l
 hopel e
 hopele s
 hopeles s
 hope f
 hopef u
 hopefu l
 hopeful l
 hopefull y
 hope d
 ho o
 hoo v
 hoov e
 hoove s
 hoo t
 hoot i
 hooti n
 hootin g
 hoot e
 hoote d
 hoo r
 hoor a
 hoora y
 hoo p
 hoop s
 hoop i
 hoopi n
 hoopin g
 hoo k
 hook s
 hook e
 hooke d
 hoo f
 hoof s
 hoo d
 hood s
 hood i
 hoodi e
 ho n
 hon o
 hono u
 honou r
 honour e
 honoure d
 hono r
 honor e
 honore d
 hon k
 honk s
 honk i
 honki n
 honkin g
 honk e
 honke d
 hon e
 hone y
 honey m
 honeym o
 honeymo o
 honeymoo n
 honey c
 honeyc o
 honeyco m
 honeycom b
 honey b
 honeyb e
 honeybe e
 hone s
 hones t
 honest y
 honest l
 honestl y
 ho m
 hom e
 home w
 homew o
 homewo r
 homewor k
 home t
 homet o
 hometo w
 hometow n
 home s
 homes i
 homesi c
 homesic k
 home o
 homeo w
 homeow n
 homeown e
 homeowne r
 home m
 homem a
 homema d
 homemad e
 home l
 homel e
 homele s
 homeles s
 ho l
 hol y
 hol l
 holl o
 hollo w
 holl e
 holle r
 holler i
 holleri n
 hollerin g
 hol i
 holi d
 holid a
 holida y
 holiday s
 hol e
 hole s
 hol d
 hold s
 hold i
 holdi n
 holdin g
 hold e
 holde r
 ho g
 ho e
 ho c
 hoc k
 hock e
 hocke y
 ho b
 hob b
 hobb y
 hobb l
 hobbl e
 hobble d
 hobb i
 hobbi e
 hobbie s
 ho a
 hoa r
 h i
 hi v
 hiv e
 hive s
 hi t
 hit t
 hitt i
 hitti n
 hittin g
 hitt e
 hitte r
 hit s
 hit c
 hitc h
 hi s
 his t
 hist o
 histo r
 histor y
 histor i
 his s
 hiss i
 hissi n
 hissin g
 hiss e
 hisse s
 hisse d
 hi r
 hir e
 hire d
 hi p
 hip s
 hip p
 hipp o
 hippo s
 hippo p
 hippop o
 hippopo t
 hippopot a
 hippopota m
 hippopotam u
 hippopotamu s
 hi nd
 hi n
 hin t
 hint s
 hint e
 hinte d
 hi m
 him s
 hims e
 himse l
 himsel f
 hi l
 hil l
 hill t
 hillt o
 hillto p
 hill s
 hills i
 hillsi d
 hillsid e
 hil a
 hila r
 hilar i
 hilari o
 hilario u
 hilariou s
 hi k
 hik i
 hiki n
 hikin g
 hik e
 hike s
 hike d
 hi g
 hig he
 highe s
 highes t
 highe r
 hig h
 high w
 highw a
 highwa y
 high n
 highn e
 highne s
 highnes s
 high l
 highl y
 highl i
 highli g
 highlig h
 highligh t
 high c
 highc h
 highch a
 highcha i
 highchai r
 hi d
 hid i
 hidi n
 hidin g
 hid e
 hide s
 hide r
 hider s
 hide o
 hideo u
 hideou t
 hide a
 hidea w
 hideaw a
 hideawa y
 hideaway s
 hid d
 hidd e
 hidde n
 hi b
 hib e
 hibe r
 hiber n
 hibern a
 hiberna t
 hibernat i
 hibernati n
 hibernatin g
 h e
 he a
 hea r
 hear t
 heart a
 hearta c
 heartac he
 hea d
 head a
 heada c
 headac he
 h an
 han g
 hang s
 hang i
 hangi n
 hangin g
 hang e
 hange r
 hanger s
 hang a
 hanga r
 han d
 hand y
 hand s
 hands o
 handso m
 handsom e
 hands h
 handsh a
 handsha k
 handshak e
 hand p
 handp r
 handpr i
 handpri n
 handprin t
 handprint s
 hand l
 handl i
 handli n
 handlin g
 handl e
 handle s
 handle d
 handle b
 handleb a
 handleba r
 handlebar s
 hand k
 handk e
 handke r
 handker c
 handkerc h
 handkerch i
 handkerchi e
 handkerchie f
 hand i
 handi w
 handiw o
 handiwo r
 handiwor k
 handi n
 handin g
 hand f
 handf u
 handfu l
 handful s
 hand e
 hande d
 hand c
 handc u
 handcu f
 handcuf f
 handcuff s
 handcuff e
 handcuffe d
 hand b
 handb a
 handba g
 h a
 ha z
 haz a
 haza r
 hazar d
 ha y
 hay s
 hays t
 hayst a
 haysta c
 haystac k
 ha w
 haw k
 ha v
 hav i
 havi n
 havin g
 hav e
 have n
 ha u
 hau n
 haun t
 haunt e
 haunte d
 hau l
 ha t
 hat s
 hat i
 hati n
 hatin g
 hat e
 hate s
 hate d
 hat c
 hatc he
 hatche d
 hatc h
 hatch i
 hatchi n
 hatchin g
 ha s
 has t
 hast i
 hasti l
 hastil y
 hast e
 has n
 ha r
 har v
 harv e
 harve s
 harves t
 harvest i
 harvesti n
 harvestin g
 harvest e
 harveste d
 har s
 hars he
 harshe s
 harshes t
 harshe r
 hars h
 harsh l
 harshl y
 har p
 harp o
 harpo o
 harpoo n
 har m
 harm s
 harm o
 harmo n
 harmon y
 harmon i
 harmoni c
 harmonic a
 harm l
 harml e
 harmle s
 harmles s
 harm f
 harmf u
 harmfu l
 harm e
 harme d
 har e
 har d
 hard w
 hardw o
 hardwo r
 hardwor k
 hardwork i
 hardworki n
 hardworkin g
 hardw a
 hardwa r
 hardwar e
 hard s
 hards h
 hardsh i
 hardshi p
 hard l
 hardl y
 hard e
 harde s
 hardes t
 harde r
 harde n
 harden e
 hardene d
 har b
 harb o
 harbo u
 harbou r
 harbo r
 ha p
 hap p
 happ y
 happ i
 happi n
 happin e
 happine s
 happines s
 happi l
 happil y
 happi e
 happie s
 happies t
 happie r
 happ e
 happe n
 happen s
 happen i
 happeni n
 happenin g
 happen e
 happene d
 handy m
 handym an
 hands t
 handst an
 handstan d
 handstand s
 ha m
 ham s
 hams t
 hamst e
 hamste r
 hamster s
 ham p
 hamp e
 hampe r
 ham m
 hamm o
 hammo c
 hammoc k
 hamm e
 hamme r
 hammer s
 hammer i
 hammeri n
 hammerin g
 hammer e
 hammere d
 ham b
 hamb u
 hambu r
 hambur g
 hamburg e
 hamburge r
 hamburger s
 ha l
 hal v
 halv e
 halve s
 hal t
 hal o
 halo s
 hal l
 hall w
 hallw a
 hallwa y
 hallway s
 hall s
 hal f
 half w
 halfw a
 halfwa y
 ha i
 hai r
 hair y
 hair s
 hairs t
 hairst y
 hairsty l
 hairstyl i
 hairstyli s
 hairstylis t
 hairstyl e
 hairstyle s
 hair i
 hairi e
 hairie s
 hairies t
 hair e
 haire d
 hair d
 haird r
 hairdr y
 hairdry e
 hairdrye r
 hairdr e
 hairdre s
 hairdres s
 hairdress e
 hairdresse r
 hairdresser s
 hair c
 hairc u
 haircu t
 haircut t
 haircutt e
 haircutte r
 haircut s
 hairc l
 haircl i
 haircli p
 hair b
 hairb r
 hairbr u
 hairbru s
 hairbrus h
 hairb an
 hairban d
 hai l
 ha d
 had n
 ha b
 hab i
 habi t
 habit s
 habit a
 habita t
 habitat s
 g y
 gy m
 gym n
 gymn as
 gymnas t
 g u
 gu z
 guz z
 gu y
 guy s
 gu t
 gut t
 gu st
 gust s
 gu s
 gus h
 gush in
 gushin g
 gu r
 gur g
 gurg le
 gurg l
 gurgl in
 gurglin g
 gurgl ed
 gu n
 gun s
 gu m
 gum s
 gum m
 gumm y
 gumm i
 gummi e
 gummie s
 gum d
 gumd r
 gumdr o
 gumdro p
 gu ll
 gull s
 gu l
 gul p
 gulp in
 gulpin g
 gulp ed
 gu it
 guit a
 guita r
 guitar s
 guitar i
 guitari s
 guitaris t
 gu id
 guid in
 guidin g
 guid ed
 guid e
 guide s
 guid an
 guidan c
 guidanc e
 gu i
 gui l
 guil t
 guilt y
 guilt i
 guilti l
 guiltil y
 gu e
 gue st
 guest s
 gue s
 gues s
 guess in
 guessin g
 guess ed
 guess e
 guesse s
 gu ar
 guar d
 guard s
 guard in
 guardin g
 guard i
 guardi an
 guardian s
 guard ed
 guar an
 guaran t
 guarant e
 guarante e
 gu a
 gua ca
 guaca m
 guacam o
 guacamo le
 g re
 gre y
 gre w
 gre ed
 greed y
 greed i
 greedi l
 greedil y
 gre e
 gree t
 greet s
 greet in
 greetin g
 greet ed
 gree n
 green s
 green er
 greener y
 green e
 greene s
 greenes t
 gre a
 grea t
 great n
 greatn e
 greatne s
 greatnes s
 great l
 greatl y
 great er
 great e
 greate s
 greates t
 grea s
 greas y
 greas ed
 greas e
 g r
 gr u
 gru n
 grun t
 grunt s
 grunt in
 gruntin g
 grunt ed
 gru m
 grum p
 grump y
 grump in
 grumpin e
 grumpine s
 grumpines s
 grump i
 grumpi l
 grumpil y
 grumpi er
 grump ed
 grum b
 grumb le
 grumble s
 grumb l
 grumbl y
 grumbl in
 grumblin g
 grumbl ed
 gru f
 gruf f
 gruff l
 gruffl y
 gruff al
 gruffal o
 gru d
 grud g
 grudg in
 grudgin g
 grudging l
 grudgingl y
 grudg e
 gru b
 gr ou
 grou p
 group s
 grou nd
 ground s
 ground e
 grounde d
 grou c
 grouc h
 grouch y
 gr o
 gro w
 grow th
 grow s
 grow n
 grown u
 grownu p
 grownup s
 grow l
 growl s
 growl in
 growlin g
 growl ed
 grow in
 growin g
 gro ve
 gro s
 gros s
 gro om
 groom ed
 gro g
 grog g
 gro c
 groc er
 grocer y
 grocer i
 groceri e
 grocerie s
 gro an
 groan s
 groan i
 groani n
 groanin g
 groan e
 groane d
 gr in
 grin s
 grin n
 grinn ed
 gr id
 gr i
 gri z
 griz z
 grizz l
 grizzl y
 gri p
 grip p
 gripp in
 grippin g
 gripp ed
 gri nd
 grind i
 grindi n
 grindin g
 grind e
 grinde r
 grinn in
 grinnin g
 gri me
 gri ll
 grill s
 grill in
 grillin g
 grill ed
 gri e
 grie f
 gr ay
 gr at
 grat it
 gratit u
 gratitu d
 gratitud e
 grat er
 grat ed
 grat e
 grate f
 gratef u
 gratefu l
 grateful n
 gratefuln e
 gratefulne s
 gratefulnes s
 grateful l
 gratefull y
 gr as
 gras s
 grass y
 grass l
 grassl an
 grasslan d
 grassland s
 grass h
 grassh o
 grassho p
 grasshop p
 grasshopp er
 grass e
 grasse s
 gras p
 grasp ed
 gr an
 gran t
 grant i
 granti n
 grantin g
 grant e
 grante d
 gran n
 grann y
 gran d
 grand s
 grands o
 grandso n
 grand p
 grandp a
 grandpa r
 grandpar e
 grandpare n
 grandparen t
 grandparent s
 grand m
 grandm o
 grandmo t
 grandmot he
 grandmothe r
 grandm a
 grandma s
 grandma ma
 grand k
 grandk i
 grandki d
 grandkid s
 grand f
 grandf a
 grandfa t
 grandfat he
 grandfathe r
 grand e
 grande u
 grandeu r
 grand d
 grandd a
 grandda u
 granddau g
 granddaug h
 granddaugh t
 granddaught e
 granddaughte r
 granddaughter s
 grandda d
 grand c
 grandc h
 grandch i
 grandchi l
 grandchil d
 grandchild r
 grandchildr e
 grandchildre n
 grand a
 granda u
 grandau g
 grandaug h
 grandaugh t
 grandaught e
 grandaughte r
 granda d
 gr a
 gra z
 graz in
 grazin g
 graz ed
 graz e
 gra ve
 gra v
 grav it
 gravit y
 gra p
 grap e
 grape s
 grape f
 grapef r
 grapefr u
 grapefru it
 gra m
 gra in
 grain s
 gra f
 graf f
 graff it
 graffit i
 gra d
 grad u
 gradu at
 graduat ed
 gradu a
 gradua ll
 graduall y
 grad e
 grade s
 gra c
 grac i
 graci ou
 graciou s
 gracious l
 graciousl y
 grac e
 grace f
 gracef u
 gracefu ll
 gracefull y
 gracefu l
 graceful ne
 gracefulne s
 gracefulnes s
 gra b
 grab s
 grab b
 grabb in
 grabbin g
 grabb ed
 g ou
 gou r
 gour d
 g or
 gor i
 gori ll
 gorill as
 gorill a
 gor g
 gorg e
 gorge ou
 gorgeou s
 g on
 gon n
 gonn a
 g o
 go w
 gow n
 go t
 got t
 gott en
 gott a
 go s
 gos l
 gosl in
 goslin g
 gosling s
 go o
 goo s
 goos e
 goo f
 goo ey
 goo d
 good s
 good ne
 goodne s
 goodnes s
 good n
 goodn i
 goodni g
 goodnig h
 goodnigh t
 good i
 goodi e
 goodie s
 good b
 goodb y
 goodby e
 goodbye s
 go ne
 go l
 gol f
 golf in
 golfin g
 golf er
 gol d
 gold f
 goldf is
 goldfis h
 gold en
 go in
 goin g
 go g
 gog g
 gogg le
 goggle s
 go er
 goer s
 go e
 goe s
 go d
 god s
 god m
 godm o
 godmo t
 godmot he
 godmothe r
 god d
 godd e
 godde s
 goddes s
 go b
 gob l
 gobl in
 goblin s
 gob b
 gobb le
 gobb l
 gobbl in
 gobblin g
 gobbl ed
 go at
 goat s
 go al
 goal s
 goal i
 goali e
 g n
 gn o
 gno me
 gn ar
 gnar l
 gnarl ed
 gn a
 gna w
 gnaw s
 gnaw in
 gnawin g
 g le
 gle e
 glee f
 gleef u
 gleefu l
 gleeful l
 gleefull y
 gle a
 glea m
 gleam in
 gleamin g
 gleam ed
 g l
 gl u
 glu m
 glu in
 gluin g
 glu ed
 glu e
 glue s
 gl or
 glor y
 glor i
 glori ou
 gloriou s
 gl o
 glo w
 glow y
 glow s
 glow in
 glowin g
 glow ed
 glo ve
 glove s
 glo v
 glov ed
 glo s
 glos s
 gloss y
 glo om
 gloom y
 gloom in
 gloomin e
 gloomine s
 gloomines s
 gloom i
 gloomi er
 gloomi e
 gloomie s
 gloomies t
 glo b
 glob e
 globe s
 gl it
 glit t
 glitt er
 glitter y
 glitter s
 glitter i
 glitteri n
 glitterin g
 glitter ed
 gl is
 glis t
 glist en
 glisten in
 glistenin g
 glisten ed
 gl in
 glin t
 glint ed
 gl im
 glim p
 glimp s
 glimps ed
 glimps e
 glim m
 glimm er
 glimmer i
 glimmeri n
 glimmerin g
 glimmer ed
 gl id
 glid in
 glidin g
 glid ed
 glid e
 glide s
 gl i
 glint in
 glintin g
 gl as
 glas s
 glass y
 glass e
 glasse s
 gl ar
 glar in
 glarin g
 glar ed
 gl an
 glan c
 glanc i
 glanci n
 glancin g
 glanc e
 glance s
 glance d
 gl a
 gla re
 glare s
 gla m
 glam or
 glamor ou
 glamorou s
 gla d
 glad l
 gladl y
 gla c
 glac i
 glaci er
 g in
 gin g
 ging er
 ginger l
 gingerl y
 g id
 gid d
 gidd y
 g i
 gi ve
 give s
 gi v
 giv in
 givin g
 giv er
 giv en
 gi r
 gir l
 girl y
 girl s
 gir a
 gira f
 giraf f
 giraff e
 giraffe s
 gi ll
 gill s
 gi g
 gig g
 gigg le
 giggle s
 gigg l
 giggl y
 giggl in
 gigglin g
 giggl ed
 gig an
 gigan t
 gigant i
 giganti c
 gi f
 gif t
 gift s
 gift ed
 gi an
 gian t
 giant s
 g h
 gh o
 gho st
 ghost s
 ghost l
 ghostl y
 g er
 ger m
 germ s
 g en
 gen u
 genu in
 genuin e
 gen t
 gent l
 gentl y
 gentl er
 gentl e
 gentle m
 gentlem an
 gen i
 geni u
 geniu s
 geni e
 gen er
 gener o
 genero u
 generou s
 generous l
 generousl y
 genero s
 generos i
 generosi t
 generosit y
 gener a
 genera t
 generat i
 generati o
 generatio n
 generation s
 genera l
 g e
 ge t
 get t
 gett in
 gettin g
 get s
 get a
 geta wa
 getawa y
 getaway s
 ge st
 gest u
 gestu re
 gesture s
 gestu r
 gestur ed
 ge o
 geo l
 geol o
 geolo g
 geolog is
 geologis t
 geo g
 geog r
 geogr a
 geogra p
 geograp h
 geograph y
 gentlem en
 gentl en
 gentlen e
 gentlene s
 gentlenes s
 ge m
 gem s
 gems to
 gemsto n
 gemston e
 gemstone s
 ge l
 ge e
 gee s
 gees e
 ge ar
 gear s
 g at
 gat he
 gathe r
 gather s
 gather i
 gatheri n
 gatherin g
 gather e
 gathere d
 gat e
 gate s
 gate k
 gatek e
 gateke e
 gatekee p
 gatekeep er
 g as
 gas p
 gasp s
 gasp in
 gaspin g
 gasp ed
 g ar
 gar t
 gart er
 gar l
 garl i
 garli c
 garl an
 garlan d
 garland s
 gar d
 gard en
 garden s
 garden in
 gardenin g
 garden er
 gardener s
 gar b
 garb a
 garba g
 garbag e
 gar a
 gara g
 garag e
 garage s
 g an
 gan g
 g al
 gal a
 gala x
 galax y
 galax i
 galaxi e
 galaxie s
 g a
 ga z
 gaz in
 gazin g
 gaz ed
 gaz e
 gaze s
 gaze l
 gazel le
 ga ve
 ga u
 ga p
 gap s
 gap ed
 ga me
 game s
 ga ll
 gall o
 gallo p
 gallop in
 gallopin g
 gallop ed
 gall er
 galler y
 ga in
 gain s
 gain ed
 ga i
 gain in
 gainin g
 ga g
 ga d
 gad g
 gadg e
 gadge t
 gadget s
 f u
 fu z
 fuz z
 fuzz y
 fuzz i
 fu t
 fut u
 futu re
 fu s
 fus s
 fuss y
 fu r
 fur t
 furt he
 furthe s
 furthes t
 furthe r
 fur s
 fur r
 furr y
 furr o
 furro w
 furrow ed
 fur n
 furn i
 furni t
 furnit u
 furnitu re
 fur i
 furi o
 furio u
 furiou s
 furious l
 furiousl y
 fu n
 fun n
 funn y
 funn i
 funni er
 funni e
 funnie s
 funnies t
 funn er
 funn e
 funne s
 funnes t
 funne l
 fu m
 fum in
 fumin g
 fum b
 fumb l
 fu l
 ful l
 full y
 full n
 fulln e
 fullne s
 fullnes s
 full er
 full e
 fulle s
 fulles t
 ful f
 fulf i
 fulfi l
 fulfil l
 fulfill in
 fulfillin g
 fulfill ed
 fu e
 fue l
 f re
 fre s
 fres he
 freshe s
 freshes t
 freshe r
 fres h
 fresh n
 freshn e
 freshne s
 freshnes s
 fresh l
 freshl y
 fre q
 freq u
 frequ e
 freque n
 frequen t
 fre n
 fren c
 frenc h
 fre ed
 freed o
 freedo m
 fre e
 free z
 freez in
 freezin g
 freez er
 freezer s
 freez e
 freeze s
 free s
 free l
 freel y
 free in
 freein g
 fre c
 frec k
 freck l
 freckl e
 freckle s
 f r
 fr y
 fry in
 fryin g
 fr u
 fru s
 frus t
 frust r
 frustr a
 frustra t
 frustrat in
 frustratin g
 frustrat i
 frustrati o
 frustratio n
 frustration s
 frustrat ed
 fru i
 frui t
 fruit y
 fruit s
 fruit l
 fruitl e
 fruitle s
 fruitles s
 fr o
 fro z
 froz e
 froze n
 fro w
 frow nd
 frow n
 frown s
 frown in
 frownin g
 frown ed
 fro s
 fros t
 frost y
 frost in
 frostin g
 frost ed
 fro n
 fron t
 fro m
 fro l
 frol i
 froli c
 frolic k
 frolick in
 frolickin g
 frolick ed
 fro g
 frog s
 frog g
 frogg y
 fr i
 fri s
 fris b
 frisb e
 frisbe e
 frisbee s
 fri l
 fril l
 frill y
 frill s
 frill i
 frilli e
 frillie s
 frillies t
 fri g
 frig h
 frigh t
 fright e
 frighte n
 frighten in
 frightenin g
 frighten ed
 fri ed
 fri e
 frie s
 frie nd
 friend s
 friends h
 friendsh i
 friendshi p
 friendship s
 friend l
 friendl y
 friendl i
 friendli e
 friendlie s
 friendlies t
 friendlie r
 fri d
 frid g
 fridg e
 fr an
 fran t
 frant i
 franti c
 frantic a
 frantica l
 frantical l
 franticall y
 fr a
 fra y
 fra m
 fram ed
 fram e
 frame s
 fra i
 frai l
 fra g
 frag r
 fragr an
 fragran t
 fragran c
 fragranc e
 frag i
 fragi l
 fragil i
 fragili t
 fragilit y
 fragil e
 fra c
 frac t
 fract u
 fractu re
 fract i
 fracti o
 fractio n
 f o
 fo x
 fox e
 foxe s
 fo u
 fou r
 four th
 four t
 fourt e
 fourte e
 fourtee n
 four s
 fou nd
 found a
 founda t
 foundat i
 foundati o
 foundatio n
 fou n
 foun t
 fount a
 founta in
 fou g
 foug h
 fough t
 fo s
 fos s
 foss i
 fossi l
 fossil s
 fo re
 fore v
 forev er
 fore s
 fores t
 forest s
 fores h
 foresh a
 foresha d
 foreshad o
 foreshado w
 foreshadow in
 foreshadowin g
 foreshadow ed
 fore he
 forehe a
 forehea d
 forehead s
 fo r
 for wa
 forwa r
 forwar d
 forward s
 for th
 for t
 fort y
 fort u
 fortu n
 fortun e
 fortune s
 fortun a
 fortuna t
 fortunat e
 fortunate l
 fortunatel y
 fort s
 fort re
 fortre s
 fortres s
 for m
 form s
 form in
 formin g
 form er
 form ed
 form a
 forma t
 format i
 formati o
 formatio n
 for k
 fork s
 fork ed
 for g
 forg o
 forgo t
 forgot t
 forgott e
 forgotte n
 forg i
 forgi v
 forgiv in
 forgivin g
 forgiv e
 forgive s
 forgive n
 forgiven e
 forgivene s
 forgivenes s
 forg e
 forge t
 forget t
 forgett in
 forgettin g
 forget s
 forget f
 forgetf u
 forgetfu l
 forgetful n
 forgetfuln e
 forgetfulne s
 forgetfulnes s
 forg a
 forga v
 forgav e
 for c
 forc ed
 forc e
 force s
 force f
 forcef i
 forcefi e
 forcefie l
 forcefiel d
 for b
 forb i
 forbi d
 forbid d
 forbidd e
 forbidde n
 for a
 fora g
 forag in
 foragin g
 fo o
 foo t
 foot s
 foots t
 footst e
 footste p
 footstep s
 foot p
 footp r
 footpr in
 footprin t
 footprint s
 foot in
 footin g
 foot b
 footb a
 footba l
 footbal l
 football s
 foo l
 fool i
 fooli s
 foolis h
 foolish n
 foolishn e
 foolishne s
 foolishnes s
 foolish l
 foolishl y
 fool ed
 foo d
 food s
 fo nd
 fond n
 fondn e
 fondne s
 fondnes s
 fond l
 fondl y
 fo l
 fol l
 foll o
 follo w
 follow s
 follow in
 followin g
 follow ed
 fol k
 folk s
 fol d
 fold s
 fold in
 foldin g
 fold er
 folder s
 fold ed
 fo i
 foi l
 fo g
 fog g
 fogg y
 fo e
 foe s
 fo c
 foc u
 focu s
 focus s
 focuss ed
 focus in
 focusin g
 focus ed
 fo a
 foa m
 foam y
 foa l
 f l
 fl y
 fly t
 flyt r
 flytr a
 flytra p
 fly in
 flyin g
 fly er
 flyer s
 fl u
 flu t
 flut t
 flutt er
 flutter y
 flutter s
 flutter i
 flutteri n
 flutterin g
 flutter ed
 flut e
 flute s
 flu s
 flus he
 flushe s
 flushe d
 flus h
 flu r
 flur r
 flurr y
 flu n
 flun g
 flu f
 fluf f
 fluff y
 fluff i
 fluffi er
 fluffi e
 fluffie s
 fluffies t
 fluff ed
 flu e
 flue n
 fluen t
 fluent l
 fluentl y
 fl o
 flo w
 flow s
 flow n
 flow in
 flowin g
 flow er
 flower y
 flower s
 flower p
 flowerp o
 flowerpo t
 flowerpot s
 flower b
 flowerb ed
 flowerbed s
 flow ed
 flo u
 flou r
 flour i
 flouri s
 flouris he
 flourishe d
 flo s
 flos s
 flo re
 flore t
 floret s
 flo p
 flop s
 flop p
 flopp y
 flopp in
 floppin g
 flopp ed
 flo o
 floo r
 floor s
 floor b
 floorb o
 floorbo a
 floorboa r
 floorboar d
 floorboard s
 floo d
 flood s
 flood in
 floodin g
 flood ed
 flo c
 floc k
 flock in
 flockin g
 flock ed
 flo a
 floa t
 float y
 float s
 float in
 floatin g
 float i
 floati e
 floatie s
 float ed
 fl in
 flin c
 flinc h
 fl i
 fli t
 flit t
 flitt in
 flittin g
 flitt ed
 fli p
 flip s
 flip p
 flipp in
 flippin g
 flipp er
 flipper s
 flipp ed
 fli g
 flig h
 fligh t
 flight s
 fli e
 flie s
 fli c
 flic k
 flick s
 flick er
 flicker i
 flickeri n
 flickerin g
 flicker ed
 flick ed
 fl ed
 fl e
 fle x
 flex i
 flexi b
 flexib l
 flexibl y
 flexibl e
 flexib i
 flexibi l
 flexibil i
 flexibili t
 flexibilit y
 flex ed
 fle w
 fle s
 fles h
 fle e
 flee t
 fle a
 flea s
 fl a
 fla v
 flav o
 flavo u
 flavou r
 flavour s
 flavo r
 flavor s
 flavor f
 flavorf u
 flavorfu l
 flavor ed
 fla t
 flat t
 flatt er
 flatter ed
 flatt e
 flatte n
 flatten ed
 fla s
 flas k
 flas he
 flashe s
 flashe d
 flas h
 flash y
 flash l
 flashl i
 flashli g
 flashlig h
 flashligh t
 flashlight s
 flash in
 flashin g
 fla r
 flar ed
 fla p
 flap s
 flap p
 flapp in
 flappin g
 flapp ed
 fla m
 flam in
 flamin g
 flaming o
 flamingo s
 flam e
 flame s
 fla k
 flak y
 flak e
 flake s
 fla i
 fla g
 flag s
 flag p
 flagp o
 flagpo l
 flagpol e
 f in
 fin s
 fin i
 fini s
 finis he
 finishe s
 finishe d
 finis h
 fin g
 fing er
 finger t
 fingert i
 fingerti p
 fingertip s
 finger s
 fin er
 fin e
 fine s
 fines t
 fin an
 finan c
 financ e
 finance s
 fin a
 fina l
 final l
 finall y
 final e
 f i
 fi z
 fiz z
 fizz y
 fizz in
 fizzin g
 fizz ed
 fi x
 fix in
 fixin g
 fix er
 fix ed
 fix e
 fixe s
 fi v
 fiv ed
 fiv e
 five s
 fi t
 fit t
 fitt in
 fittin g
 fitt ed
 fit s
 fi s
 fis t
 fist s
 fis he
 fishe s
 fishe r
 fisher s
 fisher m
 fisherm e
 fisherme n
 fisherm a
 fisherma n
 fishe d
 fis h
 fish y
 fish in
 fishin g
 fish b
 fishb o
 fishbo w
 fishbow l
 fi re
 fire w
 firew o
 firewo r
 firewor k
 firework s
 firewo o
 firewoo d
 firewo m
 firewom e
 firewome n
 fire s
 fire p
 firep l
 firepl a
 firepla c
 fireplac e
 fire m
 firem e
 fireme n
 firem an
 fire h
 fireh o
 fireho u
 firehou s
 firehous e
 fire f
 firef l
 firefl y
 firefl i
 firefli e
 fireflie s
 firef i
 firefi g
 firefig h
 firefigh t
 firefight er
 firefighter s
 fire c
 firec r
 firecr a
 firecra c
 firecrac k
 firecrack er
 fire b
 fireb i
 firebi r
 firebir d
 fireb a
 fireba l
 firebal l
 fire a
 firea r
 firear m
 firearm s
 fi r
 fir s
 firs t
 fir m
 firm n
 firmn e
 firmne s
 firmnes s
 firm l
 firml y
 firm er
 fir ed
 fi nd
 find s
 find i
 findi n
 findin g
 finding s
 find e
 finde r
 finish in
 finishin g
 fi l
 fil th
 filth y
 filth i
 filthi e
 filthie r
 fil t
 filt er
 fil m
 film s
 film ed
 fil l
 fill s
 fill in
 fillin g
 filling s
 fill ed
 fil in
 filin g
 fil ed
 fil e
 file s
 fi g
 fig u
 figu re
 figure s
 figu r
 figur in
 figurin g
 figurin e
 figur ed
 fig s
 fig h
 figh t
 fight s
 fight in
 fightin g
 fight er
 fighter s
 fi f
 fif th
 fif t
 fift y
 fift e
 fifte e
 fiftee n
 fi er
 fier y
 fier c
 fierc e
 fierce s
 fierces t
 fierce l
 fiercel y
 fi e
 fie l
 fiel d
 field s
 field er
 fielder s
 fi d
 fid g
 fidg e
 fidge t
 fid d
 fidd l
 fiddl ed
 fiddl e
 fi b
 fib er
 f er
 fer r
 ferr y
 ferr i
 ferri s
 ferri e
 ferrie s
 fer o
 fero c
 feroc i
 feroci o
 ferocio u
 ferociou s
 f ed
 f e
 fe w
 few er
 fe v
 fev er
 fe t
 fet c
 fetc he
 fetche s
 fetche d
 fetc h
 fetch in
 fetchin g
 fe s
 fes t
 fest i
 festi v
 festiv i
 festivi t
 festivit i
 festiviti e
 festivitie s
 festiv e
 festiv a
 festiva l
 festival s
 fer t
 fert i
 ferti l
 fertil i
 fertili z
 fertiliz er
 fe n
 fen c
 fenc e
 fence s
 fe l
 fel t
 fel l
 fell o
 fello w
 fell a
 fe ed
 feed s
 feed i
 feedi n
 feedin g
 feed e
 feede r
 fe e
 fee t
 fee s
 fee l
 feel s
 feel in
 feelin g
 feeling s
 feel er
 feeler s
 fe a
 fea t
 feat u
 featu re
 feature s
 feat s
 feat he
 feathe r
 feather y
 feather s
 feather e
 feathere d
 fea s
 feas t
 feast s
 feast ed
 fea r
 fear s
 fears o
 fearso m
 fearsom e
 fear l
 fearl e
 fearle s
 fearles s
 fearless l
 fearlessl y
 fear f
 fearf u
 fearfu l
 fearful l
 fearfull y
 fear ed
 f an
 fan t
 fant a
 fanta s
 fantas y
 fantas t
 fantast i
 fantasti c
 fan s
 fan n
 fann e
 fanne d
 fan g
 fang s
 fan c
 fanc y
 fanc i
 fanci e
 fancie s
 fancies t
 fancie r
 fancie d
 f a
 fa w
 faw n
 fa v
 fav o
 favo u
 favou r
 favour i
 favouri t
 favourit e
 favourite s
 favo r
 favor i
 favori t
 favorit e
 favorite s
 fa u
 fau l
 faul t
 fau c
 fauc e
 fauce t
 faucet s
 fa t
 fat t
 fatt er
 fat he
 fathe r
 fat e
 fa s
 fas t
 fast er
 fast e
 faste s
 fastes t
 faste n
 fasten er
 fasten ed
 fas h
 fash i
 fashi o
 fashio n
 fashion s
 fashion i
 fashioni s
 fashionis t
 fashionist a
 fashion ed
 fashion a
 fashiona b
 fashionab l
 fashionabl e
 fas c
 fasc in
 fascin a
 fascina t
 fascinat i
 fascinati o
 fascinatio n
 fascinat ed
 fasc i
 fascinat in
 fascinatin g
 fa re
 fare w
 farew e
 farewe l
 farewel l
 farewell s
 fa r
 far t
 fart he
 farthe s
 farthes t
 farthe r
 far m
 farm y
 farmy a
 farmya r
 farmyar d
 farm w
 farmw o
 farmwo r
 farmwor k
 farm s
 farm l
 farml an
 farmlan d
 farm in
 farmin g
 farm h
 farmh o
 farmho u
 farmhou s
 farmhous e
 farm er
 farmer s
 far a
 fara wa
 farawa y
 fa m
 fam o
 famo u
 famou s
 fam i
 fami l
 famil y
 famil i
 famili e
 familie s
 famili a
 familia r
 famil a
 famila r
 fam e
 fa l
 fal s
 fals e
 fal l
 fall s
 fall in
 fallin g
 fall e
 falle n
 fa k
 fak e
 fa in
 fain t
 faint er
 faint ed
 fa i
 fai th
 faith f
 faithf u
 faithfu l
 faithful l
 faithfull y
 fai re
 faire s
 faires t
 fai r
 fair y
 fairy t
 fairyt a
 fairyta l
 fairytal e
 fair n
 fairn e
 fairne s
 fairnes s
 fair l
 fairl y
 fair i
 fairi e
 fairie s
 fair er
 fai l
 fail u
 failu re
 fail s
 fail ed
 fa d
 fad in
 fadin g
 fad ed
 fad e
 fade s
 fa c
 fac to
 facto r
 factor y
 factor i
 factori e
 factorie s
 fac t
 fact s
 fac in
 facin g
 fac ed
 fac e
 face s
 fa b
 fab u
 fabu l
 fabul o
 fabulo u
 fabulou s
 fab r
 fabr i
 fabri c
 fabric s
 e x
 ex te
 exte nd
 extend e
 extende d
 ex t
 ext re
 extre m
 extrem e
 extreme l
 extremel y
 ext ra
 extra or
 extraor d
 extraord in
 extraordin a
 extraordina r
 extraordinar y
 ext in
 extin g
 exting u
 extingu i
 extingui s
 extinguis he
 extinguishe r
 extinguishe d
 extin c
 extinc t
 ext er
 ex pl
 expl or
 explor in
 explorin g
 explor er
 explorer s
 explor ed
 explor at
 explorat i
 explorati o
 exploratio n
 exploration s
 expl an
 explan a
 explana t
 explanat i
 explanati o
 explanatio n
 explanation s
 ex pe
 expe c
 expec t
 expect in
 expectin g
 expect ed
 expect at
 expectat i
 expectati o
 expectatio n
 expectation s
 expect an
 expectan t
 expectant l
 expectantl y
 ex p
 exp re
 expre s
 expres s
 express in
 expressin g
 express i
 expressi o
 expressio n
 expression s
 exp o
 expo s
 expos ed
 exp lo
 explo s
 explos i
 explosi on
 explo re
 explore s
 explo d
 explod ed
 explod e
 explode s
 exp la
 expla in
 explain s
 explain ed
 expla i
 explain in
 explainin g
 exp ir
 expir ed
 exp er
 exper t
 expert s
 expert l
 expertl y
 exper i
 experi m
 experim e
 experime n
 experimen t
 experiment s
 experiment i
 experimenti n
 experimentin g
 experiment ed
 experi e
 experie n
 experien c
 experienc i
 experienci n
 experiencin g
 experienc ed
 experienc e
 experience s
 exp en
 expen s
 expens i
 expensi v
 expensiv e
 expens e
 exp an
 expan s
 expans e
 expan d
 ex ot
 exot i
 exoti c
 ex it
 exit s
 exit ed
 ex is
 exis t
 exist en
 existen c
 existenc e
 exist ed
 ex hi
 exhi b
 exhib it
 ex ha
 exha u
 exhau s
 exhaus t
 exhaust in
 exhaustin g
 exhaust i
 exhausti o
 exhaustio n
 exhaust ed
 ex er
 exer c
 exerc i
 exerci s
 exercis i
 exercisi n
 exercisin g
 exercis ed
 exercis e
 exercise s
 ex ce
 exce p
 excep ti
 excepti on
 exception a
 exceptiona l
 exceptional l
 exceptionall y
 excep t
 exce ll
 excell en
 excellen t
 exce ed
 ex c
 exc u
 excu se
 excu r
 excur s
 excurs i
 excursi on
 exc la
 excla im
 exclaim in
 exclaimin g
 exclaim ed
 exc it
 excit in
 excitin g
 excit ed
 excited l
 excitedl y
 excit e
 excite s
 excite m
 excitem e
 exciteme n
 excitemen t
 exc h
 exch an
 exchan g
 exchang e
 exchange d
 ex am
 exam s
 exam p
 examp le
 example s
 exam in
 examin er
 examin ed
 examin e
 examine s
 examin a
 examina t
 examinat i
 examinati o
 examinatio n
 exam i
 examin in
 examinin g
 ex a
 exa c
 exac t
 exact ly
 e w
 e v
 ev il
 ev id
 evid en
 eviden c
 evidenc e
 ev er
 ever y
 every w
 everyw he
 everywhe r
 everywher e
 every th
 everyth i
 everythi n
 everythin g
 every t
 everyt i
 everyti m
 everytim e
 every o
 everyo n
 everyon e
 every d
 everyd a
 everyda y
 every b
 everyb o
 everybo d
 everybod y
 ever l
 everl a
 everla s
 everlas t
 everlast i
 everlasti n
 everlastin g
 ever g
 everg r
 evergr e
 evergre e
 evergree n
 ever d
 everd a
 everda y
 ev en
 even t
 event u
 eventu a
 eventua l
 eventual l
 eventuall y
 event s
 even l
 evenl y
 even in
 evenin g
 evening s
 ev ap
 evap or
 evapor at
 evaporat ed
 ev a
 eva c
 evac u
 evacu at
 evacuat e
 e st
 e r
 er as
 eras er
 eraser s
 e q
 eq u
 equ i
 equi p
 equip m
 equipm en
 equipmen t
 equ at
 equat i
 equati o
 equatio n
 equation s
 equ al
 equ a
 equa ll
 equall y
 e p
 ep is
 epis o
 episo d
 episod e
 episode s
 e nd
 end u
 endu r
 endur e
 end s
 end l
 endl e
 endle s
 endles s
 endless l
 endlessl y
 end i
 endi n
 endin g
 ending s
 end e
 ende d
 ende a
 endea v
 endeav o
 end an
 endan g
 endang e
 endange r
 endanger i
 endangeri n
 endangerin g
 endanger e
 endangere d
 e n
 en v
 env ir
 envir on
 environ m
 environm en
 environmen t
 en li
 enli g
 enlig h
 enligh te
 enlighte n
 enlighten m
 enlightenm en
 enlightenmen t
 e ma
 ema il
 e m
 em p
 emp ti
 empti es
 empti er
 empti ed
 emp t
 empt y
 emp a
 empa th
 empath y
 em ot
 emot i
 emoti on
 emotion s
 em er
 emer g
 emerg ed
 emerg e
 emerge n
 emergen c
 emergenc y
 emergenc i
 emergenci e
 emergencie s
 em be
 embe d
 embed d
 embedd ed
 em b
 emb ra
 embra ce
 embra c
 embrac in
 embracin g
 embrac ed
 emb ar
 embar r
 embarr as
 embarras s
 embarrass m
 embarrassm e
 embarrassme n
 embarrassmen t
 embarrass in
 embarrassin g
 embarrass ed
 embar k
 embark ed
 em an
 eman a
 emana t
 emanat i
 emanati n
 emanatin g
 e le
 ele v
 elev en
 elev a
 eleva to
 elevato r
 elevator s
 ele p
 elep h
 eleph an
 elephan t
 elephant s
 ele m
 elem en
 elemen t
 element s
 ele g
 eleg an
 elegan t
 ele c
 elec t
 elect r
 electr o
 electro c
 electroc u
 electrocu t
 electrocut ed
 electr i
 electri c
 electric it
 electricit y
 e it
 eit he
 eithe r
 e ig
 eig h
 eigh te
 eighte en
 eigh t
 eight y
 e g
 eg g
 egg s
 eggs he
 eggshe l
 eggshel l
 eggshell s
 egg pl
 eggpl an
 eggplan t
 e f
 ef f
 eff or
 effor t
 effort s
 effort le
 effortle s
 effortles s
 effortless l
 effortlessl y
 eff i
 effi c
 effic i
 effici en
 efficien t
 efficient l
 efficientl y
 eff e
 effe c
 effec ti
 effecti ve
 effective l
 effectivel y
 effec t
 effect s
 e er
 eer i
 eeri e
 e el
 e d
 ed g
 edg ed
 e c
 ec st
 ecst at
 ecstat i
 ecstati c
 ec ho
 echo in
 echoin g
 echo es
 echo ed
 e at
 eat s
 eat in
 eatin g
 eat er
 eater s
 eat en
 e as
 eas y
 eas t
 eas i
 easi l
 easil y
 easi er
 easi e
 easie s
 easies t
 eas ed
 eas e
 ease l
 e ar
 ear th
 earth q
 earthq u
 earthqu a
 earthqua k
 earthquak e
 earthquake s
 ear s
 ear r
 earr in
 earrin g
 earring s
 ear p
 earp l
 earpl u
 earplu g
 earplug s
 ear n
 earn in
 earnin g
 earn ed
 earn e
 earne s
 earnes t
 earnest l
 earnestl y
 ear m
 earm u
 earmu f
 earmuf f
 earmuff s
 ear l
 earl y
 earl i
 earli er
 d y
 dy in
 dyin g
 d wa
 dwa r
 dwar v
 dwarv e
 dwarve s
 dwar f
 d u
 du t
 dut y
 dut i
 duti e
 dutie s
 du s
 dus t
 dust y
 dust s
 dust p
 dustp an
 dust in
 dustin g
 dust er
 dust ed
 dus k
 du r
 dur in
 durin g
 du o
 du n
 dun k
 dunk ed
 dun e
 dune s
 du m
 dum p
 dump s
 dumps t
 dumpst er
 dump in
 dumpin g
 dump ed
 dum b
 du l
 dul l
 dull n
 dulln e
 dullne s
 dullnes s
 dull er
 du g
 du e
 due t
 due l
 du c
 duc t
 duc k
 duck y
 duck s
 duck l
 duckl in
 ducklin g
 duckling s
 duck i
 ducki e
 duckie s
 duck ed
 du b
 dub i
 dubi ou
 dubiou s
 d re
 dre w
 dre s
 dres s
 dress in
 dressin g
 dress er
 dress ed
 dress e
 dresse s
 dre n
 dren c
 drenc he
 drenche d
 dre a
 drea r
 drear y
 drea m
 dream y
 dream t
 dream s
 dream l
 dreaml an
 dreamlan d
 dream in
 dreamin g
 dream er
 dream ed
 drea d
 dread f
 dreadf u
 dreadfu l
 dread ed
 d r
 dr y
 dry n
 dryn e
 dryne s
 drynes s
 dry in
 dryin g
 dry er
 dr u
 dru n
 drun k
 dru m
 drum s
 drums t
 drumst i
 drumsti c
 drumstic k
 drumstick s
 drum m
 drumm in
 drummin g
 drumm er
 drumm ed
 drum b
 drumb e
 drumbe a
 drumbea t
 dru g
 dr ou
 drou g
 droug h
 drough t
 dr o
 dro w
 drow n
 drown in
 drownin g
 drown ed
 dro v
 drov e
 dro p
 drop s
 drop p
 dropp in
 droppin g
 dropp ed
 drop l
 dropl e
 drople t
 droplet s
 dro o
 droo p
 droop y
 droop in
 droopin g
 droop ed
 droo l
 drool in
 droolin g
 dr in
 drin k
 drink s
 dr i
 dri z
 driz z
 drizz l
 drizzl e
 dri v
 driv in
 drivin g
 driv er
 driver s
 driv e
 drive wa
 drivewa y
 drive s
 drive n
 dri p
 drip s
 drip p
 dripp y
 dripp in
 drippin g
 dripp ed
 drink in
 drinkin g
 dri l
 dril l
 drill in
 drillin g
 drill ed
 dri f
 drif t
 drift w
 driftw o
 driftwo o
 driftwoo d
 drift s
 drift in
 driftin g
 drift ed
 dri er
 dri ed
 dri e
 drie s
 dri b
 drib b
 dribb l
 dribbl in
 dribblin g
 dribbl ed
 dribbl e
 dr as
 dras t
 drast i
 drasti c
 drastic a
 drastica l
 drastical l
 drasticall y
 dr an
 dran k
 dr a
 dra w
 draw s
 draw n
 draw in
 drawin g
 drawing s
 draw er
 drawer s
 dra p
 drap ed
 dra m
 dram a
 drama t
 dramat i
 dramati c
 dramatic a
 dramatica l
 dramatical l
 dramaticall y
 dra in
 drain s
 drain p
 drainp i
 drainpi p
 drainpip e
 drain ed
 dra g
 drag s
 drag o
 drago n
 dragon s
 dragon f
 dragonf l
 dragonfl y
 dragonfl i
 dragonfli e
 dragonflie s
 drag g
 dragg in
 draggin g
 dragg ed
 d ou
 dou g
 doug h
 dough y
 dough n
 doughn u
 doughnu t
 doughnut s
 dou b
 doub t
 doubt s
 doubt f
 doubtf u
 doubtfu l
 doubt ed
 doub l
 doubl e
 d o
 do z
 doz in
 dozin g
 doz ed
 doz e
 doze n
 dozen s
 do w
 dow n
 down wa
 downwa r
 downwar d
 downward s
 down to
 downto w
 downtow n
 down s
 downs t
 downst re
 downstre a
 downstrea m
 downst a
 downsta i
 downstai r
 downstair s
 down p
 downp ou
 downpou r
 down h
 downh i
 downhi l
 downhil l
 do v
 dov e
 dove s
 do t
 dot t
 dott ed
 dot s
 do o
 doo r
 door wa
 doorwa y
 door s
 doors t
 doorst e
 doorste p
 door k
 doork n
 doorkn o
 doorkno b
 door b
 doorb e
 doorbe l
 doorbel l
 doo m
 doom ed
 doo d
 dood l
 doodl in
 doodlin g
 doodl e
 doodle s
 doo b
 doob i
 doobi e
 do n
 don u
 donu t
 donut s
 don k
 donk e
 donke y
 donkey s
 don g
 don e
 don a
 dona t
 donat i
 donati o
 donatio n
 donation s
 donat ed
 donat e
 do m
 dom e
 do l
 dol p
 dolp h
 dolph in
 dolphin s
 dol l
 doll y
 doll s
 doll h
 dollh ou
 dollhou s
 dollhous e
 doll a
 dolla r
 dollar s
 do in
 doin g
 do g
 dog s
 dog h
 dogh ou
 doghou s
 doghous e
 dog g
 dogg y
 dogg i
 doggi e
 doggie s
 do e
 doe s
 does n
 do d
 dod g
 dodg in
 dodgin g
 dodg ed
 dodg e
 dodge s
 do c
 doc u
 docu m
 docum e
 docume n
 documen t
 document s
 document in
 documentin g
 doc to
 docto r
 doctor s
 doc k
 dock s
 dock ed
 d it
 dit c
 ditc he
 ditc h
 d in
 din o
 dino s
 dinos a
 dinosa u
 dinosau r
 dinosaur s
 din n
 dinn er
 dinner t
 dinnert i
 dinnerti m
 dinnertim e
 dinner s
 din g
 din er
 d i
 di z
 diz z
 dizz y
 dizz in
 dizzin e
 dizzine s
 dizzines s
 dizz i
 dizzi er
 di v
 div o
 divo r
 divor c
 divorc ed
 div in
 divin g
 div i
 divi d
 divid ed
 divid e
 div er
 diver s
 divers i
 diversi t
 diversit y
 div ed
 div e
 dive s
 di s
 dis t
 dist u
 distu r
 distur b
 disturb s
 disturb in
 disturbin g
 disturb ed
 disturb an
 disturban c
 disturbanc e
 disturbance s
 dist re
 distre s
 distres s
 dist r
 distr a
 distra u
 distrau g
 distraug h
 distraugh t
 distra c
 distrac t
 distract in
 distractin g
 distract i
 distracti o
 distractio n
 distract ed
 dist an
 distan t
 distan c
 distanc e
 distance s
 dis s
 diss o
 disso l
 dissol v
 dissolv ed
 dissolv e
 dis re
 disre s
 disres p
 disresp e
 disrespe c
 disrespec t
 disrespect in
 disrespectin g
 disrespect f
 disrespectf u
 disrespectfu l
 disrespect ed
 dis r
 disr u
 disru p
 disrup t
 disrupt ed
 dis p
 disp o
 dispo s
 disp l
 displ a
 displa y
 display s
 display in
 displayin g
 display ed
 disp er
 disper s
 dis o
 diso r
 disor g
 disorg an
 disorgan i
 disorgani z
 disorganiz e
 disorganize d
 diso b
 disob ed
 disobed i
 disobedi e
 disobedie n
 disobedien t
 disobedien c
 disobedienc e
 disob e
 disobe y
 disobey in
 disobeyin g
 disobey ed
 dis m
 dism a
 disma y
 dismay ed
 dis l
 disl i
 disli k
 dislik ed
 dislik e
 dislike s
 dis k
 dis he
 dishe s
 dishe a
 dishea r
 dishear t
 disheart e
 dishearte n
 dishearten e
 disheartene d
 dis h
 dish wa
 dishwa s
 dishwas he
 dishwashe r
 dishwasher s
 dish o
 disho n
 dishon e
 dishone s
 dishones t
 dis g
 disg u
 disgu s
 disgus t
 disgust in
 disgustin g
 disgust ed
 disgu i
 disgui s
 disguis e
 disg r
 disgr a
 disgra c
 disgrac e
 dis e
 dise as
 diseas e
 disease s
 dis c
 disc u
 discu s
 discus s
 discuss in
 discussin g
 discuss i
 discussi o
 discussio n
 discussion s
 discuss ed
 disc ou
 discou r
 discour a
 discoura g
 discourag ed
 discou n
 discoun t
 discount ed
 disc o
 disco v
 discov er
 discover y
 discover s
 discover i
 discoveri n
 discoverin g
 discoveri e
 discoverie s
 discover ed
 disco m
 discom f
 discomf o
 discomfo r
 discomfor t
 disc i
 disci p
 discip l
 discipl in
 disciplin e
 disc a
 disca r
 discar d
 discard ed
 dis b
 disb e
 disbe l
 disbel i
 disbeli e
 disbelie f
 dis as
 disas t
 disast r
 disastr ou
 disastrou s
 disast er
 dis a
 disa r
 disar r
 disarr a
 disarra y
 disa p
 disap p
 disapp r
 disappr o
 disappro v
 disapprov a
 disapprova l
 disapp o
 disappo in
 disappoin t
 disappoint m
 disappointm e
 disappointme n
 disappointmen t
 disappoint ed
 disapp e
 disappe a
 disappea r
 disappear s
 disappear in
 disappearin g
 disappear ed
 disappear an
 disappearan c
 disappearanc e
 disa g
 disag re
 disagre ed
 disagre e
 disagree m
 disagreem e
 disagreeme n
 disagreemen t
 disagreement s
 disagree in
 disagreein g
 di re
 dire c
 direc to
 directo r
 direc t
 direct l
 directl y
 direct i
 directi o
 directio n
 direction s
 direct ed
 di r
 dir t
 dirt y
 dirt i
 dirti er
 dirti e
 dirtie s
 dirties t
 di p
 dip s
 dip p
 dipp in
 dippin g
 dipp ed
 din in
 dinin g
 di m
 dim p
 dimp l
 dimpl e
 dimple s
 dim m
 dimm er
 dimm ed
 dim l
 diml y
 di l
 dil i
 dili g
 dilig e
 dilige n
 diligen t
 diligent l
 diligentl y
 dil e
 dile m
 dilem m
 dilemm a
 di g
 dig s
 dig g
 digg in
 diggin g
 digg er
 di f
 dif f
 diff i
 diffi c
 diffic u
 difficu l
 difficul t
 difficult y
 difficult i
 difficulti e
 difficultie s
 diff er
 differ e
 differe n
 differen t
 different l
 differentl y
 differen c
 differenc e
 difference s
 di ed
 di e
 die t
 die s
 di d
 did n
 di c
 dic t
 dict i
 dicti o
 dictio n
 diction a
 dictiona r
 dictionar y
 dictionar i
 dictionari e
 dictionarie s
 dic e
 di a
 dia r
 diar y
 diar i
 diari e
 diarie s
 dia p
 diap er
 diaper s
 dia m
 diam o
 diamo nd
 diamond s
 diamond f
 diamondf i
 diamondfi s
 diamondfis h
 dia l
 dial s
 dial o
 dialo g
 dialog u
 dialogu e
 dial l
 diall ed
 dial ed
 dia g
 diag o
 diago n
 diagon a
 diagona l
 diagonal l
 diagonall y
 d ed
 ded i
 dedi c
 dedic a
 dedica t
 dedicat i
 dedicati o
 dedicatio n
 dedicat e
 d e
 de w
 de v
 dev ou
 devou r
 devour ed
 dev o
 devo t
 dev i
 devi s
 devis ed
 devi c
 devic e
 dev e
 deve l
 devel o
 develo p
 develop ed
 dev as
 devas t
 devast a
 devasta t
 devastat ed
 de to
 deto u
 detou r
 de t
 det er
 deter r
 deterr ed
 deter m
 determ i
 determi n
 determin ed
 determined l
 determinedl y
 determin e
 determin a
 determina t
 determinat i
 determinati o
 determinatio n
 deter g
 deterg e
 deterge n
 detergen t
 det e
 dete c
 detec to
 detecto r
 detec t
 detect i
 detecti v
 detectiv e
 detective s
 detect ed
 det a
 deta i
 detai l
 detail s
 detail ed
 deta c
 detac he
 de s
 des t
 dest r
 destr u
 destru c
 destruc t
 destruct i
 destructi v
 destructiv e
 destructi o
 destructio n
 destr o
 destro y
 destroy s
 destroy in
 destroyin g
 destroy er
 destroy ed
 dest in
 destin y
 destin a
 destina t
 destinat i
 destinati o
 destinatio n
 destination s
 des s
 dess er
 desser t
 dessert s
 des p
 desp it
 despit e
 desp er
 desper a
 despera t
 desperat i
 desperati o
 desperatio n
 desperat e
 desperate l
 desperatel y
 desp a
 despa i
 despai r
 des k
 desk s
 des i
 desi re
 desire s
 desi r
 desir ed
 desir a
 desira b
 desirab l
 desirabl e
 desi g
 desig n
 design s
 design in
 designin g
 design er
 designer s
 design ed
 des er
 deser v
 deserv ed
 deserv e
 deserve s
 deser t
 desert s
 desert ed
 des c
 desc r
 descr i
 descri b
 describ in
 describin g
 describ ed
 describ e
 desc e
 desce nd
 descend i
 descendi n
 descendin g
 descend e
 descende d
 desce n
 descen t
 de p
 dep th
 depth s
 dep o
 depo s
 depos it
 dep e
 depe nd
 depend s
 depend i
 dependi n
 dependin g
 depend e
 depende d
 depend a
 dependa b
 dependab l
 dependabl e
 dependab i
 dependabi l
 dependabil i
 dependabili t
 dependabilit y
 dep a
 depa r
 depar t
 depart m
 departm e
 departme n
 departmen t
 depart ed
 de n
 den t
 dent s
 dent i
 denti s
 dentis t
 dent ed
 den s
 dens er
 den i
 deni ed
 de m
 dem o
 demo n
 demon s
 demons t
 demonst r
 demonstr a
 demonstra t
 demonstrat ed
 demo l
 demol i
 demoli s
 dem an
 deman d
 demand s
 demand i
 demandi n
 demandin g
 demand e
 demande d
 de l
 del i
 deli v
 deliv er
 deliver y
 delivery m
 deliverym an
 deliver s
 deliver i
 deliveri n
 deliverin g
 deliveri e
 deliverie s
 deliver ed
 deli g
 delig h
 deligh t
 delight in
 delightin g
 delight f
 delightf u
 delightfu l
 delightful l
 delightfull y
 delight ed
 delighted l
 delightedl y
 deli c
 delic i
 delici ou
 deliciou s
 delicious n
 deliciousn e
 deliciousne s
 deliciousnes s
 delicious l
 deliciousl y
 delic a
 delica t
 delicat e
 delicate l
 delicatel y
 delica c
 delicac y
 deli b
 delib er
 deliber a
 delibera t
 del e
 dele t
 delet ed
 delet e
 del a
 dela y
 delay s
 delay in
 delayin g
 delay ed
 de j
 dej e
 deje c
 dejec t
 deject ed
 de g
 deg re
 degre e
 degree s
 de f
 def l
 defl a
 defla t
 deflat ed
 def in
 defin i
 defini t
 definit e
 definite l
 definitel y
 defin e
 def i
 defi an
 defian t
 def e
 defe nd
 defend i
 defendi n
 defendin g
 defend e
 defende d
 defe n
 defen s
 defe c
 defec t
 defe a
 defea t
 defeat ed
 de er
 de ed
 deed s
 de e
 dee p
 deep l
 deepl y
 deep er
 deep e
 deepe s
 deepes t
 dedicat ed
 de c
 dec re
 decre a
 decrea s
 decreas ed
 decreas e
 dec o
 deco r
 decor a
 decora t
 decorat in
 decoratin g
 decorat i
 decorati o
 decoratio n
 decoration s
 decorat ed
 decorat e
 dec l
 decl in
 declin ed
 decl a
 decla r
 declar ed
 dec k
 deck s
 dec i
 deci s
 decis i
 decisi o
 decisio n
 decision s
 deci d
 decid in
 decidin g
 decid ed
 decid e
 decide s
 dec e
 dece i
 decei v
 de b
 deb t
 deb a
 deba t
 debat e
 de a
 dea th
 dea re
 deare s
 deares t
 dea r
 dear s
 dear l
 dearl y
 dea l
 deal s
 deal in
 dealin g
 deal er
 dealer s
 dealers h
 dealersh i
 dealershi p
 dea f
 deaf n
 deafn e
 deafne s
 deafnes s
 deaf e
 deafe n
 deafen in
 deafenin g
 dea d
 d as
 das he
 dashe d
 das h
 dash in
 dashin g
 dash b
 dashb o
 dashbo a
 dashboa r
 dashboar d
 d an
 dan g
 dang l
 dangl i
 dangli n
 danglin g
 dangl e
 dangle d
 dang e
 dange r
 danger s
 danger o
 dangero u
 dangerou s
 dangerous l
 dangerousl y
 dan d
 dand e
 dande l
 dandel i
 dandeli o
 dandelio n
 dandelion s
 dan c
 danc i
 danci n
 dancin g
 danc e
 dance s
 dance r
 dancer s
 dance d
 d a
 da z
 daz z
 dazz l
 dazzl in
 dazzlin g
 dazzl ed
 da y
 day t
 dayt i
 dayti m
 daytim e
 day s
 day l
 dayl i
 dayli g
 daylig h
 dayligh t
 day d
 dayd re
 daydre a
 daydrea m
 daydream s
 daydream in
 daydreamin g
 daydream ed
 day c
 dayc a
 dayca re
 day b
 dayb re
 daybre a
 daybrea k
 da w
 daw n
 dawn ed
 da u
 dau n
 daun t
 daunt in
 dauntin g
 dau g
 daug h
 daugh t
 daught er
 daughter s
 da t
 dat e
 date s
 dat a
 da re
 dare s
 da r
 dar t
 dart in
 dartin g
 dart ed
 dar l
 darl in
 darlin g
 darling s
 dar k
 dark n
 darkn e
 darkne s
 darknes s
 dark er
 dark e
 darke s
 darkes t
 darke n
 darken ed
 dar in
 darin g
 dar ed
 da m
 dam p
 damp e
 dampe n
 dam a
 dama g
 damag in
 damagin g
 damag ed
 damag e
 da i
 dai s
 dais y
 dais i
 daisi e
 daisie s
 dai r
 dair y
 dai l
 dail y
 da f
 daf f
 daff o
 daffo d
 daffod i
 daffodi l
 daffodil s
 da d
 dad s
 dad d
 dadd y
 dadd i
 daddi e
 daddie s
 da b
 dab b
 dabb ed
 c y
 cy c
 cyc l
 cycl i
 cycli s
 cyclis t
 cycl ed
 cycl e
 c u
 cu t
 cut t
 cutt in
 cuttin g
 cutt er
 cutter s
 cut s
 cut l
 cutl er
 cutler y
 cut i
 cuti e
 cut er
 cut en
 cuten e
 cutene s
 cutenes s
 cut e
 cute s
 cutes t
 cu s
 cus to
 custo m
 custom s
 custom e
 custome r
 customer s
 cus t
 cust a
 custa r
 custar d
 cus h
 cush y
 cush i
 cushi o
 cushio n
 cushion s
 cu re
 cu r
 cur v
 curv y
 curv ed
 curv e
 curve s
 cur t
 curt s
 curts y
 curt i
 curti an
 curt a
 curta in
 curtain s
 cur s
 curs in
 cursin g
 curs ed
 curs e
 curse s
 cur re
 curre n
 curren t
 current s
 cur r
 curr y
 cur l
 curl y
 curl s
 curl ed
 cur i
 curi ou
 curiou s
 curious l
 curiousl y
 curious it
 curiousit y
 curi o
 curio s
 curios it
 curiosit y
 cur d
 cur b
 cu p
 cup s
 cup p
 cupp ed
 cup c
 cupc a
 cupca k
 cupcak e
 cupcake s
 cup b
 cupb o
 cupbo a
 cupboa r
 cupboar d
 cupboard s
 cu n
 cun n
 cunn in
 cunnin g
 cu l
 cul t
 cult u
 cultu re
 culture s
 cul p
 culp r
 culpr it
 culprit s
 cu d
 cud d
 cudd l
 cuddl y
 cuddl in
 cuddlin g
 cuddl ed
 cuddl e
 cuddle s
 cu c
 cuc u
 cucu m
 cucum b
 cucumb er
 cucumber s
 cuc k
 cuck o
 cucko o
 cu b
 cub s
 cub e
 cube s
 cub b
 cubb y
 c re
 cre w
 cre v
 crev i
 crevi c
 crevic e
 crevice s
 cre s
 cres t
 crest f
 crestf a
 crestfa l
 crestfal l
 crestfall e
 crestfalle n
 cres c
 cresc e
 cresce n
 crescen t
 cre p
 crep t
 cre e
 cree p
 creep y
 creep in
 creepin g
 creep ed
 cree k
 cre a
 crea to
 creato r
 creator s
 crea t
 creat in
 creatin g
 creat i
 creati v
 creativ i
 creativi t
 creativit y
 creativ e
 creative l
 creativel y
 creati o
 creatio n
 creation s
 creat ed
 creat e
 create s
 crea s
 creas ed
 crea m
 cream y
 cream s
 cream i
 crea k
 creak y
 creak s
 creak in
 creakin g
 creak ed
 c r
 cr y
 cry s
 crys t
 cryst a
 crysta l
 crystal s
 cry in
 cryin g
 cry b
 cryb a
 cryba b
 crybab y
 crybab i
 crybabi e
 crybabie s
 cr u
 cru t
 crut c
 crutc he
 crutche s
 cru s
 crus t
 crus he
 crushe d
 crus h
 crush in
 crushin g
 cru n
 crun c
 crunc he
 crunche s
 crunche d
 crunc h
 crunch y
 crunch in
 crunchin g
 cru m
 crum p
 crump l
 crumpl ed
 crumpl e
 crumple s
 crum b
 crumb s
 crumb l
 crumbl y
 crumbl in
 crumblin g
 crumbl ed
 crumbl e
 cru i
 crui s
 cruis in
 cruisin g
 cruis e
 cru e
 crue l
 cr ou
 crou c
 crouc he
 crouche d
 crouc h
 crouch in
 crouchin g
 cr o
 cro w
 crow s
 crow n
 crown s
 crown ed
 crow ed
 crow d
 crowd s
 crowd ed
 cro t
 crot c
 crotc h
 cro s
 cros s
 cross wa
 crosswa l
 crosswal k
 cross r
 crossr o
 crossro a
 crossroa d
 crossroad s
 cross in
 crossin g
 cross ed
 cross e
 crosse s
 cross b
 crossb o
 crossbo n
 crossbon e
 crossbone s
 cro p
 crop s
 cro o
 croo k
 crook ed
 cro i
 croi s
 crois s
 croiss an
 croissan t
 cro c
 croc o
 croco d
 crocod i
 crocodi l
 crocodil e
 crocodile s
 cro a
 croa k
 croak y
 croak s
 croak in
 croakin g
 croak ed
 cr it
 crit t
 critt er
 critter s
 crit i
 criti c
 critic i
 critici z
 cr in
 crin k
 crink l
 cr i
 cri s
 cris p
 crisp y
 crisp s
 cri m
 crim in
 crimin a
 crimina l
 crim e
 crime s
 cri ed
 cri e
 crie s
 cri c
 cric k
 crick e
 cricke t
 cricket s
 cri b
 crib s
 cr ed
 cred i
 credi t
 credit s
 creat u
 creatu re
 creature s
 cr as
 cras he
 crashe s
 crashe d
 cras h
 crash in
 crashin g
 cr an
 cran n
 crann y
 crann i
 cranni e
 crannie s
 cran k
 crank y
 cran e
 crane s
 cr a
 cra z
 craz y
 craz i
 crazi er
 crazi e
 crazie s
 crazies t
 cra y
 cray o
 crayo n
 crayon s
 cra w
 craw l
 crawl y
 crawl s
 crawl in
 crawlin g
 crawl er
 crawl ed
 cra v
 crav in
 cravin g
 cra t
 crat er
 crater s
 crat e
 crate s
 cra m
 cram p
 cramp ed
 cra f
 craf t
 craft s
 crafts m
 craftsm an
 craft in
 craftin g
 craft ed
 cra d
 crad l
 cradl in
 cradlin g
 cradl ed
 cra c
 crac k
 crack s
 crack l
 crackl in
 cracklin g
 crackl ed
 crackl e
 crackle s
 crack in
 crackin g
 crack er
 cracker s
 crack ed
 cra b
 crab s
 crab b
 crabb y
 c ou
 cou s
 cous in
 cousin s
 cou r
 cour t
 court y
 courty a
 courtya r
 courtyar d
 court r
 courtr o
 courtro o
 courtroo m
 court i
 courti er
 courtier s
 cour s
 cours e
 cour a
 coura g
 courag e
 cou p
 coup o
 coupo n
 coup l
 coupl e
 cou n
 coun t
 count s
 count r
 countr y
 country s
 countrys i
 countrysi d
 countrysid e
 countr i
 countri e
 countrie s
 count in
 countin g
 count er
 counter s
 count ed
 count d
 countd o
 countdo w
 countdow n
 coun s
 couns e
 counse l
 counsel o
 counselo r
 cou l
 coul d
 could n
 couldn t
 cou g
 coug he
 coughe d
 coug h
 cough s
 cough in
 coughin g
 coug a
 couga r
 cou c
 couc he
 couche s
 couc h
 c o
 co z
 coz y
 coz in
 cozin e
 cozine s
 cozines s
 coz i
 cozi ed
 cozi e
 cozie s
 cozies t
 co y
 coy o
 coyo t
 coyot e
 co wa
 cowa r
 cowar d
 coward s
 co w
 cow s
 cows he
 cowshe d
 cow o
 cowo r
 cowor k
 cowork er
 coworker s
 cow g
 cowg i
 cowgi r
 cowgir l
 cowgirl s
 cow er
 cower i
 coweri n
 cowerin g
 cow b
 cowb o
 cowbo y
 cowboy s
 co v
 cov er
 cover s
 cover i
 coveri n
 coverin g
 cover ed
 courage ou
 courageou s
 courageous l
 courageousl y
 co t
 cot to
 cotto n
 cot t
 cott a
 cotta g
 cottag e
 co s
 cos y
 cos t
 cost u
 costu m
 costum e
 costume s
 cost s
 cost l
 costl y
 co re
 co r
 cor re
 corre c
 correc t
 correct l
 correctl y
 correct ed
 cor r
 corr i
 corri d
 corrid o
 corrido r
 corridor s
 cor n
 corn s
 corn f
 cornf i
 cornfi e
 cornfie l
 cornfiel d
 cornfield s
 corn er
 corner s
 corner ed
 corn b
 cornb re
 cornbre a
 cornbrea d
 cor k
 cork s
 corks c
 corksc re
 corkscre w
 cor d
 cord s
 cor a
 cora l
 coral s
 co p
 cop y
 copy in
 copyin g
 cop s
 cop p
 copp er
 cop i
 copi ed
 copi e
 copie s
 cop e
 co o
 coo p
 coop er
 cooper a
 coopera t
 cooperat i
 cooperati v
 cooperativ e
 cooperati o
 cooperatio n
 cooperati n
 cooperatin g
 cooperat ed
 cooperat e
 coo l
 cool s
 cool n
 cooln e
 coolne s
 coolnes s
 cool in
 coolin g
 cool er
 cooler s
 cool ed
 cool e
 coole s
 cooles t
 coo k
 cook wa
 cookwa r
 cookwar e
 cook s
 cook ou
 cookou t
 cook in
 cookin g
 cook i
 cooki e
 cookie s
 cook ed
 cook b
 cookb o
 cookbo o
 cookboo k
 coo in
 cooin g
 coo ed
 co nd
 cond u
 condu c
 conduc t
 conduct o
 conducto r
 cond i
 condi t
 condit i
 conditi o
 conditio n
 condition s
 co n
 con v
 conv in
 convin c
 convinc ed
 convinc e
 conv i
 convinc in
 convincin g
 conv er
 conver s
 convers a
 conversa t
 conversat i
 conversati o
 conversatio n
 conversation s
 conv e
 conve y
 convey o
 conveyo r
 conve n
 conven i
 conveni en
 con t
 cont r
 contr o
 contro l
 control s
 control l
 controll in
 controllin g
 controll ed
 contr i
 contri b
 contrib u
 contribu t
 contribut e
 contr a
 contra c
 contrac t
 cont in
 contin u
 continu ed
 continu e
 continue s
 contin e
 contine n
 continen t
 cont i
 continu in
 continuin g
 cont en
 conten t
 content s
 content ed
 contented l
 contentedl y
 cont e
 conte s
 contes t
 contest s
 contest an
 contestan t
 contestant s
 content m
 contentm en
 contentmen t
 conte m
 contem p
 contemp l
 contempl a
 contempla t
 contemplat i
 contemplati o
 contemplatio n
 cont a
 conta in
 contain s
 contain er
 container s
 contain ed
 conta g
 contag i
 contagi ou
 contagiou s
 conta c
 contac t
 con s
 cons u
 cons t
 const r
 constr u
 constru c
 construc t
 construct i
 constructi o
 constructio n
 const an
 constan t
 constant l
 constantl y
 cons o
 conso l
 consol ed
 consol e
 cons i
 consi s
 consis t
 consist en
 consisten c
 consistenc y
 consi d
 consid er
 consider i
 consideri n
 considerin g
 consider ed
 consider a
 considera t
 considerat i
 considerati o
 consideratio n
 considerat e
 cons er
 conser v
 conserv a
 conserva t
 conservat i
 conservati o
 conservatio n
 cons e
 conse q
 conseq u
 consequ en
 consequen c
 consequenc e
 consequence s
 cons c
 consc i
 consci ou
 consciou s
 con q
 conq u
 conqu er
 conquer ed
 con n
 conn e
 conne c
 connec t
 connect s
 connect in
 connectin g
 connect i
 connecti o
 connectio n
 connection s
 connect ed
 con g
 cong r
 congr a
 congra t
 congrat u
 congratu l
 congratul a
 congratula t
 congratulat i
 congratulati o
 congratulatio n
 congratulation s
 congratulat ed
 congratulat e
 con f
 conf u
 confu s
 confus in
 confusin g
 confus i
 confusi o
 confusio n
 confus ed
 confused l
 confusedl y
 confus e
 conf r
 confr o
 confro n
 confron t
 confront ed
 conf l
 confl i
 confli c
 conflic t
 conflict s
 conf i
 confi r
 confir m
 confirm ed
 confi d
 confid en
 confiden t
 confident l
 confidentl y
 confiden c
 confidenc e
 conf er
 confer e
 confere n
 conferen c
 conferenc e
 conf e
 confe t
 confet t
 confett i
 confe s
 confes s
 confess ed
 con e
 cone s
 con c
 conc o
 conco c
 concoc t
 concoct i
 concocti o
 concoctio n
 conc l
 concl u
 conclu s
 conclus i
 conclusi o
 conclusio n
 conclusion s
 conclu d
 conclud ed
 conc er
 concer t
 concer n
 concern s
 concern ed
 conc en
 concen t
 concent r
 concentr a
 concentra t
 concentrat i
 concentrati o
 concentratio n
 concentrat ed
 concentrat e
 conc e
 conce p
 concep t
 co m
 com t
 com p
 comp u
 compu t
 comput er
 computer s
 comp r
 compr o
 compro m
 comprom i
 compromi s
 compromis ed
 compromis e
 comp o
 compo s
 compos t
 comp l
 compl i
 compli m
 complim en
 complimen t
 compliment s
 compliment in
 complimentin g
 compliment ed
 compli ed
 compli c
 complic a
 complica t
 complicat ed
 compl e
 comple x
 complex it
 complexit i
 complexiti e
 complexitie s
 comple t
 complet in
 completin g
 complet ed
 complet e
 complete s
 complete l
 completel y
 compl a
 compla in
 complain t
 complaint s
 complain s
 complain ed
 compla i
 complain in
 complainin g
 comp e
 compe t
 compet it
 competit i
 competiti v
 competitiv e
 competitive n
 competitiven e
 competitivene s
 competitivenes s
 competiti o
 competitio n
 competition s
 compet in
 competin g
 compet i
 competi to
 competito r
 competitor s
 compet ed
 compet e
 comp as
 compas s
 compass i
 compassi o
 compassio n
 compassion a
 compassiona t
 compassionat e
 compassionate l
 compassionatel y
 comp an
 compan y
 compan i
 compani o
 companio n
 companion s
 companions h
 companionsh i
 companionshi p
 comp a
 compa re
 compa r
 compar t
 compart m
 compartm en
 compartmen t
 compar in
 comparin g
 compar i
 compari s
 comparis o
 compariso n
 compar ed
 com m
 comm u
 commu n
 commun it
 communit y
 commun i
 communi c
 communic a
 communica t
 communicat in
 communicatin g
 communicat i
 communicati o
 communicatio n
 communicat e
 comm o
 commo t
 commot i
 commoti o
 commotio n
 commo n
 comm it
 commit m
 commitm e
 commitme n
 commitmen t
 commitment s
 comm en
 commen t
 comment ed
 comm an
 comman d
 command s
 com in
 comin g
 com f
 comf y
 comf o
 comfo r
 comfor t
 comfort s
 comfort in
 comfortin g
 comforting l
 comfortingl y
 comfort ed
 comfort a
 comforta b
 comfortab l
 comfortabl y
 comfortabl e
 comf i
 com e
 come t
 comet s
 come s
 com b
 comb s
 comb in
 combin g
 combin ed
 combin e
 combin a
 combina t
 combinat i
 combinati o
 combinatio n
 combination s
 comb i
 combin in
 combinin g
 comb ed
 co l
 col u
 colu m
 colum n
 column s
 col ou
 colou r
 colour s
 colour in
 colourin g
 colour f
 colourf u
 colourfu l
 colour ed
 col o
 colo r
 color s
 color in
 colorin g
 color f
 colorf u
 colorfu l
 color ed
 colo n
 colon y
 col l
 coll i
 colli d
 collid ed
 coll e
 colle c
 collec to
 collecto r
 collec t
 collect s
 collect in
 collectin g
 collect i
 collecti o
 collectio n
 collection s
 collect ed
 coll a
 colla r
 collar s
 colla p
 collap s
 collaps in
 collapsin g
 collaps ed
 collaps e
 colla g
 collag e
 colla b
 collab o
 collabo r
 collabor a
 collabora t
 collaborat i
 collaborati o
 collaboratio n
 col d
 cold s
 cold n
 coldn e
 coldne s
 coldnes s
 cold er
 cold e
 colde s
 coldes t
 co in
 coin s
 coin c
 coinc i
 coinci d
 coincid e
 coincide n
 coinciden c
 coincidenc e
 co i
 coi l
 coil s
 coil ed
 co f
 cof f
 coff e
 coffe e
 coffee s
 co d
 cod e
 code s
 co c
 coc o
 coco o
 cocoo n
 cocoon s
 coco n
 cocon u
 coconu t
 coconut s
 coco a
 coc k
 cock p
 cockp it
 cock ed
 co b
 cob w
 cobw e
 cobwe b
 cobweb s
 cob s
 cob r
 cobr as
 cobr a
 co as
 coas t
 coast er
 co a
 coa x
 coax in
 coaxin g
 coax ed
 coa t
 coat s
 coat ed
 coa l
 coal s
 coa c
 coac h
 c l
 cl u
 clu t
 clut t
 clutt er
 clut c
 clutc he
 clutche d
 clutc h
 clutch in
 clutchin g
 clu s
 clus t
 clust er
 clu n
 clun k
 clun g
 clu m
 clum s
 clums y
 clums in
 clumsin e
 clumsine s
 clumsines s
 clums i
 clumsi l
 clumsil y
 clum p
 clu e
 clue s
 clu c
 cluc k
 cluck s
 cluck in
 cluckin g
 cluck ed
 clu b
 club s
 club h
 clubh ou
 clubhou s
 clubhous e
 cl ou
 clou d
 cloud y
 cloud s
 cloud l
 cloudl e
 cloudle s
 cloudles s
 cloud i
 cloudi e
 cloudie s
 cloudies t
 cloud ed
 cl o
 clo w
 clow n
 clown s
 clo v
 clov er
 clo th
 cloth s
 cloth i
 clothi n
 clothin g
 clo t
 clot he
 clothe s
 clothes p
 clothesp i
 clothespi n
 clothespin s
 clothes l
 clothesl i
 clothesli n
 clotheslin e
 clo s
 clos in
 closin g
 clos er
 clos ed
 clos e
 close t
 closet s
 close s
 closes t
 close l
 closel y
 close b
 closeb y
 clo p
 clo g
 clog g
 clogg ed
 clo c
 cloc k
 clock s
 clo a
 cloa k
 cl in
 clin k
 clink ed
 clin i
 clini c
 clin g
 cl i
 cli p
 clip s
 clip p
 clipp er
 clipper s
 clipp ed
 clip b
 clipb o
 clipbo a
 clipboa r
 clipboar d
 cli m
 clim b
 climb s
 climb in
 climbin g
 climb er
 climber s
 climb ed
 cli f
 clif f
 cliff s
 cli en
 clien t
 client s
 cli c
 clic k
 click s
 click in
 clickin g
 click ed
 cl er
 cler k
 clerk s
 cl en
 clen c
 clenc he
 clenche d
 cl e
 cle v
 clev er
 clever n
 clevern e
 cleverne s
 clevernes s
 clever l
 cleverl y
 clever e
 clevere s
 cleveres t
 clev e
 clever er
 cle an
 clean s
 clean n
 cleann e
 cleanne s
 cleannes s
 clean l
 cleanl i
 cleanli n
 cleanlin e
 cleanline s
 cleanlines s
 clean i
 cleani n
 cleanin g
 clean e
 cleane s
 cleanes t
 cleane r
 cleaner s
 cleane d
 cle a
 clea re
 cleare s
 cleares t
 clea r
 clear s
 clear l
 clearl y
 clear in
 clearin g
 clear er
 clear ed
 cl as
 clas s
 class r
 classr o
 classro o
 classroo m
 classroom s
 class m
 classm a
 classma t
 classmat e
 classmate s
 class e
 classe s
 clas p
 clasp ed
 clas he
 clashe d
 cl an
 clan k
 clan g
 cl a
 cla y
 cla w
 claw s
 claw in
 clawin g
 cla t
 clat t
 clatt er
 clatter i
 clatteri n
 clatterin g
 cla r
 clar it
 clarit y
 cla p
 clap s
 clap p
 clapp in
 clappin g
 clapp ed
 cla m
 clam b
 clamb er
 clamber ed
 cla i
 clai m
 claim in
 claimin g
 claim ed
 cla c
 clac k
 c it
 cit y
 cit i
 citi z
 citiz e
 citize n
 citizen s
 citi e
 citie s
 c in
 cin n
 cinn a
 cinna m
 cinnam o
 cinnamo n
 cin e
 cine m
 cinem a
 c i
 ci r
 cir c
 circ u
 circu s
 circu m
 circum s
 circums t
 circumst an
 circumstan c
 circumstanc e
 circu l
 circul a
 circula r
 circu it
 circuit s
 circ l
 circl in
 circlin g
 circl ed
 circl e
 circle s
 ci g
 cig a
 ciga re
 cigare t
 cigaret t
 cigarett e
 cigarette s
 ciga r
 ci d
 cid er
 c he
 che w
 chew y
 chew s
 chew i
 chewi n
 chewin g
 chew e
 chewe d
 che s
 ches t
 chest s
 ches s
 chess b
 chessb o
 chessbo a
 chessboa r
 chessboar d
 che r
 cher r
 cherr y
 cherr i
 cherri e
 cherrie s
 cher i
 cheri s
 cheris h
 che m
 chem i
 chemi c
 chemic a
 chemica l
 chemical s
 che f
 chef s
 che e
 chee t
 cheet a
 cheeta h
 cheetah s
 chee s
 chees y
 chees es
 chees e
 chee r
 cheer y
 cheer s
 cheer i
 cheeri n
 cheerin g
 cheer f
 cheerf u
 cheerfu l
 cheerful n
 cheerfuln e
 cheerfulne s
 cheerfulnes s
 cheerful l
 cheerfull y
 cheer e
 cheere d
 chee p
 chee k
 cheek y
 cheek s
 cheek i
 cheeki l
 cheekil y
 che c
 chec k
 check u
 checku p
 check s
 check o
 checko u
 checkou t
 check m
 checkm a
 checkma t
 checkmat e
 check i
 checki n
 checkin g
 check e
 checke r
 checke d
 che a
 chea t
 cheat i
 cheati n
 cheatin g
 cheat e
 cheate r
 cheate d
 chea p
 cheap e
 cheape s
 cheapes t
 cheape r
 c ha
 cha t
 chat t
 chatt in
 chattin g
 chatt er
 chatter s
 chatter i
 chatteri n
 chatterin g
 chatter ed
 chatt ed
 cha r
 char t
 chart s
 char m
 charm in
 charmin g
 charm ed
 char it
 charit y
 char g
 charg in
 chargin g
 charg er
 charg ed
 charg e
 charge s
 char a
 chara c
 charac t
 charact er
 character s
 cha p
 chap t
 chapt er
 cha o
 chao t
 chaot i
 chaoti c
 chao s
 cha m
 cham p
 champ i
 champi o
 champio n
 champion s
 cham e
 chame l
 chamel e
 chamele o
 chameleo n
 cham b
 chamb er
 chamber s
 cha l
 chal l
 chall e
 challe n
 challen g
 challeng in
 challengin g
 challeng ed
 challeng e
 challenge s
 chal k
 chalk s
 chalk b
 chalkb o
 chalkbo a
 chalkboa r
 chalkboar d
 cha in
 chain s
 cha i
 chai r
 chair s
 c h
 ch u
 chu r
 chur n
 churn ed
 chur c
 churc h
 chu n
 chun k
 chunk y
 chunk s
 chu g
 chug g
 chugg in
 chuggin g
 chugg ed
 chu c
 chuc k
 chuck l
 chuckl ed
 chuckl e
 chuckle s
 chu b
 chub b
 chubb y
 ch o
 cho s
 chos en
 chos e
 cho re
 chore s
 cho r
 chor u
 choru s
 chor d
 chord s
 cho p
 chop s
 chop p
 chopp y
 chopp in
 choppin g
 chopp i
 choppi er
 chopp ed
 cho o
 choo s
 choos in
 choosin g
 choos e
 choose s
 cho m
 chom p
 chomp in
 chompin g
 chomp ed
 cho k
 chok ed
 chok e
 cho i
 choi r
 choi c
 choic e
 choice s
 cho c
 choc o
 choco l
 chocol a
 chocola t
 chocolat e
 chocolate y
 chocolate s
 ch in
 chin n
 chinn y
 ch i
 chi r
 chir p
 chirp y
 chirp s
 chirp in
 chirpin g
 chirp ed
 chi p
 chip s
 chip p
 chipp in
 chippin g
 chipp ed
 chip m
 chipm u
 chipmu n
 chipmun k
 chipmunk s
 chi m
 chim n
 chimn e
 chimne y
 chimney s
 chim e
 chime s
 chi l
 chil l
 chill y
 chill s
 chill i
 chill ed
 chil i
 chil d
 child re
 childre n
 child i
 childi s
 childis h
 child h
 childh o
 childho o
 childhoo d
 chi e
 chie f
 chi c
 chic k
 chick s
 chick en
 chicken s
 cheris he
 cherishe d
 ch as
 chas in
 chasin g
 chas ed
 chas e
 chase s
 ch an
 chan t
 chant i
 chanti n
 chantin g
 chant e
 chante d
 chan n
 chann e
 channe l
 channel s
 chan g
 chang i
 changi n
 changin g
 chang e
 change s
 change r
 change d
 chan d
 chand e
 chande l
 chandel i
 chandeli e
 chandelie r
 chan c
 chanc e
 chance s
 c er
 cer t
 cert i
 certi f
 certif i
 certifi c
 certific a
 certifica t
 certificat e
 cert a
 certa i
 certai n
 certain l
 certainl y
 cer e
 cere m
 cerem o
 ceremo n
 ceremon y
 cere a
 cerea l
 cereal s
 c en
 cen t
 cent u
 centu r
 centur i
 centuri e
 centurie s
 cent s
 cent re
 cent r
 centr i
 centri f
 centrif u
 centrifu g
 centrifug e
 cent i
 centi p
 centip ed
 centiped e
 centi m
 centim e
 centime t
 centimet er
 centimeter s
 cent er
 c e
 ce m
 cem e
 ceme t
 cemet er
 cemeter y
 ce l
 cel l
 cell s
 cel er
 celer y
 cel e
 cele b
 celeb r
 celebr a
 celebra t
 celebrat in
 celebratin g
 celebrat i
 celebrati o
 celebratio n
 celebration s
 celebrat ed
 celebrat e
 ce i
 cei l
 ceil in
 ceilin g
 ceiling s
 c as
 cas t
 cast s
 cast l
 castl e
 castle s
 cast in
 castin g
 cas h
 cash i
 cashi er
 cas e
 case s
 cas c
 casc a
 casca d
 cascad ed
 c an
 can v
 canv a
 canva s
 can t
 cant e
 can s
 can o
 cano p
 canop y
 can n
 cann y
 cann o
 canno t
 canno n
 cannon s
 can i
 cani s
 canis t
 canist e
 caniste r
 can e
 cane s
 can d
 cand y
 candy m
 candym a
 candyma k
 candymak e
 candymake r
 cand l
 candl e
 candle s
 candle l
 candlel i
 candleli g
 candlelig h
 candleligh t
 cand i
 candi e
 candie s
 can c
 canc e
 cance r
 cance l
 cancel l
 cancell e
 cancelle d
 cancel e
 cancele d
 can a
 cana r
 canar y
 c a
 ca w
 caw s
 caw in
 cawin g
 caw ed
 ca v
 cav it
 cavit y
 cavit i
 caviti e
 cavitie s
 cav e
 cave s
 cave m
 cavem an
 ca u
 cau t
 caut i
 cauti ou
 cautiou s
 cautious l
 cautiousl y
 cauti o
 cautio n
 caution ed
 cau s
 caus in
 causin g
 caus ed
 caus e
 cause s
 cau l
 caul i
 cauli f
 caulif l
 caulifl o
 cauliflo w
 cauliflow er
 cauliflower s
 cau g
 caug h
 caugh t
 ca t
 cat t
 catt a
 catta i
 cattai l
 cattail s
 cat s
 cat n
 catn i
 catni p
 cat f
 cat er
 cater p
 caterp i
 caterpi l
 caterpil l
 caterpill a
 caterpilla r
 caterpillar s
 cat c
 catc he
 catche s
 catche r
 catcher s
 catc h
 catch y
 catch in
 catchin g
 ca re
 care t
 caret a
 careta k
 caretak er
 care s
 cares s
 care l
 carel e
 carele s
 careles s
 careless n
 carelessn e
 carelessne s
 carelessnes s
 careless l
 carelessl y
 care f
 caref u
 carefu l
 careful n
 carefuln e
 carefulne s
 carefulnes s
 careful l
 carefull y
 care er
 ca r
 car v
 carv in
 carvin g
 carving s
 carv ed
 carv e
 car to
 carto o
 cartoo n
 cartoon s
 carto n
 car t
 cart w
 cartw he
 cartwhe e
 cartwhee l
 cartwheel s
 cartwheel i
 cartwheeli n
 cartwheelin g
 cart s
 car s
 car r
 carr y
 carry in
 carryin g
 carr ou
 carrou s
 carrous e
 carrouse l
 carr o
 carro t
 carrot s
 carr i
 carri er
 carrier s
 carri ed
 carri e
 carrie s
 carri a
 carria g
 carriag e
 car p
 carp en
 carpen t
 carpent er
 carp e
 carpe t
 carpet s
 car ou
 carou s
 carous e
 carouse l
 car n
 carn i
 carni v
 carniv a
 carniva l
 car in
 carin g
 car g
 carg o
 car ed
 caref re
 carefre e
 car d
 card s
 card in
 cardin a
 cardina l
 card b
 cardb o
 cardbo a
 cardboa r
 cardboar d
 car a
 cara v
 carav an
 cara m
 caram e
 carame l
 ca p
 cap t
 capt u
 captu re
 captu r
 captur ed
 capt i
 capti v
 captiv a
 captiva t
 captivat in
 captivatin g
 captivat ed
 capt a
 capta in
 captain s
 cap s
 caps i
 capsi z
 capsiz ed
 cap it
 capit a
 capita l
 cap e
 cape s
 cap a
 capa b
 capab l
 capabl e
 ca m
 cam p
 camp s
 camps it
 campsit e
 camp in
 campin g
 camp g
 campg r
 campgr ou
 campgrou nd
 camp f
 campf i
 campfi re
 camp er
 camper s
 cam er
 camer a
 camera s
 cam e
 came l
 camel s
 ca l
 cal m
 calm s
 calm n
 calmn e
 calmne s
 calmnes s
 calm l
 calml y
 calm in
 calmin g
 calm er
 calm ed
 cal l
 call s
 call in
 callin g
 call ed
 cal f
 cal e
 cale nd
 calend a
 calenda r
 calendar s
 cal c
 calc u
 calcu l
 calcul a
 ca k
 cak e
 cake s
 ca g
 cag e
 cage s
 ca f
 caf �
 caf� �
 caf f
 caff e
 caffe in
 caffein e
 caf e
 cafe t
 cafet er
 cafeter i
 cafeteri a
 ca c
 cac t
 cact u
 cactu s
 cactus e
 cactuse s
 cact i
 cac k
 cack l
 cackl ed
 ca b
 cab o
 cabo o
 caboo s
 caboos e
 cab l
 cabl e
 cable s
 cab in
 cabin s
 cabin e
 cabine t
 cabinet s
 cab b
 cabb a
 cabba g
 cabbag e
 b z
 bz zz
 b y
 by e
 b u
 bu z
 buz z
 buzz i
 buzzi n
 buzzin g
 buzz er
 buzz ed
 buzz e
 buzze s
 bu y
 buy s
 buy i
 buyi n
 buyin g
 buy er
 buyer s
 bu t
 but to
 butto n
 button s
 but t
 butt s
 butt er
 butter y
 butter f
 butterf l
 butterfl y
 butterfly s
 butterfl i
 butterfli e
 butterflie s
 butter c
 butterc u
 buttercu p
 buttercup s
 but c
 butc he
 butche r
 bu s
 bus y
 bus t
 bust l
 bustl i
 bustli n
 bustlin g
 bustl e
 bus i
 busi n
 busin e
 busine s
 busines s
 business m
 businessm an
 busi l
 busil y
 busi er
 bus he
 bushe s
 bus h
 bush y
 bus e
 buse s
 bu r
 bur y
 bury i
 buryi n
 buryin g
 bur s
 burs t
 burst s
 burst i
 bursti n
 burstin g
 burst ed
 bur r
 burr o
 burro w
 burrow ed
 burr i
 burri to
 bur p
 burp s
 burp ed
 bur n
 burn t
 burn s
 burn i
 burni n
 burnin g
 burn ed
 bur l
 burl a
 burla p
 bur i
 buri ed
 buri e
 burie s
 bur g
 burg l
 burgl a
 burgla r
 burglar s
 burg er
 burger s
 bur d
 burd e
 burde n
 bu nd
 bund l
 bundl e
 bundle d
 bu n
 bun s
 bun n
 bunn y
 bunn i
 bunni e
 bunnie s
 bun c
 bunc he
 bunche s
 bunc h
 bu m
 bum p
 bump y
 bump s
 bump i
 bumpi n
 bumpin g
 bump er
 bump ed
 bum b
 bumb l
 bumbl e
 bumble b
 bumbleb e
 bumblebe e
 bumblebee s
 bu l
 bul l
 bull y
 bully i
 bullyi n
 bullyin g
 bull s
 bull i
 bulli ed
 bulli e
 bullie s
 bull e
 bulle t
 bullet s
 bull d
 bulld o
 bulldo z
 bulldoz er
 bul g
 bulg ed
 bulg e
 bul b
 bulb s
 bu i
 bui l
 buil t
 buil d
 build s
 build i
 buildi n
 buildin g
 building s
 build er
 builder s
 bu g
 bug s
 bug g
 bugg y
 bu f
 buf f
 bu d
 bud s
 bud g
 budg e
 budge t
 bud d
 budd y
 budd i
 buddi e
 buddie s
 bu c
 buc k
 buck l
 buckl i
 buckli n
 bucklin g
 buckl ed
 buckl e
 buckle s
 buck e
 bucke t
 bucket s
 bu b
 bub b
 bubb l
 bubbl y
 bubbl i
 bubbli n
 bubblin g
 bubbl ed
 bubbl e
 bubble s
 bubble g
 bubbleg u
 bubblegu m
 b r
 br u
 bru s
 brus he
 brushe s
 brushe d
 brus h
 brush i
 brushi n
 brushin g
 bru i
 brui s
 bruis ed
 bruis e
 bruise s
 br r
 brr rr
 br o
 bro w
 brow s
 brows i
 browsi n
 browsin g
 brow n
 brown i
 browni n
 brownin g
 browni e
 brownie s
 bro u
 brou g
 broug h
 brough t
 bro th
 bro t
 brot he
 brothe r
 brother s
 bro o
 broo m
 broom s
 brooms t
 broomst i
 broomsti c
 broomstic k
 broo k
 broo c
 brooc h
 bro n
 bron z
 bronz e
 bron to
 bronto s
 brontos a
 brontosa u
 brontosau r
 brontosaur u
 brontosauru s
 bro k
 brok e
 broke n
 bro c
 broc c
 brocc o
 brocco l
 broccol i
 bro a
 broa d
 broad l
 broadl y
 br i
 bri t
 brit t
 britt l
 brittl e
 bri s
 bris t
 brist l
 bristl e
 bristle s
 bri n
 brin g
 bring s
 bring i
 bringi n
 bringin g
 bri m
 bri l
 bril l
 brill i
 brilli an
 brillian t
 brilliant l
 brilliantl y
 brillian c
 brillianc e
 bri g
 brig h
 brigh t
 bright n
 brightn e
 brightne s
 brightnes s
 bright l
 brightl y
 bright er
 bright e
 brighte s
 brightes t
 brighte n
 brighten s
 brighten i
 brighteni n
 brightenin g
 brighten ed
 brig a
 briga d
 brigad e
 bri e
 brie f
 brief l
 briefl y
 brief c
 briefc a
 briefca s
 briefcas e
 bri d
 brid l
 bridl e
 brid g
 bridg e
 bridge s
 brid e
 bride s
 bri c
 bric k
 brick s
 bri b
 brib e
 br e
 bre w
 brew i
 brewi n
 brewin g
 brew ed
 bre ed
 bre e
 bree z
 breez y
 breez e
 breeze s
 bre a
 brea th
 breath t
 breatht a
 breathta k
 breathtak i
 breathtaki n
 breathtakin g
 breath s
 breath l
 breathl e
 breathle s
 breathles s
 breath i
 breathi n
 breathin g
 brea t
 breat he
 breathe s
 breathe r
 breathe d
 brea s
 breas t
 brea k
 break s
 break i
 breaki n
 breakin g
 break f
 breakf a
 breakfa s
 breakfas t
 break a
 breaka b
 breakab l
 breakabl e
 brea d
 bread s
 bread c
 breadc r
 breadcr u
 breadcru m
 breadcrum b
 breadcrumb s
 br an
 bran d
 bran c
 branc he
 branche s
 branc h
 br a
 bra y
 bray i
 brayi n
 brayin g
 bra v
 brav o
 brav er
 braver y
 brav ed
 brav e
 brave s
 braves t
 brave l
 bravel y
 bra t
 brat s
 bra s
 bras s
 bra m
 bram b
 bramb l
 brambl e
 bramble s
 bra k
 brak ed
 brak e
 brake s
 bra i
 brai n
 brain y
 brain s
 brains to
 brainsto r
 brainstor m
 brai d
 braid s
 bra g
 brag g
 bragg i
 braggi n
 braggin g
 bragg ed
 bra c
 brac ed
 brac e
 brace l
 bracel e
 bracele t
 bracelet s
 b o
 bo y
 boy s
 boy f
 boyf r
 boyfr i
 boyfri e
 boyfrie nd
 bo x
 box e
 boxe s
 bo w
 bow t
 bowt i
 bowti e
 bow s
 bows t
 bowst r
 bowstr i
 bowstri n
 bowstrin g
 bow l
 bowl s
 bowl i
 bowli n
 bowlin g
 bow i
 bowi n
 bowin g
 bow ed
 bo u
 bou q
 bouq u
 bouqu e
 bouque t
 bouquet s
 bou nd
 bound e
 bounde d
 bound a
 bounda r
 boundar i
 boundari e
 boundarie s
 bou n
 boun t
 bount y
 boun c
 bounc y
 bounc i
 bounci n
 bouncin g
 bounci er
 bounc er
 bounc ed
 bounc e
 bounce s
 bou l
 boul d
 bould er
 bou g
 boug h
 bough t
 bo th
 bo t
 bot to
 botto m
 bottom s
 bot t
 bott l
 bottl e
 bottle s
 bot he
 bothe r
 bother s
 bother i
 botheri n
 botherin g
 bother e
 bothere d
 bo s
 bos s
 boss y
 boss i
 bossi n
 bossin g
 bossin e
 bossine s
 bossines s
 bossi e
 bossie s
 bossies t
 boss ed
 bo r
 bor r
 borr o
 borro w
 borrow s
 borrow i
 borrowi n
 borrowin g
 borrow ed
 bor n
 bor i
 bori n
 borin g
 bor ed
 bored o
 boredo m
 bor d
 bord er
 bo p
 bop p
 bopp l
 boppl e
 bopp i
 boppi t
 boppit y
 bo o
 boo th
 booth s
 boo t
 boot s
 boo s
 boos t
 boost er
 boo p
 boo m
 boom s
 boom i
 boomi n
 boomin g
 boom ed
 boo k
 book s
 books to
 booksto r
 bookstor e
 books he
 bookshe l
 bookshel f
 books h
 booksh o
 booksho p
 book m
 bookm a
 bookma r
 bookmar k
 book ed
 book c
 bookc a
 bookca s
 bookcas e
 bookcase s
 boo i
 booi n
 booin g
 boo g
 boog i
 boogi e
 boog er
 booger s
 boo ed
 bo nd
 bo n
 bon y
 bon u
 bonu s
 bon n
 bonn e
 bonne t
 bon f
 bonf i
 bonfi r
 bonfir e
 bon e
 bone s
 bo m
 bom b
 bomb s
 bo l
 bol t
 bolt s
 bolt ed
 bol d
 bold l
 boldl y
 bo i
 boi n
 boin g
 boi l
 boil s
 boil i
 boili n
 boilin g
 boil ed
 bo g
 bo d
 bod y
 bod i
 bodi e
 bodie s
 bo b
 bob b
 bobb i
 bobbi n
 bobbin g
 bobb ed
 bo a
 boa t
 boat s
 boat m
 boatm an
 boat i
 boati n
 boatin g
 boa s
 boas t
 boast i
 boasti n
 boastin g
 boast f
 boastf u
 boastfu l
 boast ed
 boa r
 boar d
 board s
 board i
 boardi n
 boardin g
 board ed
 b l
 bl u
 blu s
 blus he
 blushe s
 blushe d
 blus h
 blush i
 blushi n
 blushin g
 blu r
 blur r
 blurr y
 blurr ed
 blu f
 bluf f
 bluff i
 bluffi n
 bluffin g
 blu e
 blue s
 blues t
 blue b
 blueb i
 bluebi r
 bluebir d
 bluebird s
 blueb er
 blueber r
 blueberr y
 blueberr i
 blueberri e
 blueberrie s
 blueb e
 bluebe l
 bluebel l
 bluebell s
 blu b
 bl o
 blo w
 blow s
 blow n
 blow i
 blowi n
 blowin g
 blow h
 blowh o
 blowho l
 blowhol e
 blow er
 blo u
 blou s
 blous e
 blouse s
 blo s
 blos s
 bloss o
 blosso m
 blossom s
 blossom i
 blossomi n
 blossomin g
 blossom ed
 blo q
 bloq u
 bloqu e
 blo o
 bloo m
 bloom s
 bloom i
 bloomi n
 bloomin g
 bloom ed
 bloo d
 blood y
 blo nd
 blond e
 blo c
 bloc k
 block s
 block i
 blocki n
 blockin g
 block ed
 blo b
 blob s
 bl i
 bli z
 bliz z
 blizz a
 blizza r
 blizzar d
 bli s
 blis t
 blist er
 blister s
 blister ed
 blis s
 bliss f
 blissf u
 blissfu l
 blissful l
 blissfull y
 bli nd
 blind e
 blinde d
 bli n
 blin k
 blink s
 blink i
 blinki n
 blinkin g
 blink ed
 bl ed
 bl e
 ble w
 ble s
 bles s
 bless i
 blessi n
 blessin g
 blessing s
 bless ed
 ble nd
 blend i
 blendi n
 blendin g
 blend e
 blende r
 blende d
 ble ed
 bleed s
 bleed i
 bleedi n
 bleedin g
 ble a
 blea t
 bleat i
 bleati n
 bleatin g
 bleat ed
 blea c
 bleac he
 bleache r
 bleacher s
 bleac h
 bl an
 blan k
 blank y
 blank e
 blanke t
 blanket s
 blan d
 bl a
 bla z
 blaz i
 blazi n
 blazin g
 blaz e
 bla s
 blas t
 blast i
 blasti n
 blastin g
 blast ed
 bla r
 blar i
 blari n
 blarin g
 bla m
 blam i
 blami n
 blamin g
 blam ed
 blam e
 blame s
 bla h
 bla d
 blad e
 blade s
 bla c
 blac k
 black s
 blacks m
 blacksm i
 blacksmi th
 black er
 black e
 black b
 blackb o
 blackbo a
 blackboa r
 blackboar d
 blackb i
 blackbi r
 blackbir d
 blackb er
 blackber r
 blackberr y
 blackberr i
 blackberri e
 blackberrie s
 b i
 bi t
 bit t
 bitt er
 bitter n
 bittern e
 bitterne s
 bitternes s
 bitt e
 bitte n
 bit s
 bit i
 biti n
 bitin g
 bit e
 bite s
 bi s
 bis h
 bish o
 bisho p
 bis c
 bisc u
 biscu i
 biscui t
 biscuit s
 bi r
 bir th
 birth d
 birthd a
 birthda y
 birthday s
 bir d
 bird y
 bird s
 birds o
 birdso n
 birdson g
 birds e
 birdse ed
 bird i
 birdi e
 bird h
 birdh o
 birdho u
 birdhou s
 birdhous e
 birdhouse s
 bird c
 birdc a
 birdca g
 birdcag e
 birdcage s
 bird b
 birdb a
 birdba th
 bi o
 bio l
 bi nd
 bi n
 bin s
 bin o
 bino c
 binoc u
 binocu l
 binocul a
 binocula r
 binocular s
 bin g
 bing o
 bi l
 bil l
 bill s
 bill o
 billo w
 billow i
 billowi n
 billowin g
 bill b
 billb o
 billbo a
 billboa r
 billboar d
 billboard s
 bi k
 bik i
 biki n
 bikin g
 bik ed
 bik e
 bike s
 bi g
 big g
 bigg er
 bigg e
 bigge s
 bigges t
 bi d
 bi c
 bic y
 bicy c
 bicyc l
 bicycl e
 bicycle s
 bic k
 bick er
 bicker i
 bickeri n
 bickerin g
 bi b
 b er
 ber th
 ber r
 berr y
 berry s
 berr i
 berri e
 berrie s
 b ed
 bed t
 bedt i
 bedti m
 bedtim e
 bed s
 beds p
 bedsp r
 bedspr e
 bedspre a
 bedsprea d
 beds i
 bedsi d
 bedsid e
 bed r
 bedr o
 bedro o
 bedroo m
 bedroom s
 bed p
 bedp o
 bedpo s
 bedpos t
 bed d
 bedd i
 beddi n
 beddin g
 b e
 be y
 bey o
 beyo nd
 be w
 bew i
 bewi l
 bewil d
 bewild er
 bewilder ed
 bew a
 bewa r
 bewar e
 be t
 bet w
 betw e
 betwe e
 betwee n
 bet t
 bett er
 bet r
 betr a
 betra y
 betray ed
 be s
 bes t
 bes i
[...]
