  t
h e
  a
t h
  s
a n
  w
n d
  h
e d
t o
e r
  b
i n
w a
r e
  f
  T
i t
o u
a s
h a
  l
  i
  d
T h
e n
  c
  p
a r
a y
  m
m e
v e
o m
a t
  o
l e
h i
s a
i s
n e
n g
o n
  n
e y
i m
t e
l l
i d
a l
k e
o r
c a
s t
  g
e a
o o
  S
l a
n t
l i
l o
o t
i l
a d
a i
u n
r i
u t
w i
e t
s h
a m
i r
p l
e l
b i
s e
r o
w e
d e
b e
e s
  r
r y
H e
  H
d a
m a
h o
l y
i g
e e
i e
o w
n o
t i
s o
  "
m o
f o
T i
  u
f r
c e
p p
O n
r a
  y
p e
a p
t t
b o
l d
  e
S h
u l
d o
c k
y o
  I
c o
g e
c h
t r
p o
u s
a w
o k
t a
r d
a c
n a
b a
u r
g h
u p
o g
  v
o f
b u
i c
  L
o y
u g
g o
f u
o l
p y
L i
n c
w h
d i
  B
a v
  k
e c
  M
T o
' s
w o
m i
a k
f e
p a
f i
r t
s i
. "
g i
o v
n y
e w
y e
s m
o p
i k
I t
g a
p i
! "
k i
e m
g r
t s
u c
m y
u e
a g
p r
o d
y s
e v
r s
n i
e i
a u
  A
f a
s k
c l
c i
i v
S a
s u
  j
S u
M a
f l
a b
B u
p u
b l
r r
n k
s s
r n
n n
n s
b r
e x
r u
? "
w n
t u
u d
i a
k n
s p
B e
u m
s c
' t
t y
a x
c r
o s
e p
l t
g s
  O
h u
W h
m p
y i
d r
o c
o i
m m
l s
i f
f t
d d
A n
j u
Y o
  W
o b
e f
M o
m u
M i
u i
l u
S p
a f
o x
i o
f f
c y
o a
S o
r m
  F
g g
  J
s w
m b
v i
  Y
L u
b y
q u
s l
, "
B o
H i
c u
W e
k y
L e
j o
  D
b b
e o
x c
� �
x p
i p
r f
h r
N o
g l
D o
Y e
  E
C a
h y
F r
A m
s n
A s
  C
o e
J a
v o
z e
e g
l f
t w
I n
E v
r g
u b
  q
i z
w l
D a
y a
g u
K i
i x
' m
r c
u f
  K
J o
d u
F i
a z
p s
  P
w r
  N
A t
y u
L o
p h
u a
F l
e h
  R
z z
W o
v a
A l
  �
  G
d v
B i
  z
o h
j e
n j
z i
z y
e b
d m
M r
j a
� �
J u
J i
d g
R e
e k
c c
J e
a h
" .
G o
O k
z o
C o
u z
G r
v y
W i
O h
n f
P l
H o
C h
l v
E m
P e
R o
S t
O K
m f
M u
! �
M y
  Z
B l
  -
E l
L a
P a
I f
p f
G i
H a
O f
P i
P o
W a
D u
A r
T r
B r
Z o
M e
T V
T e
D i
B a
F o
N e
R a
Z i
U n
  3
S e
T w
y g
  U
a e
O u
  '
O w
S n
B y
K a
Y u
I s
C l
e q
k u
R u
G e
T u
y l
E n
x y
' d
O r
h m
S i
R i
" ,
b j
Q u
P u
A b
T a
Y a
E a
P r
S k
S l
D e
K e
. .
  V
N i
S m
Z a
  Q
F a
  x
N a
D r
C r
y d

  
V e
A u
' .
A c
C u
E x
C i
A d
! '
H u
G u
F u
h h
A v
M m
. '
V i
a a
  X
O o
G a
A h
S w
F e
O t
  1
U h
  

S c
E w
   
? '
O p
y n
? !
U p
G l
E d
E r
C e
' "
I m
U s
- -
R y
1 0
' '
K n
T y
A g
  2
O x
W r
' ,
O v
H m
  5
O O
w w
� �
L y
, '
Y i
G w
' !
E g
I g
  4
S y
A w
R h
" !
O M
  9
u h
T H
e j
H E
E t
1 1
O P
M s
2 0
0 0
O c
U m
P O
N O
! ,
K y
A R
A S
! !
: "
N G
E E
  `
L A
A N
C R
R O
O b
5 0
  $
S P
! ?
  .
E s
B A
  8
C K
A P
A C
` `
S T
S N
" '
� �
� �
R E
O U
O N
I N
G O
E R
A T
A A
  ,
Z Z
R r
H O
. `
  (
  !
P s
E A
Y v
X I
O W
M A
H A
E S
. ,
  6
  &
R R
M E
  7
_ _
Q U
I S
I C
H I
E N
" ?
! .
� �
V E
U N
M M
L O
L I
E L
A Y
? `
9 9
� �
y y
` ,
U G
O H
O F
J J
% ,
�� �
��� �
��� �
�� �
��� �
�� �
��� �
    
     
  
 
 
  

 � �
 � �
 ‘ �
 ‘� �
 � �
 � �
 � �
 � �
 � �
 � �
 z zz
 z uc
 zuc ch
 zucch in
 zucchin i
 z oo
 zoo s
 zoo ke
 zooke e
 zookee p
 zookeep er
 zookeeper s
 z o
 zo om
 zoom s
 zoom in
 zoomin g
 zoom ed
 zo ne
 z ip
 zip s
 z ig
 zig z
 zigz a
 zigza g
 zigzag s
 zigzag g
 zigzagg in
 zigzaggin g
 zigzagg ed
 z i
 zi pp
 zipp y
 zipp in
 zippin g
 zipp er
 zipper s
 zipp ed
 z er
 zer o
 zero s
 z ee
  ze
 ze br
 zebr as
 ze b
 zeb ra
 z ap
 z ag
 zag g
 zagg in
 zaggin g
 zagg ed
 z a
 za pp
 zapp ed
 y u
 yu m
 yum m
 yumm y
 yumm ie
 yummie st
 yumm i
 yummi er
 yu c
 yuc k
 yuck y
 y ow
 yow l
 yowl s
 yowl ed
 y ou
 you th
 youth s
 youth f
 youthf u
 youthfu l
 you r
 your s
 yours e
 yourse l
 yoursel v
 yourselv e
 yourselve s
 yoursel f
 you n
 youn g
 young s
 youngs t
 youngst er
 youngster s
 young er
 young e
 younge s
 younges t
 y o
 yo l
 yol k
 yo g
 yog u
 yogu r
 yogur t
 yogurt s
 yog a
 y i
 yi pp
 yipp ed
 yi p
 yi el
 yiel d
 yield s
 yield in
 yieldin g
 yield ed
 y et
 yet i
 y es
 y er
 y el
 yel p
 yelp s
 yelp in
 yelpin g
 yelp ed
 y ea
 yea h
 y e
 ye st
 yest er
 yester d
 yesterd a
 yesterda y
 ye ll
 yell s
 yell o
 yello w
 yellow s
 yellow is
 yellowis h
 yellow e
 yellowe s
 yellowes t
 yell in
 yellin g
 yell ed
 ye as
 yeas t
 ye ar
 year s
 year n
 yearn in
 yearnin g
 yearn ed
 y ay
 y ar
 yar n
 yarn s
 yar d
 yard s
 y an
 yan k
 yank e
 yanke d
 y a
 ya w
 yaw n
 yawn s
 yawn in
 yawnin g
 yawn ed
 ya pp
 yapp ed
 ya c
 yac h
 yach t
 yacht s
  xy
 xy lo
 xylo p
 xylop h
 xyloph o
 xylopho ne
 w r
 wr u
 wru n
 wrun g
 wr o
 wro t
 wrot e
 wro n
 wron g
 wr i
 wri t
 writ t
 writt e
 writte n
 writ i
 writi n
 writin g
 writing s
 writ e
 write s
 write r
 wri s
 wris t
 wrist s
 wrist b
 wristb an
 wristban d
 wri n
 wrin k
 wrink l
 wrinkl y
 wrinkl i
 wrinkli n
 wrinklin g
 wrinkl e
 wrinkle s
 wrinkle d
 wri g
 wrig g
 wrigg l
 wriggl y
 wriggl i
 wriggli n
 wrigglin g
 wriggl e
 wriggle s
 wriggle d
 wr e
 wre s
 wres t
 wrest l
 wrestl e
 wre n
 wren c
 wrenc h
 wre c
 wrec k
 wreck s
 wreck e
 wrecke d
 wre a
 wrea th
 wr a
 wra p
 wrap s
 wrap p
 wrapp i
 wrappi n
 wrappin g
 wrapping s
 wrapp e
 wrappe r
 wrapper s
 wrappe d
 w o
 wo w
 wo v
 wov e
 wo u
 wou n
 woun d
 wound s
 wound e
 wounde d
 wou l
 woul d
 would n
 wo r
 wor th
 worth y
 worth w
 worthw h
 worthwh i
 worthwhi l
 worthwhil e
 worth l
 worthl e
 worthle s
 worthles s
 wor s
 wors t
 wors h
 worsh i
 worshi p
 wors e
 wor r
 worr y
 worry i
 worryi n
 worryin g
 worr i
 worri e
 worrie s
 worrie r
 worrie d
 worried l
 worriedl y
 wor n
 wor m
 worm y
 worm s
 wor l
 worl d
 world s
 wor k
 work s
 works p
 worksp a
 workspa c
 workspac e
 works he
 workshe e
 workshee t
 works h
 worksh o
 worksho p
 work i
 worki n
 workin g
 work e
 worke r
 worker s
 worke d
 work b
 workb e
 workbe n
 workben c
 workbenc h
 wor e
 wor d
 word s
 wo o
 woo z
 wooz y
 woo l
 wool l
 wooll y
 woo f
 woo d
 wood w
 woodw o
 woodwo r
 woodwor k
 woodwork e
 woodworke r
 wood s
 woods m
 woodsm an
 wood p
 woodp i
 woodpi l
 woodpil e
 woodp e
 woodpe c
 woodpec k
 woodpeck e
 woodpecke r
 wood l
 woodl an
 woodlan d
 woodland s
 wood e
 woode n
 wood c
 woodc u
 woodcu t
 woodcut t
 woodcutt e
 woodcutte r
 wo n
 won d
 wond r
 wondr o
 wondro u
 wondrou s
 wond e
 wonde r
 wonder s
 wonder m
 wonderm e
 wonderme n
 wondermen t
 wonder l
 wonderl an
 wonderlan d
 wonder i
 wonderi n
 wonderin g
 wonder f
 wonderf u
 wonderfu l
 wonderful l
 wonderfull y
 wonder e
 wondere d
 wo m
 wom e
 wome n
 wom an
 wo l
 wol v
 wolv e
 wolve s
 wol f
 wolf e
 wolfe d
 wo k
 wok e
 woke n
 wo b
 wob b
 wobb l
 wobbl y
 wobbl i
 wobbli n
 wobblin g
 wobbl e
 wobble s
 wobble d
 w i
 wi z
 wiz a
 wiza r
 wizar d
 wizard s
 wi v
 wiv e
 wive s
 wi th
 with o
 witho u
 withou t
 with i
 withi n
 wi t
 wit s
 wit n
 witn e
 witne s
 witnes s
 witness i
 witnessi n
 witnessin g
 witness e
 witnesse d
 wit he
 withe r
 wither e
 withere d
 wit c
 witc he
 witche s
 witc h
 wi s
 wis p
 wis he
 wishe s
 wishe d
 wis h
 wish i
 wishi n
 wishin g
 wis e
 wise s
 wises t
 wise r
 wise l
 wisel y
 wis d
 wisd o
 wisdo m
 wi r
 wir e
 wire s
 wi p
 wip i
 wipi n
 wipin g
 wip e
 wipe s
 wipe r
 wipe d
 wi n
 win t
 wint e
 winte r
 winter y
 winter s
 winter g
 winterg r
 wintergr e
 wintergre e
 wintergree n
 win s
 win n
 winn i
 winni n
 winnin g
 winning s
 winn e
 winne r
 winner s
 win k
 wink s
 wink i
 winki n
 winkin g
 wink e
 winke y
 winke d
 win g
 wing s
 wing e
 winge d
 win e
 wine s
 wine b
 wineb e
 winebe r
 wineber r
 wineberr y
 win d
 wind y
 wind s
 winds h
 windsh i
 windshi e
 windshie l
 windshiel d
 wind o
 windo w
 window s
 windows i
 windowsi l
 windowsil l
 wind m
 windm i
 windmi l
 windmil l
 wind i
 windi n
 windin g
 windi e
 windie r
 win c
 winc e
 wince d
 wi l
 wil t
 wilt i
 wilti n
 wiltin g
 wilt e
 wilte d
 wil l
 will o
 willo w
 will i
 willi n
 willin g
 willing n
 willingn e
 willingne s
 willingnes s
 wil d
 wild s
 wild l
 wildl y
 wildl i
 wildli f
 wildlif e
 wild f
 wildf l
 wildfl o
 wildflo w
 wildflow e
 wildflowe r
 wildflower s
 wild e
 wilde s
 wildes t
 wilde r
 wilder n
 wildern e
 wilderne s
 wildernes s
 wi g
 wig s
 wig g
 wigg l
 wiggl y
 wiggl i
 wiggli n
 wigglin g
 wiggl e
 wiggle s
 wiggle d
 wi f
 wif e
 wi d
 wid th
 wid e
 wide s
 wides t
 wide r
 wide n
 widen i
 wideni n
 widenin g
 widen e
 widene d
 wide l
 widel y
 wi c
 wic k
 wick e
 wicke d
 wicked l
 wickedl y
 w he
 whe r
 wher e
 where v
 wherev e
 whereve r
 where a
 whe n
 when e
 whene v
 whenev e
 wheneve r
 whe e
 whee z
 wheez e
 wheeze d
 whee l
 wheel s
 wheel i
 wheeli n
 wheelin g
 wheel e
 wheele d
 wheel c
 wheelc h
 wheelch a
 wheelcha i
 wheelchai r
 wheel b
 wheelb a
 wheelba r
 wheelbar r
 wheelbarr o
 wheelbarro w
 whe a
 whea t
 w h
 wh y
 wh o
 who s
 whos e
 who o
 whoo s
 whoos h
 whoosh i
 whooshi n
 whooshin g
 whoo p
 whoop i
 whoopi n
 whoopin g
 whoop e
 whoope e
 who m
 who l
 whol e
 who e
 whoe v
 whoev e
 whoeve r
 who a
 wh i
 whi z
 whiz z
 whizz i
 whizzi n
 whizzin g
 whizz e
 whizze d
 whi t
 whit t
 whitt l
 whittl e
 whittle d
 whit e
 white s
 white b
 whiteb o
 whitebo a
 whiteboa r
 whiteboar d
 whi s
 whis t
 whist l
 whistl i
 whistli n
 whistlin g
 whistl e
 whistle s
 whistle r
 whistle d
 whis p
 whisp e
 whispe r
 whisper y
 whisper s
 whisper i
 whisperi n
 whisperin g
 whisper e
 whispere r
 whispere d
 whis k
 whisk e
 whiske r
 whisker s
 whiske d
 whi r
 whir r
 whirr i
 whirri n
 whirrin g
 whirr e
 whirre d
 whir l
 whirl w
 whirlw i
 whirlwi n
 whirlwin d
 whirl i
 whirli n
 whirlin g
 whirl e
 whirle d
 whi p
 whip s
 whip p
 whipp i
 whippi n
 whippin g
 whipp e
 whippe d
 whi n
 whin n
 whinn y
 whinn i
 whinni e
 whinnie d
 whin i
 whini n
 whinin g
 whin e
 whine s
 whine d
 whi m
 whim p
 whimp e
 whimpe r
 whimper s
 whimper i
 whimperi n
 whimperin g
 whimper e
 whimpere d
 whi l
 whil s
 whils t
 whil e
 whi f
 whif f
 whi c
 whic he
 whiche v
 whichev e
 whicheve r
 whic h
 whe t
 whet he
 whethe r
 wh a
 wha t
 what e
 whate v
 whatev e
 whateve r
 wha l
 whal e
 whale s
 wha c
 whac k
 w e
 we t
 wet t
 wett i
 wetti n
 wettin g
 wett e
 wette s
 wettes t
 wette r
 wet s
 wets u
 wetsu i
 wetsui t
 wet n
 wetn e
 wetne s
 wetnes s
 we s
 wes t
 we r
 wer e
 were n
 we p
 wep t
 we n
 wen t
 we l
 wel l
 well s
 well i
 welli n
 wellin g
 welli e
 wellie s
 well e
 welle d
 wel c
 welc o
 welco m
 welcom i
 welcomi n
 welcomin g
 welcom e
 welcome d
 we i
 wei r
 weir d
 weird e
 weirde s
 weirdes t
 weirde r
 wei g
 weig he
 weighe d
 weig h
 weigh t
 weight s
 weight l
 weigh s
 weigh i
 weighi n
 weighin g
 we e
 wee p
 weep s
 weep i
 weepi n
 weepin g
 weep e
 weepe r
 weeper s
 weepe d
 wee k
 week s
 week l
 weekl y
 week e
 weeke n
 weeken d
 weekend s
 wee d
 weed s
 weed i
 weedi n
 weedin g
 weed e
 weede d
 we d
 wed g
 wedg e
 wedge d
 wed d
 wedd i
 weddi n
 weddin g
 we b
 web s
 web b
 webb e
 webbe d
 we a
 wea v
 weav i
 weavi n
 weavin g
 weav e
 weave d
 wea t
 weat he
 weathe r
 wea r
 wear y
 wear s
 wear i
 weari n
 wearin g
 wea p
 weap o
 weapo n
 weapon s
 wea l
 weal th
 wealth y
 wealth i
 wealthi e
 wealthie s
 wealthies t
 wealthie r
 wea k
 weak n
 weakn e
 weakne s
 weaknes s
 weakness e
 weaknesse s
 weak l
 weakl y
 weak e
 weake s
 weakes t
 weake r
 w an
 wan t
 want s
 want i
 wanti n
 wantin g
 want e
 wante d
 wan n
 wann a
 wan d
 wand s
 wand e
 wande r
 wander i
 wanderi n
 wanderin g
 wandering s
 wander e
 wandere d
 w a
 wa y
 way s
 wa x
 wa v
 wav y
 wav i
 wavi n
 wavin g
 wav e
 wave s
 wave d
 wa t
 wat e
 wate r
 water y
 water s
 waters l
 watersl i
 watersli d
 waterslid e
 water p
 waterp r
 waterpr o
 waterpro o
 waterproo f
 water m
 waterm e
 waterme l
 watermel o
 watermelo n
 water i
 wateri n
 waterin g
 water f
 waterf a
 waterfa l
 waterfal l
 waterfall s
 water e
 watere d
 wat c
 watc he
 watche s
 watche r
 watche d
 watc h
 watch m
 watchm an
 watch i
 watchi n
 watchin g
 watch f
 watchf u
 watchfu l
 wa s
 was t
 wast i
 wasti n
 wastin g
 wast e
 waste s
 waste f
 wastef u
 wastefu l
 waste d
 was p
 wasp s
 was n
 was he
 washe s
 washe r
 washer s
 washe d
 was h
 wash s
 wash i
 washi n
 washin g
 wash c
 washc l
 washcl o
 washclo th
 wash a
 washa b
 washab l
 washabl e
 wa r
 war y
 war s
 war r
 warr i
 warri o
 warrio r
 warrior s
 war n
 warn s
 warn i
 warni n
 warnin g
 warning s
 warn e
 warne d
 war m
 warm th
 warm s
 warm l
 warml y
 warm i
 warmi n
 warmin g
 warm e
 warme s
 warmes t
 warme r
 warme d
 war e
 ware s
 war d
 ward r
 wardr o
 wardro b
 wardrob e
 wa l
 wal r
 walr u
 walru s
 wal l
 wall s
 wall e
 walle t
 wallet s
 wal k
 walk w
 walkw a
 walkwa y
 walk s
 walk i
 walki n
 walkin g
 walki e
 walk e
 walke r
 walke d
 wa k
 wak i
 waki n
 wakin g
 wak e
 wake s
 wa i
 wai t
 wait s
 wait r
 waitr e
 waitre s
 waitres s
 wait i
 waiti n
 waitin g
 wait e
 waite r
 waiter s
 waite d
 wai s
 wais t
 waist s
 waist c
 waistc o
 waistco a
 waistcoa t
 wai l
 wail e
 waile d
 wa g
 wag s
 wag o
 wago n
 wagon s
 wag g
 wagg y
 wagg l
 waggl e
 waggle d
 wagg i
 waggi n
 waggin g
 wagg e
 wagge d
 wa f
 waf t
 waft i
 wafti n
 waftin g
 waft e
 wafte d
 waf f
 waff l
 waffl e
 waffle s
 wa d
 wad e
 wade d
 wad d
 wadd l
 waddl i
 waddli n
 waddlin g
 waddl e
 waddle s
 waddle d
 wa a
 v ro
 vro om
 v ow
 vow s
 vow in
 vowin g
 vow ed
 v om
 vom it
 v o
 vo y
 voy a
 voya ge
 vo te
 vo l
 vol un
 volun te
 volunte er
 volunteer ed
 vol u
 volu me
 vol ta
 volta ge
 vol le
 volle y
 volley b
 volleyb a
 volleyba l
 volleybal l
 vol c
 volc an
 volcan o
 volcano e
 volcanoe s
 vo i
 voi ce
 voi c
 voic es
 v it
 vit a
 vita m
 vitam in
 vitamin s
 v is
 vis it
 visit s
 visit in
 visitin g
 visit ed
 vis i
 visi to
 visito r
 visitor s
 visi o
 visio n
 visi b
 visib le
 v ir
 vir u
 viru s
 vir t
 virt u
 virtu e
 virtu al
 v in
 vin e
 vine y
 viney a
 vineya r
 vineyar d
 vine s
 vine g
 vineg a
 vinega r
 v ig
 vig or
 vigor ou
 vigorou s
 vigorous l
 vigorousl y
 vig il
 vigil an
 vigilan t
 v ie
 vie w
 view s
 view er
 viewer s
 view ed
 v id
 vid e
 vide o
 video s
 v i
 vi x
 vix en
 vi v
 viv id
 vi o
 vio le
 viole t
 violet s
 vio l
 viol in
 violin s
 violin i
 violini s
 violinis t
 viol en
 violen t
 violent l
 violentl y
 violen c
 violenc e
 viol at
 violat ed
 vi ll
 vill a
 villa in
 villain s
 villa g
 villag er
 villager s
 villag e
 village s
 vi c
 vic to
 victo r
 victor y
 victor i
 victori o
 victorio u
 victoriou s
 vic t
 vict im
 vic i
 vici ou
 viciou s
 vi be
 vibe s
 vi b
 vib r
 vibr at
 vibrat in
 vibratin g
 vibrat i
 vibrati o
 vibratio n
 vibrat e
 vibr an
 vibran t
 v er
 ver y
 ver s
 vers i
 versi o
 versio n
 vers e
 ver b
 v en
 ven t
 vent u
 ventu re
 ventu r
 ventur in
 venturin g
 ventur ed
 ven o
 veno m
 ven g
 veng e
 venge f
 vengef u
 vengefu l
 v el
 vel ve
 velve t
  ve
 ve t
 vet er
 veter i
 veteri n
 veterin a
 veterina r
 veterinar i
 veterinari an
 veterinarian s
 ve s
 ves t
 vest s
 ve nd
 vend o
 vendo r
 vendor s
 vend i
 vendi n
 vendin g
 ve in
 vein s
 ve i
 vei l
 veil s
 ve h
 veh i
 vehi c
 vehic l
 vehicl e
 vehicle s
 ve g
 veg g
 vegg i
 veggi e
 veggie s
 veg e
 vege t
 veget a
 vegeta b
 vegetab l
 vegetabl e
 vegetable s
 v as
 vas t
 vast n
 vastn e
 vastne s
 vastnes s
 vas e
 vase s
 v ar
 var i
 vari ou
 variou s
 vari e
 varie t
 variet y
 v an
 van s
 van i
 vani s
 vanis he
 vanishe d
 vanis h
 vanish i
 vanishi n
 vanishin g
 vani l
 vanil l
 vanill a
 v am
 vam p
 vamp i
 vampi re
 v al
 val ve
 val u
 valu in
 valuin g
 valu ed
 valu e
 value s
 valu a
 valua b
 valuab le
 valuable s
 val le
 valle y
 valley s
 val id
 v ac
 vac u
 vacu u
 vacuu m
 vacuum ed
 vac at
 vacat i
 vacati o
 vacatio n
 vacation s
 v a
 va in
  ut
 ut t
 utt er
 utter ed
 ut en
 uten s
 utens i
 utensi l
 utensil s
 u se
 use s
 use le
 usele s
 useles s
 use f
 usef u
 usefu l
 u s
 us u
 usu al
 usu a
 usua ll
 usuall y
 us in
 usin g
 us ed
 u r
 ur g
 urg in
 urgin g
 urg es
 urg en
 urgen t
 urgent l
 urgentl y
 urg ed
 urg e
 ur c
 urc h
 urch in
 u p
 up wa
 upwa r
 upwar d
 upward s
 up st
 upst re
 upstre a
 upstrea m
 upst a
 upsta i
 upstai r
 upstair s
 up s
 ups id
 upsid e
 ups et
 upset t
 upsett in
 upsettin g
 up ri
 upri v
 upriv er
 upri g
 uprig h
 uprigh t
 up r
 upr oo
 uproo t
 up p
 upp er
 up on
 up d
 upd at
 up c
 upc om
 upcom in
 upcomin g
 u nt
 unt y
 unty in
 untyin g
 unt w
 untw is
 untwis t
 untwist ed
 unt id
 untid y
 unt i
 unti l
 unti ed
 unti e
 untie s
 unt an
 untan g
 untang l
 untangl i
 untangli n
 untanglin g
 untangl e
 untangle s
 untangle d
 u ng
 ung r
 ungr at
 ungrat e
 ungrate f
 ungratef u
 ungratefu l
 u ne
 une x
 unex p
 unexp e
 unexpe c
 unexpec t
 unexpect ed
 unexpected l
 unexpectedl y
 une v
 unev en
 une as
 uneas y
 une ar
 unear t
 uneart he
 unearthe d
 u nd
 und r
 undr e
 undre s
 undres s
 undress e
 undresse d
 und o
 undo n
 undon e
 undo i
 undoi n
 undoin g
 und i
 undi d
 und e
 unde t
 undet e
 undete r
 undeter r
 undeterr e
 undeterre d
 unde r
 under w
 underw e
 underwe a
 underwea r
 underw a
 underwa t
 underwat e
 underwate r
 under s
 unders t
 underst o
 understo o
 understoo d
 underst an
 understan d
 understand s
 understand i
 understandi n
 understandin g
 understanding l
 understandingl y
 under n
 undern e
 underne a
 undernea th
 under g
 underg r
 undergr o
 undergro w
 undergrow th
 under e
 undere s
 underes t
 underest i
 underesti m
 underestim a
 underestima t
 underestimat e
 underestimate d
  un
 un z
 unz i
 unzi p
 unzip s
 unzip p
 unzipp in
 unzippin g
 unzipp ed
 un w
 unw r
 unwr a
 unwra p
 unwrap s
 unwrap p
 unwrapp in
 unwrappin g
 unwrapp ed
 unw ou
 unwou nd
 unw e
 unwe ll
 unw an
 unwan t
 unwant e
 unwante d
 un u
 unu sa
 unusa l
 unu s
 unus u
 unusu al
 unusu a
 unusua ll
 unusuall y
 unus ed
 un to
 unto u
 untou c
 untouc he
 untouche d
 un st
 unst u
 unstu c
 unstuc k
 unst a
 unsta b
 unstab le
 un sa
 unsa f
 unsaf e
 un s
 uns u
 unsu re
 unsu p
 unsup er
 unsuper v
 unsuperv i
 unsupervi s
 unsupervis ed
 unsu c
 unsuc c
 unsucc e
 unsucce s
 unsucces s
 unsuccess f
 unsuccessf u
 unsuccessfu l
 uns to
 unsto p
 unstop p
 unstopp a
 unstoppa b
 unstoppab l
 unstoppabl e
 uns te
 unste a
 unstea d
 unstead y
 uns o
 unso l
 unsol v
 unsolv ed
 uns h
 unsh e
 unshe at
 unsheat he
 unsheathe d
 uns e
 unse l
 unsel f
 unself is
 unselfis h
 unse en
 uns c
 unsc re
 unscre w
 unscrew ed
 unsc r
 unsc at
 unscat he
 unscathe d
 un re
 unre c
 unrec o
 unreco r
 unrecor d
 unrecord ed
 unre a
 un r
 unr o
 unro ll
 unroll ed
 unr a
 unra ve
 unrave l
 unravel ed
 un p
 unp r
 unpr ed
 unpred i
 unpredi c
 unpredic t
 unpredict a
 unpredicta b
 unpredictab l
 unpredictabl e
 unp o
 unpo p
 unpop u
 unpopu l
 unpopul ar
 unp le
 unple as
 unpleas an
 unpleasan t
 unp l
 unpl u
 unplu g
 unplug g
 unplugg ed
 unp a
 unpa c
 unpac k
 unpack in
 unpackin g
 unpack ed
 un ne
 unne c
 unnec e
 unnece s
 unneces s
 unnecess ar
 unnecessar y
 un n
 unn ot
 unnot i
 unnoti c
 unnotic ed
 un m
 un lo
 unlo c
 unloc k
 unlock s
 unlock in
 unlockin g
 unlock ed
 unlo a
 unloa d
 unload in
 unloadin g
 unload ed
 un li
 unli ke
 unlike l
 unlikel y
 un le
 unle s
 unles s
 un l
 unl u
 unlu c
 unluc k
 unluck y
 un k
 unk n
 unkn o
 unkno w
 unknow n
 unknow in
 unknowin g
 unknowing l
 unknowingl y
 unk i
 unki nd
 un it
 unit y
 unit in
 unitin g
 unit ed
 unit e
 unite s
 un is
 unis o
 uniso n
 un in
 unin t
 unint er
 uninter e
 unintere s
 uninteres t
 uninterest i
 uninteresti n
 uninterestin g
 un im
 unim p
 unimp re
 unimpre s
 unimpres s
 unimpress ed
 unimp o
 unimpo r
 unimpor t
 unimport an
 unimportan t
 un i
 uni v
 univ er
 univer s
 univers i
 universi t
 universit y
 univers e
 universe s
 uni q
 uniq u
 uniqu en
 uniquen e
 uniquene s
 uniquenes s
 uniqu e
 uni f
 unif or
 unifor m
 uniform s
 uni c
 unic y
 unicy c
 unicyc le
 unic or
 unicor n
 unicorn s
 un he
 unhe l
 unhel p
 unhelp f
 unhelpf u
 unhelpfu l
 unhe a
 unhea l
 unheal t
 unhealt h
 unhealth y
 un ha
 unha r
 unhar m
 unharm ed
 unha p
 unhap p
 unhapp y
 unhapp in
 unhappin e
 unhappine s
 unhappines s
 unhapp i
 unhappi l
 unhappil y
 un h
 unh u
 unhu r
 unhur t
 unh oo
 unhoo k
 unhook ed
 un f
 unf u
 unfu r
 unfur l
 unfurl ed
 unfu l
 unful f
 unfulf i
 unfulfi ll
 unfulfill ed
 unf re
 unfre e
 unfree z
 unfreez e
 unfreeze s
 unf r
 unfr o
 unfro z
 unfroz en
 unfroz e
 unf or
 unfor t
 unfort u
 unfortu n
 unfortun at
 unfortunat e
 unfortunate l
 unfortunatel y
 unfor g
 unforg e
 unforge t
 unforget t
 unforgett a
 unforgetta b
 unforgettab le
 unf o
 unfo l
 unfol d
 unfold in
 unfoldin g
 unfold ed
 unf in
 unfin i
 unfini s
 unfinis he
 unfinishe d
 unf ai
 unfai r
 unfair l
 unfairl y
 unf a
 unfa z
 unfaz ed
 unfa m
 unfam i
 unfami li
 unfamili ar
 undergro u
 undergrou nd
 un c
 unc u
 uncu r
 uncur l
 unc on
 uncon t
 uncont r
 uncontr o
 uncontro l
 uncontrol l
 uncontroll a
 uncontrolla b
 uncontrollab l
 uncontrollabl y
 uncon s
 uncons c
 unconsc i
 unconsci ou
 unconsciou s
 unc om
 uncom f
 uncomf o
 uncomfo r
 uncomfor t
 uncomfort a
 uncomforta b
 uncomfortab l
 uncomfortabl e
 unc o
 unco v
 uncov er
 uncover ed
 unco nd
 uncond i
 uncondi t
 uncondit i
 unconditi o
 unconditio n
 uncondition a
 unconditiona l
 unc le
 uncle s
 unc er
 uncer t
 uncert a
 uncerta i
 uncertai n
 uncertain t
 uncertaint y
 un b
 unb u
 unbu c
 unbuc k
 unbuck le
 unbuck l
 unbuckl ed
 unb r
 unbr o
 unbro k
 unbrok en
 unb e
 unbe li
 unbeli e
 unbelie v
 unbeliev a
 unbelieva b
 unbelievab le
 unbe k
 unbek n
 unbekn o
 unbekno w
 unbeknow n
 unbe ar
 unbear a
 unbeara b
 unbearab l
 unbearabl e
 un a
 una wa
 unawa r
 unawar e
 una v
 unav o
 unavo id
 unavoid a
 unavoida b
 unavoidab le
 una f
 unaf r
 unafr a
 unafra id
 una b
 unab le
 u m
 um b
 umb re
 umbre l
 umbrel l
 umbrell a
 umbrella s
 u l
 ul t
 ult im
 ultim at
 ultimat e
 u h
 u g
 ug ly
 ug li
 ugli e
 uglie st
 t y
 ty r
 tyr e
 tyre s
 tyr a
 tyra n
 tyran n
 tyrann o
 tyranno s
 tyrannos a
 tyrannosa u
 tyrannosau r
 tyrannosaur u
 tyrannosauru s
 ty p
 typ i
 typi n
 typin g
 typ e
 type s
 type d
 ty i
 tyi n
 tyin g
 t w
 tw o
 tw i
 twi t
 twit t
 twitt e
 twitte r
 twitter e
 twittere d
 twit c
 twitc h
 twitch i
 twitchi n
 twitchin g
 twitch e
 twitche d
 twi s
 twis t
 twist y
 twist s
 twist i
 twisti n
 twistin g
 twist e
 twiste r
 twiste d
 twi r
 twir l
 twirl y
 twirl s
 twirl i
 twirli n
 twirlin g
 twirl e
 twirle r
 twirle d
 twi n
 twin s
 twin k
 twink l
 twinkl y
 twinkl i
 twinkli n
 twinklin g
 twinkl e
 twinkle s
 twinkle d
 twin g
 twing e
 twin e
 twi g
 twig s
 twi d
 twid d
 twidd l
 twiddl e
 twi c
 twic e
 tw e
 twe n
 twen t
 twent y
 twe l
 twel v
 twelv e
 twe e
 twee z
 tweez e
 tweeze r
 twee t
 tweet i
 tweeti n
 tweetin g
 tweet e
 tweete d
 t v
 t u
 tu t
 tut u
 tut t
 tutt i
 tut o
 tuto r
 tutor s
 tutor i
 tutori n
 tutorin g
 tu s
 tus s
 tuss l
 tussl e
 tus k
 tusk s
 tu r
 tur t
 turt l
 turtl e
 turtle s
 tur r
 turr e
 turre t
 turret s
 tur q
 turq u
 turqu o
 turquo i
 turquoi s
 turquois e
 tur n
 turn y
 turn s
 turn i
 turni p
 turnip s
 turni n
 turnin g
 turn e
 turne d
 tur m
 turm o
 turmo i
 turmoi l
 tur k
 turk e
 turke y
 turkey s
 tur b
 turb u
 turbu l
 turbul e
 turbule n
 turbulen c
 turbulenc e
 turb a
 turba n
 tu n
 tun n
 tunn e
 tunne l
 tunnel s
 tun e
 tune s
 tun a
 tu m
 tum m
 tumm y
 tummy a
 tummya c
 tummyac h
 tummyach e
 tumm i
 tummi e
 tummie s
 tum b
 tumb l
 tumbl i
 tumbli n
 tumblin g
 tumbl e
 tumble d
 tu l
 tul i
 tuli p
 tulip s
 tu g
 tug s
 tug g
 tugg i
 tuggi n
 tuggin g
 tugg e
 tugge d
 tu c
 tuc k
 tuck s
 tuck i
 tucki n
 tuckin g
 tuck e
 tucke r
 tucker e
 tuckere d
 tucke d
 tu b
 tub e
 tube s
 t r
 tr y
 try i
 tryi n
 tryin g
 tr u
 tru t
 trut h
 truth s
 truth f
 truthf u
 truthfu l
 tru s
 trus t
 trust y
 trust w
 trustw o
 trustwo r
 trustwor t
 trustwort h
 trustworth y
 trust s
 trust i
 trusti n
 trustin g
 trust e
 truste d
 tru n
 trun k
 trunk s
 trun d
 trund l
 trundl e
 tru m
 trum p
 trump e
 trumpe t
 trumpet s
 trumpet i
 trumpeti n
 trumpetin g
 trumpet e
 trumpete d
 tru l
 trul y
 tru e
 tru d
 trud g
 trudg i
 trudgi n
 trudgin g
 trudg e
 trudge d
 tru c
 truc k
 truck s
 tr o
 tro v
 trov e
 tro u
 trou t
 trou s
 trous e
 trouse r
 trouser s
 trou p
 troup e
 trou g
 troug h
 trou b
 troub l
 troubl i
 troubli n
 troublin g
 troubl e
 trouble s
 troubles o
 troubleso m
 troublesom e
 trouble m
 troublem a
 troublema k
 troublemak e
 troublemake r
 trouble d
 tro t
 trot t
 trott i
 trotti n
 trottin g
 trott e
 trotte d
 trot s
 tro p
 trop i
 tropi c
 tropic a
 tropica l
 trop h
 troph y
 troph i
 trophi e
 trophie s
 tro l
 trol l
 troll s
 troll e
 trolle y
 tr i
 tri u
 triu m
 trium p
 triump h
 triumph a
 triumpha n
 triumphan t
 triumphant l
 triumphantl y
 tri p
 trip s
 trip p
 tripp i
 trippi n
 trippin g
 tripp e
 trippe d
 tri o
 tri n
 trin k
 trink e
 trinke t
 trinket s
 tri m
 trim m
 trimm i
 trimmi n
 trimmin g
 trimm e
 trimme d
 tri l
 tril l
 tri k
 trik e
 tri g
 trig g
 trigg e
 trigge r
 trigger s
 trigger e
 triggere d
 tri e
 trie s
 trie d
 tri c
 tric y
 tricy c
 tricyc l
 tricycl e
 tricycle s
 tric k
 trick y
 trick s
 tricks t
 trickst e
 trickste r
 trick l
 trickl i
 trickli n
 tricklin g
 trickl e
 trickle d
 trick i
 tricki n
 trickin g
 trick e
 tricke d
 tric e
 trice r
 tricer a
 tricera t
 tricerat o
 tricerato p
 triceratop s
 tri a
 tria n
 trian g
 triang l
 triangl e
 triangle s
 tria l
 tr e
 tre s
 tres p
 tresp a
 trespa s
 trespas s
 trespass i
 trespassi n
 trespassin g
 trespass e
 trespasse r
 trespasser s
 trespasse d
 tre n
 tren d
 tren c
 trenc h
 tre m
 trem e
 treme n
 tremen d
 tremend o
 tremendo u
 tremendou s
 trem b
 tremb l
 trembl y
 trembl i
 trembli n
 tremblin g
 trembl e
 tremble s
 tremble d
 tre k
 trek k
 trekk e
 trekke d
 tre e
 tree t
 treet o
 treeto p
 treetop s
 tree s
 tree h
 treeh o
 treeho u
 treehou s
 treehous e
 tre a
 trea t
 treat s
 treat m
 treatm e
 treatme n
 treatmen t
 treatment s
 treat i
 treati n
 treatin g
 treat e
 treate d
 trea s
 treas u
 treasu r
 treasur e
 treasure s
 treasure d
 trea d
 trea c
 treac h
 treach e
 treache r
 treacher o
 treachero u
 treacherou s
 tr a
 tra y
 tray s
 tra v
 trav e
 trave l
 travel s
 travel l
 travell i
 travelli n
 travellin g
 travell e
 travelle r
 traveller s
 travelle d
 travel i
 traveli n
 travelin g
 travel e
 travele r
 traveler s
 travele d
 tra s
 tras h
 tra p
 trap s
 trap p
 trapp i
 trappi n
 trappin g
 trapp e
 trappe d
 tra n
 tran s
 trans p
 transp o
 transpo r
 transpor t
 transport e
 transporte d
 trans f
 transf o
 transfo r
 transfor m
 transform i
 transformi n
 transformin g
 transform e
 transforme d
 transform a
 transforma t
 transformat i
 transformati o
 transformatio n
 tran q
 tranq u
 tranqu i
 tranqui l
 tranquil i
 tranquili z
 tranquiliz e
 tranquilize r
 tra m
 tram p
 tramp o
 trampo l
 trampol i
 trampoli n
 trampolin e
 trampoline s
 tramp l
 trampl e
 trample d
 tra i
 trai t
 trait s
 trai n
 train s
 train i
 traini n
 trainin g
 train e
 traine r
 traine d
 trai l
 trail s
 trail i
 traili n
 trailin g
 trail e
 traile r
 tra g
 trag i
 tragi c
 trag e
 trage d
 traged y
 tra f
 traf f
 traff i
 traffi c
 tra d
 trad i
 tradi t
 tradit i
 traditi o
 traditio n
 tradi n
 tradin g
 trad e
 trade s
 trade r
 trader s
 trade d
 tra c
 trac t
 tract o
 tracto r
 tractor s
 trac k
 track s
 track i
 tracki n
 trackin g
 track e
 tracke d
 trac i
 traci n
 tracin g
 trac e
 trace d
 t o
 to y
 toy s
 toy b
 toyb o
 toybo x
 to w
 tow n
 town s
 towns p
 townsp e
 townspe o
 townspeo p
 townspeop l
 townspeopl e
 towns f
 townsf o
 townsfo l
 townsfol k
 tow e
 towe r
 tower s
 tower i
 toweri n
 towerin g
 tower e
 towere d
 towe l
 towel s
 tow a
 towa r
 towar d
 toward s
 to u
 tou s
 tous l
 tou r
 tour s
 tour n
 tourn a
 tourna m
 tournam e
 tourname n
 tournamen t
 tou g
 toug h
 tough e
 toughe s
 toughes t
 toughe r
 tou c
 touc h
 touch i
 touchi n
 touchin g
 touch e
 touche s
 touche d
 to t
 tot a
 tota l
 total l
 totall y
 to s
 tos s
 toss i
 tossi n
 tossin g
 toss e
 tosse s
 tosse d
 to r
 tor t
 tort o
 torto i
 tortoi s
 tortois e
 tor n
 torn a
 torna d
 tornad o
 tornado s
 tornado e
 tornadoe s
 tor e
 tor c
 torc h
 to p
 top s
 top p
 topp l
 toppl e
 topple d
 topp i
 toppi n
 toppin g
 topping s
 top i
 topi c
 topic s
 to o
 too t
 toot h
 tooth p
 toothp i
 toothpi c
 toothpic k
 toothpick s
 toothp a
 toothpa s
 toothpas t
 toothpast e
 tooth b
 toothb r
 toothbr u
 toothbru s
 toothbrus h
 toothbrush e
 toothbrushe s
 tooth a
 tootha c
 toothac h
 toothach e
 toot e
 toote d
 too l
 tool s
 tool b
 toolb o
 toolbo x
 too k
 to n
 ton s
 ton i
 toni g
 tonig h
 tonigh t
 ton g
 tong u
 tongu e
 tongue s
 tong s
 ton e
 tone s
 to m
 tom o
 tomo r
 tomor r
 tomorr o
 tomorro w
 tom a
 toma t
 tomat o
 tomato e
 tomatoe s
 to l
 tol l
 tol e
 tole r
 toler a
 tolera n
 toleran t
 tol d
 to k
 tok e
 toke n
 token s
 to i
 toi l
 toil e
 toile t
 toilet s
 to g
 tog e
 toge t
 toget h
 togeth e
 togethe r
 together n
 togethern e
 togetherne s
 togethernes s
 to f
 tof f
 toff e
 toffe e
 toffee s
 to e
 toe s
 to d
 tod d
 todd l
 toddl i
 toddli n
 toddlin g
 toddl e
 toddle r
 toddler s
 toddle d
 tod a
 toda y
 to c
 toc k
 tock s
 tock i
 tocki n
 tockin g
 tock e
 tocke d
 to a
 toa s
 toas t
 toast y
 toast s
 toast e
 toaste r
 toaste d
 toa d
 toad s
 toads t
 toadst o
 toadsto o
 toadstoo l
 t i
 ti t
 tit l
 titl e
 title s
 ti s
 tis s
 tiss u
 tissu e
 tissue s
 ti r
 tir i
 tiri n
 tirin g
 tir e
 tire s
 tire l
 tirel e
 tirele s
 tireles s
 tireless l
 tirelessl y
 tire d
 tired n
 tiredn e
 tiredne s
 tirednes s
 ti p
 tip t
 tipt o
 tipto e
 tiptoe s
 tiptoe d
 tip s
 tip p
 tipp y
 tipp i
 tippi n
 tippin g
 tipp e
 tippe d
 ti n
 tin y
 tin s
 tins e
 tinse l
 tin k
 tink l
 tinkl i
 tinkli n
 tinklin g
 tink e
 tinke r
 tinker i
 tinkeri n
 tinkerin g
 tin i
 tini e
 tinie s
 tinies t
 tin g
 ting l
 tingl y
 tingl i
 tingli n
 tinglin g
 tingl e
 ti m
 tim i
 timi n
 timin g
 timi d
 timid l
 timidl y
 tim e
 time s
 time r
 time o
 timeo u
 timeou t
 ti l
 til t
 tilt s
 tilt i
 tilti n
 tiltin g
 tilt e
 tilte d
 til l
 til e
 tile s
 ti g
 tig h
 tigh t
 tight r
 tightr o
 tightro p
 tightrop e
 tightrope s
 tight n
 tightn e
 tightne s
 tightnes s
 tight l
 tightl y
 tight e
 tighte s
 tightes t
 tighte r
 tighte n
 tighten s
 tighten i
 tighteni n
 tightenin g
 tighten e
 tightene d
 tig e
 tige r
 tiger s
 ti e
 tie s
 tie d
 ti d
 tid y
 tidy i
 tidyi n
 tidyin g
 tid i
 tidi n
 tidin e
 tidine s
 tidines s
 tidi e
 tidie s
 tidies t
 tidie r
 tidie d
 tid e
 tide s
 ti c
 tic k
 tick s
 tick l
 tickl y
 tickl i
 tickli s
 ticklis h
 tickli n
 ticklin g
 tickl e
 tickle s
 tickle d
 tick i
 ticki n
 tickin g
 tick e
 ticke t
 ticket s
 ticke d
 ti a
 tia r
 tiar a
 t h
 th w
 th u
 thu s
 thu n
 thun d
 thund e
 thunde r
 thunder s
 thunders t
 thunderst o
 thundersto r
 thunderstor m
 thunderstorm s
 thunder o
 thundero u
 thunderou s
 thunder i
 thunderi n
 thunderin g
 thunder e
 thundere d
 thunder c
 thunderc l
 thundercl o
 thunderclo u
 thunderclou d
 thundercloud s
 thundercl a
 thundercla p
 thu m
 thum p
 thump i
 thumpi n
 thumpin g
 thump e
 thumpe d
 thum b
 thumb t
 thumbt a
 thumbta c
 thumbtac k
 thumbtack s
 thumb s
 thu d
 th r
 thr u
 thr o
 thro w
 throw s
 throw n
 throw i
 throwi n
 throwin g
 throw e
 throwe r
 thro u
 throu g
 throug h
 through o
 througho u
 throughou t
 thro n
 thron e
 throne s
 thro b
 thro a
 throa t
 throat s
 thr i
 thri v
 thriv e
 thri l
 thril l
 thrill i
 thrilli n
 thrillin g
 thrill e
 thrille d
 thri f
 thrif t
 thr e
 thre w
 thre e
 thre a
 threa t
 threat s
 threat e
 threate n
 threaten i
 threateni n
 threatenin g
 threaten e
 threatene d
 threa d
 thread s
 thread i
 threadi n
 threadin g
 thread e
 threade d
 thr a
 thra s
 thras h
 th o
 tho u
 thou s
 thous a
 thousa n
 thousan d
 thousand s
 thou g
 thoug h
 though t
 thought s
 thought f
 thoughtf u
 thoughtfu l
 thoughtful n
 thoughtfuln e
 thoughtfulne s
 thoughtfulnes s
 thoughtful l
 thoughtfull y
 tho s
 thos e
 tho r
 thor o
 thoro u
 thorou g
 thoroug h
 thorough l
 thoroughl y
 thor n
 thorn s
 th i
 thi s
 thi r
 thir t
 thirt y
 thirt e
 thirte e
 thirtee n
 thir s
 thirs t
 thirst y
 thir d
 thi n
 thin n
 thinn e
 thinne s
 thinnes t
 thinne r
 thin k
 think s
 think i
 thinki n
 thinkin g
 think e
 thinke r
 thinker s
 thin g
 thing s
 thi m
 thim b
 thimb l
 thimbl e
 thimble b
 thimbleb e
 thimblebe r
 thimbleber r
 thimbleberr y
 thi e
 thie v
 thiev e
 thieve s
 thie f
 thi c
 thic k
 thick e
 thicke s
 thickes t
 thicke r
 th e
 the y
 they d
 the s
 thes e
 the r
 ther m
 therm o
 thermo m
 thermom e
 thermome t
 thermomet e
 thermomete r
 thermometer s
 ther e
 ther a
 thera p
 therap i
 therapi s
 therapis t
 the n
 the m
 them s
 thems e
 themse l
 themsel v
 themselv e
 themselve s
 themsel f
 them e
 the i
 thei r
 their s
 the a
 thea t
 theat r
 theatr e
 theat e
 theate r
 th a
 tha w
 tha t
 that s
 tha n
 than k
 thank s
 thank i
 thanki n
 thankin g
 thank f
 thankf u
 thankfu l
 thankful n
 thankfuln e
 thankfulne s
 thankfulnes s
 thankful l
 thankfull y
 thank e
 thanke d
 t e
 te x
 tex t
 text u
 textu r
 textur e
 texture s
 te s
 tes t
 test s
 test i
 testi n
 testin g
 test e
 teste d
 te r
 ter r
 terr o
 terro r
 terror i
 terr i
 terri t
 territ o
 territo r
 territor y
 terri f
 terrif y
 terrify i
 terrifyi n
 terrifyin g
 terrif i
 terrifi e
 terrifie d
 terrifi c
 terri b
 terrib l
 terribl y
 terribl e
 terr a
 terra i
 terrai n
 ter n
 ter m
 term s
 term i
 te n
 ten t
 tent s
 tent h
 tent a
 tenta t
 tentat i
 tentati v
 tentativ e
 tentative l
 tentativel y
 tenta c
 tentac l
 tentacl e
 tentacle s
 ten s
 tens i
 tensi o
 tensio n
 ten n
 tenn i
 tenni s
 ten d
 tend i
 tendi n
 tendin g
 tend e
 tende r
 tender l
 tenderl y
 tende d
 te m
 tem p
 temp t
 tempt i
 tempti n
 temptin g
 tempt e
 tempte d
 tempt a
 tempta t
 temptat i
 temptati o
 temptatio n
 temp o
 tempo r
 tempor a
 tempora r
 temporar y
 temp l
 templ e
 temp e
 tempe r
 temper a
 tempera t
 temperat u
 temperatu r
 temperatur e
 te l
 tel l
 tell s
 tell i
 telli n
 tellin g
 tell e
 telle r
 tel e
 tele v
 telev i
 televi s
 televis i
 televisi o
 televisio n
 television s
 tele s
 teles c
 telesc o
 telesco p
 telescop e
 tele p
 telep h
 teleph o
 telepho n
 telephon e
 telephone s
 te e
 tee t
 teet h
 teet e
 teete r
 teeter e
 teetere d
 tee p
 teep e
 teepe e
 tee n
 teen a
 teena g
 teenag e
 teenage r
 tee m
 teem i
 teemi n
 teemin g
 te d
 ted d
 tedd y
 teddy b
 teddyb e
 teddybe a
 teddybea r
 tedd i
 teddi e
 teddie s
 te c
 tec h
 tech n
 techn o
 techno l
 technol o
 technolo g
 technolog y
 techn i
 techni q
 techniq u
 techniqu e
 technique s
 techni c
 technic i
 technici a
 technicia n
 te a
 tea s
 teas p
 teasp o
 teaspo o
 teaspoo n
 teaspoon s
 teas i
 teasi n
 teasin g
 teas e
 tease s
 tease d
 tea r
 tear y
 tear s
 tear i
 teari n
 tearin g
 tear f
 tearf u
 tearfu l
 tearful l
 tearfull y
 tea p
 teap o
 teapo t
 tea m
 team w
 teamw o
 teamwo r
 teamwor k
 team s
 team m
 teamm a
 teamma t
 teammat e
 teammate s
 tea c
 teac u
 teacu p
 teacup s
 teac h
 teach i
 teachi n
 teachin g
 teaching s
 teach e
 teache s
 teache r
 teacher s
 t a
 ta x
 tax i
 taxi s
 ta u
 tau n
 taun t
 taunt e
 taunte d
 tau g
 taug h
 taugh t
 ta t
 tat t
 tatt e
 tatte r
 tatter e
 tattere d
 ta s
 tas t
 tast y
 tast i
 tasti n
 tastin g
 tasti e
 tastie s
 tasties t
 tastie r
 tast e
 taste s
 taste f
 tastef u
 tastefu l
 taste d
 tas s
 tass e
 tasse l
 tassel s
 tas k
 task s
 task e
 taske d
 ta r
 tar t
 tar p
 tar g
 targ e
 targe t
 target s
 ta p
 tap s
 tap p
 tapp i
 tappi n
 tappin g
 tapp e
 tappe d
 tap i
 tapi n
 tapin g
 tap e
 tape s
 tape d
 ta n
 tan t
 tant r
 tantr u
 tantru m
 tantrum s
 tan k
 tank s
 tan g
 tang y
 tang l
 tangl e
 tangle d
 ta m
 tam e
 tame r
 tam b
 tamb o
 tambo u
 tambou r
 tambour i
 tambouri n
 tambourin e
 ta l
 tal o
 talo n
 talon s
 tal l
 tall e
 talle s
 talles t
 talle r
 tal k
 talk s
 talk i
 talki n
 talkin g
 talk e
 talke d
 talk a
 talka t
 talkat i
 talkati v
 talkativ e
 tal e
 tale s
 tale n
 talen t
 talent s
 talent e
 talente d
 ta k
 tak i
 taki n
 takin g
 tak e
 take s
 take r
 take o
 takeo u
 takeou t
 takeo f
 takeof f
 take n
 ta i
 tai l
 tail s
 tail o
 tailo r
 ta g
 tag s
 tag g
 tagg e
 tagge d
 ta d
 tad p
 tadp o
 tadpo l
 tadpol e
 tadpole s
 ta c
 tac t
 tact i
 tacti c
 tactic s
 tac o
 taco s
 tac k
 tack l
 tackl i
 tackli n
 tacklin g
 tackl e
 ta b
 tab l
 tabl e
 table t
 table s
 table c
 tablec l
 tablecl o
 tableclo t
 tableclot h
 s y
 sy s
 sys t
 syst e
 syste m
 sy r
 syr u
 syru p
 syr i
 syri n
 syrin g
 syring e
 sy m
 sym p
 symp a
 sympa t
 sympat he
 sympathe t
 sympathet i
 sympatheti c
 sympathetic a
 sympathetica l
 sympathetical l
 sympatheticall y
 sym b
 symb o
 symbo l
 symbol s
 symbol i
 symboli z
 symboliz e
 symbolize d
 s w
 sw u
 swu n
 swun g
 swu m
 sw o
 swo r
 swor e
 swor d
 sword s
 swo o
 swoo s
 swoos h
 swoosh i
 swooshi n
 swooshin g
 swoo p
 swoop s
 swoop i
 swoopi n
 swoopin g
 swoop e
 swoope d
 swo l
 swol l
 swoll e
 swolle n
 sw i
 swi t
 swit c
 switc he
 switche s
 switche d
 switc h
 switch i
 switchi n
 switchin g
 swi s
 swis he
 swishe d
 swis h
 swish i
 swishi n
 swishin g
 swi r
 swir l
 swirl s
 swirl i
 swirli n
 swirlin g
 swirl e
 swirle d
 swi p
 swip e
 swipe d
 swi n
 swin g
 swing s
 swings e
 swingse t
 swing i
 swingi n
 swingin g
 swing e
 swinge r
 swi m
 swim s
 swims u
 swimsu i
 swimsui t
 swimsuit s
 swim m
 swimm i
 swimmi n
 swimmin g
 swimm e
 swimme r
 swimmer s
 swi f
 swif t
 swift l
 swiftl y
 sw e
 swe r
 swer v
 swerv e
 swerve d
 swe p
 swep t
 swe l
 swel l
 swell e
 swelle d
 swe e
 swee t
 sweet y
 sweet s
 sweet n
 sweetn e
 sweetne s
 sweetnes s
 sweet l
 sweetl y
 sweet i
 sweeti e
 sweetie s
 sweet he
 sweethe a
 sweethea r
 sweethear t
 sweet e
 sweete s
 sweetes t
 sweete r
 swee p
 sweep i
 sweepi n
 sweepin g
 swe a
 swea t
 sweat y
 sweat i
 sweati n
 sweatin g
 sweat e
 sweate r
 sweater s
 sweate d
 sw a
 swa y
 sway i
 swayi n
 swayin g
 sway e
 swaye d
 swa t
 swat t
 swatt i
 swatti n
 swattin g
 swatt e
 swatte r
 swatte d
 swa r
 swar m
 swarm i
 swarmi n
 swarmin g
 swa p
 swap p
 swapp e
 swappe d
 swa n
 swan s
 swa m
 swam p
 swa l
 swal l
 swall o
 swallo w
 swallow s
 swallow i
 swallowi n
 swallowin g
 swallow e
 swallowe d
 s u
 su s
 sus p
 susp i
 suspi c
 suspic i
 suspici o
 suspicio u
 suspiciou s
 suspicious l
 suspiciousl y
 susp e
 suspe n
 suspen s
 suspens e
 suspe c
 suspec t
 suspect e
 suspecte d
 sus h
 sush i
 su r
 sur v
 surv i
 survi v
 surviv o
 survivo r
 survivor s
 surviv e
 survive d
 surv e
 surve y
 survey e
 surveye d
 sur r
 surr o
 surro u
 surrou n
 surroun d
 surround i
 surroundi n
 surroundin g
 surrounding s
 surround e
 surrounde d
 surr e
 surre n
 surren d
 surrend e
 surrende r
 surrender i
 surrenderi n
 surrenderin g
 surrender e
 surrendere d
 sur p
 surp r
 surpr i
 surpri z
 surpriz e
 surpri s
 surpris i
 surprisi n
 surprisin g
 surprising l
 surprisingl y
 surpris e
 surprise s
 surprise d
 sur g
 surg e
 surge r
 surger y
 surge d
 sur f
 surf i
 surfi n
 surfin g
 surf e
 surfe r
 surfer s
 surfe d
 surf b
 surfb o
 surfbo a
 surfboa r
 surfboar d
 surfboard s
 surf a
 surfa c
 surfac e
 surface s
 surface d
 sur e
 sure l
 surel y
 su p
 sup r
 supr i
 supri s
 supris e
 sup p
 supp o
 suppo s
 suppos e
 suppose d
 suppo r
 suppor t
 support s
 support i
 supporti v
 supportiv e
 supporti n
 supportin g
 support e
 supporte d
 supp l
 suppl y
 supply i
 supplyi n
 supplyin g
 suppl i
 suppli e
 supplie s
 supplie d
 supp e
 suppe r
 sup e
 supe r
 super v
 superv i
 supervi s
 supervis i
 supervisi o
 supervisio n
 supervis e
 super p
 superp o
 superpo w
 superpow e
 superpowe r
 superpower s
 super m
 superm a
 superma r
 supermar k
 supermark e
 supermarke t
 super i
 superi o
 superio r
 super he
 superhe r
 superher o
 superhero e
 superheroe s
 su n
 sun s
 suns h
 sunsh i
 sunshi n
 sunshin e
 suns e
 sunse t
 sunset s
 suns c
 sunsc r
 sunscr e
 sunscre e
 sunscree n
 sun r
 sunr i
 sunri s
 sunris e
 sunrise s
 sunr a
 sunra y
 sunray s
 sun n
 sunn y
 sunn i
 sunni n
 sunnin g
 sunni e
 sunnie r
 sun l
 sunl i
 sunli t
 sunli g
 sunlig h
 sunligh t
 sun k
 sunk e
 sunke n
 sun h
 sunh a
 sunha t
 sun g
 sung l
 sungl a
 sungla s
 sunglas s
 sunglass e
 sunglasse s
 sun f
 sunf l
 sunfl o
 sunflo w
 sunflow e
 sunflowe r
 sunflower s
 sun d
 sund o
 sundo w
 sundow n
 sund a
 sunda e
 sun b
 sunb u
 sunbu r
 sunbur n
 sunburn s
 sunb e
 sunbe a
 sunbea m
 sunbeam s
 sunb a
 sunba th
 sunbath i
 sunbathi n
 sunbathin g
 sunba t
 sunbat he
 su m
 sum s
 sum m
 summ o
 summo n
 summon e
 summone d
 summ i
 summi t
 summ e
 summe r
 summer t
 summert i
 summerti m
 summertim e
 summer s
 su l
 sul k
 sulk s
 sulk e
 sulke d
 su i
 sui t
 suit s
 suit c
 suitc a
 suitca s
 suitcas e
 suitcase s
 suit a
 suita b
 suitab l
 suitabl e
 su g
 sug g
 sugg e
 sugge s
 sugges t
 suggest s
 suggest i
 suggesti o
 suggestio n
 suggestion s
 suggesti n
 suggestin g
 suggest e
 suggeste d
 sug a
 suga r
 sugar y
 su f
 suf f
 suff o
 suffo c
 suffoc a
 suffoca t
 suffocat e
 suff e
 suffe r
 suffer s
 suffer i
 sufferi n
 sufferin g
 suffer e
 suffere d
 su e
 su d
 sud s
 sud d
 sudd e
 sudde n
 sudden l
 suddenl y
 su c
 suc k
 suck s
 suck i
 sucki n
 suckin g
 suck e
 sucke r
 sucker s
 sucke d
 suc h
 suc c
 succ u
 succu l
 succul e
 succule n
 succulen t
 succ e
 succe s
 succes s
 success f
 successf u
 successfu l
 successful l
 successfull y
 success e
 successe s
 succe e
 succee d
 succeed i
 succeedi n
 succeedin g
 succeed e
 succeede d
 su b
 sub w
 subw a
 subwa y
 sub t
 subt r
 subtr a
 subtra c
 subtrac t
 subtract i
 subtracti n
 subtractin g
 sub s
 subs t
 subst a
 substa n
 substan c
 substanc e
 subs i
 subsi d
 subsid e
 subside d
 sub m
 subm a
 subma r
 submar i
 submari n
 submarin e
 sub j
 subj e
 subje c
 subjec t
 subject s
 s t
 st y
 sty l
 styl i
 styli s
 stylis t
 stylis h
 styl e
 style s
 style d
 st u
 stu t
 stut t
 stutt e
 stutte r
 stutter e
 stuttere d
 stu r
 stur d
 sturd y
 stu p
 stup i
 stupi d
 stu n
 stun t
 stunt s
 stun n
 stunn i
 stunni n
 stunnin g
 stunn e
 stunne d
 stun g
 stu m
 stum p
 stump e
 stumpe d
 stum b
 stumb l
 stumbl i
 stumbli n
 stumblin g
 stumbl e
 stumble s
 stumble d
 stu f
 stuf f
 stuff y
 stuff i
 stuffi n
 stuffin g
 stuff e
 stuffe d
 stu d
 stud y
 study i
 studyi n
 studyin g
 stud i
 studi o
 studi e
 studie s
 studie d
 stud e
 stude n
 studen t
 student s
 stu c
 stuc k
 stu b
 stub o
 stubo r
 stubor n
 stub b
 stubb o
 stubbo r
 stubbor n
 stubborn n
 stubbornn e
 stubbornne s
 stubbornnes s
 stubborn l
 stubbornl y
 stubb e
 stubbe d
 st r
 str u
 stru t
 strut t
 strutt i
 strutti n
 struttin g
 strutt e
 strutte d
 stru m
 strum s
 strum m
 strumm i
 strummi n
 strummin g
 strumm e
 strumme d
 stru g
 strug g
 strugg l
 struggl i
 struggli n
 strugglin g
 struggl e
 struggle s
 struggle d
 stru c
 struc t
 struct u
 structu r
 structur e
 structure s
 struc k
 str o
 stro n
 stron g
 strong l
 strongl y
 strong e
 stronge s
 stronges t
 stronge r
 stro l
 strol l
 stroll s
 stroll i
 strolli n
 strollin g
 stroll e
 strolle r
 strolle d
 stro k
 strok i
 stroki n
 strokin g
 strok e
 stroke s
 stroke d
 stro d
 strod e
 str i
 stri v
 striv e
 stri p
 strip s
 strip e
 stripe y
 stripe s
 stripe d
 stri n
 strin g
 string s
 stri k
 strik i
 striki n
 strikin g
 strik e
 strike s
 stri d
 strid e
 stride s
 stri c
 stric t
 str e
 stre w
 strew n
 stre t
 stret c
 stretc he
 stretche s
 stretche r
 stretche d
 stretc h
 stretch y
 stretch i
 stretchi n
 stretchin g
 stre s
 stres s
 stress e
 stresse d
 stre n
 stren g
 streng th
 strength s
 streng t
 strengt he
 strengthe n
 strengthen e
 strengthene d
 stre e
 stree t
 street s
 stre a
 strea m
 stream s
 stream i
 streami n
 streamin g
 stream e
 streame r
 streamer s
 streame d
 strea k
 streak y
 streak s
 streak e
 streake d
 str a
 stra y
 stray i
 strayi n
 strayin g
 stray e
 straye d
 stra w
 straw s
 straw b
 strawb e
 strawbe r
 strawber r
 strawberr y
 strawberr i
 strawberri e
 strawberrie s
 stra t
 strat e
 strate g
 strateg y
 stra p
 strap s
 strap p
 strapp e
 strappe d
 stra n
 stran g
 strang e
 strange s
 stranges t
 strange r
 stranger s
 strange l
 strangel y
 stran d
 strand s
 strand e
 strande d
 stra i
 strai n
 strain e
 straine r
 straine d
 strai g
 straig h
 straigh t
 straight e
 straighte n
 straighten e
 straightene d
 straight a
 straighta w
 straightaw a
 straightawa y
 st o
 sto v
 stov e
 stove t
 stovet o
 stoveto p
 stove s
 sto r
 stor y
 story t
 storyt e
 storyte l
 storytel l
 storytell e
 storytelle r
 story b
 storyb o
 storybo o
 storyboo k
 storybook s
 stor m
 storm y
 storm s
 storm e
 storme d
 stor k
 stor i
 stori n
 storin g
 stori e
 storie s
 stor e
 store s
 store o
 storeo w
 storeow n
 storeown e
 storeowne r
 store k
 storek e
 storeke e
 storekee p
 storekeep e
 storekeepe r
 store d
 stor a
 stora g
 storag e
 sto p
 stop s
 stop p
 stopp i
 stoppi n
 stoppin g
 stopp e
 stoppe d
 sto o
 stoo p
 stoop e
 stoope d
 stoo l
 stool s
 stoo d
 sto n
 ston e
 stone s
 sto m
 stom p
 stomp s
 stomp i
 stompi n
 stompin g
 stomp e
 stompe d
 stom a
 stoma c
 stomac h
 stomach s
 stomach a
 stomacha c
 stomachac he
 sto l
 stol e
 stole n
 sto c
 stoc k
 stock i
 stocki n
 stockin g
 stocking s
 st i
 sti t
 stit c
 stitc he
 stitche s
 stitche d
 stitc h
 stitch i
 stitchi n
 stitchin g
 sti r
 stir s
 stir rr
 stir r
 stirr i
 stirri n
 stirrin g
 stirr e
 stirre r
 stirre d
 sti n
 stin k
 stink y
 stink s
 stin g
 sting y
 sting s
 sting i
 stingi n
 stingin g
 sting e
 stinge r
 stinger s
 sti l
 stil t
 stilt s
 stil l
 still n
 stilln e
 stillne s
 stillnes s
 sti f
 stif f
 stiff l
 stiffl y
 stiff e
 stiffe n
 stiffen e
 stiffene d
 sti c
 stic k
 stick y
 stick s
 stick i
 sticki n
 stickin g
 stick e
 sticke r
 sticker s
 st e
 ste w
 stew a
 stewa r
 stewar d
 ste th
 steth o
 stetho s
 stethos c
 stethosc o
 stethosco p
 stethoscop e
 stethoscope s
 ste r
 ster n
 stern l
 sternl y
 ste p
 step s
 step p
 stepp i
 steppi n
 steppin g
 stepp e
 steppe d
 ste n
 sten c
 stenc h
 ste m
 stem s
 ste g
 steg o
 ste e
 stee r
 steer s
 steer i
 steeri n
 steerin g
 steer e
 steere d
 stee p
 steep n
 steepn e
 steepne s
 steepnes s
 steep e
 steepe r
 stee l
 ste a
 stea m
 steam y
 steam i
 steami n
 steamin g
 steam e
 steame d
 stea l
 steal s
 steal i
 steali n
 stealin g
 stea k
 steak s
 stea d
 stead y
 stead i
 steadi l
 steadil y
 st a
 sta y
 stay s
 stay i
 stayi n
 stayin g
 stay e
 staye d
 sta t
 stat u
 statu e
 statue s
 stat i
 stati o
 statio n
 station s
 station m
 stationm a
 stationma s
 stationmas t
 stationmast e
 stationmaste r
 stat e
 state s
 state m
 statem e
 stateme n
 statemen t
 sta s
 stas h
 sta r
 star v
 starv i
 starvi n
 starvin g
 starv e
 star t
 start s
 start l
 startl i
 startli n
 startlin g
 startl e
 startle d
 start i
 starti n
 startin g
 start e
 starte d
 star s
 star r
 starr y
 starr e
 starre d
 star l
 starl i
 starli g
 starlig h
 starligh t
 star i
 stari n
 starin g
 star f
 starf i
 starfi s
 starfis h
 star e
 stare s
 stare d
 star d
 stard u
 stardu s
 stardus t
 sta p
 stap l
 stapl e
 staple r
 sta n
 stan d
 stand s
 stand i
 standi n
 standin g
 stand a
 standa r
 standar d
 standard s
 sta m
 stam p
 stamp s
 stamp i
 stampi n
 stampin g
 stamp e
 stampe d
 stam m
 stamm e
 stamme r
 stammer e
 stammere d
 sta l
 stal l
 stall s
 stal k
 stalk s
 stal e
 sta k
 stak e
 sta i
 stai r
 stair w
 stairw a
 stairwa y
 stair s
 stair c
 stairc a
 stairca s
 staircas e
 stai n
 stain s
 stain e
 staine d
 sta g
 stag e
 stage s
 sta f
 staf f
 staff s
 sta d
 stad i
 stadi u
 stadiu m
 sta c
 stac k
 stack s
 stack i
 stacki n
 stackin g
 stack e
 stacke d
 sta b
 stab l
 stabl e
 stable s
 stable m
 stablem a
 stablema n
 stab i
 stabi l
 stabil i
 stabili t
 stabilit y
 stab b
 stabb e
 stabbe d
 s s
 ss s
 sss ss
 s q
 sq u
 squ i
 squi s
 squis he
 squishe s
 squishe d
 squis h
 squish y
 squish i
 squishi n
 squishin g
 squi r
 squir t
 squirt s
 squirt i
 squirti n
 squirtin g
 squirt e
 squirte d
 squir r
 squirr e
 squirre l
 squirrel s
 squirrel l
 squir m
 squirm s
 squirm i
 squirmi n
 squirmin g
 squirm e
 squirme d
 squi n
 squin t
 squint i
 squinti n
 squintin g
 squint e
 squinte d
 squi g
 squig g
 squigg l
 squiggl e
 squiggle s
 squ e
 sque e
 squee z
 squeez i
 squeezi n
 squeezin g
 squeez e
 squeeze s
 squeeze d
 sque a
 squea l
 squeal s
 squeal i
 squeali n
 squealin g
 squeal e
 squeale d
 squea k
 squeak y
 squeak s
 squeak i
 squeaki n
 squeakin g
 squeak e
 squeake d
 squ a
 squa w
 squaw k
 squawk s
 squawk i
 squawki n
 squawkin g
 squawk e
 squawke d
 squa t
 squat t
 squatt e
 squatte d
 squat s
 squa s
 squas he
 squashe s
 squashe d
 squas h
 squa r
 squar e
 square s
 s p
 sp y
 sp u
 spu t
 sput t
 sputt e
 sputte r
 sputter e
 sputtere d
 spu r
 spur r
 spu n
 sp r
 spr u
 spru n
 sprun g
 spr o
 spro u
 sprou t
 sprout s
 sprout i
 sprouti n
 sproutin g
 sprout e
 sproute d
 spr i
 spri t
 sprit e
 spri n
 sprin t
 sprint i
 sprinti n
 sprintin g
 sprint e
 sprinte d
 sprin k
 sprink l
 sprinkl i
 sprinkli n
 sprinklin g
 sprinkl e
 sprinkle s
 sprinkle r
 sprinkler s
 sprinkle d
 sprin g
 spring y
 spring t
 springt i
 springti m
 springtim e
 spring s
 spring i
 springi n
 springin g
 spring e
 springe r
 springe d
 spr e
 spre a
 sprea d
 spread s
 spread i
 spreadi n
 spreadin g
 spread a
 spreada b
 spreadab l
 spreadabl e
 spr a
 spra y
 spray s
 spray i
 sprayi n
 sprayin g
 spray e
 spraye d
 spra w
 spraw l
 spra n
 spran g
 spra i
 sprai n
 sprain e
 spraine d
 sp o
 spo u
 spou t
 spo t
 spot t
 spott y
 spott i
 spotti n
 spottin g
 spott e
 spotte d
 spot s
 spot l
 spotl i
 spotli g
 spotlig h
 spotligh t
 spotl e
 spotle s
 spotles s
 spo r
 spor t
 sport y
 sport s
 sports m
 sportsm a
 sportsma n
 spo o
 spoo n
 spoon s
 spoon f
 spoonf u
 spoonfu l
 spoonful s
 spoon e
 spoone d
 spoo k
 spook y
 spook e
 spooke d
 spo n
 spon g
 spong y
 spong e
 sponge s
 spo k
 spok e
 spoke s
 spoke n
 spo i
 spoi l
 spoil t
 spoil s
 spoil i
 spoili n
 spoilin g
 spoil e
 spoile r
 spoiler s
 spoile d
 sp l
 spl u
 splu t
 splut t
 splutt e
 splutte r
 spl o
 spl i
 spli t
 split t
 splitt i
 splitti n
 splittin g
 split s
 spli s
 splis h
 spli n
 splin t
 splint e
 splinte r
 splinter s
 splinter e
 splintere d
 spl e
 sple n
 splen d
 splend i
 splendi d
 spl a
 spla t
 splat t
 splatt e
 splatte r
 splatter e
 splattere d
 spla s
 splas he
 splashe s
 splashe d
 splas h
 splash y
 splash i
 splashi n
 splashin g
 sp i
 spi t
 spit t
 spitt i
 spitti n
 spittin g
 spit s
 spit e
 spi r
 spir i
 spiri t
 spirit s
 spirit e
 spirite d
 spir a
 spira l
 spiral i
 spirali n
 spiralin g
 spi n
 spin s
 spin n
 spinn i
 spinni n
 spinnin g
 spinn e
 spinne r
 spin e
 spine s
 spin a
 spina c
 spinac h
 spi l
 spil t
 spil l
 spill s
 spill i
 spilli n
 spillin g
 spill e
 spille d
 spi k
 spik y
 spik e
 spike y
 spike s
 spi e
 spie s
 spie d
 spi d
 spid e
 spide r
 spider s
 spi c
 spic y
 spic k
 spic i
 spici n
 spicin e
 spicine s
 spicines s
 spici e
 spicie s
 spicies t
 spicie r
 spic e
 spice s
 sp e
 spe w
 spe n
 spen t
 spen d
 spend s
 spend i
 spendi n
 spendin g
 spe l
 spel l
 spell s
 spell i
 spelli n
 spellin g
 spell e
 spelle r
 spelle d
 spe e
 spee d
 speed y
 speed s
 speed i
 speedi n
 speedin g
 speed e
 speede d
 spee c
 speec h
 speech l
 speechl e
 speechle s
 speechles s
 spe d
 spe c
 spec t
 spect a
 specta c
 spectac u
 spectacu l
 spectacul a
 spectacula r
 spectac l
 spectacl e
 spec k
 speck s
 speck l
 speckl e
 speckle d
 spec i
 speci e
 specie s
 speci a
 specia l
 special n
 specialn e
 specialne s
 specialnes s
 special l
 speciall y
 special i
 speciali s
 specialis t
 specialist s
 spe a
 spea r
 spear s
 spea k
 speak s
 speak i
 speaki n
 speakin g
 speak e
 speake r
 speaker s
 sp a
 spa t
 spat u
 spatu l
 spatul a
 spa r
 spar r
 sparr o
 sparro w
 sparrow s
 spar k
 spark s
 spark l
 sparkl y
 sparkl i
 sparkli n
 sparklin g
 sparkli e
 sparkl e
 sparkle s
 sparkle r
 sparkler s
 sparkle d
 spark i
 sparki n
 sparkin g
 spark e
 sparke d
 spar i
 spari n
 sparin g
 sparing l
 sparingl y
 spar e
 spa n
 span n
 spann e
 spanne d
 span k
 spank i
 spanki n
 spankin g
 spa g
 spag he
 spaghe t
 spaghet t
 spaghett i
 spa d
 spad e
 spade s
 spa c
 spac i
 spaci o
 spacio u
 spaciou s
 spac e
 space s
 spaces h
 spacesh i
 spaceshi p
 spaceship s
 space m
 spacem a
 spacema n
 s o
 so y
 so w
 sow e
 sowe d
 so u
 sou v
 souv e
 souve n
 souven i
 souveni r
 souvenir s
 sou th
 sou r
 sour n
 sourn e
 sourne s
 sournes s
 sour c
 sourc e
 sou p
 soup s
 sou n
 soun d
 sound s
 sound l
 soundl y
 sound i
 soundi n
 soundin g
 sound e
 sounde d
 sou l
 soul s
 sou g
 soug h
 sough t
 so r
 sor t
 sort s
 sort i
 sorti n
 sortin g
 sort e
 sorte r
 sorte d
 sor r
 sorr y
 sorr o
 sorro w
 sorrow s
 sor e
 sor c
 sorc e
 sorce r
 sorcer e
 sorcere r
 sor b
 sorb e
 sorbe t
 so p
 sop p
 so oo
 so o
 soo th
 sooth i
 soothi n
 soothin g
 soothing l
 soothingl y
 soo t
 soot he
 soothe d
 soo oo
 sooo oo
 soo n
 soon e
 soone r
 so n
 son s
 son g
 song s
 song b
 songb i
 songbi r
 songbir d
 songbird s
 so m
 som e
 some w
 somew he
 somewhe r
 somewher e
 somew h
 somewh a
 somewha t
 some th
 someth i
 somethi n
 somethin g
 something s
 some t
 somet i
 someti m
 sometim e
 sometime s
 some r
 somer s
 somers a
 somersa u
 somersau l
 somersaul t
 somersault s
 somersault i
 somersaulti n
 somersaultin g
 some p
 somep l
 somepl a
 somepla c
 someplac e
 some o
 someo n
 someon e
 some h
 someh o
 someho w
 some d
 somed a
 someda y
 some b
 someb o
 somebo d
 somebod y
 so l
 sol v
 solv i
 solvi n
 solvin g
 solv e
 solve s
 solve r
 solve d
 sol u
 solu t
 solut i
 soluti o
 solutio n
 solution s
 sol o
 sol i
 soli d
 sol e
 sole m
 solem n
 solemn l
 solemnl y
 sol d
 sold i
 soldi e
 soldie r
 soldier s
 sol a
 sola r
 so i
 soi l
 so g
 sog g
 sogg y
 so f
 sof t
 soft n
 softn e
 softne s
 softnes s
 soft l
 softl y
 soft e
 softe s
 softes t
 softe r
 softe n
 soften s
 soften e
 softene d
 sof a
 sofa s
 so d
 sod a
 so c
 soc k
 sock s
 sock e
 socke t
 socke d
 soc i
 soci a
 socia l
 soc c
 socc e
 socce r
 so b
 sob s
 sob b
 sobb i
 sobbi n
 sobbin g
 sobb e
 sobbe d
 so a
 soa r
 soar s
 soar i
 soari n
 soarin g
 soar e
 soare d
 soa p
 soap y
 soap s
 soaps u
 soapsu d
 soapsud s
 soa k
 soak y
 soak s
 soak i
 soaki n
 soakin g
 soak e
 soake d
 s n
 sn u
 snu g
 snug l
 snugl y
 snug g
 snugg l
 snuggl y
 snuggl i
 snuggli n
 snugglin g
 snuggl e
 snuggle s
 snuggle d
 snu c
 snuc k
 sn o
 sno w
 snow y
 snow s
 snows t
 snowst o
 snowsto r
 snowstor m
 snow m
 snowm e
 snowme n
 snowm a
 snowma n
 snow i
 snowi n
 snowin g
 snow f
 snowf l
 snowfl a
 snowfla k
 snowflak e
 snowflake s
 snow e
 snowe d
 snow d
 snowd r
 snowdr o
 snowdro p
 snowd o
 snowdo g
 snow b
 snowb a
 snowba l
 snowbal l
 snowball s
 sno u
 snou t
 sno t
 sno r
 snor t
 snort s
 snort i
 snorti n
 snortin g
 snort e
 snorte d
 snor k
 snork e
 snorke l
 snorkel s
 snorkel l
 snor i
 snori n
 snorin g
 snor e
 snore s
 snore d
 sno o
 snoo z
 snooz i
 snoozi n
 snoozin g
 snooz e
 snooze d
 snoo t
 snoot y
 snoo p
 snoop i
 snoopi n
 snoopin g
 sn i
 sni p
 snip p
 snipp i
 snippi n
 snippin g
 snipp e
 snippe d
 sni f
 snif f
 sniff s
 sniff l
 sniffl y
 sniffl i
 sniffli n
 snifflin g
 sniffl e
 sniffle s
 sniffle d
 sniff i
 sniffi n
 sniffin g
 sniff e
 sniffe d
 sni c
 snic k
 snick e
 snicke r
 snicker e
 snickere d
 sn e
 sne e
 snee z
 sneez y
 sneez i
 sneezi n
 sneezin g
 sneez e
 sneeze s
 sneeze d
 snee r
 sneer e
 sneere d
 sne a
 snea k
 sneak y
 sneak s
 sneak i
 sneaki n
 sneakin g
 sneak e
 sneake r
 sneaker s
 sneake d
 sn a
 sna t
 snat c
 snatc he
 snatche s
 snatche d
 snatc h
 snatch i
 snatchi n
 snatchin g
 sna r
 snar l
 snarl s
 snarl i
 snarli n
 snarlin g
 snarl e
 snarle d
 sna p
 snap s
 snap p
 snapp i
 snappi n
 snappin g
 snapp e
 snappe d
 snap d
 snapd r
 snapdr a
 snapdra g
 snapdrag o
 snapdrago n
 sna k
 snak e
 snake s
 snake d
 sna i
 snai l
 snail s
 sna c
 snac k
 snack s
 snack i
 snacki n
 snackin g
 snack e
 snacke d
 s m
 sm u
 smu g
 smu d
 smud g
 smudg e
 smudge s
 smudge d
 sm o
 smo t
 smot he
 smothe r
 smother e
 smothere d
 smo r
 smor e
 smore s
 smo o
 smoo th
 smooth s
 smooth n
 smoothn e
 smoothne s
 smoothnes s
 smooth l
 smoothl y
 smooth i
 smoothi e
 smoo t
 smoot he
 smoothe s
 smoothes t
 smoothe r
 smoothe d
 smo k
 smok y
 smok i
 smoki n
 smokin g
 smok e
 smoke s
 smokes t
 smokest a
 smokesta c
 smokestac k
 smoke d
 smo c
 smoc k
 sm i
 smi r
 smir k
 smirk e
 smirke d
 smi l
 smil i
 smili n
 smilin g
 smil e
 smile y
 smile s
 smile d
 sm e
 sme l
 smel t
 smel l
 smell y
 smell s
 smell i
 smelli n
 smellin g
 smell e
 smelle d
 sme a
 smea r
 smear s
 smear e
 smeare d
 sm a
 sma s
 smas he
 smashe d
 smas h
 smash i
 smashi n
 smashin g
 sma r
 smar t
 smart s
 smart n
 smartn e
 smartne s
 smartnes s
 smart l
 smartl y
 smart e
 smarte s
 smartes t
 smarte r
 sma l
 smal l
 small s
 small e
 smalle s
 smalles t
 smalle r
 sma c
 smac k
 smack e
 smacke d
 s l
 sl y
 sly l
 slyl y
 sl u
 slu r
 slur p
 slurp i
 slurpi n
 slurpin g
 slurp e
 slurpe d
 slu n
 slun k
 slu m
 slum p
 slump e
 slumpe d
 slum b
 slumb e
 slumbe r
 slu g
 slug g
 slugg i
 sluggi s
 sluggis h
 sl o
 slo w
 slow s
 slow l
 slowl y
 slow i
 slowi n
 slowin g
 slow e
 slowe s
 slowes t
 slowe r
 slowe d
 slo u
 slou c
 slouc he
 slouche d
 slo th
 slo t
 slot s
 slo p
 slop p
 slopp y
 slop e
 slo b
 slob b
 slobb e
 slobbe r
 slobber y
 sl i
 sli v
 sliv e
 slive r
 sli t
 slit he
 slithe r
 slither s
 slither i
 slitheri n
 slitherin g
 slither e
 slithere d
 sli p
 slip s
 slip p
 slipp y
 slipp i
 slippi n
 slippin g
 slipp e
 slippe r
 slipper y
 slipper s
 slippe d
 sli n
 slin k
 slink e
 slinke d
 slin g
 sling s
 slings h
 slingsh o
 slingsho t
 sli m
 slim y
 slim e
 sli g
 slig h
 sligh t
 slight l
 slightl y
 sli d
 slid i
 slidi n
 slidin g
 slid e
 slide s
 slide r
 slide i
 slidei n
 slidein g
 slide e
 slidee d
 sli c
 slic i
 slici n
 slicin g
 slic e
 slice s
 slice d
 sl e
 sle p
 slep t
 sle i
 slei g
 sleig h
 sle e
 slee v
 sleev e
 sleeve s
 slee p
 sleep y
 sleep w
 sleepw a
 sleepwa l
 sleepwal k
 sleep s
 sleep o
 sleepo v
 sleepov e
 sleepove r
 sleep i
 sleepi n
 sleepin g
 sleepin e
 sleepine s
 sleepines s
 sleepi l
 sleepil y
 sleepi e
 sleepie r
 sleep e
 sleepe r
 slee k
 sle d
 sled s
 sled d
 sledd i
 sleddi n
 sleddin g
 sl a
 sla y
 sla v
 slav e
 slave s
 sla t
 slat he
 slathe r
 slather e
 slathere d
 sla s
 slas he
 slashe d
 slas h
 sla p
 slap s
 slap p
 slapp i
 slappi n
 slappin g
 slapp e
 slappe d
 sla m
 slam s
 slam m
 slamm e
 slamme d
 s k
 sk y
 sky w
 skyw a
 skywa r
 skywar d
 sky l
 sk u
 sku n
 skun k
 sku l
 skul l
 skull s
 sk i
 ski t
 skit t
 skitt e
 skitte r
 skitter i
 skitteri n
 skitterin g
 skitter e
 skittere d
 ski r
 skir t
 skirt s
 ski p
 skip s
 skip p
 skipp i
 skippi n
 skippin g
 skipp e
 skippe r
 skippe d
 ski n
 skin n
 skinn y
 skinn e
 skinne d
 ski m
 skim m
 skimm i
 skimmi n
 skimmin g
 ski l
 skil l
 skill s
 skill f
 skillf u
 skillfu l
 skillful l
 skillfull y
 skill e
 skille d
 ski e
 skie s
 ski d
 skid d
 skidd e
 skidde d
 sk e
 ske w
 skew e
 skewe r
 ske t
 sket c
 sketc he
 sketche d
 sketc h
 ske p
 skep t
 skept i
 skepti c
 skeptic a
 skeptica l
 ske l
 skel e
 skele t
 skelet o
 skeleto n
 skeleton s
 sk a
 ska t
 skat i
 skati n
 skatin g
 skat e
 skate s
 skate d
 skate b
 skateb o
 skatebo a
 skateboa r
 skateboar d
 skateboard s
 s i
 si z
 siz z
 sizz l
 sizzl i
 sizzli n
 sizzlin g
 sizzl e
 sizzle d
 siz e
 size s
 size d
 si x
 six th
 six t
 sixt y
 sixt e
 sixte e
 sixtee n
 si t
 sit u
 situ a
 situa t
 situat i
 situati o
 situatio n
 situation s
 sit t
 sitt i
 sitti n
 sittin g
 sit s
 sit e
 si s
 sis t
 sist e
 siste r
 sister s
 sister l
 sisterl y
 si r
 sir e
 sire n
 siren s
 si p
 sip s
 sip p
 sipp i
 sippi n
 sippin g
 sipp e
 sippe d
 si n
 sin k
 sink s
 sink i
 sinki n
 sinkin g
 sin i
 sini s
 sinis t
 sinist e
 siniste r
 sin g
 sing s
 sing l
 singl e
 sing i
 singi n
 singin g
 sing e
 singe r
 singer s
 singe d
 sin c
 sinc e
 since r
 sincer e
 si m
 sim p
 simp l
 simpl y
 simpl e
 simple s
 simples t
 simple r
 sim m
 simm e
 simme r
 sim i
 simi l
 simil a
 simila r
 similar i
 similari t
 similarit i
 similariti e
 similaritie s
 si l
 sil v
 silv e
 silve r
 silver w
 silverw a
 silverwa r
 silverwar e
 sil l
 sill y
 sill i
 silli n
 sillin e
 silline s
 sillines s
 silli e
 sillie s
 sillies t
 sillie r
 sil k
 silk y
 sil h
 silh o
 silho u
 silhou e
 silhoue t
 silhouet t
 silhouett e
 sil e
 sile n
 silen t
 silent l
 silentl y
 silen c
 silenc e
 si g
 sig n
 sign s
 sign i
 signi n
 signin g
 signi f
 signif i
 signifi c
 signific a
 significa n
 significan c
 significanc e
 sign e
 signe d
 sign a
 signa t
 signat u
 signatu r
 signatur e
 signa l
 signal s
 signal l
 signall i
 signalli n
 signallin g
 sig he
 sighe d
 sig h
 sigh t
 sight s
 sigh s
 sigh i
 sighi n
 sighin g
 si f
 sif t
 si d
 sid e
 side w
 sidew a
 sidewa y
 sideway s
 sidewa l
 sidewal k
 side s
 side l
 sidel i
 sideli n
 sidelin e
 sideline s
 side k
 sidek i
 sideki c
 sidekic k
 si c
 sic k
 sick n
 sickn e
 sickne s
 sicknes s
 sick e
 sicke r
 si b
 sib l
 sibl i
 sibli n
 siblin g
 sibling s
 s he
 she l
 shel v
 shelv e
 shelve s
 shel t
 shelt e
 shelte r
 shelter s
 shelter e
 sheltere d
 shel l
 shell s
 shel f
 she e
 shee t
 sheet s
 shee p
 sheep i
 sheepi s
 sheepis h
 sheepish l
 sheepishl y
 sheep d
 sheepd o
 sheepdo g
 she d
 she a
 shea r
 s h
 sh y
 shy n
 shyn e
 shyne s
 shynes s
 shy l
 shyl y
 shy e
 sh u
 shu t
 shut t
 shutt l
 shuttl e
 shutt i
 shutti n
 shuttin g
 shut s
 shu s
 shus he
 shushe d
 shus h
 shu f
 shuf f
 shuff l
 shuffl i
 shuffli n
 shufflin g
 shuffl e
 shuffle d
 shu d
 shud d
 shudd e
 shudde r
 shudder e
 shuddere d
 sh r
 shr u
 shru n
 shrun k
 shrunk e
 shrunke n
 shru g
 shrug s
 shrug g
 shrugg i
 shruggi n
 shruggin g
 shrugg e
 shrugge d
 shru b
 shrub s
 shr i
 shri n
 shrin k
 shrink s
 shrink i
 shrinki n
 shrinkin g
 shri m
 shrim p
 shrimp s
 shri l
 shril l
 shri e
 shrie k
 shriek i
 shrieki n
 shriekin g
 shriek e
 shrieke d
 shr e
 shre d
 shr a
 shra n
 shran k
 sh o
 sho w
 show y
 show s
 show n
 show i
 showi n
 showin g
 show e
 showe r
 shower s
 shower e
 showere d
 showe d
 sho v
 shov i
 shovi n
 shovin g
 shov e
 shove l
 shovel s
 shovel e
 shovele d
 shove d
 sho u
 shou t
 shout s
 shout i
 shouti n
 shoutin g
 shout e
 shoute d
 shou l
 shoul d
 should n
 should e
 shoulde r
 shoulder s
 sho t
 shot s
 sho r
 shor t
 short s
 short l
 shortl y
 short e
 shorte r
 short c
 shortc u
 shortcu t
 shortcut s
 shor e
 shore l
 shorel i
 shoreli n
 shorelin e
 sho p
 shop s
 shop p
 shopp i
 shoppi n
 shoppin g
 shopp e
 shoppe r
 shopper s
 shoppe d
 shop k
 shopk e
 shopke e
 shopkee p
 shopkeep e
 shopkeepe r
 sho o
 shoo t
 shoot s
 shoot i
 shooti n
 shootin g
 shoot e
 shoote r
 shoo s
 shoo k
 shoo e
 shooe d
 sho n
 shon e
 sho e
 shoe s
 shoe l
 shoel a
 shoela c
 shoelac e
 shoelace s
 shoe b
 shoeb o
 shoebo x
 sho c
 shoc k
 shock e
 shocke d
 sh i
 shi v
 shiv e
 shive r
 shiver y
 shiver s
 shiver i
 shiveri n
 shiverin g
 shiver e
 shivere d
 shi r
 shir t
 shirt s
 shi p
 ship w
 shipw r
 shipwr e
 shipwre c
 shipwrec k
 ship s
 shi n
 shin y
 shin n
 shinn e
 shinne d
 shin i
 shini n
 shinin g
 shini e
 shinie s
 shinies t
 shinie r
 shin e
 shine y
 shine s
 shine d
 shi m
 shim m
 shimm i
 shimmi e
 shimmie d
 shimm e
 shimme r
 shimmer y
 shimmer i
 shimmeri n
 shimmerin g
 shimmer e
 shimmere d
 shi f
 shif t
 shift e
 shifte d
 shi e
 shie l
 shiel d
 shield s
 sh hh
 sh h
 she p
 shep he
 shephe r
 shepher d
 sh a
 sha v
 shav i
 shavi n
 shavin g
 shav e
 shave d
 sha t
 shat t
 shatt e
 shatte r
 shatter s
 shatter e
 shattere d
 sha r
 shar p
 sharp l
 sharpl y
 sharp i
 sharpi n
 sharpin g
 sharp e
 sharpe r
 sharpe n
 sharpen i
 sharpeni n
 sharpenin g
 sharpen e
 sharpene r
 sharpene d
 sharpe d
 shar k
 shark s
 shar i
 shari n
 sharin g
 shar e
 share s
 share r
 sharer s
 share d
 sha p
 shap i
 shapi n
 shapin g
 shap e
 shape s
 shape d
 sha m
 sham p
 shamp o
 shampo o
 shampoo s
 sham e
 shame f
 shamef u
 shamefu l
 shameful l
 shamefull y
 sha l
 shal l
 shall o
 shallo w
 sha k
 shak y
 shak i
 shaki n
 shakin g
 shak e
 shake s
 shake r
 shaker s
 shake n
 sha g
 shag g
 shagg y
 sha d
 shad y
 shad o
 shado w
 shadow y
 shadow s
 shad i
 shadi n
 shadin g
 shad e
 shade s
 s e
 se w
 sew s
 sew i
 sewi n
 sewin g
 sew e
 sewe r
 sewe d
 se v
 sev e
 seve r
 sever e
 severe l
 severel y
 sever a
 severa l
 seve n
 seven t
 sevent y
 sevent e
 sevente e
 seventee n
 se t
 set u
 setu p
 set t
 sett l
 settl i
 settli n
 settlin g
 settl e
 settle s
 settle d
 sett i
 setti n
 settin g
 setting s
 set s
 se s
 ses s
 sess i
 sessi o
 sessio n
 ses a
 sesa m
 sesam e
 se r
 ser v
 serv i
 servi n
 servin g
 servi c
 servic e
 service s
 service b
 serviceb e
 servicebe r
 serviceber r
 serviceberr y
 serv e
 serve s
 serve r
 serve d
 serv a
 serva n
 servan t
 servant s
 ser i
 seri o
 serio u
 seriou s
 serious l
 seriousl y
 ser e
 sere n
 seren i
 sereni t
 serenit y
 seren e
 se q
 seq u
 sequ i
 sequi n
 sequin s
 se p
 sep a
 sepa r
 separ a
 separa t
 separat i
 separati n
 separatin g
 separat e
 separate s
 separate l
 separatel y
 separate d
 se n
 sen t
 sent i
 senti m
 sentim e
 sentime n
 sentimen t
 sent e
 sente n
 senten c
 sentenc e
 sentence s
 sen s
 sens i
 sensi t
 sensit i
 sensiti v
 sensitiv e
 sensi n
 sensin g
 sensi b
 sensib l
 sensibl y
 sensibl e
 sens e
 sense s
 sense d
 sens a
 sensa t
 sensat i
 sensati o
 sensatio n
 sen d
 send s
 send i
 sendi n
 sendin g
 se l
 sel v
 selv e
 selve s
 sel l
 sell s
 sell i
 selli n
 sellin g
 sell e
 selle r
 seller s
 sel f
 self l
 selfl e
 selfle s
 selfles s
 self i
 selfi s
 selfis h
 selfish n
 selfishn e
 selfishne s
 selfishnes s
 selfish l
 selfishl y
 sel e
 sele c
 selec t
 select i
 selecti o
 selectio n
 select e
 selecte d
 se e
 see s
 sees a
 seesa w
 seesaw s
 seesaw e
 seesawe d
 see n
 see m
 seem s
 seem i
 seemi n
 seemin g
 seeming l
 seemingl y
 seem e
 seeme d
 see k
 seek i
 seeki n
 seekin g
 seek e
 seeke r
 see i
 seei n
 seein g
 see d
 seed s
 seed l
 seedl i
 seedli n
 seedlin g
 se c
 sec u
 secu r
 secur i
 securi t
 securit y
 secur e
 secure l
 securel y
 secure d
 sec t
 sect i
 secti o
 sectio n
 section s
 sec r
 secr e
 secre t
 secret s
 secret l
 secretl y
 secret i
 secreti v
 secretiv e
 sec o
 seco n
 secon d
 second s
 se a
 sea w
 seaw e
 seawe e
 seawee d
 seaw a
 sea t
 seat s
 seat i
 seati n
 seatin g
 seat e
 seate d
 seat b
 seatb e
 seatbe l
 seatbel t
 seatbelt s
 sea s
 seas o
 seaso n
 season s
 season i
 seasoni n
 seasonin g
 seas i
 seasi d
 seasid e
 seas he
 seashe l
 seashel l
 seashell s
 seas h
 seash o
 seasho r
 seashor e
 sea r
 sear c
 searc he
 searche s
 searche r
 searche d
 searc h
 search i
 searchi n
 searchin g
 sea m
 seam s
 sea l
 seal s
 seal e
 seale d
 sea h
 seah o
 seaho r
 seahor s
 seahors e
 seahorse s
 sea g
 seag u
 seagu l
 seagul l
 seagull s
 sea f
 seaf o
 seafo o
 seafoo d
 s c
 sc y
 scy t
 scyt he
 sc u
 scu t
 scut t
 scutt l
 scuttl i
 scuttli n
 scuttlin g
 scuttl e
 scuttle d
 scu r
 scur v
 scurv y
 scur r
 scurr y
 scurry i
 scurryi n
 scurryin g
 scurr i
 scurri e
 scurrie d
 scu l
 scul p
 sculp t
 sculpt u
 sculptu r
 sculptur e
 sculpture s
 scu f
 scuf f
 sc r
 scr u
 scru n
 scrun c
 scrunc he
 scrunche d
 scrunc h
 scrunch i
 scrunchi n
 scrunchin g
 scru f
 scruf f
 scruff y
 scru b
 scrub s
 scrub b
 scrubb i
 scrubbi n
 scrubbin g
 scrubb e
 scrubbe d
 scr o
 scr i
 scri b
 scrib b
 scribb l
 scribbl i
 scribbli n
 scribblin g
 scribbl e
 scribble s
 scribble d
 scr e
 scre w
 screw s
 screw e
 screwe d
 screw d
 screwd r
 screwdr i
 screwdri v
 screwdriv e
 screwdrive r
 scre e
 scree n
 screen s
 scree c
 screec he
 screeche s
 screeche d
 screec h
 screech i
 screechi n
 screechin g
 scre a
 screa m
 scream s
 scream i
 screami n
 screamin g
 scream e
 screame d
 scr a
 scra t
 scrat c
 scratc he
 scratche s
 scratche r
 scratche d
 scratc h
 scratch y
 scratch i
 scratchi n
 scratchin g
 scra p
 scrap s
 scrap e
 scrape s
 scrape d
 scra m
 scram b
 scramb l
 scrambl e
 scramble d
 scra g
 scrag g
 scragg l
 scraggl y
 sc o
 sco w
 scow l
 scowl s
 scowl i
 scowli n
 scowlin g
 scowl e
 scowle d
 sco u
 scou t
 sco r
 scor i
 scori n
 scorin g
 scor e
 score s
 score d
 scor c
 scorc he
 scorche d
 sco o
 scoo t
 scoot i
 scooti n
 scootin g
 scoot e
 scoote r
 scooter s
 scooter i
 scooteri n
 scooterin g
 scoote d
 scoo p
 scoop s
 scoop i
 scoopi n
 scoopin g
 scoop e
 scoope d
 sco n
 scon e
 scone s
 sco l
 scol d
 scold s
 scold i
 scoldi n
 scoldin g
 scold e
 scolde d
 sco f
 scof f
 scoff e
 scoffe d
 sc i
 sci s
 scis s
 sciss o
 scisso r
 scissor s
 sci e
 scie n
 scien t
 scient i
 scienti s
 scientis t
 scientist s
 scien c
 scienc e
 sc he
 sche d
 sched u
 schedu l
 schedul e
 schedule s
 sc h
 sch o
 scho o
 schoo l
 school y
 schooly a
 schoolya r
 schoolyar d
 school s
 school b
 schoolb a
 schoolba g
 sc e
 sce p
 scep t
 scept i
 scepti c
 sceptic a
 sceptica l
 sceptical l
 scepticall y
 scept e
 scepte r
 sce n
 scen t
 scent s
 scen e
 scene s
 scene r
 scener y
 sc a
 sca v
 scav e
 scave n
 scaven g
 scaveng i
 scavengi n
 scavengin g
 sca t
 scat t
 scatt e
 scatte r
 scatter s
 scatter i
 scatteri n
 scatterin g
 scatter e
 scattere d
 scatte d
 sca r
 scar y
 scar v
 scarv e
 scarve s
 scar s
 scar r
 scarr y
 scarr e
 scarre d
 scar i
 scari n
 scarin g
 scari e
 scarie s
 scaries t
 scarie r
 scar f
 scarf s
 scar e
 scare s
 scare d
 scared y
 scare c
 scarec r
 scarecr o
 scarecro w
 scarecrow s
 sca n
 scan s
 scan n
 scann e
 scanne r
 scanne d
 sca m
 scam p
 scamp e
 scampe r
 scamper i
 scamperi n
 scamperin g
 scamper e
 scampere d
 sca l
 scal y
 scal e
 scale s
 scale d
 s a
 sa y
 say s
 say i
 sayi n
 sayin g
 sa x
 sax o
 saxo p
 saxop h
 saxoph o
 saxopho n
 saxophon e
 saxophone s
 sa w
 saw s
 saw i
 sawi n
 sawin g
 saw e
 sawe d
 sa v
 sav o
 savo u
 savou r
 savour i
 savouri n
 savourin g
 savour e
 savoure d
 savo r
 savor i
 savori n
 savorin g
 savor e
 savore d
 sav i
 savi o
 savio r
 savi n
 savin g
 saving s
 sav e
 save s
 save r
 save d
 sav a
 sava n
 savan n
 savann a
 savanna h
 sa u
 sau s
 saus a
 sausa g
 sausag e
 sausage s
 sau c
 sauc e
 sauce s
 sauce r
 saucer s
 sauce p
 saucep a
 saucepa n
 sa t
 sat i
 sati s
 satis f
 satisf y
 satisfy i
 satisfyi n
 satisfyin g
 satisf i
 satisfi e
 satisfie d
 satisf a
 satisfa c
 satisfac t
 satisfact i
 satisfacti o
 satisfactio n
 sat e
 sate l
 satel l
 satell i
 satelli t
 satellit e
 satellite s
 sat c
 satc he
 satche l
 sa p
 sap l
 sapl i
 sapli n
 saplin g
 sa n
 san k
 san g
 san d
 sand y
 sandy w
 sandyw i
 sandywi c
 sandywic h
 sand w
 sandw i
 sandwi c
 sandwic he
 sandwiche s
 sandwic h
 sand p
 sandp i
 sandpi t
 sandpi l
 sandpil e
 sandpile s
 sandp a
 sandpa p
 sandpap e
 sandpape r
 sand e
 sande d
 sand c
 sandc a
 sandca s
 sandcas t
 sandcast l
 sandcastl e
 sandcastle s
 sand b
 sandb o
 sandbo x
 sandb a
 sandba g
 sandbag s
 sand a
 sanda l
 sandal s
 sa m
 sam p
 samp l
 sampl e
 sam e
 sa l
 sal v
 salv e
 sal u
 salu t
 salut e
 salute d
 sal t
 salt y
 sal s
 sals a
 sal o
 salo n
 sal m
 salm o
 salmo n
 salmon b
 salmonb e
 salmonbe r
 salmonber r
 salmonberr y
 sal i
 sali v
 saliv a
 saliva t
 sal e
 sale s
 sales p
 salesp e
 salespe r
 salesper s
 salespers o
 salesperso n
 sal a
 sala d
 salad s
 sa k
 sak e
 sa i
 sai l
 sail s
 sail o
 sailo r
 sailor s
 sail i
 saili n
 sailin g
 sail e
 saile d
 sail c
 sailc l
 sailcl o
 sailclo th
 sail b
 sailb o
 sailbo a
 sailboa t
 sai d
 sa g
 sa f
 saf e
 safe t
 safet y
 safe s
 safes t
 safe r
 safe l
 safel y
 safe k
 safek e
 safeke e
 safekee p
 safekeep i
 safekeepi n
 safekeepin g
 saf a
 safa r
 safar i
 safari s
 sa d
 sad n
 sadn e
 sadne s
 sadnes s
 sad l
 sadl y
 sad d
 sadd l
 saddl e
 saddle s
 sadd e
 sadde s
 saddes t
 sadde r
 sadde n
 sadden e
 saddene d
 sa c
 sac r
 sacr i
 sacri f
 sacrif i
 sacrifi c
 sacrific e
 sacrifice d
 sacr e
 sacre d
 sac k
 sack s
 sack i
 sacki n
 sackin g
 sack e
 sacke d
 r un
 run wa
 runwa y
 run s
 run n
 runn y
 runn in
 runnin g
 runn er
 runner s
 r u
 ru st
 rust y
 rust le
 rustle s
 rust l
 rustl in
 rustlin g
 rustl ed
 rust ed
 ru sh
 rush in
 rushin g
 ru s
 rus he
 rushe s
 rushe d
 ru ng
 rung s
 ru m
 rum ou
 rumou r
 rumour s
 rum or
 rumor s
 rum m
 rumm a
 rumma g
 rummag in
 rummagin g
 rummag ed
 rum b
 rumb le
 rumble s
 rumb l
 rumbl y
 rumbl in
 rumblin g
 rumbl ed
 ru le
 rule s
 ru l
 rul in
 rulin g
 rul er
 ruler s
 rul ed
 ru in
 ruin s
 ruin ed
 ru i
 ruin in
 ruinin g
 ru g
 rug s
 ru f
 ruf f
 ruff le
 ruffle s
 ruff l
 ruffl in
 rufflin g
 ruffl ed
 ru de
 ru d
 rud er
 rud en
 ruden e
 rudene s
 rudenes s
 rud el
 rudel y
 ru c
 ruc k
 ru b
 rub y
 rub s
 rub bb
 rubbb in
 rubbbin g
 rub b
 rubb is
 rubbis h
 rubb in
 rubbin g
 rubb er
 rubber y
 rubb ed
 r rr
 r ou
 rou t
 rout in
 routin e
 routine s
 rout e
 route s
 rou nd
 round s
 round e
 rounde s
 roundes t
 rounde r
 rounde d
 round a
 rounda b
 roundab o
 roundabo u
 roundabou t
 rou g
 roug he
 roughe r
 roug h
 rough n
 roughn e
 roughne s
 roughnes s
 rough l
 roughl y
 r ot
 rot t
 rott in
 rottin g
 rott en
 rott ed
 rot s
 r oo
 roo t
 root s
 root ed
 roo st
 roost er
 roo k
 roo f
 roof to
 roofto p
 rooftop s
 roof s
 r om
 rom p
  ro
 ro y
 roy al
 royal t
 royalt y
 ro w
 row s
 row in
 rowin g
 row ed
 row b
 rowb o
 rowbo at
 ro se
 rose s
 rose m
 rosem ar
 rosemar y
 rose b
 roseb u
 rosebu sh
 ro s
 ros y
 ro p
 rop e
 rope s
 ro om
 room s
 ro ll
 roll s
 roll in
 rollin g
 roll er
 roll ed
 ro le
 role s
 ro d
 rod s
 rod en
 roden t
 rodent s
 rod e
 rode o
 ro c
 roc ke
 rocke t
 rocket s
 rockets hi
 rocketshi p
 roc k
 rock y
 rock s
 rock in
 rockin g
 rock er
 rock ed
 ro b
 rob ot
 robot s
 robot i
 roboti c
 rob in
 robin s
 rob e
 robe s
 rob b
 robb er
 robber s
 robb ed
 ro as
 roas t
 roast in
 roastin g
 roast ed
 ro ar
 roar s
 roar in
 roarin g
 roar ed
 ro am
 roam in
 roamin g
 roam ed
 ro ad
 road s
 roads id
 roadsid e
 r it
 rit u
 ritu a
 ritua l
 r is
 ris k
 risk y
 risk s
 risk in
 riskin g
 ris in
 risin g
 ris en
 ris e
 rise s
 r in
 rin s
 rins ed
 rins e
 rinse s
 rin k
 rin g
 ring s
 ring m
 ringm a
 ringma s
 ringmas t
 ringmast er
 ring er
 r im
 r id
 rid in
 ridin g
 rid g
 ridg e
 ridge s
 rid er
 rider s
 rid e
 ride s
 rid d
 ridd le
 riddle s
 ridd en
  ri
 ri v
 riv er
 river s
 river b
 riverb ed
 riverb an
 riverban k
 riv al
 ri p
 rip s
 rip p
 ripp le
 ripple s
 ripp l
 rippl ed
 ripp in
 rippin g
 ripp ed
 rip en
 rip e
 ripe st
 ring in
 ringin g
 ri g
 rig h
 righ t
 right s
 right f
 rightf u
 rightfu ll
 rightfull y
 rightfu l
 ri f
 rif le
 ri c
 ric ke
 ricke t
 ricket y
 ric he
 riche s
 riches t
 riche r
 ric h
 ric e
 ri b
 rib b
 ribb on
 ribbon s
 ribb it
 r h
 rh y
 rhy th
 rhyth m
 rhythm s
 rhy me
 rhy m
 rhym ed
 rh om
 rhom b
 rhomb u
 rhombu s
 rh in
 rhin o
 rhino c
 rhinoc er
 rhinocer o
 rhinocero s
 rhinoceros e
 rhinocerose s
 r et
 ret re
 retre a
 retrea t
 retreat ed
 r ed
 red u
 redu c
 red s
 red d
 redd e
 redde s
 reddes t
 redde r
 r e
 re q
 req u
 requ i
 requi re
 require s
 re p
 rep re
 repre s
 repres e
 represe n
 represen t
 represent ed
 re g
 reg re
 regre t
 regret t
 regrett in
 regrettin g
 regrett ed
 regret s
 regret f
 regretf u
 regretfu l
 regretful l
 regretfull y
 regret ed
 re f
 ref re
 refre s
 refres he
 refreshe d
 refres h
 refresh in
 refreshin g
 re as
 reas s
 reass u
 reassu re
 re x
 re wa
 rewa r
 rewar d
 reward s
 reward in
 rewardin g
 reward ed
 re v
 rev v
 revv in
 revvin g
 revv ed
 rev o
 revo i
 revoi r
 rev er
 rever s
 revers i
 reversi n
 reversin g
 revers ed
 revers e
 reverse s
 rev e
 reve n
 reven g
 reveng e
 reve a
 revea l
 reveal s
 reveal in
 revealin g
 reveal ed
 re u
 reu n
 reun i
 reuni t
 reunit ed
 reunit e
 reuni o
 reunio n
 ret u
 retu r
 retur n
 return s
 return in
 returnin g
 return ed
 ret r
 retr i
 retri e
 retrie v
 retriev ed
 retriev e
 retr a
 retra c
 retrac in
 retracin g
 retrac ed
 ret i
 reti r
 retir ed
 re s
 res u
 resu r
 resur f
 resurf a
 resurfa c
 resu m
 resum ed
 resum e
 resu l
 resul t
 result s
 result ed
 res to
 resto r
 restor i
 restori n
 restorin g
 restor ed
 restor e
 restore s
 res t
 rest s
 rest r
 rest l
 restl e
 restle s
 restles s
 restless n
 restlessn e
 restlessne s
 restlessnes s
 rest in
 restin g
 rest f
 restf u
 restfu l
 rest ed
 rest a
 resta u
 restau r
 restaur an
 restauran t
 restaurant s
 resta r
 restar t
 res p
 resp o
 respo nd
 respond i
 respondi n
 respondin g
 respond e
 responde d
 respo n
 respon s
 respons i
 responsi b
 responsib l
 responsibl y
 responsibl e
 responsib i
 responsibi l
 responsibil i
 responsibili t
 responsibilit y
 responsibilit i
 responsibiliti e
 responsibilitie s
 respons e
 resp e
 respe c
 respec t
 respect s
 respect in
 respectin g
 respect i
 respecti v
 respectiv e
 respect f
 respectf u
 respectfu l
 respectful l
 respectfull y
 respect ed
 res o
 reso u
 resou r
 resour c
 resourc e
 resource s
 resource f
 resourcef u
 resourcefu l
 reso r
 resor t
 reso l
 resol v
 resolv ed
 resolv e
 resol u
 resolu t
 resolut i
 resoluti o
 resolutio n
 res i
 resi s
 resis t
 resist s
 resist in
 resistin g
 resist ed
 resist an
 resistan c
 resistanc e
 resi l
 resil i
 resili e
 resilie n
 resilien t
 resilien c
 resilienc e
 resi d
 resid e
 res er
 reser v
 reserv ed
 reserv e
 res e
 rese a
 resea r
 resear c
 researc h
 res c
 resc u
 rescu in
 rescuin g
 rescu er
 rescuer s
 rescu ed
 rescu e
 rescue s
 requi r
 requir ed
 requ e
 reque s
 reques t
 request s
 request in
 requestin g
 request ed
 rep t
 rept i
 repti l
 reptil e
 rep r
 repr i
 repri m
 reprim an
 repriman d
 reprimand e
 reprimande d
 rep o
 repo r
 repor t
 report er
 reporter s
 report ed
 rep l
 repl y
 reply in
 replyin g
 repl i
 repli ed
 repli e
 replie s
 repl e
 reple n
 replen i
 repleni s
 replenis he
 replenishe d
 repl an
 replan t
 replant e
 replante d
 repl a
 repla c
 replac in
 replacin g
 replac ed
 replac e
 replace s
 replace m
 replacem e
 replaceme n
 replacemen t
 rep e
 repe t
 repet i
 repeti t
 repetit i
 repe l
 repel l
 repell e
 repelle n
 repellen t
 repe a
 repea t
 repeat s
 repeat in
 repeatin g
 repeat ed
 rep a
 repa y
 repa i
 repai r
 repair s
 repair m
 repairm an
 repair in
 repairin g
 repair ed
 re n
 ren t
 rent ed
 ren e
 rene w
 renew ed
 re m
 rem o
 remo v
 remov in
 removin g
 remov ed
 remov e
 remove s
 remo t
 remot e
 remo r
 remor s
 remors e
 rem i
 remi nd
 remind s
 remind i
 remindi n
 remindin g
 remind e
 reminde r
 reminder s
 reminde d
 rem ed
 remed y
 rem e
 reme m
 remem b
 rememb er
 remember s
 remember i
 rememberi n
 rememberin g
 remember ed
 rem a
 rema r
 remar k
 remark ed
 remark a
 remarka b
 remarkab l
 remarkabl e
 rema in
 remain s
 remain ed
 rema i
 remai nd
 remaind e
 remainde r
 remain in
 remainin g
 re l
 rel y
 rely in
 relyin g
 rel u
 relu c
 reluc t
 reluct an
 reluctan t
 reluctant l
 reluctantl y
 rel i
 reli e
 relie v
 reliev ed
 relie f
 reli a
 relia b
 reliab l
 reliabl y
 reliabl e
 reliab i
 reliabi l
 reliabil i
 reliabili t
 reliabilit y
 rel e
 rele a
 relea s
 releas in
 releasin g
 releas ed
 releas e
 release s
 rel a
 rela x
 relax in
 relaxin g
 relax ed
 relax e
 relaxe s
 relax a
 relaxa t
 relaxat i
 relaxati o
 relaxatio n
 rela t
 relat i
 relati v
 relativ e
 relati o
 relatio n
 relation s
 relations h
 relationsh i
 relationshi p
 relationship s
 relat ed
 re j
 rej o
 rejo in
 rejo i
 rejoi c
 rejoic in
 rejoicin g
 rejoic ed
 rej e
 reje c
 rejec t
 reject ed
 re in
 rein s
 re i
 rei nd
 reind e
 reinde e
 reindee r
 reindeer s
 rei g
 reig n
 re he
 rehe a
 rehea r
 rehear s
 rehears a
 rehearsa l
 reg u
 regu l
 regul a
 regula r
 regular l
 regularl y
 regular i
 regulari t
 regularit y
 reg i
 regi s
 regis t
 regist er
 reg a
 rega r
 regar d
 regard l
 regardl e
 regardle s
 regardles s
 rega in
 regain ed
 ref u
 refu s
 refus in
 refusin g
 refus ed
 refus e
 refuse s
 refus a
 refusa l
 refu nd
 refu g
 refug e
 refuge e
 ref r
 refr i
 refri g
 refrig er
 refriger a
 refrigera to
 refrigerato r
 ref l
 refl e
 refle c
 reflec t
 reflect s
 reflect in
 reflectin g
 reflect i
 reflecti o
 reflectio n
 reflection s
 reflect ed
 ref i
 refi l
 refil l
 ref er
 refer e
 refere e
 referee s
 re ed
 reed s
 re e
 ree l
 reel ed
 ree f
 reef s
 re c
 rec y
 recy c
 recyc l
 recycl in
 recyclin g
 recycl ed
 recycl e
 rec t
 rect an
 rectan g
 rectang u
 rectangu l
 rectangul a
 rectangula r
 rectang l
 rectangl e
 rectangle s
 rec o
 reco v
 recov er
 recover ed
 reco r
 recor d
 record s
 record in
 recordin g
 recording s
 record er
 record ed
 reco m
 recom m
 recomm e
 recomme nd
 recommend s
 recommend i
 recommendi n
 recommendin g
 recommend e
 recommende d
 recommend a
 recommenda t
 recommendat i
 recommendati o
 recommendatio n
 recommendation s
 reco g
 recog n
 recogn i
 recogni z
 recogniz in
 recognizin g
 recogniz ed
 recogniz e
 recognize s
 recogni s
 recognis ed
 recognis e
 rec k
 reck l
 reckl e
 reckle s
 reckles s
 rec i
 reci t
 recit e
 reci p
 recip e
 recipe s
 rec h
 rech a
 recha r
 rechar g
 recharg ed
 recharg e
 rec e
 rece s
 reces s
 rece p
 recep t
 recept i
 recepti o
 receptio n
 reception i
 receptioni s
 receptionis t
 rece n
 recen t
 recent l
 recentl y
 rece i
 recei v
 receiv in
 receivin g
 receiv er
 receiv ed
 receiv e
 receive s
 recei p
 receip t
 rec a
 reca l
 recal l
 recall ed
 re b
 reb u
 rebu i
 rebui l
 rebuil t
 rebuil d
 re a
 reassu r
 reassur in
 reassurin g
 reassuring l
 reassuringl y
 reassur ed
 reassur an
 reassuran c
 reassuranc e
 reas o
 reaso n
 reason s
 rea r
 rear v
 rearv i
 rearvi e
 rearvie w
 rear r
 rearr an
 rearran g
 rearrang e
 rea p
 reap p
 reapp e
 reappe a
 reappea r
 reappear in
 reappearin g
 reappear ed
 reap in
 reapin g
 rea l
 real l
 reall y
 real i
 reali z
 realiz in
 realizin g
 realiz ed
 realiz e
 realize s
 realiz a
 realiza t
 realizat i
 realizati o
 realizatio n
 reali t
 realit y
 reali s
 realis t
 realist i
 realisti c
 realis in
 realisin g
 realis ed
 realis e
 rea d
 read y
 read s
 read in
 readin g
 read i
 read er
 reader s
 rea c
 reac t
 react i
 reacti o
 reactio n
 react ed
 reac he
 reache s
 reache d
 reac h
 reach in
 reachin g
 r ay
 ray s
 r at
 rat t
 ratt l
 rattl in
 rattlin g
 rattl ed
 rattl e
 rat s
 rat i
 rati o
 rat he
 rathe r
 r as
 ras p
 rasp y
 rasp b
 raspb er
 raspber r
 raspberr y
 raspberr i
 raspberri e
 raspberrie s
 ras h
 ras c
 rasc a
 rasca l
 rascal s
 r ar
 rar in
 rarin g
 rar er
 r an
 ran g
 rang e
 range r
 ran d
 rand o
 rando m
 ran c
 ranc he
 ranche r
 ranc h
 r am
 ram p
 ramp s
 ram b
 ramb un
 rambun c
 rambunc t
 rambunct i
 rambuncti ou
 rambunctiou s
 r ai
 rai nd
 raind r
 raindr o
 raindro p
 raindrop s
 rai n
 rain in
 rainin g
 r ad
 rad is
 radis he
 radishe s
 radis h
 rad i
 radi o
 radio s
 radi at
 radiat in
 radiatin g
 r a
 ra z
 raz or
 razor s
 ra w
 raw r
 ra v
 rav en
 raven s
 ra re
 rare s
 rares t
 rare l
 rarel y
 ra p
 rap id
 rapid l
 rapidl y
 ra ke
 rake s
 ra k
 rak in
 rakin g
 rak ed
 ra is
 rais in
 raisin s
 raisin g
 rais ed
 rais e
 raise s
 rain y
 rain w
 rainw a
 rainwa t
 rainwat er
 rain s
 rains to
 rainsto r
 rainstor m
 rain f
 rain ed
 rain c
 rainc o
 rainco a
 raincoa t
 raincoat s
 rainc l
 raincl o
 rainclo u
 rainclou d
 rain b
 rainb o
 rainbo w
 rainbow s
 ra il
 rail wa
 railwa y
 rail s
 rail in
 railin g
 ra g
 rag s
 rag in
 ragin g
 rag g
 ragg ed
 ragged y
 rag ed
 rag e
 ra f
 raf t
 raft s
 raft in
 raftin g
 ra c
 rac o
 raco on
 rac ke
 racke t
 rac k
 rac in
 racin g
 rac et
 racet r
 racetr a
 racetra c
 racetrac k
 rac es
 rac er
 racer s
 rac ed
 rac e
 rac c
 racc o
 racco on
 raccoon s
 ra bi
 rabi e
 rabie s
 ra b
 rab b
 rabb it
 rabbit s
 q ui
 qui z
 quiz z
 quizz es
 qui et
 quiet ne
 quietne s
 quietnes s
 quiet l
 quietl y
 quiet er
 quiet en
 quieten ed
 quiet ed
 qui ck
 quick s
 quicks an
 quicksan d
 quick ly
 quick er
 quick en
 quicken ed
 q ue
 que st
 quest i
 questi on
 question s
 question in
 questionin g
 question ed
 que sa
 quesa d
 quesad i
 quesadi l
 quesadil l
 quesadill as
 quesadill a
 que en
 queen s
 que as
 queas y
  qu
 qu iv
 quiv er
 quiver i
 quiveri n
 quiverin g
 quiver ed
 qu it
 quit t
 quitt in
 quittin g
 quit s
 quit e
 qu il
 quil t
 qu ie
 quie te
 quiete s
 quietes t
 qu ic
 quic ke
 quicke s
 quickes t
 qu en
 quen c
 quenc he
 quenche d
 quenc h
 que ue
 qu ar
 quar t
 quart z
 quart er
 quarter s
 quar re
 quarre l
 quarrel s
 quarrel l
 quarrell in
 quarrellin g
 quarrell ed
 quarrel in
 quarrelin g
 quarrel ed
 qu al
 qual it
 qualit y
 qualit i
 qualiti e
 qualitie s
 qu a
 qua ke
 qua in
 quain t
 qua ck
 quack s
 quack in
 quackin g
 quack ed
 p y
 py th
 pyth o
 pytho n
 py r
 pyr a
 pyra m
 pyram i
 pyrami d
 pyramid s
 py j
 pyj a
 pyja m
 pyjam as
 p u
 pu z
 puz z
 puzz l
 puzzl ed
 puzzl e
 puzzle s
 pu t
 put t
 putt in
 puttin g
 put s
 pu s
 pus s
 puss y
 pussy c
 pussyc a
 pussyca t
 pus he
 pushe s
 pushe d
 pus h
 push y
 push in
 pushin g
 pu re
 pu r
 pur s
 purs u
 pursu it
 pursu in
 pursuin g
 purs e
 purse s
 pur r
 purr s
 purr in
 purrin g
 purr ed
 pur p
 purp o
 purpo s
 purpos e
 purpose s
 purp l
 purpl e
 purple s
 pur it
 purit y
 pur c
 purc h
 purch as
 purchas ed
 purchas e
 purchase s
 pu p
 pup s
 pup p
 pupp y
 puppy s
 pupp i
 puppi e
 puppie s
 pupp e
 puppe t
 puppet s
 puppet e
 puppete er
 pup i
 pupi l
 pupil s
 pu n
 pun i
 puni s
 punis he
 punishe s
 punishe d
 punis h
 punish m
 punishm en
 punishmen t
 punishment s
 punish in
 punishin g
 pun c
 punc he
 punche s
 punche d
 punc h
 pu m
 pum p
 pump s
 pump k
 pumpk in
 pumpkin s
 pump ed
 pu l
 pul s
 puls e
 pul p
 pul l
 pull s
 pull in
 pullin g
 pull ed
 pu f
 puf f
 puff y
 puff s
 puff in
 puffin g
 puff ed
 pu d
 pud d
 pudd l
 puddl e
 puddle s
 pudd in
 puddin g
 pu c
 puc k
 puck er
 pucker i
 puckeri n
 puckerin g
 pucker ed
 pu b
 pub l
 publ i
 publi s
 publis he
 publishe d
 publi c
 p s
 ps y
 psy c
 psyc h
 psych o
 psycho l
 psychol o
 psycholo g
 psycholog i
 psychologi s
 psychologis t
 p re
 pre y
 pre v
 prev i
 previ o
 previo u
 previou s
 prev e
 preve n
 preven t
 prevent s
 prevent in
 preventin g
 prevent ed
 pre t
 pret z
 pretz e
 pretze l
 pretzel s
 pret t
 prett y
 prett i
 pretti er
 pretti e
 prettie s
 pretties t
 pret e
 prete nd
 pretend s
 pretend i
 pretendi n
 pretendin g
 pretend e
 pretende d
 pre s
 pres s
 press in
 pressin g
 press ed
 press e
 presse s
 pres i
 presi d
 presid e
 preside n
 presiden t
 pres er
 preser v
 preserv e
 pres e
 prese n
 presen t
 present s
 present in
 presentin g
 present ed
 presen c
 presenc e
 pres c
 presc r
 prescr i
 prescri p
 prescrip t
 prescript i
 prescripti o
 prescriptio n
 presc h
 presch o
 prescho o
 preschoo l
 pre p
 prep p
 prep a
 prepa r
 prepar in
 preparin g
 prepar ed
 prepar a
 prepara t
 preparat i
 preparati o
 preparatio n
 preparation s
 pre f
 pref er
 prefer r
 preferr i
 preferri n
 preferrin g
 preferr ed
 prefer e
 prefere n
 preferen c
 preferenc e
 preference s
 pre c
 prec i
 preci s
 precis e
 preci o
 precio u
 preciou s
 prec a
 preca u
 precau t
 precaut i
 precauti o
 precautio n
 precaution s
 pre a
 prea c
 preac h
 p r
 pr y
 pry in
 pryin g
 pr u
 pru n
 prun ed
 prun e
 prune s
 pr ou
 prou d
 proud l
 proudl y
 proud er
 proud e
 proude s
 proudes t
 pr o
 pro w
 prow l
 prowl in
 prowlin g
 pro v
 prov in
 provin g
 prov i
 provi d
 provid in
 providin g
 provid ed
 provid e
 provide s
 prov en
 prov ed
 prov e
 pro t
 prot e
 prote s
 protes t
 protest s
 protest ed
 prote in
 prote c
 protec to
 protecto r
 protector s
 protec t
 protect s
 protect in
 protectin g
 protect i
 protecti v
 protectiv e
 protective l
 protectivel y
 protecti o
 protectio n
 protect ed
 pro s
 pros p
 prosp er
 prosper ed
 pro p
 prop s
 prop p
 propp ed
 prop o
 propo s
 propos ed
 propos a
 proposa l
 prop er
 proper t
 propert y
 proper l
 properl y
 prop e
 prope l
 propel l
 propell er
 propeller s
 pro o
 proo f
 pro n
 pron g
 prong s
 pro m
 prom p
 promp t
 prompt l
 promptl y
 prom i
 promi s
 promis in
 promisin g
 promis ed
 promis e
 promise s
 pro j
 proj e
 proje c
 projec to
 projecto r
 projec t
 project s
 pro g
 prog re
 progre s
 progres s
 prog r
 progr a
 progra m
 program s
 pro f
 prof u
 profu s
 profus e
 profuse l
 profusel y
 prof it
 prof e
 profe s
 profes s
 profess o
 professo r
 profess i
 professi o
 professio n
 profession a
 professiona l
 professional s
 pro d
 prod u
 produ c
 produc t
 product s
 product i
 producti v
 productiv e
 produc in
 producin g
 produc ed
 produc e
 prod d
 prodd ed
 pro c
 proc l
 procl a
 procla i
 proclai m
 proclaim ed
 proc e
 proce s
 proces s
 proce ed
 proce e
 proceed ed
 pro b
 prob l
 probl e
 proble m
 problem s
 prob a
 proba b
 probab l
 probabl y
 pr in
 prin t
 print s
 print er
 print ed
 prin c
 princ i
 princi p
 princip a
 principa l
 princ e
 prince s
 princes s
 princess e
 princesse s
 pr i
 pri z
 priz ed
 priz e
 prize s
 pri v
 priv a
 priva t
 privat e
 priva c
 privac y
 pri s
 pris o
 priso n
 prison er
 prisoner s
 pris m
 print in
 printin g
 pri ed
 pri e
 prie s
 pries t
 pri d
 prid e
 pri c
 pric k
 prick l
 prickl y
 prickl e
 prickle s
 prick ed
 pric ed
 pric e
 price s
 price l
 pricel e
 pricele s
 priceles s
 pr ed
 pred i
 predi c
 predic t
 predict i
 predicti o
 predictio n
 prediction s
 predic a
 predica m
 predicam e
 predicame n
 predicamen t
 pred a
 preda t
 predat o
 predato r
 predator s
 press u
 pressu re
 prepa re
 prepare s
 pr an
 pran k
 prank s
 pran c
 pranc i
 pranci n
 prancin g
 pranc e
 prance d
 pr a
 pra y
 pray s
 pray in
 prayin g
 pray er
 prayer s
 pray ed
 pra m
 pra i
 prai s
 prais in
 praisin g
 prais ed
 prais e
 praise s
 prai r
 prair i
 prairi e
 pra c
 prac t
 pract i
 practi s
 practis in
 practisin g
 practis ed
 practis e
 practi c
 practic in
 practicin g
 practic ed
 practic e
 practice s
 practic a
 practica l
 practical l
 practicall y
 p ou
 pou t
 pout y
 pout s
 pout in
 poutin g
 pout ed
 pou r
 pour s
 pour in
 pourin g
 pour er
 pour ed
 pou nd
 pound s
 pound i
 poundi n
 poundin g
 pound e
 pounde d
 pou n
 poun c
 pounc in
 pouncin g
 pounc ed
 pounc e
 pounce s
 pou c
 pouc he
 pouche s
 pouc h
 p o
 po w
 pow er
 power s
 power l
 powerl e
 powerle s
 powerles s
 power f
 powerf u
 powerfu l
 power ed
 pow d
 powd er
 powder y
 powder s
 po t
 pot t
 pott y
 pott er
 potter y
 pot s
 pot i
 poti o
 potio n
 potion s
 pot en
 poten t
 potent i
 potenti a
 potentia l
 potential l
 potentiall y
 pot a
 pota to
 potato e
 potatoe s
 po s
 pos t
 post s
 post m
 postm as
 postmas t
 postmast er
 postm an
 post er
 poster s
 post ed
 post c
 postc a
 postca r
 postcar d
 postcard s
 post b
 postb o
 postbo x
 post a
 posta l
 pos s
 poss i
 possi b
 possib l
 possibl y
 possibl e
 possib i
 possibi l
 possibil it
 possibilit y
 possibilit i
 possibiliti e
 possibilitie s
 poss e
 posse s
 posses s
 possess i
 possessi o
 possessio n
 possession s
 pos it
 posit i
 positi v
 positiv e
 positive l
 positivel y
 positi o
 positio n
 position s
 position ed
 pos ed
 pos e
 pose s
 po r
 por t
 port s
 port r
 portr a
 portra it
 port i
 porti o
 portio n
 portion s
 port a
 porta l
 por r
 porr i
 porri d
 porrid g
 porridg e
 por k
 por c
 porc u
 porcu p
 porcup in
 porcupin e
 porc he
 porche s
 porc h
 po p
 pop u
 popu l
 popul a
 popula r
 popular it
 popularit y
 pop s
 pops i
 popsi c
 popsic l
 popsicl e
 popsicle s
 pop p
 popp y
 popp in
 poppin g
 popp i
 poppi e
 poppie s
 popp er
 popp ed
 popp a
 pop c
 popc o
 popco r
 popcor n
 po o
 poo r
 poor l
 poorl y
 poo p
 poop ed
 poo l
 pool s
 pool ed
 poo f
 poo d
 pood l
 poodl e
 po nd
 pond s
 pond e
 ponde r
 ponder i
 ponderi n
 ponderin g
 ponder e
 pondere d
 po n
 pon y
 pony t
 ponyt a
 ponyta i
 ponytai l
 ponytail s
 pon i
 poni e
 ponie s
 po m
 po l
 pol l
 poll u
 pollu t
 pollut i
 polluti o
 pollutio n
 poll en
 pol k
 polk a
 pol it
 polit e
 polite n
 politen e
 politene s
 politenes s
 polite l
 politel y
 pol i
 poli s
 polis he
 polishe s
 polishe r
 polishe d
 polis h
 polish in
 polishin g
 poli c
 polic y
 polic e
 police m
 policem en
 policem an
 pol e
 pole s
 pol a
 pola r
 po k
 pok in
 pokin g
 pok ed
 pok e
 poke s
 po in
 poin t
 point y
 point s
 point l
 pointl e
 pointle s
 pointles s
 point er
 point ed
 po i
 poi s
 pois o
 poiso n
 poison s
 poison ou
 poisonou s
 poison in
 poisonin g
 poison ed
 pois e
 point in
 pointin g
 po e
 poe t
 poe m
 poem s
 po d
 pod s
 pod i
 podi u
 podiu m
 po c
 poc u
 pocu s
 poc k
 pock e
 pocke t
 pocket s
 pocket ed
 p m
 p l
 pl u
 plu s
 plus h
 plu n
 plun k
 plunk ed
 plun g
 plung er
 plung e
 plu m
 plum s
 plum p
 plum m
 plumm e
 plumme t
 plummet ed
 plum b
 plumb er
 plu g
 plug s
 plug g
 plugg ed
 plu c
 pluc k
 pluck in
 pluckin g
 pluck ed
 pl ou
 plou g
 ploug h
 pl o
 plo w
 plow in
 plowin g
 plow ed
 plo t
 plot t
 plott in
 plottin g
 plott ed
 plo p
 plop p
 plopp ed
 plo n
 plon k
 plonk ed
 pl i
 pli g
 plig h
 pligh t
 pli er
 plier s
 pl en
 plen t
 plent y
 pl e
 ple d
 pled g
 pledg ed
 ple as
 pleas u
 pleasu re
 pleasure s
 pleas ed
 pleas e
 pleas an
 pleasan t
 pleasant l
 pleasantl y
 ple a
 plea d
 plead in
 pleadin g
 pleading l
 pleadingl y
 plead ed
 pl as
 plas t
 plast i
 plasti c
 plast er
 pl an
 plan t
 plant s
 plant i
 planti n
 plantin g
 plant e
 plante r
 plante d
 plan s
 plan n
 plann i
 planni n
 plannin g
 plann e
 planne r
 planne d
 plan k
 plank s
 plan e
 plane t
 planet s
 plane s
 plane d
 pl a
 pla y
 play th
 playth i
 playthi n
 playthin g
 play t
 playt i
 playti m
 playtim e
 playtime s
 play s
 play r
 playr o
 playro o
 playroo m
 play m
 playm a
 playma t
 playmat e
 playmate s
 play in
 playin g
 play h
 playh ou
 playhou s
 playhous e
 play g
 playg r
 playgr ou
 playgrou p
 playgrou nd
 playground s
 play f
 playf u
 playfu l
 playful n
 playfuln e
 playfulne s
 playfulnes s
 playful l
 playfull y
 play er
 player s
 play ed
 play d
 playd a
 playda t
 playdat e
 playdate s
 pla t
 plat t
 platt er
 plat f
 platf o
 platfo r
 platfor m
 plat e
 plate s
 pla q
 plaq u
 plaqu e
 pla in
 plain s
 pla c
 plac in
 placin g
 plac ed
 plac e
 place s
 p it
 pit y
 pit t
 pitt er
 pit s
 pit c
 pitc he
 pitche s
 pitche r
 pitche d
 pitc h
 pitch in
 pitchin g
 p in
 pin w
 pinw he
 pinwhe e
 pinwhee l
 pin s
 pin n
 pinn ed
 pin k
 pink y
 pink s
 pink e
 pinke s
 pinkes t
 pin e
 pine s
 pine c
 pinec o
 pineco n
 pinecon e
 pinecone s
 pine a
 pinea p
 pineap p
 pineapp l
 pineappl e
 pin c
 pinc he
 pinche s
 pinche r
 pincher s
 pinche d
 pinc h
 pinch y
 pinc er
 pincer s
 pin b
 pinb a
 pinba l
 pinbal l
 pin a
 pina t
 pinat a
 pinata s
 p i
 pi �
 pi� �
 piñ a
 piña t
 piñat a
 pi z
 piz z
 pizz er
 pizzer i
 pizzeri a
 pizz as
 pizz a
 pi x
 pix i
 pixi e
 pi s
 pis to
 pisto l
 pistol s
 pi r
 pir ou
 pirou e
 piroue t
 pirouet t
 pirouett ed
 pir a
 pira t
 pirat e
 pirate s
 pi p
 pip in
 pipin g
 pip ed
 pip e
 pipe s
 pinch in
 pinchin g
 pi l
 pil o
 pilo t
 pilot s
 pil l
 pill s
 pill o
 pillo w
 pillow s
 pill a
 pilla r
 pillar s
 pil in
 pilin g
 pil ed
 pil e
 pile s
 pi k
 pik e
 pi g
 pig t
 pigt a
 pigta i
 pigtai l
 pigtail s
 pig s
 pig l
 pigl e
 pigle t
 piglet s
 pig g
 pigg y
 pig e
 pige o
 pigeo n
 pigeon s
 pi er
 pier c
 pierc ed
 pi e
 pie s
 pie c
 piec in
 piecin g
 piec e
 piece s
 pi c
 pic t
 pict u
 pictu re
 picture s
 pictu r
 pictur ed
 pic n
 picn i
 picni c
 picnic s
 pic k
 pick y
 pick s
 pick l
 pickl e
 pickle s
 pick in
 pickin g
 pick er
 picker s
 pick ed
 pick e
 picke t
 pi an
 pian o
 piano s
 p ha
 pha r
 phar m
 pharm a
 pharma c
 pharmac y
 phar a
 phara o
 pharao h
 pharaoh s
 p h
 ph y
 phy s
 phys i
 physi c
 physic a
 physica l
 ph r
 phr as
 phras e
 phrase s
 ph o
 pho to
 photo s
 photo g
 photog r
 photogr a
 photogra p
 photograp he
 photographe r
 photograp h
 pho n
 phon e
 phone s
 pho en
 phoen i
 phoeni x
 p er
 per s
 pers u
 persu a
 persua s
 persuas i
 persuasi v
 persuasiv e
 persuasi o
 persuasio n
 persua d
 persuad i
 persuadi n
 persuadin g
 persuad ed
 persuad e
 pers p
 persp e
 perspe c
 perspec t
 perspect i
 perspecti v
 perspectiv e
 pers o
 perso n
 person s
 person a
 persona l
 personal i
 personali t
 personalit y
 personalit i
 personaliti e
 personalitie s
 pers i
 persi s
 persis t
 persist ed
 persist e
 persiste n
 persisten t
 persisten c
 persistenc e
 per p
 perp l
 perpl e
 perple x
 perplex ed
 per m
 perm i
 permi t
 permit t
 permitt i
 permitti n
 permittin g
 permitt ed
 permit s
 permi s
 permis s
 permiss i
 permissi o
 permissio n
 perm an
 perman e
 permane n
 permanen t
 per k
 perk y
 perk s
 perk ed
 per i
 peri s
 per h
 perh a
 perha p
 perhap s
 per f
 perf u
 perfu m
 perfum e
 perfume s
 perf o
 perfo r
 perfor m
 perform i
 performi n
 performin g
 perform ed
 perform an
 performan c
 performanc e
 performance s
 perf e
 perfe c
 perfec t
 perfect l
 perfectl y
 perfect i
 perfecti o
 perfectio n
 per c
 perc he
 perche d
 perc h
 perch i
 perchi n
 perchin g
 p en
 pen t
 pent a
 penta g
 pentag o
 pentago n
 pen s
 pen n
 penn y
 penn i
 penni l
 pennil e
 pennile s
 penniles s
 penni e
 pennie s
 pen g
 peng u
 pengu in
 penguin s
 pen c
 penc i
 penci l
 pencil s
 pen a
 pena l
 penal t
 penalt y
 p ed
 ped d
 pedd l
 peddl i
 peddli n
 peddlin g
 peddl e
 ped a
 peda l
 pedal s
 pedal l
 pedall i
 pedalli n
 pedallin g
 pedal i
 pedali n
 pedalin g
 p e
 pe w
 pe t
 pet t
 pett in
 pettin g
 pett ed
 pet s
 pet r
 petr i
 petri f
 petrif i
 petrifi ed
 pet a
 peta l
 petal s
 pe s
 pes t
 pest s
 pest i
 pesti c
 pestic i
 pestici d
 pesticid e
 pest er
 pes k
 pesk y
 pers e
 perse v
 persev er
 persever ed
 persever e
 persever an
 perseveran c
 perseveranc e
 perform er
 performer s
 pe p
 pep p
 pepp er
 pepper s
 pepper o
 peppero n
 pepperon i
 pe o
 peo p
 peop l
 peopl e
 people s
 pe nd
 pend an
 pendan t
 pe l
 pel t
 pe g
 peg s
 pe er
 peer i
 peeri n
 peerin g
 peer ed
 pe ed
 pe e
 pee p
 peep in
 peepin g
 peep h
 peeph o
 peepho l
 peephol e
 peep ed
 pee l
 peel s
 peel in
 peelin g
 peel er
 peel ed
 pee k
 peek s
 peek in
 peekin g
 peek ed
 pee in
 peein g
 peddl ed
 pedall ed
 pedal ed
 pe c
 pec u
 pecu l
 pecul i
 peculi a
 peculia r
 pec k
 peck s
 peck in
 peckin g
 peck i
 pecki s
 peckis h
 peck ed
 pe b
 peb b
 pebb l
 pebbl e
 pebble s
 pe as
 peas an
 peasan t
 pe an
 pean u
 peanu t
 peanut s
 pe a
 pea r
 pear s
 pear l
 pearl s
 pea k
 peak s
 peak ed
 pea c
 peac o
 peaco c
 peacoc k
 peacock s
 peac he
 peache s
 peac h
 peac e
 peace f
 peacef u
 peacefu l
 peaceful n
 peacefuln e
 peacefulne s
 peacefulnes s
 peaceful l
 peacefull y
 p as
 pas to
 pasto r
 pas t
 past u
 pastu re
 pasture s
 past r
 pastr y
 pastr i
 pastri e
 pastrie s
 past i
 pasti m
 pastim e
 past e
 paste l
 pastel s
 past a
 pas s
 pass w
 passw o
 passwo r
 passwor d
 pass p
 passp o
 passpo r
 passpor t
 passport s
 pass in
 passin g
 pass i
 passi o
 passio n
 passion s
 pass er
 passer b
 passerb y
 pass ed
 pass e
 passe s
 passe n
 passen g
 passeng er
 passenger s
 pass a
 passa g
 passag e
 passage wa
 passagewa y
 passageway s
 p an
 pan t
 pant s
 pant r
 pantr y
 pant i
 panti n
 pantin g
 pant e
 pante d
 pan s
 pan i
 pani c
 panic s
 panic k
 panick i
 panicki n
 panickin g
 panick e
 panicke d
 pan g
 pan e
 pane l
 pan d
 pand a
 panda s
 pan c
 panc a
 panca k
 pancak e
 pancake s
 p a
 pa y
 pay s
 pay o
 payo f
 payof f
 pay m
 paym en
 paymen t
 pay in
 payin g
 pay ed
 pa w
 paw s
 paw n
 paw ed
 pa v
 pav e
 pave m
 pavem en
 pavemen t
 pa u
 pau s
 paus in
 pausin g
 paus ed
 paus e
 pause s
 pa th
 path w
 pathw a
 pathwa y
 pathway s
 path s
 pa t
 pat t
 patt in
 pattin g
 patt er
 patter n
 pattern s
 pattern ed
 patt ed
 pat s
 pat r
 patr o
 patro l
 patrol l
 patroll in
 patrollin g
 pat i
 pati o
 pati en
 patien t
 patient s
 patient l
 patientl y
 patien c
 patienc e
 pat c
 patc he
 patche s
 patche d
 patc h
 patch w
 patchw o
 patchwo r
 patchwor k
 patch in
 patchin g
 pa re
 pare n
 paren t
 parent s
 pa r
 par t
 part y
 part s
 part n
 partn er
 partner s
 part in
 partin g
 part i
 parti ed
 parti e
 partie s
 parti c
 partic u
 particu l
 particul a
 particula r
 particular l
 particularl y
 partic i
 partici p
 particip an
 participan t
 participant s
 particip a
 participa t
 participat e
 part ed
 par s
 pars l
 parsl e
 parsle y
 par r
 parr o
 parro t
 parrot s
 par l
 parl ou
 parlou r
 parl o
 parlo r
 par k
 park s
 park k
 parkk e
 parkke e
 parkkee p
 parkkeep er
 park in
 parkin g
 park ed
 par c
 parc e
 parce l
 par as
 paras o
 paraso l
 par a
 para m
 param ed
 paramed i
 paramedi c
 paramedic s
 para l
 para d
 parad i
 paradi s
 paradis e
 parad e
 parade s
 para c
 parac h
 parach u
 parachu t
 parachut e
 parachute s
 pa p
 pap er
 paper w
 paperw o
 paperwo r
 paperwor k
 paper s
 paper c
 paperc l
 papercl i
 papercli p
 pap a
 pa l
 pal s
 pal m
 palm s
 pal er
 pal e
 pale t
 palet t
 palett e
 pal a
 pala c
 palac e
 pa j
 paj a
 paja m
 pajam as
 pa in
 pain t
 paint s
 paints e
 paintse t
 paint er
 painter s
 paint ed
 paint b
 paintb r
 paintbr u
 paintbru s
 paintbrus he
 paintbrushe s
 paintbrus h
 paintb o
 paintbo x
 pain s
 pain f
 painf u
 painfu l
 painful l
 painfull y
 pa i
 pai r
 pair s
 paint in
 paintin g
 painting s
 pai l
 pail s
 pai d
 pa g
 pag e
 page s
 pa d
 pad s
 pad l
 padl o
 padlo c
 padloc k
 pad d
 padd l
 paddl in
 paddlin g
 paddl ed
 paddl e
 paddle s
 padd i
 paddi e
 paddie s
 padd ed
 pa c
 pac k
 pack s
 pack in
 packin g
 pack ed
 pack e
 packe t
 packet s
 pack a
 packa g
 packag in
 packagin g
 packag ed
 packag e
 package s
 pac in
 pacin g
 pac i
 paci f
 pacif i
 pacifi er
 pac ed
 pac e
 o y
 oy s
 oys t
 oyst er
 oyster s
 o x
 ox y
 oxy g
 oxyg en
 o w
 ow n
 own s
 own in
 ownin g
 own er
 owner s
 owners h
 ownersh i
 ownershi p
 own ed
 ow l
 owl s
 ow i
 owi e
 ow e
 o ve
 ove r
 over p
 overp o
 overpo w
 overpow er
 overpower i
 overpoweri n
 overpowerin g
 o v
 over w
 overw o
 overwo r
 overwor k
 overwork ed
 overw he
 overwhe l
 overwhel m
 overwhelm i
 overwhelmi n
 overwhelmin g
 overwhelm e
 overwhelme d
 over to
 overto o
 overtoo k
 over t
 overt u
 overtu r
 overtur n
 overturn ed
 over s
 overs t
 overst e
 overste p
 over r
 overr u
 overr e
 overre a
 overrea c
 overreac t
 over n
 overn i
 overni g
 overnig h
 overnigh t
 over l
 overl o
 overlo o
 overloo k
 overlook ed
 over j
 overj o
 overjo y
 overjoy ed
 over he
 overhe a
 overhea r
 overhear d
 overhea d
 over h
 overh an
 overhan g
 over f
 overf l
 overfl o
 overflo w
 overflow s
 overflow i
 overflowi n
 overflowin g
 overflow ed
 over d
 overd o
 over c
 overc o
 overco o
 overcoo k
 overco m
 overcom i
 overcomi n
 overcomin g
 overcom e
 overc a
 overca m
 overcam e
 over b
 overb o
 overbo a
 overboa r
 overboar d
 over a
 overa l
 overal l
 overall s
 ov en
 oven s
 ov at
 ovat i
 ovati o
 ovatio n
 ov a
 ova l
 oval s
  ou
 ou t
 out w
 outw it
 outwit t
 outwitt ed
 out s
 outs t
 outst re
 outstre t
 outstret c
 outstretc he
 outstretche d
 outs m
 outsm a
 outsma r
 outsmar t
 outsmart ed
 outs k
 outsk i
 outski r
 outskir t
 outskirt s
 outs i
 outsi d
 outsid e
 out r
 outr u
 outru n
 outr an
 out l
 outl o
 outlo o
 outloo k
 out in
 outin g
 outing s
 out g
 outg o
 outgo in
 outgoin g
 out f
 outf it
 outfit s
 out er
 out d
 outd o
 outdo o
 outdoo r
 outdoor s
 out c
 outc o
 outco m
 outcom e
 outcome s
 out a
 outa g
 outag e
 ou r
 our s
 ours e
 ourse l
 oursel v
 ourselv e
 ourselve s
 ou n
 oun c
 ounc e
 ounce s
 ou c
 ouc h
 ouch y
 ouch i
 ouchi e
 o t
 ot t
 ott er
 otter s
 ot he
 othe r
 other w
 otherw i
 otherwi s
 otherwis e
 other s
 o s
 os t
 ost r
 ostr i
 ostri c
 ostric he
 ostriche s
 ostric h
 o re
 ore g
 oreg an
 oregan o
 o r
 or p
 orp h
 orph an
 orphan a
 orphana g
 orphanag e
 or n
 orn a
 orna m
 ornam en
 ornamen t
 ornament s
 or i
 ori g
 orig in
 origin a
 origina l
 original l
 originall y
 or g
 org an
 organ s
 organ i
 organi z
 organiz i
 organizi n
 organizin g
 organiz e
 organize d
 organiz a
 organiza t
 organizat i
 organizati o
 organizatio n
 organi s
 organis e
 organise d
 or d
 ord in
 ordin a
 ordina r
 ordinar y
 ord er
 order s
 order l
 orderl y
 order i
 orderi n
 orderin g
 order ed
 ord e
 orde a
 ordea l
 or c
 orc he
 orche s
 orches t
 orchest r
 orchestr a
 orc ha
 orcha r
 orchar d
 or b
 orb it
 or an
 oran g
 orang e
 orange s
 o p
 op t
 opt i
 opti o
 optio n
 option s
 opti m
 optim i
 optimi s
 optimis t
 optimist i
 optimisti c
 optimis m
 op p
 opp o
 oppo s
 oppos it
 opposit e
 opposite s
 oppo r
 oppor t
 opport u
 opportu n
 opportun it
 opportunit y
 opportunit i
 opportuniti e
 opportunitie s
 oppo n
 oppon en
 opponen t
 opponent s
 op in
 opin i
 opini o
 opinio n
 opinion s
 op er
 oper a
 opera to
 operato r
 opera t
 operat i
 operati o
 operatio n
 operation s
 operati n
 operatin g
 operat ed
 operat e
 op en
 open s
 open in
 openin g
 open er
 open ed
 o oo
 ooo h
 o o
 oo z
 ooz in
 oozin g
 ooz e
 oo p
 oop s
 oops i
 oopsi e
 oo he
 oohe d
 oo h
 ooh in
 oohin g
 o n
 on wa
 onwa r
 onwar d
 onward s
 on to
 on l
 onl y
 onl in
 onlin e
 on i
 oni o
 onio n
 onion s
 on e
 one s
 ones e
 onese l
 onesel f
 on c
 onc om
 oncom in
 oncomin g
 onc e
 on b
 onb o
 onbo ar
 onboar d
 o me
 ome l
 omel e
 omele t
 omelet t
 omelett e
  om
 om in
 omin o
 omino u
 ominou s
 o l
 ol i
 oli ve
 olive s
 ol e
 ol d
 old s
 old er
 old e
 olde s
 oldes t
 o k
 ok ay
 o in
 oin t
 oint m
 ointm e
 ointme n
 ointmen t
 oin k
 oink ed
 o i
 oi l
 oil y
 oil s
 o h
 o g
 og re
 o f
 of t
 oft en
 of f
 off i
 offi c
 offic i
 offici a
 officia l
 official l
 officiall y
 offic er
 officer s
 offic e
 off er
 offer s
 offer i
 offeri n
 offerin g
 offering s
 offer ed
 off e
 offe nd
 offend e
 offende d
 o d
 od o
 odo r
 od d
 odd s
 o c
 oc to
 octo p
 octop u
 octopu s
 octopus e
 octopuse s
 oc e
 oce an
 ocean s
 oc c
 occ u
 occu r
 occur re
 occurre n
 occurren c
 occurrenc e
 occur r
 occurr ed
 occu p
 occup i
 occupi ed
 occ as
 occas i
 occasi o
 occasio n
 occasion s
 occasion a
 occasiona l
 occasional l
 occasionall y
 o b
 ob v
 obv i
 obvi ou
 obviou s
 obvious l
 obviousl y
 ob t
 obt a
 obta in
 ob s
 obs t
 obst a
 obsta c
 obstac l
 obstacl e
 obstacle s
 obs er
 obser v
 observ i
 observi n
 observin g
 observ ed
 observ e
 observ an
 observan t
 observ a
 observa t
 observat i
 observati o
 observatio n
 obs e
 obse s
 obses s
 obsess ed
 ob l
 obl i
 obli v
 obliv i
 oblivi ou
 obliviou s
 obli g
 oblig ed
 oblig e
 ob j
 obj e
 obje c
 objec t
 object s
 ob ed
 obed i
 obedi e
 obedie n
 obedien t
 obedient l
 obedientl y
 obedien c
 obedienc e
 ob e
 obe y
 obey s
 obey in
 obeyin g
 obey ed
 o at
 oat s
 oat me
 oatme a
 oatmea l
 o as
 oas i
 oasi s
 o ar
 oar s
 o a
 oa k
 n u
 nu z
 nuz z
 nuzz le
 nuzzle s
 nuzz l
 nuzzl in
 nuzzlin g
 nuzzl ed
 nu t
 nut t
 nutt y
 nut s
 nut r
 nutr it
 nutrit i
 nutriti o
 nutritio u
 nutritiou s
 nutritio n
 nutr i
 nutri en
 nutrien t
 nutrient s
 nu r
 nur t
 nurt u
 nurtu re
 nurtu r
 nurtur in
 nurturin g
 nur s
 nurs in
 nursin g
 nurs er
 nurser y
 nurs ed
 nurs e
 nurse s
 nu m
 num b
 numb er
 number s
 number i
 numberi n
 numberin g
 number ed
 nu g
 nug g
 nugg e
 nugge t
 nugget s
 nu d
 nud g
 nudg in
 nudgin g
 nudg ed
 nudg e
 nudge s
 n ou
 nou r
 nour i
 nouri s
 nouris h
 nou n
 n on
 non s
 nons en
 nonsen se
 n o
 no z
 noz z
 nozz le
 no wa
 no w
 now he
 nowhe r
 nowher e
 no ve
 nove l
 novel s
 no th
 noth i
 nothi n
 nothin g
 no t
 not i
 noti c
 notic in
 noticin g
 notic ed
 notic e
 notice s
 not ed
 not e
 note s
 note b
 noteb o
 notebo o
 noteboo k
 notebook s
 no s
 nos y
 nos t
 nost r
 nostr i
 nostri l
 nostril s
 nost a
 nosta l
 nostal g
 nostalg i
 nostalgi a
 nos e
 nose s
 no r
 nor th
 nor m
 norm a
 norma l
 normal l
 normall y
 no on
 noon t
 noont i
 noonti me
 no o
 noo k
 nook s
 noo d
 nood le
 noodle s
 no ne
 no is
 nois y
 nois i
 noisi l
 noisil y
 noisi er
 noisi e
 noisie s
 noisies t
 nois e
 noise s
 noise m
 noisem a
 noisema k
 noisemak er
 no d
 nod s
 nod d
 nodd in
 noddin g
 nodd ed
 no c
 noc t
 noct u
 noctu r
 noctur n
 nocturn a
 nocturna l
 no b
 nob o
 nobo d
 nobod y
 nob le
 n nn
 n it
 nit s
 n in
 nin th
 nin e
 nine t
 ninet y
 ninet e
 ninete e
 ninetee n
 n i
 ni p
 nip p
 nipp ed
 ni m
 nim b
 nimb le
 ni g
 nig h
 nigh t
 night t
 nightt i
 nightti me
 night s
 nights t
 nightst an
 nightstan d
 night m
 nightm a
 nightma re
 nightmare s
 night l
 nightl y
 night f
 nightf a
 nightfa l
 nightfal l
 ni e
 nie c
 niec e
 ni c
 nic k
 nick n
 nickn a
 nickna me
 nick e
 nicke l
 nickel s
 nic er
 nic e
 nice s
 nices t
 nice l
 nicel y
 ni b
 nib b
 nibb le
 nibble s
 nibb l
 nibbl in
 nibblin g
 nibbl ed
 n er
 ner v
 nerv o
 nervo u
 nervou s
 nervous n
 nervousn e
 nervousne s
 nervousnes s
 nervous l
 nervousl y
 nerv e
 nerve s
 ner d
  ne
 ne x
 nex t
 ne w
 new s
 news p
 newsp a
 newspa p
 newspap er
 newspaper s
 new l
 newl y
 new f
 newf ou
 newfou nd
 new er
 new e
 newe s
 newes t
 new b
 newb o
 newbo r
 newbor n
 ne v
 nev er
 ne t
 net w
 netw o
 netwo r
 networ k
 network s
 net t
 nett in
 nettin g
 net s
 ne s
 nes t
 nest s
 nest l
 nestl in
 nestlin g
 nestl ed
 nest in
 nestin g
 ne p
 nep he
 nephe w
 ne it
 neit he
 neithe r
 ne i
 nei g
 neig he
 neighe d
 neig h
 neigh s
 neigh in
 neighin g
 neigh b
 neighb ou
 neighbou r
 neighbour s
 neighbour h
 neighbourh o
 neighbourho o
 neighbourhoo d
 neighb o
 neighbo r
 neighbor s
 neighbor in
 neighborin g
 neighbor h
 neighborh o
 neighborho o
 neighborhoo d
 ne g
 neg o
 nego t
 negot i
 negoti at
 negotiat i
 negotiati o
 negotiatio n
 negotiat e
 neg le
 negle c
 neglec t
 neglect ed
 neg at
 negat i
 negati ve
 ne ed
 need y
 need s
 need l
 needl e
 needle w
 needlew o
 needlewo r
 needlewor k
 needle s
 need i
 needi n
 needin g
 ne e
 need ed
 ne c
 nec t
 nect ar
 nec k
 neck s
 neck l
 neckl a
 neckla c
 necklac e
 necklace s
 neck er
 necker c
 neckerc h
 neckerch i
 neckerchi e
 neckerchie f
 neck ed
 nec e
 nece s
 neces s
 necess it
 necess ar
 necessar y
 necessar i
 necessari l
 necessaril y
 ne at
 neat l
 neatl y
 neat er
 neat e
 neate s
 neates t
 ne ar
 near l
 nearl y
 near er
 near ed
 near b
 nearb y
 ne a
 nea re
 neare s
 neares t
 n at
 nat u
 natu re
 natu r
 natur a
 natura l
 natural l
 naturall y
 nat i
 nati o
 natio n
 nation s
 n as
 nas t
 nast y
 n ar
 nar r
 narr o
 narro w
 narrow l
 narrowl y
 narrow er
 narr a
 narra to
 narrato r
 narra t
 narrat i
 narrati v
 narrativ e
 n an
 nan n
 nann y
 nann i
 nanni e
 nannie s
 nan a
 n a
 na w
 na v
 nav y
 nav i
 navi g
 navig at
 navigat e
 na u
 nau g
 naug h
 naugh t
 naught y
 naught in
 naughtin e
 naughtine s
 naughtines s
 na p
 nap s
 nap p
 napp in
 nappin g
 napp ed
 nap k
 napk in
 napkin s
 na me
 name s
 na m
 nam in
 namin g
 nam ed
 na k
 nak ed
 na i
 nai l
 nail s
 nail ed
 na g
 nag g
 nagg in
 naggin g
 na c
 na b
 m y
 my s
 mys t
 myst i
 mysti c
 mystic a
 mystica l
 myst er
 myster y
 myster i
 mysteri o
 mysterio u
 mysteriou s
 mysterious n
 mysteriousn e
 mysteriousne s
 mysteriousnes s
 mysterious l
 mysteriousl y
 mysteri e
 mysterie s
 mys e
 myse l
 mysel f
 m u
 mu t
 mut u
 mutu a
 mutua l
 mut t
 mutt er
 mutter i
 mutteri n
 mutterin g
 mutter ed
 mut e
 mu s
 mus t
 must y
 must n
 must er
 muster ed
 must ar
 mustar d
 must a
 musta c
 mustac he
 mustache s
 mustache d
 mus i
 musi c
 music i
 musici an
 musician s
 music a
 musica l
 mus h
 mush y
 mush r
 mushr o
 mushro o
 mushroo m
 mushroom s
 mus e
 muse u
 museu m
 museum s
 mus c
 musc l
 muscl e
 muscle s
 mu r
 mur m
 murm u
 murmu r
 murmur ed
 mur k
 murk y
 mur a
 mura l
 mu n
 mun c
 munc he
 munche s
 munche d
 munc h
 munch in
 munchin g
 mu m
 mum s
 mum m
 mumm y
 mumm i
 mummi e
 mummie s
 mumm a
 mum b
 mumb l
 mumbl in
 mumblin g
 mumbl ed
 mu l
 mul t
 mult i
 multi p
 multip l
 multipl y
 multipl e
 mul e
 mule s
 mul c
 mulc h
 mul b
 mulb er
 mulber r
 mulberr y
 mu g
 mug s
 mu f
 muf f
 muff l
 muffl ed
 muff in
 muffin s
 mu d
 mud d
 mudd y
 mu c
 muc k
 muck y
 muc h
 m ou
 mou th
 mouth s
 mouth p
 mouthp i
 mouthpi e
 mouthpie c
 mouthpiec e
 mouth f
 mouthf u
 mouthfu l
 mouthful s
 mou s
 mous t
 moust a
 mousta c
 moustac he
 mous i
 mousi e
 mous e
 mouse t
 mouset r
 mousetr a
 mousetra p
 mou r
 mour n
 mourn ed
 mou nd
 mound s
 mou n
 moun t
 mount a
 mounta in
 mountain s
 mountains i
 mountainsi d
 mountainsid e
 mou l
 moul d
 mould ed
 m o
 mo w
 mow in
 mowin g
 mow er
 mo v
 mov in
 movin g
 mov i
 movi e
 movie s
 mov ed
 mov e
 move s
 move m
 movem en
 movemen t
 movement s
 mo to
 moto r
 motor s
 motor c
 motorc y
 motorcy l
 motorcyl e
 motorcy c
 motorcyc l
 motorcycl e
 motorcycle s
 motor b
 motorb i
 motorbi k
 motorbik e
 mo th
 mo t
 mot i
 moti v
 motiv a
 motiva t
 motivat i
 motivati o
 motivatio n
 motivat ed
 moti o
 motio n
 motion s
 motion l
 motionl e
 motionle s
 motionles s
 motion in
 motionin g
 motion ed
 mot he
 mothe r
 mother s
 mot e
 mote l
 mo s
 mos t
 most l
 mostl y
 mos s
 mos q
 mosq u
 mosqu i
 mosqui to
 mosquito s
 mosquito e
 mosquitoe s
 mo re
 mo r
 mor s
 mors e
 morse l
 mor n
 morn in
 mornin g
 morning s
 mor a
 mora l
 mo p
 mop s
 mop p
 mopp in
 moppin g
 mopp ed
 mo o
 moo s
 moos e
 moo n
 moon s
 moon l
 moonl i
 moonli g
 moonlig h
 moonligh t
 moo in
 mooin g
 moo ed
 moo d
 mo n
 mon th
 month s
 mon s
 mons t
 monst er
 monster s
 mon k
 monk e
 monke y
 monkey s
 mon i
 moni to
 monito r
 mon e
 mone y
 mon ar
 monar c
 monarc h
 mo m
 mom s
 mom m
 momm y
 momm i
 mommi e
 mommie s
 momm a
 mom en
 momen t
 moment s
 mo l
 mol e
 mole s
 mol d
 mold y
 mold s
 mol as
 molas s
 molass e
 molasse s
 mo i
 moi s
 mois t
 moist u
 moistu re
 moistu r
 moistur i
 moisturi z
 mo d
 mod er
 moder n
 moder a
 modera t
 moderat i
 moderati o
 moderatio n
 mod e
 mode s
 modes t
 modest l
 modestl y
 mode l
 model s
 model l
 modell in
 modellin g
 mo c
 moc k
 mock in
 mockin g
 mock ed
 mo b
 mob i
 mobi l
 mobil e
 mo an
 moan e
 moane d
 mo a
 moa t
 m mm
 m it
 mit t
 mitt s
 mitt e
 mitte n
 mitten s
 m in
 min u
 minu t
 minut e
 minute s
 minu s
 min t
 mint y
 mint s
 min i
 mini m
 minim a
 minima l
 mini a
 minia t
 miniat u
 miniatu r
 miniatur e
 min er
 miner s
 miner a
 minera l
 mineral s
 min e
 mine s
 m i
 mi x
 mix t
 mixt u
 mixtu re
 mix in
 mixin g
 mix er
 mixer s
 mix ed
 mix e
 mixe s
 mi s
 mis u
 misu s
 misus e
 misu nd
 misund e
 misunde r
 misunder s
 misunders t
 misunderst o
 misundersto o
 misunderstoo d
 misunderst an
 misunderstan d
 misunderstand i
 misunderstandi n
 misunderstandin g
 misunderstanding s
 mis t
 mist y
 mist er
 mist a
 mista k
 mistak en
 mistak e
 mistake s
 mis s
 miss in
 missin g
 miss i
 missi o
 missio n
 mission s
 missi l
 missil e
 missile s
 miss ed
 miss e
 misse s
 mis p
 misp l
 mispl a
 mispla c
 misplac ed
 mis j
 misj u
 misju d
 misjud g
 misjudg ed
 mis f
 misf o
 misfo r
 misfor t
 misfort u
 misfortu n
 misfortun e
 mis er
 miser y
 miser a
 misera b
 miserab l
 miserabl y
 miserabl e
 mis d
 misd e
 misde ed
 mis c
 misc h
 misch i
 mischi e
 mischie v
 mischiev ou
 mischievou s
 mischie f
 mis b
 misb e
 misbe ha
 misbeha v
 misbehav in
 misbehavin g
 misbehav e
 mi r
 mir r
 mirr o
 mirro r
 mirror s
 mir a
 mira g
 mirag e
 mira c
 mirac u
 miracu l
 miracul ou
 miraculou s
 miraculous l
 miraculousl y
 mirac l
 miracl e
 miracle s
 mi nd
 mind s
 mind i
 mindi n
 mindin g
 mind f
 mindf u
 mindfu l
 mind e
 minde d
 mi m
 mim i
 mimi c
 mimic k
 mi l
 mil l
 mill i
 milli o
 millio n
 million s
 mill er
 miller s
 mil k
 milk s
 milks ha
 milksha k
 milkshak e
 milkshake s
 milk in
 milkin g
 milk ed
 mil e
 mile s
 mil d
 mild er
 mild e
 milde s
 mildes t
 mi g
 mig h
 migh t
 might y
 might i
 mighti er
 mighti e
 mightie s
 mighties t
 mi d
 mid n
 midn i
 midni g
 midnig h
 midnigh t
 mid d
 midd l
 middl e
 midd ay
 mid a
 mida i
 midai r
 mi c
 mic r
 micr o
 micro wa
 microwa v
 microwav e
 micro s
 micros c
 microsc o
 microsco p
 microscop e
 microscope s
 micro p
 microp h
 microph o
 micropho n
 microphon e
 microphone s
 micro b
 microb e
 microbe s
 mic e
 m er
 mer r
 merr y
 merr i
 merri l
 merril y
 mer m
 merm a
 merma i
 mermai d
 mermaid s
 mer e
 mere l
 merel y
 mer c
 merc y
 merc u
 mercu r
 mercur y
 merc h
 merch an
 merchan t
 merchant s
 m en
 men u
 menu s
 men t
 ment i
 menti o
 mentio n
 mention in
 mentionin g
 mention ed
 ment a
 menta l
 men a
 mena c
 menac in
 menacin g
 menacing l
 menacingl y
 m ed
 med i
 medi u
 mediu m
 medi t
 medit a
 medita t
 meditat i
 meditati n
 meditatin g
 meditat e
 medi c
 medic i
 medici n
 medicin e
 medicine s
 medic a
 medica l
 med a
 meda l
 medal s
 m e
 me w
 mew in
 mewin g
 mew ed
 me t
 met re
 metre s
 met er
 meter s
 met e
 mete o
 meteo r
 met a
 meta l
 metal s
 me s
 mes s
 mess y
 mess in
 messin g
 mess i
 messi l
 messil y
 messi er
 mess ed
 mess e
 messe s
 mess a
 messa g
 messag e
 message s
 mes m
 mesm er
 mesmer i
 mesmeri z
 mesmeriz i
 mesmerizi n
 mesmerizin g
 mesmeriz ed
 mesmeri s
 mesmeris ed
 merri er
 me o
 meo w
 meow s
 meow in
 meowin g
 meow ed
 me nd
 mend s
 mend i
 mendi n
 mendin g
 mend e
 mende d
 me m
 mem o
 memo r
 memor y
 memor i
 memori z
 memoriz in
 memorizin g
 memoriz ed
 memori e
 memorie s
 memor a
 memora b
 memorab l
 memorabl e
 mem en
 memen to
 mem b
 memb er
 member s
 me l
 mel t
 melt y
 melt s
 melt in
 meltin g
 melt ed
 mel o
 melo n
 melon s
 melo d
 melod y
 melod i
 melodi e
 melodie s
 melodi c
 mel l
 mell o
 mello w
 me e
 mee t
 meet s
 meet in
 meetin g
 meeting s
 mee k
 meek l
 meekl y
 me c
 mec h
 mech an
 mechan i
 mechani s
 mechanis m
 mechani c
 mechanic s
 me as
 meas u
 measu re
 measure s
 measure m
 measurem e
 measureme n
 measuremen t
 measurement s
 measu r
 measur in
 measurin g
 measur ed
 me an
 mean t
 meant i
 meanti m
 meantim e
 mean s
 mean n
 meann e
 meanne s
 meannes s
 mean l
 meanl y
 mean i
 meani n
 meanin g
 meaning s
 meaning f
 meaningf u
 meaningfu l
 meani e
 meanie s
 mean e
 meane s
 meanes t
 meane r
 mean d
 meand e
 meande r
 meander i
 meanderi n
 meanderin g
 meander e
 meandere d
 me a
 mea t
 meat s
 meat b
 meatb a
 meatba l
 meatbal l
 meatball s
 mea l
 meal s
 mea d
 mead o
 meado w
 meadow s
 m c
 mc c
 mcc h
 m ay
 may o
 mayo r
 mayo n
 mayon n
 mayonn a
 mayonna i
 mayonnai s
 mayonnais e
 may b
 mayb e
 m as
 mas t
 mast s
 mast er
 master s
 master p
 masterp i
 masterpi e
 masterpie c
 masterpiec e
 master i
 masteri n
 masterin g
 master ed
 mas s
 mass i
 massi v
 massiv e
 mass e
 masse u
 masseu s
 masseus e
 mass a
 massa g
 massag in
 massagin g
 massag er
 massag ed
 massag e
 massage s
 mas k
 mask s
 mas he
 mashe s
 mashe d
 mas h
 mas c
 masc a
 masca r
 mascar a
 m ar
 mar v
 marv e
 marve l
 marvel ou
 marvelou s
 marvel l
 marvell in
 marvellin g
 marvell ed
 marvel in
 marvelin g
 marvel ed
 mar t
 mart en
 mar s
 mars h
 marsh m
 marshm a
 marshma l
 marshmal l
 marshmall o
 marshmallo w
 marshmallow s
 mar r
 marr y
 marry in
 marryin g
 marr i
 marri ed
 marri a
 marria g
 marriag e
 marriage s
 mar k
 mark s
 mark in
 markin g
 marking s
 mark er
 marker s
 mark ed
 mark e
 marke t
 market s
 market p
 marketp l
 marketpl a
 marketpla c
 marketplac e
 mar c
 marc he
 marche s
 marche r
 marcher s
 marche d
 marc h
 march in
 marchin g
 mar b
 marb l
 marbl e
 marble s
 m an
 man y
 man u
 manu r
 manur e
 man t
 mant e
 mante l
 mantel p
 mantelp i
 mantelpi e
 mantelpie c
 mantelpiec e
 man o
 mano e
 manoe u
 manoeu v
 manoeuv r
 manoeuvr e
 manoeuvre s
 man n
 mann e
 manne r
 manner s
 man g
 mang o
 mango e
 mangoe s
 man e
 mane u
 maneu v
 maneuv e
 maneuve r
 mane s
 man a
 mana g
 manag i
 managi n
 managin g
 manag e
 manage s
 manage r
 manage d
 m a
 ma z
 maz e
 maze s
 ma th
 math s
 ma t
 mat u
 matu re
 mat t
 matt re
 mattre s
 mattres s
 mattress e
 mattresse s
 matt er
 matter s
 matter ed
 matt ed
 mat s
 mat he
 mathe m
 mathem a
 mathema t
 mathemat i
 mathemati c
 mat er
 mater i
 materi a
 materia l
 material s
 mat e
 mate y
 matey s
 mat c
 matc he
 matche s
 matche d
 matc h
 match s
 matchs t
 matchst i
 matchsti c
 matchstic k
 matchstick s
 match in
 matchin g
 match b
 matchb o
 matchbo x
 ma p
 map s
 map l
 mapl e
 ma m
 mam m
 mamm a
 mamma l
 mam as
 mam a
 ma l
 mal l
 ma k
 mak in
 makin g
 mak er
 maker s
 mak e
 make u
 makeu p
 make s
 makes h
 makesh i
 makeshi f
 makeshif t
 make o
 makeo v
 makeov er
 ma j
 maj o
 majo r
 maj e
 maje s
 majes t
 majest y
 majest i
 majesti c
 majestic a
 majestica l
 majestical l
 majesticall y
 ma in
 main t
 maint e
 mainte n
 mainten an
 maintenan c
 maintenanc e
 ma i
 maint a
 mainta in
 mai l
 mail m
 mailm en
 mailm an
 mail in
 mailin g
 mail ed
 mail c
 mailc ar
 mailcar t
 mail b
 mailb o
 mailbo x
 mailbox e
 mailboxe s
 mai d
 ma g
 mag p
 magp i
 magpi e
 mag n
 magn i
 magni f
 magnif y
 magnify in
 magnifyin g
 magnif i
 magnifi er
 magnifi c
 magnific en
 magnificen t
 magn e
 magne t
 magnet s
 mag i
 magi c
 magic i
 magici an
 magician s
 magic a
 magica l
 magical l
 magicall y
 mag en
 magen t
 magent a
 mag a
 maga z
 magaz in
 magazin e
 magazine s
 ma d
 mad e
 mad d
 madd er
 mad a
 mada m
 ma c
 mac h
 mach in
 machin e
 machine s
 mac ar
 macar o
 macaro n
 macaron i
 mac a
 maca w
 l y
 ly n
 lyn x
 ly in
 lyin g
 l u
 lu x
 lux u
 luxu r
 luxur y
 luxur i
 luxuri ou
 luxuriou s
 luxuri e
 luxurie s
 lux er
 luxer y
 lu s
 lus h
 lus c
 lusc i
 lusci ou
 lusciou s
 lu re
 lure s
 lu r
 lur k
 lurk s
 lurk in
 lurkin g
 lur ed
 lu n
 lun g
 lung s
 lung ed
 lun c
 lunc he
 lunche s
 lunc h
 lunch t
 luncht i
 lunchti m
 lunchtim e
 lunch r
 lunchr o
 lunchro o
 lunchroo m
 lunch b
 lunchb o
 lunchbo x
 lunchbox e
 lunchboxe s
 lu m
 lum p
 lump y
 lump s
 lum b
 lumb er
 lumber m
 lumberm an
 lumber j
 lumberj a
 lumberja c
 lumberjac k
 lumber i
 lumberi n
 lumberin g
 lumber ed
 lu l
 lul l
 lull a
 lulla b
 lullab y
 lu h
 lu g
 lug g
 lugg a
 lugga g
 luggag e
 lu c
 luc k
 luck y
 luck i
 lucki l
 luckil y
 lucki er
 lucki e
 luckie s
 luckies t
 l ou
 lou n
 loun g
 loung in
 loungin g
 loung e
 lou d
 loud s
 louds p
 loudsp e
 loudspe a
 loudspea k
 loudspeak er
 loud l
 loudl y
 loud er
 loud e
 loude s
 loudes t
 l o
 lo y
 loy a
 loya l
 loyal t
 loyalt y
 lo w
 low er
 lower s
 lower i
 loweri n
 lowerin g
 lower ed
 low e
 lowe s
 lowes t
 lo v
 lov in
 lovin g
 loving l
 lovingl y
 lov ed
 lov e
 love s
 love l
 lovel y
 lovel i
 loveli er
 loveli e
 lovelie s
 lovelies t
 love a
 lovea b
 loveab l
 loveabl e
 lov a
 lova b
 lovab l
 lovabl e
 lo t
 lot u
 lotu s
 lot t
 lott er
 lotter y
 lot s
 lot i
 loti o
 lotio n
 lotion s
 lo s
 los t
 los s
 los in
 losin g
 los er
 loser s
 los e
 lose s
 lo o
 loo t
 loo s
 loos er
 loos e
 loose n
 loosen s
 loosen ed
 loo p
 loop y
 loop s
 loop in
 loopin g
 loop ed
 loo n
 loo m
 loom in
 loomin g
 loom ed
 loo k
 look s
 look ou
 lookou t
 look in
 lookin g
 look ed
 lo n
 lon g
 long in
 longin g
 longing l
 longingl y
 long er
 long ed
 long e
 longe s
 longes t
 lon e
 lone l
 lonel y
 lonel in
 lonelin e
 loneline s
 lonelines s
 lonel i
 loneli er
 lo l
 lol l
 loll y
 lolly p
 lollyp o
 lollypo p
 loll i
 lolli p
 lollip o
 lollipo p
 lollipop s
 lolli e
 lollie s
 lo g
 log s
 log o
 log an
 logan b
 loganb e
 loganbe r
 loganber r
 loganberr y
 lo d
 lo c
 loc k
 lock s
 lock in
 lockin g
 lock er
 lock ed
 lock e
 locke t
 loc a
 loca t
 locat i
 locati o
 locatio n
 locat ed
 locat e
 loca l
 local s
 lo b
 lob s
 lobs t
 lobst er
 lobster s
 lob b
 lobb y
 lo an
 lo a
 loa v
 loav e
 loave s
 loa f
 loa d
 load s
 load in
 loadin g
 load ed
 l l
 ll a
 lla m
 llam a
 l it
 lit t
 litt t
 littt l
 litttl e
 litt l
 littl er
 littl e
 little s
 littles t
 litt er
 litt e
 l in
 lin k
 link s
 link ed
 lin g
 ling o
 lingo n
 lingon b
 lingonb er
 lingonber r
 lingonberr y
 ling er
 linger i
 lingeri n
 lingerin g
 linger ed
 lin ed
 lin e
 line s
 l i
 li z
 liz a
 liza r
 lizar d
 lizard s
 li v
 liv in
 livin g
 living r
 livingr o
 livingro o
 livingroo m
 liv ed
 liv e
 live s
 live l
 livel y
 livel i
 liveli er
 liveli e
 livelie s
 livelies t
 li s
 lis t
 list s
 list e
 liste n
 listen s
 listen in
 listenin g
 listen er
 listener s
 listen ed
 li q
 liq u
 liqu i
 liqui d
 liquid s
 li p
 lip s
 lips t
 lipst i
 lipsti c
 lipstic k
 li o
 lio n
 lion s
 lion e
 lione s
 liones s
 lin in
 linin g
 li m
 lim p
 limp s
 limp in
 limpin g
 limp ed
 lim ou
 limou s
 limous in
 limousin e
 lim it
 limit s
 limit ed
 lim e
 lime s
 lime a
 limea d
 limead e
 lim b
 limb s
 li l
 lil y
 lil l
 lill y
 lill i
 lilli e
 lillie s
 lil i
 lili e
 lilie s
 li k
 lik in
 likin g
 lik ed
 lik e
 like s
 like l
 likel y
 li g
 lig h
 ligh th
 lighth o
 lightho u
 lighthou s
 lighthous e
 ligh t
 light s
 light n
 lightn in
 lightnin g
 lightn e
 lightne s
 lightnes s
 light l
 lightl y
 light in
 lightin g
 light er
 lighter s
 light ed
 light e
 lighte s
 lightes t
 lighte n
 lighten in
 lightenin g
 lighten ed
 light b
 lightb u
 lightbu l
 lightbul b
 li f
 lif t
 lift s
 lift in
 liftin g
 lift ed
 lif e
 life t
 lifet i
 lifeti m
 lifetim e
 life l
 lifel o
 lifelo n
 lifelon g
 life g
 lifeg u
 lifegu a
 lifegua r
 lifeguar d
 lifeguard s
 li ed
 li e
 lie s
 li d
 lid s
 li c
 lic o
 lico r
 licor i
 licori c
 licoric e
 lic k
 lick s
 lick in
 lickin g
 lick ed
 lic e
 lice n
 licen s
 licens e
 license s
 li b
 lib r
 libr a
 libra r
 librar y
 librar i
 librari e
 librarie s
 librari an
 librarian s
 li a
 lia r
 liar s
 l ed
 led g
 ledg e
 l e
 le v
 lev er
 lever s
 lev e
 leve l
 level s
 le t
 let t
 lett u
 lettu c
 lettuc e
 lett in
 lettin g
 lett er
 letter s
 let s
 le s
 les t
 les s
 less o
 lesso n
 lesson s
 less e
 lesse n
 le o
 leo p
 leop a
 leopa r
 leopar d
 leopard s
 le nd
 lend s
 lend i
 lendi n
 lendin g
 le n
 len t
 len s
 lens e
 lense s
 len g
 leng th
 length s
 le m
 lem o
 lemo n
 lemon s
 lemon a
 lemona d
 lemonad e
 lemonade s
 le i
 lei s
 leis u
 leisu re
 leisure l
 leisurel y
 le g
 leg s
 leg o
 leg g
 leg e
 lege nd
 le f
 lef to
 lefto v
 leftov e
 leftove r
 leftover s
 lef t
 le c
 lec t
 lect u
 lectu re
 lecture s
 le as
 leas t
 leas he
 leashe s
 leas h
 le an
 lean t
 lean s
 lean i
 leani n
 leanin g
 lean e
 leane d
 le a
 lea v
 leav in
 leavin g
 leav e
 leave s
 lea t
 leat he
 leathe r
 lea r
 lear n
 learn t
 learn s
 learn in
 learnin g
 learn er
 learner s
 learn ed
 lea p
 leap t
 leap s
 leap in
 leapin g
 leap ed
 lea k
 leak y
 leak s
 leak in
 leakin g
 leak ed
 lea f
 leaf y
 leaf s
 lea d
 lead s
 lead in
 leadin g
 lead er
 leader s
 leaders h
 leadersh i
 leadershi p
 l as
 las t
 last s
 last l
 lastl y
 last in
 lastin g
 last ed
 las s
 lass o
 las h
 las er
 laser s
 l an
 lan t
 lant e
 lante r
 lanter n
 lantern s
 lan g
 lang u
 langu a
 langua g
 languag e
 language s
 lan e
 lan d
 land s
 lands c
 landsc a
 landsca p
 landscap e
 landscape s
 land m
 landm a
 landma r
 landmar k
 landmark s
 land i
 landi n
 landin g
 land e
 lande d
 lan c
 lanc e
 l a
 la z
 laz y
 laz in
 lazin e
 lazine s
 lazines s
 laz i
 lazi l
 lazil y
 lazi e
 lazie s
 lazies t
 la y
 lay s
 lay in
 layin g
 lay er
 layer s
 lay ed
 la w
 law y
 lawy er
 lawyer s
 law s
 law n
 lawn m
 lawnm o
 lawnmo w
 lawnmow er
 law m
 lawm an
 la v
 lav e
 lave nd
 lavend e
 lavende r
 lav a
 la u
 lau nd
 laund r
 laundr y
 laundr o
 laundro m
 laundrom a
 laundroma t
 lau n
 laun c
 launc he
 launche r
 launche d
 launc h
 lau g
 laug he
 laughe d
 laug h
 laugh t
 laught er
 laught ed
 laugh s
 laugh in
 laughin g
 la t
 lat he
 lathe r
 lat er
 lat e
 late s
 lates t
 late l
 latel y
 lat c
 latc he
 latche d
 latc h
 la r
 lar g
 larg er
 larg e
 large s
 larges t
 la p
 lap to
 lapto p
 laptop s
 lap s
 lap p
 lapp in
 lappin g
 lapp ed
 la m
 lam p
 lamp s
 lamps ha
 lampsha d
 lampshad e
 lamp p
 lampp o
 lamppo s
 lamppos t
 lam e
 lam b
 lamb s
 la k
 lak e
 lake s
 la i
 lai r
 lai d
 la d
 lad y
 lady b
 ladyb u
 ladybu g
 ladybug s
 ladyb i
 ladybi r
 ladybir d
 lad l
 ladl ed
 ladl e
 ladle s
 lad i
 ladi e
 ladie s
 lad d
 ladd er
 ladder s
 la c
 lac k
 lac e
 lace s
 la b
 lab s
 lab ou
 labou r
 lab o
 labo r
 lab e
 labe l
 label s
 label ed
 k o
 ko i
 ko al
 koal a
 k no
 kno th
 knoth o
 knotho l
 knothol e
 kno c
 knoc k
 knock s
 knock in
 knockin g
 knock ed
 kno b
 knob s
 k ne
 kne w
 kne l
 knel t
 kne e
 knee s
 knee l
 kneel s
 kneel in
 kneelin g
 kneel ed
 kne a
 knea d
 knead ed
 k n
 kn ow
 know s
 know n
 know l
 knowl ed
 knowled g
 knowledg e
 knowledge a
 knowledgea b
 knowledgeab l
 knowledgeabl e
 know in
 knowin g
 knowing l
 knowingl y
 kn ot
 knot t
 knott y
 knott ed
 knot s
 kn it
 knit t
 knitt in
 knittin g
 knitt er
 knitt ed
 knit s
 kn ig
 knig h
 knigh t
 knight s
 kn i
 kni ve
 knive s
 kni f
 knif e
 k it
 kit t
 kitt y
 kitt i
 kitti e
 kittie s
 kitt e
 kitte n
 kitten s
 kit e
 kite s
 kit c
 kitc he
 kitche n
 k is
 kis s
 kiss in
 kissin g
 kiss ed
 kiss e
 kisse s
 k in
 kin k
 kin g
 king s
 king d
 kingd o
 kingdo m
 k id
 kid s
 kid n
 kidn a
 kidna p
 kidnap p
 kidnapp er
 kidnapp ed
 kid d
 kidd o
 kidd in
 kiddin g
 k i
 ki wi
 ki w
 kiw is
 ki o
 kio s
 kios k
 ki nd
 kind s
 kind n
 kindn e
 kindne s
 kindnes s
 kind l
 kindl y
 kind he
 kindhe a
 kindhea r
 kindhear t
 kindheart e
 kindhearte d
 kind e
 kinde s
 kindes t
 kinde r
 kinder g
 kinderg a
 kinderga r
 kindergar t
 kindergart e
 kindergarte n
 kind a
 ki lo
 kilo s
 kilo g
 kilog r
 kilogr a
 kilogra m
 kilogram s
 ki ll
 kill s
 kill in
 killin g
 kill er
 kill ed
 ki ck
 kick s
 kick in
 kickin g
 kick er
 kick ed
 kick b
 kickb a
 kickba ll
 k ey
 key s
 key p
 keyp a
 keypa d
 key h
 keyh o
 keyho le
 key b
 keyb o
 keybo ar
 keyboar d
 keyboard s
 k er
 ker n
 kern e
 kerne l
 kernel s
 k en
 ken n
 kenn e
 kenne l
  ke
 ke t
 ket t
 kett le
 ket c
 ketc h
 ketch u
 ketchu p
 ke p
 kep t
 ke en
 ke e
 kee p
 keep sa
 keepsa k
 keepsak e
 keep s
 keep in
 keepin g
 keep er
 keeper s
 ke b
 keb a
 keba b
 k ay
 kay a
 kaya k
 kayak s
 kayak in
 kayakin g
 kayak er
 k an
 kan g
 kang a
 kanga r
 kangar o
 kangaro o
 kangaroo s
 k a
 ka le
 j ut
 jut t
 jutt in
 juttin g
 j un
 jun k
 junk y
 junky ar
 junkyar d
 jun i
 juni p
 junip er
 jun c
 junc t
 junct i
 juncti on
 j ug
 jug s
 jug g
 jugg le
 jugg l
 juggl in
 jugglin g
 juggl er
 juggl ed
 j u
 ju st
 just i
 justi c
 justic e
 ju ry
 ju ng
 jung le
 ju m
 jum py
 jum p
 jump s
 jump in
 jumpin g
 jump er
 jump ed
 jum b
 jumb l
 jumbl ed
 ju ic
 juic y
 juic ie
 juicie st
 juic i
 juici er
 juic es
 juic er
 ju i
 jui ce
 ju d
 jud ge
 judge m
 judgem en
 judgemen t
 jud g
 judg m
 judgm en
 judgmen t
 judg in
 judgin g
 judg es
 judg ed
 j oy
 joy st
 joyst i
 joysti c
 joystic k
 joy s
 joy ou
 joyou s
 joy f
 joyf ul
 joyf u
 joyfu ll
 joyfull y
 j ou
 jou r
 jour n
 journ e
 journe y
 journey s
 journey ed
 journ a
 journa l
 journal s
 j ol
 jol t
 jolt ed
 j ok
 jok in
 jokin g
 joking l
 jokingl y
 jok er
 jok ed
 j og
 jog s
 jog g
 jogg in
 joggin g
 jogg er
 jogger s
 jogg ed
 j o
 jo ll
 joll y
 joll i
 jolli e
 jollie s
 jollies t
 jo ke
 joke s
 jo in
 join t
 join s
 join ed
 jo i
 join in
 joinin g
 jo b
 job s
 j iv
 jiv in
 jivin g
 j in
 jin g
 jing l
 jingl y
 jingl ed
 jingl e
 j ig
 jig sa
 jigsa w
 jig g
 jigg le
 jigg l
 jiggl ed
 j i
 jingl in
 jinglin g
 ji f
 jif f
 jiff y
 j ew
 jew el
 jewel s
 jewel r
 jewelr y
 j et
 jet s
 j er
 jer s
 jers e
 jerse y
 jersey s
 jer k
 jerk ed
 j ee
 jee p
 jeep s
 j e
 je we
 jewe ll
 jewell er
 jeweller y
 je st
 jest er
 je ll
 jell y
 jelly f
 jellyf is
 jellyfis h
 jelly b
 jellyb e
 jellybe an
 jellybean s
 jell o
 jell i
 jelli e
 jellie s
 je er
 je an
 jean s
 je al
 jeal ou
 jealou s
 jealous y
 j ay
 j aw
 jaw s
 j ar
 jar s
 j an
 jan g
 jang l
 j am
 jam s
 jam m
 jamm in
 jammin g
 jamm ed
 j ag
 jag u
 jagu ar
 jag g
 jagg ed
 j ac
 jac ke
 jacke t
 jacket s
 j a
 ja z
 jaz z
 jazz y
 ja il
 jail s
 jail er
 ja ck
 jack s
 jack ra
 jackra b
 jackrab b
 jackrabb it
 i v
 iv y
 iv o
 ivo r
 ivor y
  it
 it s
 its e
 itse l
 itsel f
 it e
 ite m
 item s
 it c
 itc he
 itche s
 itche d
 itc h
 itch y
 itch in
 itchin g
 itchin e
 itchine s
 itchines s
 i s
 is s
 iss u
 issu e
 is n
 is l
 isl an
 islan d
 island s
 island e
 islande r
 islander s
 i r
 ir o
 iro n
 iron s
 iron in
 ironin g
 iron ed
 i nd
 ind o
 indo o
 indoo r
 indoor s
 ind i
 indi v
 indiv i
 indivi d
 individ u
 individu a
 individua l
 indi g
 indig o
 indi c
 indic a
 indica t
 indicat e
 ind e
 inde e
 indee d
 i n
 in v
 inv o
 invo l
 invol v
 involv in
 involvin g
 inv it
 invit in
 invitin g
 inviting l
 invitingl y
 inv e
 inve s
 inves t
 invest i
 investi g
 investig a
 investiga t
 investigat in
 investigatin g
 inve n
 inven t
 invent in
 inventin g
 in t
 int r
 intr o
 intro d
 introd u
 introdu c
 introduc in
 introducin g
 intr i
 intri g
 intrig u
 intrigu in
 intriguin g
 int i
 inti m
 intim i
 intimi d
 intimid a
 intimida t
 intimidat in
 intimidatin g
 in s
 ins t
 inst in
 instin c
 instinc t
 instinct s
 instinct i
 instincti v
 instinctiv e
 ins p
 insp i
 inspi r
 inspir in
 inspirin g
 insp e
 inspe c
 inspec t
 inspect in
 inspectin g
 ins i
 insi s
 insis t
 insist in
 insistin g
 in c
 inc re
 incre a
 increa s
 increas in
 increasin g
 increasing l
 increasingl y
 inc l
 incl u
 inclu d
 includ in
 includin g
 involv ed
 involv e
 involve s
 inv i
 invit ed
 invit e
 invite s
 invit a
 invita t
 invitat i
 invitati o
 invitatio n
 invitation s
 invi s
 invis i
 invisi b
 invisib l
 invisibl e
 investigat ed
 investigat e
 inven to
 invento r
 invent i
 inventi v
 inventiv e
 inventi o
 inventio n
 invention s
 invent ed
 inv a
 inva d
 invad ed
 in to
 intr u
 intru d
 intrud er
 intruder s
 intrud e
 introduc ed
 introduc e
 introduce s
 intrigu ed
 intri c
 intric a
 intrica t
 intricat e
 intimidat ed
 int er
 inter v
 interv i
 intervi e
 intervie w
 interview ed
 inter s
 inters e
 interse c
 intersec t
 intersect i
 intersecti o
 intersectio n
 inter r
 interr u
 interru p
 interrup t
 interrupt i
 interrupti n
 interruptin g
 interrupt ed
 inter n
 intern e
 interne t
 inter i
 interi o
 interio r
 inter e
 intere s
 interes t
 interest s
 interest i
 interesti n
 interestin g
 interest ed
 inter a
 intera c
 interac t
 interact i
 int e
 inter f
 interf er
 interfer e
 inte n
 inten t
 intent l
 intentl y
 intent i
 intenti o
 intentio n
 intention s
 intention a
 intentiona l
 inten s
 intens i
 intensi f
 intensif i
 intensifi ed
 intens e
 inte l
 intel l
 intell i
 intelli g
 intellig e
 intellige n
 intelligen t
 intelligent l
 intelligentl y
 intelligen c
 intelligenc e
 int a
 inta c
 intac t
 inst r
 instr u
 instru m
 instrum e
 instrume n
 instrumen t
 instrument s
 instru c
 instruc to
 instructo r
 instruc t
 instruct i
 instructi o
 instructio n
 instruction s
 instruct ed
 inst e
 inste a
 instea d
 inst an
 instan t
 instant l
 instantl y
 inst a
 insta l
 instal l
 install ed
 inspir ed
 inspir e
 inspir a
 inspira t
 inspirat i
 inspirati o
 inspiratio n
 inspec to
 inspecto r
 inspect i
 inspecti o
 inspectio n
 inspect ed
 insist s
 insist ed
 insist e
 insiste n
 insisten t
 insi g
 insig n
 insign i
 insigni f
 insignif i
 insignifi c
 insignific an
 insignifican t
 insig h
 insigh t
 insi d
 insid e
 inside s
 ins er
 inser t
 insert ed
 ins e
 inse p
 insep a
 insepa r
 insepar a
 insepara b
 inseparab l
 inseparabl e
 inse c
 insec t
 insect s
 in q
 inq u
 inqu i
 inqui s
 inquis i
 inquisi t
 inquisit i
 inquisiti v
 inquisitiv e
 inqui r
 inquir ed
 in n
 inn o
 inno c
 innoc e
 innoce n
 innocen t
 innocent l
 innocentl y
 innocen c
 innocenc e
 inn er
 in k
 ink w
 inkw e
 inkwe l
 inkwel l
 ink s
 in j
 inj u
 inju r
 injur y
 injur i
 injuri e
 injurie s
 injur ed
 in i
 ini t
 init i
 initi a
 initia t
 initiat i
 initiati v
 initiativ e
 initia l
 initial l
 initiall y
 in h
 inh a
 inha l
 inhal ed
 inha b
 inhab i
 inhabi t
 inhabit an
 inhabitan t
 inhabitant s
 in g
 ing r
 ingr ed
 ingred i
 ingredi e
 ingredie n
 ingredien t
 ingredient s
 ing e
 inge n
 ingen u
 ingenu i
 ingenui t
 ingenuit y
 in f
 inf o
 info r
 infor m
 inform ed
 inform a
 informa t
 informat i
 informati o
 informatio n
 inf l
 infl a
 infla t
 inflat a
 inflata b
 inflatab l
 inflatabl e
 inf e
 infe c
 infec t
 infect i
 infecti o
 infectio n
 infect ed
 inf an
 infan t
 infant s
 in e
 ine v
 inev i
 inevi t
 inevit a
 inevita b
 inevitab l
 inevitabl e
 inde p
 indep e
 indepe nd
 independ e
 independe n
 independen t
 independent l
 independentl y
 independen c
 independenc e
 inc r
 incr ed
 incred i
 incredi b
 incredib l
 incredibl y
 incredibl e
 increas ed
 increas e
 increase s
 inc o
 inco n
 incon v
 inconv e
 inconve n
 inconven i
 inconveni e
 inconvenie n
 inconvenien c
 inconvenienc e
 inco m
 incom p
 incomp l
 incompl e
 incomple t
 incomplet e
 incom e
 includ ed
 includ e
 include s
 inc i
 inci d
 incid e
 incide n
 inciden t
 inc he
 inche s
 inche d
 inc h
 inch w
 inchw o
 inchwo r
 inchwor m
 i m
 im p
 imp re
 impre s
 impres s
 impress in
 impressin g
 impress i
 impressi v
 impressiv e
 impressive l
 impressivel y
 impressi o
 impressio n
 impress ed
 imp r
 impr o
 impro v
 improv in
 improvin g
 improv ed
 improv e
 improve s
 improve m
 improvem e
 improveme n
 improvemen t
 improvement s
 imp o
 impo s
 impos s
 imposs i
 impossi b
 impossib l
 impossibl e
 impo r
 impor t
 import an
 importan t
 important l
 importantl y
 importan c
 importanc e
 imp a
 impa t
 impat i
 impati e
 impatie n
 impatien t
 impatient l
 impatientl y
 impatien c
 impatienc e
 impa c
 impac t
 im m
 imm i
 immi g
 immig r
 immigr a
 immigra t
 immigrat i
 immigrati o
 immigratio n
 imm ed
 immed i
 immedi a
 immedia t
 immediat e
 immediate l
 immediatel y
 imm e
 imme n
 immen s
 immens e
 im it
 imit a
 imita t
 imitat in
 imitatin g
 imitat ed
 imitat e
 im a
 ima g
 imag in
 imagin er
 imagin ed
 imagin e
 imagine s
 imagin a
 imagina t
 imaginat i
 imaginati v
 imaginativ e
 imaginati o
 imaginatio n
 imagination s
 imagina r
 imaginar y
 imagina b
 imaginab l
 imaginabl e
 imag i
 imagin in
 imaginin g
 imag e
 image s
 i l
 il l
 ill u
 illu s
 illus t
 illust r
 illustr a
 illustra t
 illus i
 illusi o
 illusio n
 illu m
 illum in
 illumin a
 illumina t
 illuminat ed
 illum i
 illuminat in
 illuminatin g
 ill n
 illn e
 illne s
 illnes s
 illness e
 illnesse s
 ill e
 ille g
 illeg a
 illega l
 i g
 ig n
 ign o
 igno re
 ignore s
 igno r
 ignor in
 ignorin g
 ignor ed
 ignor an
 ignoran t
 ignorant l
 ignorantl y
 ign it
 ignit i
 igniti o
 ignitio n
 ig l
 igl o
 iglo o
 igloo s
 i f
 i d
 id o
 ido l
 id e
 ide n
 iden t
 ident it
 identit y
 ident i
 identi f
 identif y
 identif i
 identifi ed
 ide as
 ide a
 idea l
 i c
 ic y
 ic k
 ick y
 ic in
 icin g
 ic i
 ici er
 ici c
 icic l
 icicl e
 icicle s
 ic e
 ice s
 ice c
 icec re
 icecre a
 icecrea m
 ice b
 iceb er
 iceber g
 h y
 hy p
 hyp n
 hypn o
 hypno t
 hypnot i
 hy g
 hyg i
 hygi e
 hygie n
 hygien e
 hy e
 hye n
 hyen a
 hyena s
 hy d
 hyd r
 hydr an
 hydran t
 hydr a
 hydra t
 hydrat e
 hydrate d
 h u
 hu t
 hut s
 hut c
 hutc h
 hu s
 hus t
 hust l
 hustl e
 hus k
 husk s
 husk i
 huski e
 huskie s
 hus he
 hushe d
 hus b
 husb an
 husban d
 hu r
 hur t
 hurt s
 hurt i
 hurti n
 hurtin g
 hurt f
 hurtf u
 hurtfu l
 hur r
 hurr y
 hurry i
 hurryi n
 hurryin g
 hurr i
 hurri e
 hurrie s
 hurrie d
 hurried l
 hurriedl y
 hurri c
 hurric an
 hurrican e
 hurricane s
 hurr a
 hurra y
 hur d
 hurd l
 hurdl e
 hurdle s
 hu nd
 hund r
 hundr e
 hundre d
 hundred s
 hu n
 hun t
 hunt s
 hunt i
 hunti n
 huntin g
 hunt e
 hunte r
 hunter s
 hunte d
 hun g
 hung r
 hungr y
 hungr i
 hungri l
 hungril y
 hungri e
 hungrie r
 hung e
 hunge r
 hun c
 hunc h
 hu m
 hum s
 hum p
 hump s
 hump b
 humpb a
 humpba c
 humpbac k
 hum o
 humo u
 humou r
 humo r
 hum m
 humm u
 hummu s
 humm i
 hummi n
 hummin g
 humming b
 hummingb i
 hummingbi r
 hummingbir d
 humm e
 humme d
 hum i
 humi l
 humil i
 humili t
 humilit y
 humi d
 hum b
 humb l
 humbl y
 humbl e
 humble s
 humble d
 hum an
 human s
 hu l
 hul l
 hul a
 hu h
 hu g
 hug s
 hug g
 hugg i
 huggi n
 huggin g
 hugg e
 hugge r
 hugge d
 hug e
 hu f
 huf f
 huff e
 huffe d
 hu e
 hu d
 hud d
 hudd l
 huddl i
 huddli n
 huddlin g
 huddl e
 huddle d
 hu c
 huc k
 huck l
 huckl e
 huckle b
 huckleb e
 hucklebe r
 huckleber r
 huckleberr y
 h o
 ho w
 how l
 howl s
 howl i
 howli n
 howlin g
 howl e
 howle d
 how e
 howe v
 howev e
 howeve r
 ho v
 hov e
 hove r
 hover i
 hoveri n
 hoverin g
 hover e
 hovere d
 ho u
 hou s
 hous e
 house w
 housew o
 housewo r
 housewor k
 house s
 hou r
 hour s
 ho t
 hot t
 hott e
 hotte s
 hottes t
 hotte r
 hot e
 hote l
 hotel s
 hot d
 hotd o
 hotdo g
 hotdog s
 ho s
 hos t
 host i
 hosti n
 hostin g
 hos p
 hosp i
 hospi t
 hospit a
 hospita l
 hospital s
 hospital i
 hospitali t
 hospitalit y
 hos e
 hose s
 ho r
 hor s
 hors e
 horse s
 horses h
 horsesh o
 horsesho e
 horse b
 horseb a
 horseba c
 horsebac k
 hor r
 horr o
 horro r
 horr i
 horri f
 horrif i
 horrifi e
 horrifie d
 horri b
 horrib l
 horribl e
 hor n
 horn s
 horn e
 horne t
 hor i
 hori z
 horiz o
 horizo n
 horizon s
 ho p
 hop s
 hops c
 hopsc o
 hopsco t
 hopscot c
 hopscotc h
 hop p
 hopp y
 hopp i
 hoppi n
 hoppin g
 hopp e
 hoppe r
 hoppe d
 hop i
 hopi n
 hopin g
 hop e
 hope s
 hope l
 hopel e
 hopele s
 hopeles s
 hope f
 hopef u
 hopefu l
 hopeful l
 hopefull y
 hope d
 ho o
 hoo v
 hoov e
 hoove s
 hoo t
 hoot s
 hoot i
 hooti n
 hootin g
 hoot e
 hoote d
 hoo r
 hoor a
 hoora y
 hoo p
 hoop s
 hoo k
 hook s
 hook e
 hooke d
 hoo f
 hoof s
 hoo d
 hood i
 hoodi e
 ho n
 hon o
 hono u
 honou r
 honour e
 honoure d
 hono r
 honor e
 honore d
 hon k
 honk s
 honk i
 honki n
 honkin g
 honk e
 honke d
 hon e
 hone y
 honey m
 honeym o
 honeymo o
 honeymoo n
 honey c
 honeyc o
 honeyco m
 honeycom b
 honeycomb s
 honeyc a
 honeyca k
 honeycak e
 honey b
 honeyb e
 honeybe e
 honeybee s
 hone s
 hones t
 honest y
 honest l
 honestl y
 ho m
 hom e
 home w
 homew o
 homewo r
 homewor k
 home t
 homet o
 hometo w
 hometow n
 home s
 home o
 homeo w
 homeow n
 homeown e
 homeowne r
 homeowner s
 home m
 homem a
 homema d
 homemad e
 home l
 homel e
 homele s
 homeles s
 ho l
 hol y
 hol l
 holl o
 hollo w
 holl e
 holle r
 hol i
 holi d
 holid a
 holida y
 holiday s
 hol e
 hole s
 hol d
 hold s
 hold i
 holdi n
 holdin g
 hold e
 holde r
 ho i
 hoi s
 hois t
 hoist e
 hoiste d
 ho g
 hog g
 hogg e
 hogge d
 ho e
 ho c
 hoc k
 hock e
 hocke y
 ho b
 hob b
 hobb y
 hobb l
 hobbl e
 hobble d
 hobb i
 hobbi e
 hobbie s
 ho a
 hoa r
 hoar d
 hoard i
 hoardi n
 hoardin g
 h m
 hm m
 h i
 hi v
 hiv e
 hive s
 hi t
 hit t
 hitt i
 hitti n
 hittin g
 hit s
 hi s
 his t
 hist o
 histo r
 histor y
 his s
 hiss i
 hissi n
 hissin g
 hiss e
 hisse s
 hisse d
 hi r
 hir e
 hire d
 hi p
 hip s
 hip p
 hipp o
 hippo s
 hippo p
 hippop o
 hippopo t
 hippopot a
 hippopota m
 hippopotam u
 hippopotamu s
 hi nd
 hi n
 hin t
 hint s
 hint i
 hinti n
 hintin g
 hi m
 him s
 hims e
 himse l
 himsel f
 hi l
 hil l
 hill t
 hillt o
 hillto p
 hill s
 hills i
 hillsi d
 hillsid e
 hil a
 hila r
 hilar i
 hilari o
 hilario u
 hilariou s
 hi k
 hik i
 hiki n
 hikin g
 hik e
 hike s
 hike d
 hi g
 hig he
 highe s
 highes t
 highe r
 hig h
 high w
 highw a
 highwa y
 high l
 highl y
 highl i
 highli g
 highlig h
 highligh t
 hi d
 hid i
 hidi n
 hidin g
 hid e
 hide s
 hide r
 hide o
 hideo u
 hideou t
 hide a
 hidea w
 hideaw a
 hideawa y
 hid d
 hidd e
 hidde n
 h e
 he a
 hea r
 hear t
 heart he
 hea d
 head a
 heada c
 headac he
 he y
 he x
 hex a
 hexa g
 hexag o
 hexago n
 he s
 hes i
 hesi t
 hesit a
 hesita t
 hesitat i
 hesitati o
 hesitatio n
 hesitati n
 hesitatin g
 hesitat e
 hesitate s
 hesitate d
 hesita n
 hesitan t
 hesitant l
 hesitantl y
 he r
 her s
 hers e
 herse l
 hersel f
 her o
 hero n
 hero i
 heroi c
 hero e
 heroe s
 her e
 her d
 her b
 herb s
 he n
 hen s
 he m
 he l
 hel p
 help s
 help l
 helpl e
 helple s
 helples s
 helpless l
 helplessl y
 help i
 helpi n
 helpin g
 help f
 helpf u
 helpfu l
 helpful n
 helpfuln e
 helpfulne s
 helpfulnes s
 help e
 helpe r
 helper s
 helpe d
 hel m
 helm e
 helme t
 helmet s
 hel l
 hell o
 hel i
 heli u
 heliu m
 heli c
 helic o
 helico p
 helicop t
 helicopt e
 helicopte r
 helicopter s
 hel d
 he i
 hei r
 heir l
 heirl o
 heirlo o
 heirloo m
 hei g
 heig h
 heigh t
 height s
 he e
 hee l
 heel s
 hee d
 heed e
 heede d
 he d
 hed g
 hedg e
 hedge s
 hedge h
 hedgeh o
 hedgeho g
 hea v
 heav y
 heav i
 heavi l
 heavil y
 heavi e
 heavie s
 heavies t
 heavie r
 heav e
 heave n
 heaven s
 heave d
 hea t
 heat s
 heat i
 heati n
 heatin g
 heat e
 heate r
 heate d
 heart s
 heart i
 hearti l
 heartil y
 heart f
 heartf e
 heartfe l
 heartfel t
 heart e
 hearte d
 heart b
 heartb r
 heartbr o
 heartbro k
 heartbrok e
 heartbroke n
 heartb e
 heartbe a
 heartbea t
 hear s
 hear i
 heari n
 hearin g
 hear d
 hea p
 heap s
 hea l
 heal t
 healt h
 health y
 health i
 healthi l
 healthil y
 healthi e
 healthie s
 healthies t
 healthie r
 heal s
 heal i
 heali n
 healin g
 heal e
 heale r
 heale d
 head s
 heads t
 heads e
 headse t
 headset s
 head p
 headp h
 headph o
 headpho n
 headphon e
 headphone s
 head l
 headl i
 headli g
 headlig h
 headligh t
 headlight s
 head i
 headi n
 headin g
 head e
 heade d
 h an
 han g
 hang s
 hang i
 hangi n
 hangin g
 hang e
 hange r
 hanger s
 han d
 hand y
 hand w
 handw r
 handwr i
 handwri t
 handwrit i
 handwriti n
 handwritin g
 hand s
 hands o
 handso m
 handsom e
 hands h
 handsh a
 handsha k
 handshak e
 hand p
 handp r
 handpr i
 handpri n
 handprin t
 handprint s
 hand l
 handl i
 handli n
 handlin g
 handl e
 handle s
 handle d
 handle b
 handleb a
 handleba r
 handlebar s
 hand k
 handk e
 handke r
 handker c
 handkerc h
 handkerch i
 handkerchi e
 handkerchie f
 handkerchief s
 hand i
 handi w
 handiw o
 handiwo r
 handiwor k
 handi n
 handin g
 hand f
 handf u
 handfu l
 handful s
 hand e
 hande d
 hand c
 handc u
 handcu f
 handcuf f
 handcuff s
 handcuff e
 handcuffe d
 hand b
 handb a
 handba l
 handbal l
 handba g
 h a
 ha y
 hay s
 hays t
 hayst a
 haysta c
 haystac k
 ha w
 haw k
 hawk s
 ha v
 hav i
 havi n
 havin g
 hav e
 have n
 ha u
 hau n
 haun t
 haunt e
 haunte d
 hau l
 ha t
 hat s
 hat i
 hati n
 hatin g
 hat e
 hate s
 hate f
 hatef u
 hatefu l
 hate d
 hat c
 hatc he
 hatche s
 hatche d
 hatc h
 hatch i
 hatchi n
 hatchin g
 ha s
 has t
 hast y
 hast i
 hasti l
 hastil y
 hast e
 has n
 ha r
 har v
 harv e
 harve s
 harves t
 harvest i
 harvesti n
 harvestin g
 harvest e
 harveste d
 har s
 hars he
 harshe r
 hars h
 harsh n
 harshn e
 harshne s
 harshnes s
 harsh l
 harshl y
 har n
 harn e
 harne s
 harnes s
 har m
 harm o
 harmo n
 harmon y
 harmon i
 harmoni c
 harmonic a
 harm l
 harml e
 harmle s
 harmles s
 harm i
 harmi n
 harmin g
 harm f
 harmf u
 harmfu l
 harm e
 harme d
 har e
 har d
 hard w
 hardw o
 hardwo r
 hardwor k
 hardwork i
 hardworki n
 hardworkin g
 hard l
 hardl y
 hard e
 harde s
 hardes t
 harde r
 har b
 harb o
 harbo u
 harbou r
 harbo r
 ha p
 hap p
 happ y
 happ i
 happi n
 happin e
 happine s
 happines s
 happi l
 happil y
 happi e
 happie s
 happies t
 happie r
 happ e
 happe n
 happen s
 happen n
 happen i
 happeni n
 happenin g
 happen e
 happene d
 hap h
 haph a
 hapha z
 haphaz a
 haphaza r
 haphazar d
 handy m
 handym an
 ha m
 ham s
 hams t
 hamst e
 hamste r
 hamster s
 ham p
 hamp e
 hampe r
 ham m
 hamm o
 hammo c
 hammoc k
 hamm e
 hamme r
 hammer s
 hammer i
 hammeri n
 hammerin g
 hammer e
 hammere d
 ham b
 hamb u
 hambu r
 hambur g
 hamburg e
 hamburge r
 hamburger s
 ha l
 hal w
 halw a
 hal v
 halv e
 halve s
 hal t
 hal o
 hal l
 hall w
 hallw a
 hallwa y
 hallway s
 hall s
 hal f
 half w
 halfw a
 halfwa y
 half t
 halft i
 halfti m
 halftim e
 ha i
 hai r
 hair y
 hair s
 hairs t
 hairst y
 hairsty l
 hairstyl e
 hair p
 hairp i
 hairpi n
 hair d
 haird r
 hairdr y
 hairdry e
 hairdrye r
 hairdr e
 hairdre s
 hairdres s
 hairdress e
 hairdresse r
 hairdresser s
 hair c
 hairc u
 haircu t
 haircut t
 haircutt e
 haircutte r
 haircut s
 hair b
 hairb r
 hairbr u
 hairbru s
 hairbrus h
 hairb an
 hairban d
 hai l
 ha d
 had n
 ha c
 hac k
 hack e
 hacke r
 ha b
 hab i
 habi t
 habit s
 habit a
 habita t
 habitat s
 g y
 gy m
 gym n
 gymn as
 gymnas t
 g wa
 gwa d
 g w
 gw o
 gwo ve
 gwove s
 g u
 gu y
 guy s
 gu t
 gut t
 gutt er
 gu st
 gu s
 gus to
 gu r
 gur g
 gurg l
 gurgl in
 gurglin g
 gu n
 gun s
 guns h
 gunsh o
 gunsho t
 gu m
 gum m
 gumm y
 gum b
 gumb a
 gumba ll
 gu l
 gul p
 gulp ed
 gu it
 guit a
 guita r
 guitar s
 gu in
 guin e
 guine a
 gu id
 guid in
 guidin g
 guid ed
 guid e
 guide s
 guid an
 guidan c
 guidanc e
 gu i
 gui l
 guil t
 guilt y
 guilt i
 guilti l
 guiltil y
 gu e
 gue st
 guest s
 gue s
 gues s
 guess in
 guessin g
 guess er
 guess ed
 guess e
 guesse s
 gu ar
 guar d
 guard s
 guard in
 guardin g
 guard i
 guardi an
 guardian s
 guard ed
 guar an
 guaran t
 guarant e
 guarante e
 guarantee d
 gu a
 gua ca
 guaca m
 guacam o
 guacamo le
 g re
 gre y
 grey i
 greyi s
 greyis h
 gre w
 gre n
 gren a
 grena d
 grenad e
 gre ed
 greed y
 gre e
 gree t
 greet s
 greet in
 greetin g
 greet ed
 gree n
 green s
 green er
 green e
 greene s
 greenes t
 gre a
 grea t
 great n
 greatn e
 greatne s
 greatnes s
 great l
 greatl y
 great er
 great e
 greate s
 greates t
 grea s
 greas e
 g r
 gr u
 gru n
 grun t
 grunt s
 grunt ed
 gru m
 grum p
 grump y
 grump in
 grumpin e
 grumpine s
 grumpines s
 grump i
 grumpi l
 grumpil y
 grumpi er
 grumpi e
 grumpie st
 grum b
 grumb le
 grumb l
 grumbl y
 grumbl in
 grumblin g
 grumbl ed
 gru f
 gruf f
 gru d
 grud g
 grudg in
 grudgin g
 grudging l
 grudgingl y
 gru b
 grub s
 gr rr
 gr ou
 grou p
 group s
 grou nd
 ground s
 grounds k
 groundsk e
 groundske e
 groundskee p
 groundskeep e
 groundskeepe r
 ground h
 groundh o
 groundho g
 ground e
 grounde d
 grou c
 grouc h
 grouch y
 gr o
 gro w
 grow th
 grow s
 grow n
 grown u
 grownu p
 grownup s
 grow l
 growl y
 growl s
 growl in
 growlin g
 growl ed
 grow in
 growin g
 gro ve
 gro s
 gros s
 gross ed
 gro om
 groom in
 groomin g
 groom ed
 gro o
 groo ve
 gro c
 groc er
 grocer y
 grocer i
 groceri e
 grocerie s
 gro an
 groan s
 groan e
 groane d
 gr it
 grit t
 gritt ed
 gr in
 grin s
 grin n
 grinn ed
 gr im
 grim a
 grima c
 grimac ed
 gr id
 gr i
 gri z
 griz z
 grizz l
 grizzl y
 gri p
 grip s
 grip p
 gripp ed
 gri nd
 grind s
 grind i
 grindi n
 grindin g
 grind e
 grinde r
 grinn in
 grinnin g
 gri me
 gri ll
 grill s
 grill ed
 gri e
 grie f
 gr ay
 gr at
 grat it
 gratit u
 gratitu d
 gratitud e
 grat er
 grat ed
 grat e
 grate s
 grate f
 gratef u
 gratefu l
 grateful l
 gratefull y
 gr as
 gras s
 grass y
 grass l
 grassl an
 grasslan d
 grassland s
 grass h
 grassh o
 grassho p
 grasshop p
 grasshopp er
 grass e
 grasse s
 gras p
 grasp ed
 gr an
 gran t
 grant i
 granti n
 grantin g
 grant e
 grante d
 gran n
 grann y
 gran d
 grand s
 grands o
 grandso n
 grand p
 grandp a
 grandpa r
 grandpar e
 grandpare n
 grandparen t
 grandparent s
 grand m
 grandm o
 grandmo t
 grandmot he
 grandmothe r
 grandm a
 grandma s
 grand k
 grandk i
 grandki d
 grandkid s
 grand f
 grandf a
 grandfa t
 grandfat he
 grandfathe r
 grand e
 grande u
 grandeu r
 grande r
 grand d
 grandd a
 grandda u
 granddau g
 granddaug h
 granddaugh t
 granddaught e
 granddaughte r
 grandda d
 grand c
 grandc h
 grandch i
 grandchi l
 grandchil d
 grandchild r
 grandchildr e
 grandchildre n
 grand a
 granda d
 gr a
 gra z
 graz in
 grazin g
 graz ed
 graz e
 gra ve
 grave y
 gravey ar
 graveyar d
 grave l
 gra v
 grav y
 gra p
 grap e
 grape v
 grapev in
 grapevin e
 grape s
 grape f
 grapef r
 grapefr u
 grapefru it
 gra m
 gram s
 gra in
 grain s
 gra d
 grad u
 gradu at
 graduat ed
 gradu a
 gradua ll
 graduall y
 grad in
 gradin g
 grad e
 grade s
 gra c
 grac i
 graci ou
 graciou s
 gracious l
 graciousl y
 grac e
 grace f
 gracef u
 gracefu ll
 gracefull y
 gracefu l
 graceful ne
 gracefulne s
 gracefulnes s
 gra b
 grab s
 grab ed
 grab b
 grabb in
 grabbin g
 grabb ed
 g or
 gor i
 gori ll
 gorill as
 gorill a
 gor g
 gorg e
 gorge ou
 gorgeou s
 g on
 gon n
 gonn a
 g o
 go w
 gow n
 go t
 got t
 gott en
 go s
 gos s
 goss i
 gossi p
 go o
 goo s
 goos e
 goose b
 gooseb er
 gooseber r
 gooseberr y
 goo g
 goog l
 googl y
 goo f
 goof y
 goo ey
 goo d
 good s
 good ne
 goodne s
 goodnes s
 good n
 goodn i
 goodni g
 goodnig h
 goodnigh t
 goodnight s
 good i
 goodi e
 goodie s
 good b
 goodb y
 goodby e
 goodbye s
 go ne
 go l
 gol f
 golf in
 golfin g
 golf er
 golfer s
 gol d
 gold f
 goldf is
 goldfis h
 gold en
 go in
 goin g
 go g
 gog g
 gogg le
 goggle s
 go er
 goer s
 go e
 goe s
 go d
 god s
 god m
 godm o
 godmo t
 godmot he
 godmothe r
 go b
 gob l
 gobl in
 gob b
 gobb le
 gobble s
 gobb l
 gobbl in
 gobblin g
 gobbl ed
 go at
 goat s
 go al
 goal s
 goal i
 goali e
 g n
 gn o
 gno me
 gnome s
 gn ar
 gnar l
 gnarl ed
 gn a
 gna w
 gnaw in
 gnawin g
 g le
 gle e
 glee f
 gleef u
 gleefu l
 gleeful l
 gleefull y
 gle a
 glea m
 gleam in
 gleamin g
 gleam ed
 g l
 gl u
 glu m
 glu in
 gluin g
 glu ed
 glu e
 glue s
 gl or
 glor y
 glor i
 glori ou
 gloriou s
 gl o
 glo w
 glow s
 glow in
 glowin g
 glow ed
 glo ve
 glove s
 glo v
 glo s
 glos s
 gloss y
 glo om
 gloom y
 gloom in
 gloomin e
 gloomine s
 gloomines s
 gloom i
 gloomi er
 gloomi e
 gloomie s
 gloomies t
 glo b
 glob e
 gl it
 glit t
 glitt er
 glitter y
 glitter i
 glitteri n
 glitterin g
 glitter ed
 gl is
 glis t
 glist en
 glisten in
 glistenin g
 glisten ed
 gl in
 glin t
 glint ed
 gl im
 glim p
 glimp s
 glimps ed
 glimps e
 glimpse s
 glim m
 glimm er
 glimmer i
 glimmeri n
 glimmerin g
 glimmer ed
 gl id
 glid in
 glidin g
 glid er
 glid ed
 glid e
 gl i
 glint in
 glintin g
 gl as
 glas s
 glass e
 glasse s
 gl ar
 glar in
 glarin g
 glar ed
 gl an
 glan c
 glanc i
 glanci n
 glancin g
 glanc e
 glance s
 glance d
 gl a
 gla z
 gla re
 glare s
 gla d
 glad l
 gladl y
 gla c
 glac i
 glaci er
 g in
 gin g
 ging er
 ginger l
 gingerl y
 ginger b
 gingerb r
 gingerbr e
 gingerbre a
 gingerbrea d
 g id
 gid d
 gidd y
 g i
 gi ve
 give s
 gi v
 giv in
 givin g
 giv er
 giv en
 gi r
 gir l
 girl y
 girl s
 girl f
 girlf r
 girlfr i
 girlfri e
 girlfrie nd
 gir a
 gira f
 giraf f
 giraff e
 giraffe s
 gi g
 gig g
 gigg le
 giggle s
 gigg l
 giggl y
 giggl in
 gigglin g
 giggl ed
 gig an
 gigan t
 gigant i
 giganti c
 gi f
 gif t
 gift s
 gift ed
 gifted n
 giftedn e
 giftedne s
 giftednes s
 gi an
 gian t
 giant s
 g h
 gh o
 gho st
 ghost s
 ghost l
 ghostl y
 g er
 ger m
 germ y
 germ s
 g en
 gen u
 genu in
 genuin e
 gen t
 gent l
 gentl y
 gentl er
 gentl e
 gentle m
 gentlem an
 gen i
 geni u
 geniu s
 geni e
 gen er
 gener o
 genero u
 generou s
 generous l
 generousl y
 genero s
 generos i
 generosi t
 generosit y
 gener a
 genera t
 generat i
 generati o
 generatio n
 generation s
 genera l
 general l
 generall y
 g e
 ge t
 get t
 gett in
 gettin g
 get s
 ge st
 gest u
 gestu re
 gesture s
 gestu r
 gestur ed
 ge o
 geo g
 geog r
 geogr a
 geogra p
 geograp h
 geograph y
 geo d
 geod e
 gentlem en
 gentl en
 gentlen e
 gentlene s
 gentlenes s
 ge m
 gem s
 gems to
 gemsto n
 gemston e
 ge e
 gee s
 gees e
 ge ar
 gear s
 g at
 gat he
 gathe r
 gather s
 gather i
 gatheri n
 gatherin g
 gather e
 gathere d
 gat e
 gate wa
 gatewa y
 gate s
 gate k
 gatek e
 gateke e
 gatekee p
 gatekeep er
 g as
 gas p
 gasp s
 gasp in
 gaspin g
 gasp ed
 g ar
 gar t
 gart er
 gar l
 garl i
 garli c
 garl an
 garlan d
 gar d
 gard en
 garden s
 garden in
 gardenin g
 garden er
 gardener s
 gar b
 garb a
 garba g
 garbag e
 gar a
 gara g
 garag e
 g an
 gan g
 g al
 gal a
 gala x
 galax y
 galax i
 galaxi e
 galaxie s
 g a
 ga z
 gaz in
 gazin g
 gaz ed
 gaz e
 gaze s
 gaze l
 gazel le
 ga ve
 ga p
 gap s
 ga me
 game s
 ga ll
 gall o
 gallo p
 gallop in
 gallopin g
 gallop ed
 ga j
 gaj ar
 ga in
 gain s
 gain ed
 ga i
 gain in
 gainin g
 ga g
 gag g
 gagg ed
 ga d
 gad g
 gadg e
 gadge t
 gadget s
 f u
 fu z
 fuz z
 fuzz y
 fu t
 fut u
 futu re
 fu s
 fus s
 fuss y
 fuss in
 fussin g
 fus e
 fu r
 fur y
 fur t
 furt he
 furthe s
 furthes t
 furthe r
 fur r
 furr y
 furr o
 furro w
 furrow ed
 fur n
 furn i
 furni t
 furnit u
 furnitu re
 furn a
 furna c
 furnac e
 fur i
 furi o
 furio u
 furiou s
 fu n
 fun n
 funn y
 funn i
 funni er
 funni e
 funnie s
 funnies t
 funn e
 funne l
 fun er
 funer a
 funera l
 fu m
 fum b
 fumb l
 fumbl ed
 fu l
 ful l
 full y
 full er
 full e
 fulle s
 fulles t
 ful f
 fulf i
 fulfi l
 fulfil l
 fulfill in
 fulfillin g
 fulfill ed
 fu e
 fue l
 fu d
 fud g
 fudg e
 f re
 fre t
 fre s
 fres he
 freshe s
 freshes t
 fres h
 fresh n
 freshn e
 freshne s
 freshnes s
 fresh l
 freshl y
 fre q
 freq u
 frequ e
 freque n
 frequen t
 frequent l
 frequentl y
 fre n
 fren c
 frenc h
 fre ed
 freed o
 freedo m
 fre e
 free z
 freez in
 freezin g
 freez er
 freez e
 freeze s
 free s
 free l
 freel y
 free in
 freein g
 fre c
 frec k
 freck l
 freckl e
 freckle s
 f r
 fr y
 fry in
 fryin g
 fr u
 fru t
 frut t
 frutt i
 fru s
 frus t
 frust r
 frustr a
 frustra t
 frustrat in
 frustratin g
 frustrat i
 frustrati o
 frustratio n
 frustrat ed
 fru i
 frui t
 fruit y
 fruit s
 fr o
 fro z
 froz e
 froze n
 fro w
 frow n
 frown y
 frown s
 frown in
 frownin g
 frown ed
 fro s
 fros t
 frost y
 frost in
 frostin g
 fro nd
 fro n
 fron t
 fro m
 fro l
 frol i
 froli c
 frolic k
 frolick ed
 fro g
 frog s
 frog g
 frogg y
 fr i
 fri s
 fris b
 frisb e
 frisbe e
 fri l
 fril l
 frill y
 frill s
 fri g
 frig h
 frigh t
 fright f
 frightf u
 frightfu l
 fright e
 frighte n
 frighten in
 frightenin g
 frighten ed
 fri ed
 fri e
 frie s
 frie nd
 friend s
 friends h
 friendsh i
 friendshi p
 friendship s
 friend l
 friendl y
 friendl i
 friendli n
 friendlin e
 friendline s
 friendlines s
 friendli e
 friendlie r
 fri d
 frid g
 fridg e
 fridge s
 fr an
 fran t
 frant i
 franti c
 frantic a
 frantica l
 frantical l
 franticall y
 fr a
 fra y
 fray ed
 fra m
 fram ed
 fram e
 frame s
 fra i
 frai l
 fra g
 frag r
 fragr an
 fragran t
 fragran c
 fragranc e
 frag i
 fragi l
 fragil e
 fra c
 frac t
 fract u
 fractu re
 fractu r
 fractur ed
 fract i
 fracti o
 fractio n
 fraction s
 f o
 fo x
 fox y
 fox e
 foxe s
 fo u
 fou r
 four th
 four t
 fourt e
 fourte e
 fourtee n
 four s
 fou nd
 found a
 founda t
 foundat i
 foundati o
 foundatio n
 fou n
 foun t
 fount a
 founta in
 fountain s
 fou g
 foug h
 fough t
 fo s
 fos s
 foss i
 fossi l
 fossil s
 fo re
 fore wa
 forewa r
 forewar n
 forewarn ed
 fore v
 forev er
 forever m
 foreverm o
 forevermo r
 forevermor e
 fore s
 fores t
 forest s
 fores i
 foresi g
 foresig h
 foresigh t
 fores h
 foresh a
 foresha d
 foreshad o
 foreshado w
 foreshadow s
 foreshadow in
 foreshadowin g
 foreshadow ed
 fore i
 forei g
 foreig n
 fore he
 forehe a
 forehea d
 forehead s
 fore b
 foreb o
 forebo d
 forebod in
 forebodin g
 fo r
 for wa
 forwa r
 forwar d
 forward s
 for th
 for t
 fort y
 fort u
 fortu n
 fortun e
 fortun a
 fortuna t
 fortunat e
 fortunate l
 fortunatel y
 fort s
 fort re
 fortre s
 fortres s
 for m
 form s
 form in
 formin g
 form er
 form ed
 form a
 forma t
 format i
 formati o
 formatio n
 formation s
 for l
 forl o
 forlo r
 forlor n
 for k
 fork s
 fork ed
 for g
 forg o
 forgo t
 forgot t
 forgott e
 forgotte n
 forg i
 forgi v
 forgiv in
 forgivin g
 forgiv e
 forgive s
 forgive n
 forgiven e
 forgivene s
 forgivenes s
 forg e
 forge t
 forget t
 forgett in
 forgettin g
 forget s
 forget f
 forgetf u
 forgetfu l
 forgetful n
 forgetfuln e
 forgetfulne s
 forgetfulnes s
 forg a
 forga v
 forgav e
 for c
 forc ed
 forc e
 force s
 for b
 forb i
 forbi d
 forbid d
 forbidd e
 forbidde n
 for a
 fora g
 forag in
 foragin g
 fo o
 foo t
 foot s
 foots t
 footst e
 footste p
 footstep s
 foot p
 footp r
 footpr in
 footprin t
 footprint s
 foot in
 footin g
 foot b
 footb a
 footba l
 footbal l
 football s
 foo l
 fool s
 fool in
 foolin g
 fool i
 fooli s
 foolis h
 foolish n
 foolishn e
 foolishne s
 foolishnes s
 foolish l
 foolishl y
 fool ed
 foo d
 food s
 fo nd
 fond n
 fondn e
 fondne s
 fondnes s
 fond l
 fondl y
 fo l
 fol l
 foll o
 follo w
 follow s
 follow in
 followin g
 follow er
 follower s
 follow ed
 fol k
 folk s
 fol d
 fold s
 fold in
 foldin g
 fold er
 folder s
 fold ed
 fo i
 foi l
 fo g
 fog g
 fogg y
 fo e
 fo c
 foc u
 focu s
 focus s
 focuss ed
 focus in
 focusin g
 focus ed
 fo a
 foa m
 foam y
 foa l
 f l
 fl y
 fly s
 fly in
 flyin g
 fly er
 flyer s
 fl u
 flu t
 flut t
 flutt er
 flutter y
 flutter i
 flutteri n
 flutterin g
 flutter ed
 flut i
 fluti s
 flutis t
 flut e
 flute s
 flu s
 flus he
 flushe s
 flushe d
 flus h
 flush in
 flushin g
 flu r
 flur r
 flurr y
 flu n
 flun g
 flu i
 flui d
 fluid s
 flu f
 fluf f
 fluff y
 fluff i
 fluffi er
 fluff ed
 fl o
 flo w
 flow s
 flow n
 flow in
 flowin g
 flow er
 flower y
 flower s
 flower p
 flowerp o
 flowerpo t
 flower b
 flowerb ed
 flow ed
 flo u
 flou r
 flour i
 flouri s
 flouris he
 flourishe d
 flouris h
 flo p
 flop s
 flop p
 flopp y
 flopp in
 floppin g
 flopp ed
 flo o
 floo r
 floor s
 floor b
 floorb o
 floorbo a
 floorboa r
 floorboar d
 floorboard s
 floo d
 flood s
 flood in
 floodin g
 flood ed
 flo c
 floc k
 flock in
 flockin g
 flock ed
 flo a
 floa t
 float y
 float s
 float in
 floatin g
 float i
 floati e
 floatie s
 float ed
 fl in
 flin c
 flinc h
 fl i
 fli t
 flit t
 flitt in
 flittin g
 flitt ed
 fli p
 flip s
 flip p
 flipp in
 flippin g
 flipp er
 flipper s
 flipp ed
 fli g
 flig h
 fligh t
 flight s
 fli er
 fli e
 flie s
 fli c
 flic k
 flick s
 flick in
 flickin g
 flick er
 flicker i
 flickeri n
 flickerin g
 flicker ed
 flick ed
 fl e
 fle x
 flex in
 flexin g
 flex i
 flexi b
 flexib l
 flexibl e
 flexib i
 flexibi l
 flexibil i
 flexibili t
 flexibilit y
 flex ed
 fle w
 fle s
 fles h
 fle e
 fle a
 flea s
 fl a
 fla w
 fla v
 flav o
 flavo u
 flavou r
 flavour s
 flavo r
 flavor s
 flavor f
 flavorf u
 flavorfu l
 flavor ed
 fla t
 flat t
 flatt er
 flatt e
 flatte n
 flatten ed
 fla s
 flas k
 flask s
 flas he
 flashe s
 flashe d
 flas h
 flash y
 flash l
 flashl i
 flashli g
 flashlig h
 flashligh t
 flashlight s
 flash in
 flashin g
 fla r
 flar ed
 fla p
 flap s
 flap p
 flapp in
 flappin g
 flapp ed
 fla m
 flam in
 flamin g
 flaming o
 flamingo s
 flam e
 flame s
 fla k
 flak y
 flak e
 flake s
 fla i
 flai l
 fla g
 flag s
 flag p
 flagp o
 flagpo l
 flagpol e
 f in
 fin s
 fin i
 fini s
 finis he
 finishe s
 finishe d
 finis h
 fin g
 fing er
 finger t
 fingert i
 fingerti p
 fingertip s
 finger s
 finger p
 fingerp r
 fingerpr i
 fingerpri n
 fingerprin t
 fingerprint s
 finger n
 fingern a
 fingerna i
 fingernai l
 fin er
 fin e
 fine s
 fines t
 fin a
 fina l
 final l
 finall y
 final e
 f i
 fi z
 fiz z
 fizz y
 fizz l
 fizzl ed
 fizz ed
 fi x
 fix in
 fixin g
 fix er
 fixer s
 fix ed
 fix e
 fixe s
 fi v
 fiv e
 five s
 fi t
 fit t
 fitt in
 fittin g
 fitt ed
 fit s
 fit n
 fitn e
 fitne s
 fitnes s
 fi s
 fis t
 fist s
 fis he
 fishe s
 fishe r
 fisher s
 fisher m
 fisherm e
 fisherme n
 fisherm a
 fisherma n
 fishe d
 fis h
 fish y
 fish in
 fishin g
 fish b
 fishb o
 fishbo w
 fishbow l
 fi re
 fire w
 firew o
 firewo r
 firewor k
 firework s
 firewo o
 firewoo d
 fire t
 firet r
 firetr u
 firetru c
 firetruc k
 fire s
 fire p
 firep l
 firepl a
 firepla c
 fireplac e
 fire m
 firem e
 fireme n
 firem an
 fire f
 firef l
 firefl y
 firefl i
 firefli e
 fireflie s
 firef i
 firefi g
 firefig h
 firefigh t
 firefight in
 firefightin g
 firefight er
 firefighter s
 fire b
 fireb a
 fireba l
 firebal l
 fireball s
 fi r
 fir s
 firs t
 fir m
 firm l
 firml y
 firm er
 fir ed
 fi nd
 find s
 find i
 findi n
 findin g
 finding s
 find e
 finde r
 finish in
 finishin g
 fi l
 fil th
 filth y
 filth i
 filthi e
 filthie r
 fil t
 filt er
 fil m
 film s
 film in
 filmin g
 film ed
 fil l
 fill s
 fill in
 fillin g
 fill ed
 fil e
 file s
 fi g
 fig u
 figu re
 figure s
 figu r
 figur in
 figurin g
 figurin e
 figur ed
 fig h
 figh t
 fight s
 fight in
 fightin g
 fight er
 fighter s
 fi f
 fif th
 fif t
 fift y
 fift e
 fifte e
 fiftee n
 fi er
 fier y
 fier c
 fierc e
 fierce s
 fierces t
 fierce l
 fiercel y
 fi e
 fie l
 fiel d
 field s
 fi d
 fid g
 fidg e
 fidge t
 fidget ed
 fid d
 fidd l
 fiddl ed
 fi b
 fib er
 f er
 fer r
 ferr i
 ferri s
 fer o
 fero c
 feroc i
 feroci o
 ferocio u
 ferociou s
 ferocious l
 ferociousl y
 f ed
 f e
 fe w
 few er
 fe v
 fev er
 fe t
 fet c
 fetc he
 fetche s
 fetche d
 fetc h
 fetch in
 fetchin g
 fe s
 fes t
 fest i
 festi v
 festiv e
 festiv a
 festiva l
 festival s
 fer t
 fert i
 ferti l
 fertil i
 fertili z
 fertiliz er
 fe n
 fen c
 fenc e
 fence s
 fe l
 fel t
 fel l
 fell o
 fello w
 fell a
 fe ed
 feed s
 feed i
 feedi n
 feedin g
 feed e
 feede r
 feed b
 feedb a
 feedba c
 feedbac k
 fe e
 fee t
 fee l
 feel s
 feel in
 feelin g
 feeling s
 feel er
 feeler s
 fe a
 fea t
 feat u
 featu re
 feature s
 feat s
 feat he
 feathe r
 feather y
 feather s
 feather e
 feathere d
 fea s
 feas t
 feast s
 feast ed
 fea r
 fear s
 fears o
 fearso m
 fearsom e
 fear l
 fearl e
 fearle s
 fearles s
 fearless l
 fearlessl y
 fear in
 fearin g
 fear f
 fearf u
 fearfu l
 fearful n
 fearfuln e
 fearfulne s
 fearfulnes s
 fearful l
 fearfull y
 fear ed
 f an
 fan t
 fant a
 fanta s
 fantas y
 fantas t
 fantast i
 fantasti c
 fantastic a
 fantastica l
 fan s
 fan n
 fann e
 fanne d
 fan g
 fang s
 fan c
 fanc y
 fanc i
 fanci e
 fancie s
 fancies t
 fancie r
 f a
 fa v
 fav o
 favo u
 favou r
 favour i
 favouri t
 favourit e
 favourite s
 favo r
 favor i
 favori t
 favorit e
 favorite s
 fa u
 fau n
 fau l
 faul t
 fault y
 fau c
 fauc e
 fauce t
 faucet s
 fa t
 fat t
 fatt er
 fat he
 fathe r
 father s
 fat e
 fate f
 fatef u
 fatefu l
 fa s
 fas t
 fast er
 fast e
 faste s
 fastes t
 faste n
 fasten ed
 fas h
 fash i
 fashi o
 fashio n
 fashion s
 fashion ed
 fashion a
 fashiona b
 fashionab l
 fashionabl e
 fas c
 fasc in
 fascin a
 fascina t
 fascinat ed
 fasc i
 fascinat in
 fascinatin g
 fa re
 fare w
 farew e
 farewe l
 farewel l
 fa r
 far t
 fart he
 farthe s
 farthes t
 farthe r
 far m
 farm y
 farmy a
 farmya r
 farmyar d
 farm s
 farm in
 farmin g
 farm h
 farmh o
 farmho u
 farmhou s
 farmhous e
 farm er
 farmer s
 far a
 fara wa
 farawa y
 fa m
 fam o
 famo u
 famou s
 fam i
 fami l
 famil y
 famil i
 famili e
 familie s
 famili a
 familia r
 fam e
 fa l
 fal s
 fals e
 fal l
 fall s
 fall in
 fallin g
 fall e
 falle n
 fa k
 fak e
 fa in
 fain t
 faint ed
 fa i
 fai th
 faith f
 faithf u
 faithfu l
 faithful l
 faithfull y
 fai re
 faire s
 faires t
 fai r
 fair y
 fairy t
 fairyt a
 fairyta l
 fairytal e
 fairy l
 fairyl an
 fairylan d
 fair n
 fairn e
 fairne s
 fairnes s
 fair l
 fairl y
 fair i
 fairi e
 fairie s
 fair er
 fai l
 fail u
 failu re
 fail s
 fail in
 failin g
 fail ed
 fa er
 faer i
 faeri e
 fa d
 fad in
 fadin g
 fad ed
 fad e
 fade s
 fa c
 fac to
 facto r
 factor y
 factor i
 factori e
 factorie s
 fac t
 fact s
 fac in
 facin g
 fac ed
 fac e
 face s
 fa b
 fab u
 fabu l
 fabul o
 fabulo u
 fabulou s
 fab r
 fabr i
 fabri c
 fabric s
  ey
 ey ed
 ey e
 eye s
 eyes ha
 eyesha d
 eyeshad o
 eyeshado w
 eye p
 eyep i
 eyepi e
 eyepie c
 eyepiec e
 eye l
 eyel i
 eyeli d
 eyel as
 eyelas he
 eyelashe s
 eye in
 eyein g
 eye b
 eyeb r
 eyebr o
 eyebro w
 eyebrow s
 eyeb a
 eyeba l
 eyebal l
 eyeball s
 e x
 ex te
 exte nd
 extend e
 extende d
 ex t
 ext re
 extre m
 extrem e
 extreme l
 extremel y
 ext ra
 extra or
 extraor d
 extraord in
 extraordin a
 extraordina r
 extraordinar y
 ext r
 extr as
 ext in
 extin g
 exting u
 extingu i
 extingui s
 extinguis he
 extinguishe r
 extinguishe d
 extin c
 extinc t
 ex pl
 expl or
 explor in
 explorin g
 explor er
 explorer s
 explor ed
 explor at
 explorat i
 explorati o
 exploratio n
 exploration s
 expl an
 explan a
 explana t
 explanat i
 explanati o
 explanatio n
 explanation s
 ex pe
 expe c
 expec t
 expect s
 expect in
 expectin g
 expect ed
 expect at
 expectat i
 expectati o
 expectatio n
 expectation s
 expect an
 expectan t
 expectant l
 expectantl y
 ex p
 exp re
 expre s
 expres s
 express in
 expressin g
 express i
 expressi o
 expressio n
 expression s
 exp o
 expo s
 expos ed
 exp lo
 explo s
 explos i
 explosi ve
 explosi on
 explo re
 explore s
 explo d
 explod in
 explodin g
 explod ed
 explod e
 explode s
 exp la
 expla in
 explain s
 explain ed
 expla i
 explain in
 explainin g
 exp ir
 expir ed
 exp er
 exper t
 expert s
 exper i
 experi m
 experim e
 experime n
 experimen t
 experiment s
 experiment i
 experimenti n
 experimentin g
 experi e
 experie n
 experien c
 experienc i
 experienci n
 experiencin g
 experienc ed
 experienc e
 experience s
 exp en
 expen s
 expens i
 expensi v
 expensiv e
 expens e
 exp ed
 exped i
 expedi t
 expedit i
 expediti o
 expeditio n
 exp an
 expan d
 expand e
 expande d
 ex ot
 exot i
 exoti c
 ex it
 exit s
 exit ed
 ex is
 exis t
 exist ed
 ex hi
 exhi b
 exhib it
 ex ha
 exha u
 exhau s
 exhaus t
 exhaust i
 exhausti o
 exhaustio n
 exhaust ed
 ex er
 exer c
 exerc i
 exerci s
 exercis i
 exercisi n
 exercisin g
 exercis ed
 exercis e
 exercise s
 ex ce
 exce p
 excep ti
 excepti on
 excep t
 exce ll
 excell en
 excellen t
 ex ca
 exca v
 excav a
 excava to
 excavato r
 ex c
 exc u
 excu se
 excuse s
 exc la
 excla im
 exclaim in
 exclaimin g
 exclaim ed
 exc l
 excl u
 exclu d
 exclud ed
 exc it
 excit in
 excitin g
 excit ed
 excited l
 excitedl y
 excit e
 excite s
 excite m
 excitem e
 exciteme n
 excitemen t
 exc h
 exch an
 exchan g
 exchang i
 exchangi n
 exchangin g
 exchang e
 exchange d
 exc el
 ex am
 exam s
 exam p
 examp le
 example s
 exam in
 examin ed
 examin e
 examine s
 exam i
 examin in
 examinin g
 ex a
 exa c
 exac t
 exact ly
 e w
 e v
 ev il
 ev id
 evid en
 eviden c
 evidenc e
 ev er
 ever y
 every w
 everyw he
 everywhe r
 everywher e
 every th
 everyth i
 everythi n
 everythin g
 every t
 everyt i
 everyti m
 everytim e
 every o
 everyo n
 everyon e
 every d
 everyd a
 everyda y
 every b
 everyb o
 everybo d
 everybod y
 ever m
 everm o
 evermo r
 evermor e
 ev en
 even t
 event u
 eventu a
 eventua l
 eventual l
 eventuall y
 event s
 even l
 evenl y
 even in
 evenin g
 evening s
 ev ap
 evap or
 evapor at
 ev a
 eva c
 evac u
 evacu at
 evacuat e
 e u
 eu ro
  et
 et er
 eter n
 etern i
 eterni t
 eternit y
 e st
 est at
 estat e
 est a
 esta b
 estab l
 establ is
  es
 es s
 ess en
 essen t
 essent i
 essenti a
 essentia l
 es p
 esp e
 espe c
 espec i
 especi a
 especia ll
 especiall y
 es ca
 esca p
 escap in
 escapin g
 escap ed
 escap e
 escape s
 es c
 esc or
 escor t
  er
 er u
 eru p
 erup t
 erupt i
 erupti o
 eruptio n
 erupti n
 eruptin g
 erupt ed
 er r
 err o
 erro r
 err an
 erran d
 errand s
 er a
 era s
 eras i
 erasi n
 erasin g
 eras ed
 eras e
 erase s
 eras er
 eraser s
 e q
 eq u
 equ i
 equi p
 equip m
 equipm en
 equipmen t
 equ at
 equat i
 equati o
 equatio n
 equation s
 equ al
 equ a
 equa ll
 equall y
 e p
 ep is
 epis o
 episo d
 episod e
 e nd
 end u
 endu r
 endur e
 end s
 end l
 endl e
 endle s
 endles s
 end i
 endi n
 endin g
 ending s
 end e
 ende d
 ende a
 endea v
 endeav o
 end an
 endan g
 endang e
 endange r
  en
 en v
 env y
 env i
 envi ou
 enviou s
 env e
 enve l
 envel o
 envelo p
 envelop in
 envelopin g
 envelop e
 envelope s
 en th
 enth u
 enthu s
 enthus i
 enthusi a
 enthusia s
 enthusias t
 enthusiast i
 enthusiasti c
 enthusiastic a
 enthusiastica l
 enthusiastical l
 enthusiasticall y
 enthusias m
 enth r
 enthr a
 enthra l
 enthral l
 enthrall e
 enthralle d
 en t
 ent r
 entr y
 entr i
 entri e
 entrie s
 entr an
 entran c
 entranc e
 entrance d
 ent i
 enti re
 entire l
 entirel y
 ent er
 enter t
 entert a
 enterta i
 entertai n
 entertain m
 entertainm e
 entertainme n
 entertainmen t
 entertain ed
 enter s
 enter i
 enteri n
 enterin g
 enter ed
 ent an
 entan g
 entang l
 entangl e
 entangle d
 en s
 ens u
 ensu re
 ensu r
 ensur in
 ensurin g
 en r
 enr o
 enro l
 enrol l
 enroll ed
 enr i
 enri c
 en ou
 enou g
 enoug h
 en o
 eno r
 enor m
 enorm ou
 enormou s
 en j
 enj o
 enjo y
 enjoy s
 enjoy in
 enjoyin g
 enjoy ed
 enjoy a
 enjoya b
 enjoyab l
 enjoyabl e
 en g
 eng u
 engu l
 engul f
 engulf ed
 eng r
 engr o
 engro s
 engros s
 engross ed
 eng in
 engin e
 engine s
 engine er
 engineer s
 eng a
 enga g
 en er
 ener g
 energ y
 energ i
 energi z
 energiz ed
 energi s
 energis ed
 energ e
 energe t
 energet i
 energeti c
 en e
 ene m
 enem y
 enem i
 enemi e
 enemie s
 en c
 enc ou
 encou r
 encour a
 encoura g
 encourag in
 encouragin g
 encouraging l
 encouragingl y
 encourag ed
 encourag e
 encourage s
 encourage m
 encouragem e
 encourageme n
 encouragemen t
 encou n
 encoun t
 encount er
 encounter ed
 enc l
 encl o
 enclo s
 enclos u
 enclosu re
 enclosure s
 enclos ed
 enc h
 ench an
 enchan t
 enchant m
 enchantm e
 enchantme n
 enchantmen t
 enchant i
 enchanti n
 enchantin g
 enchant e
 enchante d
 en a
 ena b
 enab l
 enabl ed
 env ir
 envir on
 environ m
 environm en
 environmen t
 enjoy m
 enjoym en
 enjoymen t
 e ma
 ema il
 e m
 em p
 emp ti
 empti ed
 emp t
 empt y
 emp lo
 emplo y
 employ e
 employe e
 employee s
 emp a
 empa th
 empath y
 em ot
 emot i
 emoti on
 emotion s
 emotion a
 emotiona l
 em it
 emit t
 em er
 emer g
 emerg i
 emergi n
 emergin g
 emerg ed
 emerg e
 emerge n
 emergen c
 emergenc y
 emergenc i
 emergenci e
 emergencie s
 emer a
 emera l
 emeral d
 em b
 emb ra
 embra ce
 embra c
 embrac in
 embracin g
 embrac ed
 emb ar
 embar r
 embarr as
 embarras s
 embarrass m
 embarrassm e
 embarrassme n
 embarrassmen t
 embarrass in
 embarrassin g
 embarrass ed
 embar k
 embark in
 embarkin g
 embark ed
 e le
 ele v
 elev en
 elev a
 eleva to
 elevato r
 elevator s
 ele p
 elep h
 eleph an
 elephan t
 elephant s
 ele m
 elem en
 elemen t
 element s
 ele g
 eleg an
 elegan t
 ele c
 elec t
 elect r
 electr i
 electri c
 electric it
 electricit y
 e la
 ela b
 elab or
 elabor at
 elaborat e
  el
 el ve
 elve s
 el u
 el s
 els e
 else w
 elsew he
 elsewhe r
 elsewher e
 el f
 el d
 eld er
 elder s
 elder l
 elderl y
 eld e
 elde st
 elder b
 elderb er
 elderber r
 elderberr y
 el b
 elb o
 elbo w
 elbow s
 el at
 elat ed
 e it
 eit he
 eithe r
 e ig
 eig h
 eigh te
 eighte en
 eigh t
 eight y
 e h
 e g
 eg g
 egg s
 eggs he
 eggshe l
 eggshel l
 e f
 ef f
 eff or
 effor t
 effort s
 eff i
 effi c
 effic i
 effici en
 efficien t
 efficient l
 efficientl y
 eff e
 effe c
 effec t
 effect s
 e er
 eer i
 eeri l
 eeril y
 eeri e
 e el
  ed
 ed u
 edu c
 educ a
 educa t
 educat i
 educati o
 educatio n
 education a
 educationa l
 ed i
 edi b
 edib l
 edibl e
 ed g
 edg e
 edge s
 edg ed
 e c
 ec st
 ecst at
 ecstat i
 ecstati c
 ec li
 ecli p
 eclip s
 eclips e
 ec la
 ecla i
 eclai r
 ec ho
 echo in
 echoin g
 echo es
 echo ed
 e at
 eat s
 eat in
 eatin g
 eat er
 eater s
 eat en
 e as
 eas y
 eas t
 eas i
 easi l
 easil y
 easi er
 easi e
 easie s
 easies t
 eas ed
 eas e
 e ar
 ear th
 earth y
 earth w
 earthw o
 earthwo r
 earthwor m
 earthworm s
 earth q
 earthq u
 earthqu a
 earthqua k
 earthquak e
 earthquake s
 earth l
 earthl i
 earthli n
 earthlin g
 earthling s
 ear s
 ear r
 earr in
 earrin g
 earring s
 ear n
 earn in
 earnin g
 earning s
 earn ed
 ear m
 earm u
 earmu f
 earmuf f
 earmuff s
 ear l
 earl y
 earl i
 earli er
 earli e
 earlie s
 earlies t
 ear a
 eara c
 earac he
  ea
 ea ve
 eave s
 eaves d
 eavesd r
 eavesdr o
 eavesdro p
 ea g
 eag le
 eagle s
 eag er
 eager n
 eagern e
 eagerne s
 eagernes s
 eager l
 eagerl y
 ea c
 eac h
 each o
 eacho t
 eachot he
 eachothe r
 d y
 dy in
 dyin g
 dy e
 d wa
 dwa r
 dwar f
 d u
 du t
 dut y
 dut i
 duti e
 dutie s
 du s
 dus t
 dust y
 dust p
 dustp an
 dust in
 dustin g
 dust ed
 dust b
 dustb in
 dus k
 du r
 dur in
 durin g
 du o
 du n
 dun k
 dun g
 dung e
 dunge o
 dungeo n
 dun e
 du m
 dum p
 dump s
 dumps t
 dumpst er
 dump in
 dumpin g
 dump ed
 dum b
 du l
 dul l
 dull n
 dulln e
 dullne s
 dullnes s
 dull er
 dull e
 dulle s
 dulles t
 du g
 du e
 due t
 due l
 du c
 duc t
 duc k
 duck y
 duck s
 duck l
 duckl in
 ducklin g
 duckling s
 duck i
 ducki e
 duckie s
 duck ed
 d re
 dre w
 dre s
 dres s
 dress in
 dressin g
 dress er
 dress ed
 dress e
 dresse s
 dre n
 dren c
 drenc he
 drenche d
 drenc h
 drench in
 drenchin g
 dre a
 drea r
 drear y
 drea m
 dream y
 dream t
 dream s
 dream l
 dreaml an
 dreamlan d
 dream in
 dreamin g
 dream er
 dream ed
 drea d
 dread ed
 d r
 dr y
 dry n
 dryn e
 dryne s
 drynes s
 dry in
 dryin g
 dry er
 dryer s
 dr u
 dru n
 drun k
 dru m
 drum s
 drums t
 drumst i
 drumsti c
 drumstic k
 drumstick s
 drum m
 drumm in
 drummin g
 drumm er
 drumm ed
 dr ou
 drou g
 droug h
 drough t
 dr o
 dro w
 drow n
 drown ed
 dro v
 drov e
 dro p
 drop s
 drop p
 dropp in
 droppin g
 dropp er
 dropp ed
 drop l
 dropl e
 drople t
 droplet s
 drop ed
 dro o
 droo p
 droop y
 droop in
 droopin g
 droop ed
 droo l
 drool in
 droolin g
 drool ed
 dro n
 dron e
 dr in
 drin k
 drink s
 dr i
 dri z
 driz z
 drizz l
 drizzl ed
 drizzl e
 dri v
 driv in
 drivin g
 driv er
 driver s
 driv e
 drive wa
 drivewa y
 drive s
 drive n
 dri p
 drip s
 drip p
 dripp y
 dripp in
 drippin g
 dripp ed
 drink in
 drinkin g
 dri l
 dril l
 drill s
 drill ed
 dri f
 drif t
 drift w
 driftw o
 driftwo o
 driftwoo d
 drift s
 drift in
 driftin g
 drift ed
 dri er
 dri ed
 dri e
 drie s
 dries t
 dri b
 drib b
 dribb l
 dribbl in
 dribblin g
 dribbl ed
 dribbl e
 dr an
 dran k
 dr a
 dra w
 draw s
 draw n
 draw in
 drawin g
 drawing s
 draw er
 drawer s
 draw b
 drawb r
 drawbr i
 drawbri d
 drawbrid g
 drawbridg e
 dra p
 drap ed
 dra m
 dram a
 dra in
 drain s
 drain ed
 dra g
 drag s
 drags t
 dragst er
 drag o
 drago n
 dragon s
 dragon f
 dragonf l
 dragonfl y
 dragonfl i
 dragonfli e
 dragonflie s
 drag g
 dragg in
 draggin g
 dragg ed
 d ou
 dou g
 doug h
 dough n
 doughn u
 doughnu t
 doughnut s
 dou b
 doub t
 doubt s
 doubt in
 doubtin g
 doubt f
 doubtf u
 doubtfu l
 doubt ed
 doub l
 doubl e
 d o
 do z
 doz in
 dozin g
 doz ed
 doz e
 doze n
 dozen s
 do w
 dow n
 down wa
 downwa r
 downwar d
 downward s
 down to
 downto w
 downtow n
 down s
 downs t
 downst re
 downstre a
 downstrea m
 downst a
 downsta i
 downstai r
 downstair s
 down l
 downl o
 downlo a
 downloa d
 down he
 downhe a
 downhea r
 downhear t
 downheart e
 downhearte d
 down h
 downh i
 downhi l
 downhil l
 do v
 dov e
 dove s
 do t
 dot t
 dott ed
 dot s
 do r
 dor m
 do o
 doo r
 door wa
 doorwa y
 door s
 doors t
 doorst e
 doorste p
 door m
 doorm an
 door k
 doork n
 doorkn o
 doorkno b
 door b
 doorb e
 doorbe l
 doorbel l
 doo m
 doom ed
 do n
 don u
 donu t
 donut s
 don k
 donk e
 donke y
 don g
 don e
 don a
 dona t
 donat in
 donatin g
 donat i
 donati o
 donatio n
 donat e
 do m
 dom e
 do l
 dol p
 dolp h
 dolph in
 dolphin s
 dol l
 doll y
 doll s
 doll h
 dollh ou
 dollhou s
 dollhous e
 doll a
 dolla r
 dollar s
 do in
 doin g
 do g
 dog s
 dog h
 dogh ou
 doghou s
 doghous e
 dog g
 dogg y
 dogg i
 doggi e
 doggie s
 do e
 doe s
 does n
 do d
 dod g
 dodg in
 dodgin g
 dodg ed
 dodg e
 dodge s
 do c
 doc u
 docu m
 docum e
 docume n
 documen t
 document s
 doc to
 docto r
 doctor s
 doc k
 dock s
 dock ed
 d it
 dit c
 ditc h
 d in
 din o
 dino s
 dinos a
 dinosa u
 dinosau r
 dinosaur s
 din n
 dinn er
 dinner t
 dinnert i
 dinnerti m
 dinnertim e
 dinner s
 din g
 ding h
 dingh i
 dinghi e
 dinghie s
 din er
 d i
 di z
 diz z
 dizz y
 dizzy in
 dizzyin g
 dizz in
 dizzin e
 dizzine s
 dizzines s
 dizz i
 dizzi er
 di v
 div o
 divo r
 divor c
 div in
 divin g
 div i
 divi d
 divid in
 dividin g
 divid ed
 divid e
 div er
 diver s
 divers i
 diversi t
 diversit y
 div ed
 div e
 dive s
 di s
 dis t
 dist u
 distu r
 distur b
 disturb s
 disturb in
 disturbin g
 disturb ed
 disturb an
 disturban c
 disturbanc e
 disturbance s
 dist re
 distre s
 distres s
 dist r
 distr i
 distri b
 distrib u
 distribu t
 distr a
 distra u
 distrau g
 distraug h
 distraugh t
 distra c
 distrac t
 distract in
 distractin g
 distract i
 distracti o
 distractio n
 distraction s
 distract ed
 dist an
 distan t
 distan c
 distanc e
 distance s
 dis s
 diss o
 disso l
 dissol v
 dis re
 disre s
 disres p
 disresp e
 disrespe c
 disrespec t
 disrespect f
 disrespectf u
 disrespectfu l
 disrespect ed
 disre p
 disrep a
 disrepa i
 disrepai r
 dis r
 disr u
 disru p
 disrup t
 disrupt i
 disrupti v
 disruptiv e
 disrupt ed
 dis p
 disp u
 dispu t
 disput e
 dispute s
 disp o
 dispo s
 dispos it
 disposit i
 dispositi o
 dispositio n
 disp l
 displ a
 displa y
 display s
 display in
 displayin g
 display ed
 dis o
 diso r
 disor g
 disorg an
 disorgan i
 disorgani z
 disorganiz e
 disorganize d
 diso b
 disob ed
 disobed i
 disobedi e
 disobedie n
 disobedien t
 disob e
 disobe y
 disobey in
 disobeyin g
 disobey ed
 dis m
 dism a
 disma y
 dismay ed
 dis l
 disl i
 disli k
 dislik ed
 dislik e
 dislike s
 dis k
 dis he
 dishe s
 dishe a
 dishea r
 dishear t
 disheart e
 dishearte n
 dishearten e
 disheartene d
 dis h
 dish wa
 dishwa s
 dishwas he
 dishwashe r
 dishwasher s
 dish o
 disho n
 dishon e
 dishone s
 dishones t
 dis g
 disg u
 disgu s
 disgus t
 disgust in
 disgustin g
 disgust ed
 disgu i
 disgui s
 disguis e
 dis e
 dise as
 diseas e
 dis c
 disc u
 discu s
 discus s
 discuss in
 discussin g
 discuss i
 discussi o
 discussio n
 discuss ed
 disc ou
 discou r
 discour a
 discoura g
 discourag ed
 discourag e
 discou n
 discoun t
 disc o
 disco v
 discov er
 discover y
 discover i
 discoveri n
 discoverin g
 discoveri e
 discoverie s
 discover ed
 disc i
 disci p
 discip l
 discipl in
 disciplin e
 disc a
 disca r
 discar d
 discard ed
 dis b
 disb e
 disbe l
 disbel i
 disbeli e
 disbelie f
 dis as
 disas t
 disast er
 dis a
 disa p
 disap p
 disapp r
 disappr o
 disappro v
 disapprov a
 disapprova l
 disapp o
 disappo in
 disappoin t
 disappoint m
 disappointm e
 disappointme n
 disappointmen t
 disappoint ed
 disappo i
 disappoint in
 disappointin g
 disapp e
 disappe a
 disappea r
 disappear s
 disappear in
 disappearin g
 disappear ed
 disappear an
 disappearan c
 disappearanc e
 disa g
 disag re
 disagre ed
 disagre e
 disagree s
 disagree m
 disagreem e
 disagreeme n
 disagreemen t
 disagreement s
 disagree in
 disagreein g
 di re
 dire c
 direc to
 directo r
 direc t
 direct l
 directl y
 direct i
 directi o
 directio n
 direction s
 direct ed
 di r
 dir t
 dirt y
 dirt i
 dirti er
 dirti e
 dirtie s
 dirties t
 di p
 dip s
 dip p
 dipp in
 dippin g
 dipp ed
 din in
 dinin g
 di m
 dim m
 dimm ed
 dim e
 dime s
 di l
 dil i
 dili g
 dilig e
 dilige n
 diligen t
 diligent l
 diligentl y
 dil e
 dile m
 dilem m
 dilemm a
 di g
 dig s
 dig it
 dig g
 digg in
 diggin g
 digg er
 digger s
 dig e
 dige s
 diges t
 di f
 dif f
 diff i
 diffi c
 diffic u
 difficu l
 difficul t
 difficult y
 difficult i
 difficulti e
 difficultie s
 diff er
 differ e
 differe n
 differen t
 different l
 differentl y
 differen c
 differenc e
 difference s
 di ed
 di e
 die t
 diet s
 die s
 di d
 did n
 di c
 dic t
 dict i
 dicti o
 dictio n
 diction a
 dictiona r
 dictionar y
 dictionar i
 dictionari e
 dictionarie s
 dic e
 di a
 dia r
 diar y
 diar i
 diari e
 diarie s
 dia p
 diap er
 diaper s
 dia m
 diam o
 diamo nd
 diamond s
 diamond f
 diamondf i
 diamondfi s
 diamondfis h
 dia l
 dial s
 dial o
 dialo g
 dialog u
 dialogu e
 dial ed
 dia g
 diag n
 diagn o
 diagno s
 d ed
 ded i
 dedi c
 dedic a
 dedica t
 dedicat i
 dedicati o
 dedicatio n
 d e
 de w
 dew d
 dewd r
 dewdr o
 dewdro p
 dew b
 dewb er
 dewber r
 dewberr y
 de v
 dev ou
 devou r
 devour ed
 dev i
 devi c
 devic e
 dev e
 deve l
 devel o
 develo p
 develop ed
 dev as
 devas t
 devast a
 devasta t
 devastat ed
 de to
 deto u
 detou r
 detour s
 de t
 det er
 deter r
 deterr ed
 deter m
 determ i
 determi n
 determin ed
 determined l
 determinedl y
 determin e
 determin a
 determina t
 determinat i
 determinati o
 determinatio n
 deter g
 deterg e
 deterge n
 detergen t
 det e
 dete c
 detec to
 detecto r
 detec t
 detect i
 detecti v
 detectiv e
 detective s
 det a
 deta i
 detai l
 detail s
 detail ed
 deta c
 detac he
 detache d
 detac h
 de s
 des t
 dest r
 destr u
 destru c
 destruc t
 destruct i
 destructi v
 destructiv e
 destructi o
 destructio n
 destr o
 destro y
 destroy s
 destroy in
 destroyin g
 destroy ed
 dest in
 destin ed
 destin a
 destina t
 destinat i
 destinati o
 destinatio n
 destination s
 des s
 dess er
 desser t
 dessert s
 des p
 desp it
 despit e
 desp er
 desper a
 despera t
 desperat i
 desperati o
 desperatio n
 desperat e
 desperate l
 desperatel y
 desp a
 despa i
 despai r
 des k
 desk s
 des i
 desi re
 desire s
 desi r
 desir ed
 desi g
 desig n
 design s
 design in
 designin g
 design er
 designer s
 design ed
 des er
 deser v
 deserv ed
 deserv e
 deserve s
 deser t
 desert s
 desert ed
 des c
 desc r
 descr i
 descri b
 describ in
 describin g
 describ ed
 describ e
 desc e
 desce nd
 descend e
 descende d
 de p
 dep th
 depth s
 dep re
 depre s
 depres s
 depress ed
 dep e
 depe nd
 depend s
 depend i
 dependi n
 dependin g
 depend e
 depende n
 dependen t
 depende d
 depend a
 dependa b
 dependab l
 dependabl y
 dependabl e
 dependab i
 dependabi l
 dependabil i
 dependabili t
 dependabilit y
 dep a
 depa r
 depar t
 depart u
 departu re
 depart m
 departm e
 departme n
 departmen t
 depart ed
 de n
 den y
 den t
 dent s
 dent i
 denti s
 dentis t
 dent ed
 den s
 dens e
 den i
 deni ed
 de m
 dem o
 demo n
 demon s
 demons t
 demonst r
 demonstr a
 demonstra t
 demonstrat ed
 dem an
 deman d
 demand s
 demand i
 demandi n
 demandin g
 demand e
 demande d
 de l
 del i
 deli v
 deliv er
 deliver y
 delivery m
 deliverym an
 deliver s
 deliver i
 deliveri n
 deliverin g
 deliveri e
 deliverie s
 deliver ed
 deliv e
 deliver er
 deli g
 delig h
 deligh t
 delight in
 delightin g
 delight f
 delightf u
 delightfu l
 delightful l
 delightfull y
 delight ed
 delighted l
 delightedl y
 deli c
 delic ou
 delicou s
 delic i
 delici ou
 deliciou s
 delicious n
 deliciousn e
 deliciousne s
 deliciousnes s
 delicious l
 deliciousl y
 delic a
 delica t
 delicat e
 delicate l
 delicatel y
 deli b
 delib er
 deliber a
 delibera t
 deliberat i
 deliberati o
 deliberatio n
 del a
 dela y
 delay s
 delay in
 delayin g
 delay ed
 de j
 dej e
 deje c
 dejec t
 deject ed
 de g
 deg re
 degre e
 degree s
 de f
 def l
 defl a
 defla t
 deflat ed
 deflat e
 deflate s
 def in
 defin i
 defini t
 definit i
 definiti o
 definitio n
 definit e
 definite l
 definitel y
 def e
 defe nd
 defend i
 defendi n
 defendin g
 defend e
 defende d
 defe n
 defen s
 defe a
 defea t
 defeat ed
 de er
 de ed
 deed s
 de e
 dee p
 deep l
 deepl y
 deep er
 deep e
 deepe s
 deepes t
 dedicat ed
 de c
 dec re
 decre a
 decrea s
 decreas e
 decrease s
 dec o
 deco r
 decor a
 decora t
 decorat in
 decoratin g
 decorat i
 decorati o
 decoratio n
 decoration s
 decorat ed
 decorat e
 decorate s
 dec l
 decl in
 declin ed
 decl a
 decla re
 decla r
 declar ed
 dec k
 dec i
 deci s
 decis i
 decisi o
 decisio n
 decision s
 deci m
 decim a
 decima l
 deci d
 decid in
 decidin g
 decid ed
 decid e
 decide s
 dec e
 dece i
 decei v
 deceiv in
 deceivin g
 deceiv ed
 de b
 deb t
 deb r
 debr i
 debri s
 deb a
 deba t
 debat e
 de a
 dea th
 dea r
 dear s
 dear l
 dearl y
 dear i
 deari e
 dea l
 deal t
 deal s
 deal in
 dealin g
 deal er
 dea f
 deaf n
 deafn e
 deafne s
 deafnes s
 deaf e
 deafe n
 deafen in
 deafenin g
 dea d
 dead l
 deadl y
 deadl in
 deadlin e
 d as
 das he
 dashe d
 das h
 dash in
 dashin g
 dash b
 dashb o
 dashbo a
 dashboa r
 dashboar d
 d an
 dan g
 dang l
 dangl i
 dangli n
 danglin g
 dangl e
 dang e
 dange r
 danger s
 danger o
 dangero u
 dangerou s
 dan d
 dand e
 dande l
 dandel i
 dandeli o
 dandelio n
 dandelion s
 dan c
 danc i
 danci n
 dancin g
 danc e
 dance s
 dance r
 dancer s
 dance f
 dancef l
 dancefl o
 danceflo o
 dancefloo r
 dance d
 d a
 da z
 daz z
 dazz l
 dazzl in
 dazzlin g
 dazzl ed
 dazzl e
 da y
 day t
 dayt i
 dayti m
 daytim e
 day s
 day l
 dayl i
 dayli g
 daylig h
 dayligh t
 day d
 dayd re
 daydre a
 daydrea m
 daydream in
 daydreamin g
 daydream ed
 day c
 dayc a
 dayca re
 day b
 dayb re
 daybre a
 daybrea k
 da w
 daw n
 dawn ed
 da u
 dau n
 daun t
 daunt in
 dauntin g
 dau g
 daug h
 daugh t
 daught er
 daughter s
 da t
 dat e
 date s
 da re
 dare s
 da r
 dar t
 dart s
 dart in
 dartin g
 dart ed
 dar l
 darl in
 darlin g
 darling s
 dar k
 dark n
 darkn e
 darkne s
 darknes s
 dark er
 dark e
 darke s
 darkes t
 darke n
 darken in
 darkenin g
 darken ed
 dar in
 darin g
 dar ed
 dared e
 darede v
 daredev i
 daredevi l
 da p
 dap p
 dapp er
 da m
 dam p
 dam a
 dama g
 damag ed
 damag e
 da i
 dai s
 dais y
 dais i
 daisi e
 daisie s
 dai l
 dail y
 da f
 daf f
 daff o
 daffo d
 daffod i
 daffodi l
 da d
 dad s
 dad d
 dadd y
 dadd i
 daddi e
 daddie s
 dad a
 da b
 dab b
 dabb in
 dabbin g
 c y
 cy m
 cym b
 cymb a
 cymba l
 cymbal s
 cy l
 cyl i
 cyli nd
 cy c
 cyc l
 cycl in
 cyclin g
 cycl ed
 cycl e
 c u
 cu t
 cut t
 cutt in
 cuttin g
 cutting s
 cutt er
 cutter s
 cut s
 cut l
 cutl er
 cutler y
 cut i
 cuti e
 cut er
 cut en
 cuten e
 cutene s
 cutenes s
 cut e
 cute s
 cutes t
 cu s
 cus to
 custo m
 custom s
 custom e
 custome r
 customer s
 cus h
 cush i
 cushi o
 cushio n
 cushion s
 cu re
 cu r
 cur v
 curv y
 curv ed
 curv e
 curve s
 cur t
 curt a
 curta in
 curtain s
 cur s
 curs ed
 curs e
 cur re
 curre n
 curren t
 cur r
 curr y
 curr an
 curran t
 cur l
 curl y
 curl s
 curl in
 curlin g
 curl ed
 cur i
 curi ou
 curiou s
 curious n
 curiousn e
 curiousne s
 curiousnes s
 curious l
 curiousl y
 curi o
 curio s
 curios it
 curiosit y
 cur ed
 cur d
 curd s
 cur b
 cu p
 cup s
 cup p
 cupp ed
 cup c
 cupc a
 cupca k
 cupcak e
 cupcake s
 cup b
 cupb o
 cupbo a
 cupboa r
 cupboar d
 cupboard s
 cu n
 cun n
 cunn in
 cunnin g
 cu m
 cum in
 cu l
 cul t
 cult u
 cultu re
 culture s
 cultu r
 cul p
 culp r
 culpr it
 cu f
 cuf f
 cu d
 cud d
 cudd l
 cuddl y
 cuddl in
 cuddlin g
 cuddl ed
 cuddl e
 cuddle s
 cu c
 cuc u
 cucu m
 cucum b
 cucumb er
 cucumber s
 cu b
 cub s
 cub e
 cube s
 cub b
 cubb y
 c re
 cre w
 cre v
 crev i
 crevi c
 crevic e
 crevice s
 cre s
 cres t
 crest s
 cre p
 crep t
 cre e
 cree p
 creep y
 creep in
 creepin g
 cree k
 creek s
 cre a
 crea to
 creato r
 creator s
 crea t
 creat in
 creatin g
 creat i
 creati v
 creativ i
 creativi t
 creativit y
 creativ e
 creative l
 creativel y
 creati o
 creatio n
 creation s
 creat ed
 creat e
 create s
 crea s
 creas ed
 creas e
 crea m
 cream y
 cream s
 crea k
 creak y
 creak s
 creak in
 creakin g
 creak ed
 c r
 cr y
 cry s
 crys t
 cryst a
 crysta l
 crystal s
 cry in
 cryin g
 cry b
 cryb a
 cryba b
 crybab y
 cr u
 cru s
 crus t
 crus he
 crushe d
 crus h
 crush in
 crushin g
 cru n
 crun c
 crunc he
 crunche s
 crunche d
 crunc h
 crunch y
 crunch in
 crunchin g
 cru m
 crum p
 crump l
 crumpl ed
 crumpl e
 crum b
 crumb s
 crumb l
 crumbl y
 crumbl in
 crumblin g
 crumbl ed
 crumbl e
 cru i
 crui s
 cruis in
 cruisin g
 cruis ed
 cruis e
 cru e
 crue l
 cruel l
 cruell y
 cr ou
 crou c
 crouc he
 crouche d
 crouc h
 crouch in
 crouchin g
 cr o
 cro w
 crow s
 crow n
 crown s
 crown ed
 crow in
 crowin g
 crow ed
 crow d
 crowd s
 crowd ed
 cro s
 cros s
 cross w
 crossw o
 crosswo r
 crosswor d
 cross r
 crossr o
 crossro a
 crossroa d
 crossroad s
 cross in
 crossin g
 cross ed
 cross e
 crosse s
 cross b
 crossb o
 crossbo n
 crossbon e
 crossbone s
 cro p
 crop s
 cro o
 croo k
 crook ed
 cro i
 croi s
 crois s
 croiss an
 croissan t
 cro c
 croc o
 croco d
 crocod i
 crocodi l
 crocodil e
 crocodile s
 cro a
 croa k
 croak y
 croak s
 croak in
 croakin g
 croak ed
 cr it
 crit t
 critt er
 critter s
 crit i
 criti c
 critic i
 critici z
 criticiz e
 cr in
 crin k
 crink l
 crinkl y
 crinkl ed
 crinkl e
 cr i
 cri s
 cris p
 crisp y
 crisp s
 cri m
 crim in
 crimin a
 crimina l
 crim e
 cri ed
 cri e
 crie s
 cri c
 cric k
 crick e
 cricke t
 cricket s
 cri b
 crib s
 cr ed
 cred i
 credi t
 creat u
 creatu re
 creature s
 cr as
 cras he
 crashe s
 crashe d
 cras h
 crash in
 crashin g
 cr an
 cran n
 crann y
 crann i
 cranni e
 crannie s
 cran k
 crank y
 cran e
 crane s
 cran b
 cranb e
 cranbe r
 cranber r
 cranberr y
 cr a
 cra z
 craz y
 craz i
 crazi er
 crazi e
 crazie s
 crazies t
 cra y
 cray o
 crayo n
 crayon s
 cra w
 craw l
 crawl s
 crawl in
 crawlin g
 crawl er
 crawl ed
 cra v
 crav in
 cravin g
 cra t
 crat er
 crater s
 crat e
 crate s
 cra m
 cram p
 cramp ed
 cra f
 craf t
 craft y
 craft s
 craft in
 craftin g
 craft ed
 cra d
 crad l
 cradl in
 cradlin g
 cradl ed
 cra c
 crac k
 crack s
 crack l
 crackl in
 cracklin g
 crackl ed
 crackl e
 crackle s
 crack in
 crackin g
 crack er
 cracker s
 crack ed
 cra b
 crab s
 crab a
 craba p
 crabap p
 crabapp l
 crabappl e
 crabapple s
 c ou
 cou s
 cous in
 cousin s
 cou r
 cour t
 court y
 courty a
 courtya r
 courtyar d
 court r
 courtr o
 courtro o
 courtroo m
 court i
 courti er
 courtier s
 cour s
 cours e
 cour a
 coura g
 courag e
 cou p
 coup o
 coupo n
 coup l
 coupl e
 cou n
 coun t
 count s
 count r
 countr y
 country s
 countrys i
 countrysi d
 countrysid e
 countr i
 countri e
 countrie s
 count l
 countl e
 countle s
 countles s
 count in
 countin g
 count er
 counter to
 counterto p
 counter s
 count ed
 coun s
 couns e
 counse l
 counsel l
 counsell o
 counsello r
 cou l
 coul d
 could n
 cou g
 coug he
 coughe d
 coug h
 cough s
 cough in
 coughin g
 cou d
 cou c
 couc he
 couche s
 couc h
 c o
 co z
 coz y
 coz i
 cozi er
 cozi ed
 cozi e
 cozie s
 cozies t
 co wa
 cowa r
 cowar d
 coward l
 cowardl y
 co w
 cow s
 cows he
 cowshe d
 cow g
 cowg i
 cowgi r
 cowgir l
 cowgirl s
 cow er
 cower ed
 cow b
 cowb o
 cowbo y
 cowboy s
 co v
 cov er
 cover s
 cover i
 coveri n
 coverin g
 cover ed
 cov e
 court e
 courte ou
 courteou s
 courage ou
 courageou s
 courageous l
 courageousl y
 co t
 cot to
 cotto n
 cotton y
 cotton b
 cottonb a
 cottonba l
 cottonbal l
 cottonball s
 cot t
 cott a
 cotta g
 cottag e
 co s
 cos y
 cos t
 cost u
 costu m
 costum e
 costume s
 cost s
 cost l
 costl y
 co re
 core s
 co r
 cor re
 corre c
 correc t
 correct l
 correctl y
 correct ed
 cor r
 corr i
 corri d
 corrid o
 corrido r
 cor o
 coro n
 coron a
 corona t
 coronat i
 coronati o
 coronatio n
 cor n
 corn s
 corn f
 cornf i
 cornfi e
 cornfie l
 cornfiel d
 corn er
 corner s
 corner ed
 cor k
 cor d
 cord s
 cor a
 cora l
 coral s
 co p
 cop y
 copy in
 copyin g
 cop s
 cop p
 copp er
 cop i
 copi l
 copil o
 copilo t
 copi ed
 copi e
 copie s
 cop e
 co o
 coo s
 coo p
 coop er
 cooper a
 coopera t
 cooperat i
 cooperati v
 cooperativ e
 cooperati o
 cooperatio n
 cooperati n
 cooperatin g
 cooperat ed
 cooperat e
 coo l
 cool s
 cool n
 cooln e
 coolne s
 coolnes s
 cool in
 coolin g
 cool er
 cooler s
 cool ed
 cool e
 coole s
 cooles t
 coo k
 cook to
 cookto p
 cook s
 cook ou
 cookou t
 cook in
 cookin g
 cook i
 cooki e
 cookie s
 cook er
 cook ed
 cook b
 cookb o
 cookbo o
 cookboo k
 coo in
 cooin g
 coo ed
 co nd
 cond u
 condu c
 conduc t
 conduct o
 conducto r
 cond i
 condi t
 condit i
 conditi o
 conditio n
 condition s
 condition e
 conditione r
 co n
 con v
 conv in
 convin c
 convinc ed
 convinc e
 conv i
 convinc in
 convincin g
 conv er
 conver s
 convers a
 conversa t
 conversat i
 conversati o
 conversatio n
 conversation s
 conv e
 conve y
 convey o
 conveyo r
 con t
 cont r
 contr o
 contro l
 control s
 control l
 controll er
 controll ed
 contr i
 contri b
 contrib u
 contribu t
 contribut i
 contributi o
 contributio n
 contribut e
 contr as
 contras t
 contr a
 contra p
 contrap t
 contrapt i
 contrapti o
 contraptio n
 contra c
 contrac t
 cont in
 contin u
 continu ed
 continu e
 continue s
 cont i
 continu in
 continuin g
 cont en
 conten t
 content s
 content ed
 contented l
 contentedl y
 cont e
 conte s
 contes t
 content m
 contentm en
 contentmen t
 cont a
 conta in
 contain s
 contain er
 container s
 contain ed
 conta g
 contag i
 contagi ou
 contagiou s
 conta c
 contac t
 con s
 cons u
 consu m
 consum ed
 cons t
 const r
 constr u
 constru c
 construc t
 construct i
 constructi o
 constructio n
 construct ed
 const an
 constan t
 constant l
 constantl y
 cons o
 conso l
 consol e
 cons i
 consi s
 consis t
 consist en
 consisten c
 consistenc y
 consi d
 consid er
 consider i
 consideri n
 considerin g
 consider ed
 consider a
 considera t
 considerat i
 considerati o
 consideratio n
 considerat e
 cons en
 consen t
 cons e
 conse q
 conseq u
 consequ en
 consequen c
 consequenc e
 consequence s
 cons c
 consc i
 consci en
 conscien c
 conscienc e
 con q
 conq u
 conqu er
 conquer i
 conqueri n
 conquerin g
 conquer ed
 con n
 conn e
 conne c
 connec t
 connect s
 connect in
 connectin g
 connect i
 connecti o
 connectio n
 connect ed
 con g
 cong r
 congr a
 congra t
 congrat u
 congratu l
 congratul a
 congratula t
 congratulat i
 congratulati o
 congratulatio n
 congratulation s
 congratulat ed
 congratulat e
 con f
[...]
