h e
  t
  a
  s
  w
 t he
n d
e d
  b
 a n
 t o
 an d
  h
i n
  f
  T
r e
 w a
o u
i t
  l
  d
e r
  c
  p
a y
  m
 wa s
o m
 T he
  he
i s
a r
 s a
  n
i m
o n
i d
l l
 h a
  S
l e
  g
a t
o r
e n
o t
m e
t e
a n
i l
n t
t h
r i
i r
l a
n g
k e
 h i
e t
a m
  H
 b i
 w i
 c a
  it
 t h
 The y
u t
o o
 d a
 H e
  in
 p l
r o
e a
  "
i e
 b e
 pl a
n e
 w e
o w
 s o
 sa i
 f o
  u
 l o
 sai d
  y
v er
a l
  o
 pla y
e s
 f r
 da y
p p
 wi t
 wit h
c k
v e
l d
 he r
s t
c e
 S he
 n o
e e
 d o
u n
 T i
 Ti m
  I
 hi s
 m o
 y ou
 s t
 m a
 bi g
 l i
ver y
e nd
in g
s e
he r
 b a
 b o
o k
 t r
 b u
 ha p
 hap p
  on
  L
 the y
d e
e l
 fr i
 fri e
 frie nd
 no t
 o f
 th a
  B
  e
 wa n
 ha d
 u p
 wan t
r a
g h
u l
it t
 t i
 fo r
' s
 h o
g e
  M
 a l
i c
  very
 sa w
u g
 s h
 tha t
O ne
 mo m
 happ y
il y
 n a
 g o
 l it
 lit t
 litt l
 littl e
l y
 s he
 n e
 d i
 na m
r t
. "
l o
  k
 w o
c h
 ti m
 tim e
 nam ed
 the r
 ther e
 bu t
 we r
 wer e
 T o
c a
 L il
 s m
  r
 li k
u r
 Lil y
 a r
 To m
 want e
 wante d
t he
 bi r
! "
 friend s
 to o
T he
u e
 bir d
 p a
p e
 he l
 f i
h i
 c o
u c
  is
 w h
u s
 f e
O n
y s
 I t
 f u
 l e
a s
 we n
 wen t
 lo o
On ce
 al l
v ed
 hel p
 loo k
 g i
 di d
 up on
  A
 f a
  j
 s e
 a s
 a t
 fu n
 so m
 som e
 th i
  re
e c
 p u
 to g
 tog e
 toge t
 toget he
 togethe r
 tr e
n y
 to y
a u
 c ou
 m e
  ou
 c l
 lo v
 the i
 thei r
o d
 st a
 l a
 hi m
 s u
 S u
 ba l
 ca t
 do g
 t a
 ha v
 b r
  ro
 ca n
? "
 ar e
 bal l
 play ed
 ou t
 cou l
 coul d
' t
 the m
 tre e
 gi r
 f l
 gir l
 fo u
 fe l
he n
 sa d
r r
u m
 Su e
 hav e
a x
 fou nd
i a
 s c
 se e
a d
 pa r
 p i
 sh o
 bo y
 look ed
m y
l i
g s
 lik e
 as k
 S a
 lov ed
 sm i
 smi l
 h u
 ma n
 fr o
w e
 ba c
 bac k
 s p
 M a
 B en
 ma k
 thi n
 smil e
o p
  ot
 Ma x
 ca r
 le a
t i
 ot he
 othe r
f t
 wo u
 fel t
 wou l
 woul d
 g r
 d e
 sta r
a c
Y ou
 be c
s h
 par k
 lik ed
b o
 j u
 sc a
 bec a
t o
 B ut
 st o
  One
 ask e
 aske d
 ne w
m a
 ca m
 sca r
 mak e
g a
 Sa m
d d
 star t
 sm a
n n
c t
 cam e
 wo r
 m u
i g
 he a
  W
 some t
 wa l
  J
 wh a
 s i
 sh a
 start e
 starte d
 th o
 sa y
 smile d
 thin g
 ma d
 tho u
 thou g
 thoug h
 pu t
 w he
 a g
 tr i
 a w
 g a
 sma l
 smal l
 wha t
 fro m
 wa t
 aw a
 go o
 goo d
 e x
 awa y
n s
o b
 though t
 b l
 g e
 mad e
 somet h
 someth i
 somethi n
 somethin g
n c
 bo x
 c r
 fi nd
 scar e
 p r
 wal k
 be a
  You
 ho m
 hom e
 scare d
e p
 m y
 play in
 playin g
 r an
 li v
 do w
 dow n
g g
 p o
 too k
 la u
  F
  ra
 k n
 wi l
 lau g
 ho u
 e very
 d r
l s
 ag a
 aga i
 agai n
 thing s
 you r
n a
 hou s
 hous e
 wil l
 re a
 pi c
q u
 lea r
 lear n
 toy s
 tri e
 sha r
m b
 s w
 p e
 a b
 s l
 ge t
 t e
 S p
 whe n
 ar o
 aro u
 arou n
 aroun d
, "
i f
 trie d
h a
  D
 liv ed
 say s
 L u
 Sp o
 Spo t
T h
 the n
 ab o
 c h
 kn ow
 p re
 lo t
 st r
 abo u
 abou t
 n i
 su n
 co m
 bo t
 hu g
f f
T im
 m i
 k ne
 M i
re a
 M om
 Lu c
 Luc y
o s
 wh o
 de c
ll y
e w
 Mi a
 o p
 st i
 u s
id e
  ea
 fl o
 su r
� �
T om
 in s
 op en
 co l
 shar e
 e at
 pre t
 cl o
i nd
  v
 ca re
 kne w
 dec i
 sh i
 go t
 sho w
 A nd
 S o
 al w
 alw a
 alwa y
 alway s
 deci d
 in t
 r ed
 beca m
 becam e
 laug he
 laughe d
 learn ed
 mo re
 B o
 Bo b
a p
 hea r
 bot h
 wi n
s he
 sto r
 fe e
 lo n
 an y
ar a
 da d
  E
 ro om
 decid ed
b e
 be s
 ju m
 jum p
 ex c
 bes t
 ro c
 out s
 outs i
 outsi d
 outsid e
 int o
 beca u
 becau s
 becaus e
l ed
 g re
 wat e
 wate r
 exc it
 man y
a g
b b
 fee l
 gr a
L ily
 ni c
 fo o
 ea c
 eac h
 sp e
nd e
 nic e
 tha n
 wh i
 br o
Y es
 ins i
 on e
 to l
 tol d
 lon g
 fa s
ar d
 pic k
The y
 t u
 thi s
 ho w
 roc k
 ta k
 excit ed
 insi d
 insid e
 c u
 happ e
 happe n
 s k
  or
 a m
 so r
  ke
 r un
 le t
 fas t
 o l
 ol d
 ta l
e ll
 bea r
 do n
 sur p
 surp r
 surpr i
 surpri s
v en
 ga v
 gav e
 surpris e
 pret t
 mu c
 muc h
 tak e
 do l
 k i
 prett y
 an i
 ani m
 anim a
 anima l
 sho u
 H is
 br a
 flo w
B ut
 fi s
 flow e
 flowe r
 foo d
C an
 ha nd
 did n
 li s
 lis t
 shi n
 sor r
 sorr y
c o
 be t
 list e
 liste n
  en
 care f
 caref u
 carefu l
 walk e
 walke d
i ce
 fi r
 bet t
 bett e
 bette r
 th r
 ne ar
 to w
 bu g
 dol l
 j o
 ju st
 spe c
 spec i
 speci a
 specia l
 tr y
W h
m m
 sw i
e y
 sto p
 t w
i v
 A n
 An n
 hu r
 wor k
 fl e
in e
 ki nd
 than k
 ho l
M om
u re
 s n
 tu r
an k
 bo o
 wat c
 Ann a
 happen ed
 m ou
l u
 animal s
 ca l
 sa f
 e v
 ev en
 lot s
 lov e
 u n
ide a
  idea
 sl i
u i
 fis h
 b y
 saf e
 gr ou
 hur t
 y e
Th an
Than k
 da n
 me a
 gi v
r om
 ha r
 F r
 T h
 g ar
 tr u
 The n
 boo k
 k id
 d re
 a f
 tr a
 ch a
 sk y
 bl u
L et
b y
 blu e
 com e
 l ou
 lou d
 u nd
 und e
 unde r
 hear d
  if
 W e
 clo s
 hug g
 cl e
 giv e
 ma g
 br i
  end
 hugg ed
 open ed
  qu
  ri
 ga m
 gam e
 win d
 c he
 ne v
 nev er
 pick ed
 fle w
 gar d
 gard e
 garde n
x t
 shin y
 so u
 any m
 anym o
 anymo r
 anymor e
 S ar
 Sar a
 g l
 cl i
 s q
 sq u
 ba d
 hi g
 it s
 mo v
 tur n
 cal l
h in
k ay
 do o
 doo r
 fl y
 grou nd
 sli d
 te a
 co o
 dr a
 tal k
 e ver
 pr ou
 prou d
 wi s
 kid s
 str o
e m
 wa r
f o
 cle a
 col o
 colo r
 af t
 aft e
 afte r
 mag i
 magi c
 surprise d
N o
 but t
 cli m
 clim b
A s
 fa r
 happ i
 of f
 sti c
 stic k
' m
 W hen
 har d
 stro n
 stron g
 no is
f l
 Fr om
 a p
 for e
 lo s
 u nt
y e
 E very
 sti l
 stil l
i ll
 o ver
 w r
 H er
 an g
 ang r
 unt il
in a
 a d
 angr y
  ow
 u ne
 une x
 unex p
 unexp e
 unexpe c
 unexpec t
 unexpect ed
  im
 J a
 rea d
 swi n
 swin g
r ed
 bo a
 fa m
 wa y
he s
 clea n
 ne x
 nex t
 pe o
 peo p
 peop l
 peopl e
 slid e
 bra v
 brav e
 show e
 hig h
 thank e
 thanke d
 dan c
 jump ed
 I n
 pla n
 sta y
 help e
 ne ed
 shou l
 shoul d
 ap p
 ex p
 so f
I t
 fam i
 fami l
 happi l
 happil y
 lea v
 no d
 y u
 wa i
  K
 fro g
 showe d
 A m
 famil y
B en
 al s
 als o
 mo n
 boa t
 fel l
 mo r
 stor y
 to u
 yu m
 be e
 fa c
 gre a
 grea t
 helpe d
 hi d
 re s
 b ed
 d u
 st u
 thin k
 bl o
 c re
 call ed
 nois e
 wai t
 yum m
 Am y
 fac e
 flower s
 los t
 cl a
 yumm y
 L et
 rea l
 we a
oo k
 be i
 bei n
 bein g
 leav e
 re m
 sof t
itt y
z e
 mu s
 no w
 thr e
 D o
 f in
 me t
 cr y
 every o
 everyo n
 everyon e
 sa t
 bea u
 beau t
 qu i
 cr a
 ho p
 pr o
 tw o
 wo n
  C
 br e
 bre a
 hol e
 pi e
 tre a
e f
k i
 butt e
 butte r
 ha t
 im p
 ma r
 pu l
 pul l
 stop p
w l
� �
� �
 beaut i
 beauti f
 beautif u
 beautifu l
 co n
 fore s
 o k
 other s
 pla c
 tra i
 fores t
 stopp e
 stoppe d
L ook
 bi t
 bro k
 brok e
 whi l
  P
 whil e
N ow
 mea n
 plac e
 trai n
 F l
 at e
 bu n
 cre a
 tou c
z z
 Fl u
 Flu f
 Fluf f
 Fluff y
 ok ay
 pic t
 pict u
 pictu re
 us ed
 wor r
Th at
i p
 bun n
 cu r
 rea c
 ti r
 tir e
 us e
W hen
 W h
 go in
 goin g
 gre e
 p er
 so o
 war m
in k
 gree n
 ke e
 kee p
 laug h
 hand s
 ra in
 soo n
 sp i
 ca k
 cak e
 cr i
 k it
 pu s
Wh at
 e y
 nod d
 se a
 di s
 nodd ed
 tru c
 truc k
 app l
 coo k
 fir e
 par t
 si t
The n
g o
  “
 bunn y
o y
 fir s
 firs t
 mov e
 K itt
 Kitt y
 col d
 du c
 duc k
 fa v
 fav o
 la d
 p in
 watc h
 could n
 ha s
 si n
 look in
 lookin g
ay b
e re
 J o
 ha i
 hai r
 ke p
 kep t
 mou s
 mous e
 r u
 B u
 appl e
 Th a
 cat c
 tow n
A t
 Ja ck
H i
  Can
 be f
 bef o
 befo r
 befor e
 bird s
 cur i
 squ i
S ara
 bri g
 brig h
 brigh t
 mor a
 mora l
 M r
 Sa ll
 Sall y
 share d
 so n
 squi r
 squir r
 squirr e
 squirre l
a nd
 ey es
 favo r
 favor i
 favori t
 favorit e
 fun n
 funn y
 hea d
h n
om e
 catc h
 for g
 g u
 kit c
 kitc he
 kitche n
 ri g
 rig h
 righ t
 sa n
 ye ll
an e
 cla p
 curi ou
 curiou s
 dre s
 dres s
z y
 ad v
 be l
 butter f
 butterf l
 di f
 dif f
 far m
 sp o
 y ar
W e
  Now
 shou t
 sin g
 pl e
 sl e
 st e
 ta s
 ple a
 rem em
 remem b
 rememb e
 remembe r
 sou n
 soun d
 watc he
 whe r
 wher e
on e
 car r
 l u
 mom m
 part y
 plea s
 re p
 tire d
 be g
 ch i
 hav i
 havi n
 havin g
 mi s
 pe a
 pie c
 piec e
 work e
j o
 adv e
 adve n
 adven t
 advent u
 adventu r
 leave s
 momm y
S o
  ice
 butterfl y
 stor e
 walk i
 walki n
 walkin g
 res t
 trea t
 worke d
M ax
  z
 ou r
 son g
 to p
 watche d
Wh y
i z
 ro ll
H e
 blo c
 bloc k
 cri ed
 exp l
 her e
 tas t
 thr o
W ow
 beg a
 bega n
 gl a
 hu n
 sun n
 tal l
 v o
  G
 D a
 J an
 Jan e
 Th i
 Thi s
 ba r
 sn a
 sunn y
 tow e
g u
 bu i
 bui l
 clo t
 da r
 g on
 pleas e
 tw i
A nn
ou r
  R
 ag r
 agr e
 agre e
 gon e
 mak in
 makin g
 wea r
 whi s
 feel in
 feelin g
 gra s
 gras s
 sle e
 slee p
 touc h
 wa v
 bl a
 che e
 do e
 doe s
 en j
 enj o
 enjo y
 hun g
A ft
Aft er
Ann a
H ell
Hell o
 an t
 de e
 fu l
 ful l
 ra ce
 si g
 turn e
 turne d
 vo i
 voi ce
 wis he
S ue
 B e
 bu s
 fo l
 li g
 lig h
 ligh t
 me s
 wo o
 dra w
 fi x
 mes s
 pr in
 sl o
 slo w
ll a
p s
 danc e
 pi l
 sw e
 ti g
 worr y
D on
 be h
 diff e
 diffe re
 differe n
 hol d
 tree s
 wa g
n o
 a c
 fr u
 ra b
 rab b
 rabb it
 scar y
 ba g
 clap p
 clos er
 cook i
 cooki e
 dar k
 gra b
 imp o
 lad y
 qui ck
 rep l
 woo d
S am
 Su d
 Sud d
 Sudd e
 Sudde n
 Sudden l
 Suddenl y
 color s
 impo r
 impor t
 import a
 importa n
 li o
 lio n
 po nd
 te l
 wav e
 adventur e
 agree d
 car s
 differen t
 gi f
 gif t
 ni g
 nig h
 nigh t
 tel l
 yar d
is a
� �
 cu t
 gr o
 importan t
 pa in
 read y
 towe r
d o
h y
 A s
 hea v
 hel d
 hung r
 listen ed
 m in
 try i
 tryi n
 tryin g
 wishe d
S he
  O
 fi g
 gla d
 hungr y
 run n
 shout e
 shoute d
 yell o
 yello w
 Tha t
 big g
 bigg e
 buil d
 de l
 pa t
 runn in
 runnin g
 swe e
 wor d
 heav y
 ow l
 see s
 swee t
 ta i
 tai l
 D ad
 fin i
 fini s
 fol l
 foll o
 follo w
 sw a
 we t
 am a
 ama z
 help i
 helpi n
 helpin g
 wal l
c u
is y
 ba b
 broke n
 clapp ed
 com in
 comin g
 le s
 les s
 ne e
 need ed
 pret e
 prete nd
 quick l
 quickl y
 stu c
 stuc k
 ta b
 tab l
 tabl e
J o
u st
 A ll
 beh i
 behi nd
 clos e
 Bob o
 Bu d
 Bud d
 Budd y
 di r
 dir t
 gro w
 like s
 mi g
 mig h
 migh t
 ow n
 pull ed
u dd
 al o
 alo n
 climb ed
 crea m
 mou t
 mout h
 nam e
 pus he
 we l
 F in
 dr o
 expl o
 fru i
 frui t
 ho t
 mu m
 mus t
 plan t
 repl i
 repli ed
 si s
 sis t
 sist e
 siste r
 wh y
 ye ar
 block s
 dr i
 dre a
 drea m
 explo re
 no s
 on l
 po l
 won d
 wond e
 wonde r
 In s
 bab y
 brea k
 fast e
 let t
 mo t
 onl y
 reac he
 sk i
S udd
Sudd en
Sudden l
Suddenl y
 flo o
 jo b
 Da is
 Dais y
 fig h
 figh t
 ge n
 li f
 somet i
 someti m
 sometim e
 thre e
f i
 Every o
 Everyo n
 Everyon e
 M ar
 an o
 ano t
 anot he
 anothe r
 cr o
 ma t
 pushe d
 san d
 sma r
 smar t
 sometime s
 whis t
 whist l
 win g
M ia
o g
 B i
 Tim m
 Timm y
 ca u
 floo r
 friend l
 friendl y
 see n
 str i
 tig h
 tigh t
 wr o
 A f
 Af t
 Aft er
 don e
 fa l
 fal l
 hi l
 hil l
 mom e
 mome n
 momen t
 not i
 noti c
 wind o
 windo w
 bigge r
 bro t
 brot he
 brothe r
 cookie s
 fi e
 ho r
 la nd
 look s
 pro m
 prom i
 promi s
 reache d
 sp a
 sp l
 wood s
 bo w
 ch o
 del i
 grab b
 hea l
 less o
 lesso n
 per f
 sc r
 str a
 be n
 cha i
 chai r
 chee r
 com p
 la t
 lat e
 le f
 lef t
 pa p
 pain t
 pap er
 prin c
 princ e
 pu p
 re l
 turn s
 fa i
 fai r
 r ou
 some o
 someo n
 someon e
" .
L uc
Luc y
 L is
 a i
 bar k
 coo l
 mon s
 mons t
 monst er
 pup p
 sa v
 stay e
 staye d
 str e
 swi m
 want s
Jo hn
 ball o
 ballo o
 balloo n
 bl e
 book s
 clot he
 clothe s
 color f
 colorf u
 colorfu l
 grabb ed
 min e
 squ a
m ma
 Lis a
 ai r
 faste r
 mi x
 na p
 picture s
 su c
 sur e
 tea c
 think s
 wr i
I n
 ba t
 bee n
 con t
 d in
 him s
 hims e
 himse l
 himsel f
 jo in
 lett e
 lette r
 pin k
 r id
 remember ed
 sig n
O kay
Th is
 Mom m
 Momm y
 The r
 Ther e
 Wh at
 bu y
 enjoy ed
 fl a
 pea c
 se t
 under s
 unders t
 Ins id
 Insid e
 c e
 car t
 di a
 dri v
 fi l
 game s
 hop p
 swa m
 tast e
 thro u
 throu g
 throug h
 whistl e
 So on
 any t
 ble w
 dirt y
 every w
 everyw he
 everywhe r
 everywher e
 fo x
 gl o
 make s
 mis s
 reac h
 spl a
 spla s
 v i
 wor l
 word s
 worl d
el se
le a
  else
 E m
 bi k
 bik e
 bla c
 blac k
 chi l
 dan g
 dang e
 dange r
 dee p
 do in
 doin g
 dr in
 drin k
 hid e
 le g
 nos e
 notic ed
 pa s
 real i
 sav e
 spo t
 underst a
 understa nd
 wait e
 wis e
H er
 bo u
 bow l
 bra n
 bran c
 crea t
 danc ed
 do c
 doc t
 doct o
 docto r
 dr y
 eat in
 eatin g
 gen t
 good b
 goodb y
 goodby e
 per s
 pu r
 re c
 thre w
 ti n
 tr o
' re
H is
 anyt h
 anyth i
 anythi n
 anythin g
 fu r
 ho n
 mus i
 musi c
 si l
 ti e
 with o
 witho u
 withou t
D o
O h
 ben c
 bot t
 e m
 hi t
 pi g
 piece s
 pu d
 pud d
 pudd l
 puddl e
 sho o
 sn o
 sno w
 ste p
 tin y
 waite d
hi le
 S om
 Som e
 alon e
 amaz i
 amazi n
 amazin g
 benc h
 dro p
 e g
 eg g
 get t
 gett in
 gettin g
 pupp y
 rid e
 scr e
 sp r
 wri t
ll i
 cha s
 mon k
 ra d
 reali z
 sm e
 sme l
 whi t
 whit e
 Bi ll
 bro u
 brou g
 broug h
 brough t
 co w
 cu p
 danger ou
 dangerou s
 dra g
 lif t
 mot he
 mothe r
 pr a
 pus h
 sc h
 sch o
 scho o
 schoo l
 tri p
. ”
 Jo e
 ca s
 chil d
 fr e
 monk e
 monke y
 ne s
 nes t
 pe t
 po w
 smel l
 stor m
 v is
 vis it
 wro n
 wron g
ck y
itt e
oo d
 cha n
 co a
 de s
 driv e
 fa t
 fie l
 fiel d
 finis he
 finishe d
 fly in
 flyin g
 gra nd
 hon e
 j e
 la k
 lak e
 lu c
 luc k
 mi l
 realiz ed
 wag g
 wing s
 Jo h
 Joh n
 ba s
 din n
 dinn e
 dinne r
 doll s
 fair y
 farm e
 farme r
 ho o
 lea f
 n u
 po t
 pow er
 qui et
 roll ed
 se l
 si d
 sid e
 sou r
B ob
S p
nd y
 J im
 bat h
 coa t
 deli c
 e ar
 fa n
 hopp ed
 ju i
 jui ce
 sha p
 shap e
 she l
 stri n
 strin g
 to d
 tod a
 toda y
! ”
 Bill y
 Em ma
 Mom o
 drag o
 drago n
 ho s
 pil e
 sea t
 sna c
 snac k
J a
M ayb
Mayb e
Sp ot
  ve
 ar m
 bo r
 careful l
 carefull y
 cont in
 contin u
 grand m
 grandm a
 j a
 perf e
 perfe c
 perfec t
 po p
 rec o
 ri v
 riv er
 shar i
 shari n
 sharin g
 sm o
 so c
 so l
 swing s
 talk e
 talke d
 tro u
 trou b
 troub l
 troubl e
 twi n
 wave d
G ood
J ust
 an s
 ans w
 answ e
 answe r
 apple s
 butt o
 butto n
 forg o
 forgo t
 ke y
 la s
 luck y
 rou nd
 sh r
 sn e
 un i
es t
 A t
 M ay
 bro w
 brow n
 cl ou
 clou d
 en ou
 enou g
 enoug h
 her s
 k itt
 mar c
 or a
 ora n
 oran g
 orang e
 se c
 sou p
 spi c
 spic y
 tri c
 tric k
 wi d
 wid e
 writ e
 year s
W hile
 Sara h
 bit e
 carr o
 carro t
 cas t
 cast l
 castl e
 cou r
 cry in
 cryin g
 dia m
 diam o
 diamo nd
 hug s
 pa re
 pare n
 paren t
 prince s
 ro a
 roa d
 rock s
 slow l
 slowl y
 wagg e
 wagge d
 wo k
 wok e
 wor e
 z oo
 branc h
 clos ed
 feel s
 follow ed
 hear t
 hug e
 pa n
 pat i
 pati e
 patie n
 princes s
 sho e
 sil l
 smile s
 soc k
 squa s
 squas h
 wel l
F rom
Mom m
Momm y
 May b
 Mayb e
 bas k
 bask e
 baske t
 bea c
 beac h
 bu b
 bub b
 bubb l
 fil l
 kitt e
 kitte n
 m ay
 mo s
 mu d
 pe n
 pers o
 perso n
 pol i
 sill y
 sit t
 sitt i
 sitti n
 sittin g
 sna k
 snak e
 stra n
 stran g
 strang e
 twin s
 we i
 worr i
 worri e
 worrie d
O K
is h
it e
u ck
 Fr ed
 Mar k
 ba nd
 c i
 cheer e
 cheere d
 ci r
 cir c
 cl u
 continu ed
 k ing
 lo c
 loc k
 mor n
 morn in
 mornin g
 patien t
 plan e
 ru b
 san g
 sec r
 secr e
 secre t
 shape s
 shin i
 su d
 sud d
 sudd e
 sudde n
 tast y
 thro w
 treat s
 wor m
lea s
leas e
 J en
 bubbl e
 cour s
 cours e
 cra b
 fore v
 forev e
 foreve r
 fre e
 hers e
 herse l
 hersel f
 kne e
 ma i
 mai l
 mea s
 meas u
 na u
 nau g
 naug h
 naugh t
 naught y
 po in
 poin t
 pur p
 purp l
 purpl e
 sa m
 sam e
 shini n
 shinin g
 stick e
 sticke r
 ta p
A my
P lease
ar r
i pp
 ask s
 bark ed
 chan g
 de a
 do v
 dov e
 drop p
 fis he
 ha n
 han g
 mar k
 mat c
 mil k
 mon e
 mone y
 or d
 po o
 real l
 reall y
 M o
 ar r
 bel i
 beli e
 belie v
 cau g
 caug h
 caugh t
 cou n
 coun t
 dis a
 hold i
 holdi n
 holdin g
 jo g
 ki ck
 liv in
 livin g
 pla t
 plat e
 promis ed
 sha k
 shoo k
 ste a
 stre e
 stree t
 touc he
 touche d
at er
  ig
 H o
 J i
 Ji ll
 bri n
 brin g
 ca nd
 ca v
 cav e
 co v
 con e
 cov er
 duck s
 fishe r
 hid i
 hidi n
 hidin g
 mi c
 mos t
 parent s
 peac e
 reco r
 recor d
 rel i
 sai l
 sha d
 shr i
 spi n
 splas h
 sta n
 stan d
 trea s
 treas u
 treasu r
 treasur e
' ll
it h
ra nd
 D u
 Du ck
 R o
 bott l
 bottl e
 cart o
 carto o
 cartoo n
 cra y
 cray o
 crayo n
 dee r
 fe a
 fisher m
 fisherm a
 fisherma n
 hop ed
 j ar
 la z
 lu n
 mic r
 micr o
 mov ed
 pas s
 pe e
 put s
 scar f
 sor t
 twi s
 twis t
 ye s
 E ll
 Tha n
 Than k
 believ e
 brea d
 creat i
 dropp ed
 e le
 fi t
 ga t
 j ou
 jou r
 jour n
 laugh in
 laughin g
 laz y
 lun c
 lunc h
 pa c
 pre s
 ru de
 sa l
 sne e
 snee z
 su i
 suc c
 succ e
 sui t
 teac h
 u g
 ug l
 ugl y
 up s
 wr a
 wra p
H ey
ay a
er y
o lly
  -
 Be ll
 Bell a
 Tom m
 Tomm y
 ball s
 bel o
 ca g
 cag e
 carr y
 che s
 chi c
 chic k
 clot h
 col l
 every t
 fe n
 fen c
 fenc e
 heal t
 healt h
 ins t
 jo ke
 lad d
 ladd e
 ladde r
 liv e
 my s
 o b
 pa w
 pac k
 scre a
 screa m
 sing i
 singi n
 singin g
 song s
 sto n
 ston e
O f
b a
is s
 T ed
 ac c
 as h
 ba k
 bou n
 boun c
 bus y
 con f
 draw in
 drawin g
 ea s
 everyt h
 everyth in
 everythin g
 fill ed
 gra p
 grap e
 hone y
 hor n
 hor s
 hors e
 in c
 inst e
 inste a
 instea d
 le m
 leg s
 lem o
 lemo n
 mou n
 moun t
 mount a
 mounta in
 pro b
 prob l
 probl e
 proble m
 see m
 she e
 sho r
 si c
 sic k
 sneez e
 te d
 ted d
 tedd y
 we e
 wel c
 welc o
 welco m
ee p
w o
 Dad d
 Dadd y
 J u
 Lil a
 bla n
 blan k
 bu c
 buc k
 can n
 cann o
 canno t
 ce l
 circ l
 cut e
 is l
 isl a
 isla nd
 love l
 pan t
 pant s
 po c
 poc k
 pock e
 pocke t
 sh y
 shi r
 shir t
 sho p
 te n
 to m
 too t
 toot h
 tru s
 trus t
 un c
 v a
 welcom e
L ater
  i
 B l
 C ar
 Duck y
 Ju st
 P i
 Pi pp
 be r
 ber r
 bir t
 birt h
 birth d
 birthd a
 birthda y
 bra c
 brac e
 brace l
 bracel e
 bracele t
 brea t
 child re
 childre n
 circl e
 clu m
 clum s
 come s
 forg i
 forgi v
 grou p
 hig he
 kn o
 l in
 lovel y
 marc h
 may b
 mayb e
 pee k
 pi a
 pia n
 pian o
 ri c
 sound s
 sudden l
 suddenl y
 v al
 val u
 wis h
 wonder f
 wonderf u
 wonderfu l
 you n
 youn g
? ”
Ja ck
gg y
her e
ic y
w el
  es
 And y
 Be ar
 Ben n
 Benn y
 Bl u
 Blu e
 G ra
 Gra nd
 ab l
 abl e
 arr i
 arri v
 arriv e
 blank e
 blanke t
 bu r
 cand y
 clums y
 co r
 dec o
 deco r
 decor a
 decora t
 dol p
 dolp h
 dolph in
 dre w
 en t
 face s
 fe w
 finis h
 foo t
 gent le
 gr ay
 gre w
 help f
 helpf u
 helpfu l
 las t
 lon e
 lone l
 me l
 measu re
 mu l
 mul e
 mys t
 myst er
 p ou
 pea n
 pean u
 peanu t
 poli c
 polic e
 rub b
 stick s
 tow a
 towa r
 towar d
 ups et
 vi ll
 vill a
 villa g
 wa f
 waf f
 waff l
 waffl e
 wag o
 wago n
 wha l
 whal e
 y o
 yo g
 your s
F ina
Fina l
Final l
Finall y
im i
un a
 Ja ke
 Mo ll
 Moll y
 O ll
 Oll i
 Olli e
 back y
 backy a
 backya r
 backyar d
 bo n
 bon e
 cat er
 cater p
 caterp i
 caterpi l
 caterpil l
 caterpill a
 caterpilla r
 cro w
 disa p
 disap p
 even t
 fro n
 fron t
 gl u
 im a
 ima g
 li c
 lonel y
 magic a
 magica l
 noise s
 on t
 ont o
 pra c
 prac t
 pract i
 practi c
 promis e
 sa u
 shee p
 spa r
 spar k
 sta i
 stor i
 stori e
 storie s
 take s
 tu n
 villag e
 wan d
 wea k
S t
 C at
 Do gg
 Dogg y
 Jen n
 Jenn y
 Wh is
 Whis k
 Whisk er
 Whisker s
 af r
 afr a
 afra i
 afrai d
 app e
 appe a
 appea r
 belo n
 belon g
 cam er
 camer a
 carr i
 chang e
 chick e
 chicke n
 clo w
 clow n
 co s
 em p
 emp t
 forg e
 forge t
 forgiv e
 glu e
 health y
 kno ck
 la y
 late r
 mi nd
 mu g
 ne c
 peace f
 peacef u
 peacefu l
 pu z
 puz z
 puzz l
 run s
 shar p
 stai r
 ta u
 talk i
 talki n
 talkin g
 te e
 tee t
 teet h
 toward s
 wei r
 weir d
N e
s a
  Z
 D on
 Fin a
 Fina l
 Final l
 Finall y
 T in
 T w
 book c
 bookc a
 bookca s
 bookcas e
 carri ed
 chas ed
 com f
 day s
 de t
 empt y
 fin a
 fina l
 final l
 finall y
 gr u
 in te
 inte re
 intere s
 interes t
 interest in
 interestin g
 je w
 jew el
 jump ing
 kn i
 mar b
 marb l
 marbl e
 mat t
 me e
 mee t
 mis t
 nec k
 p h
 ph o
 pr i
 puzzl e
 rad is
 sel f
 self i
 selfi s
 selfis h
 shak e
 su p
 tau g
 taug h
 taugh t
 ten t
 vi o
 vio l
 viol in
 J er
 Jer r
 Jerr y
 L un
 Lun a
 Some t
 To g
 Tog e
 Toge t
 Toget he
 Togethe r
 Wh y
 ac r
 acr o
 arrive d
 at t
 ch u
 hos e
 land e
 lande d
 m it
 mess y
 mit t
 mitt e
 mitte n
 ne i
 nei g
 neig h
 neigh b
 neighb o
 neighbo r
 nois y
 pa i
 ro b
 ro d
 roc ke
 rocke t
 sc o
 sea r
 sear c
 shri m
 shrim p
 so a
 step p
 stepp e
 steppe d
 suc h
 tak i
 taki n
 takin g
 teac he
 th u
 trick s
 wee k
B e
So on
l oo
  On
 Grand m
 Grandm a
 Mar y
 Somet i
 Someti m
 Sometim e
 Sometime s
 a v
 amaz e
 any o
 anyo n
 anyon e
 breat h
 carrot s
 cho c
 choc o
 choco l
 chocol a
 chocola t
 chocolat e
 comf o
 comfo r
 comfor t
 conf u
 confu s
 cos t
 crayon s
 delic a
 delica t
 delicat e
 exp la
 expla in
 fight in
 fightin g
 gent l
 gentl y
 gift ed
 give s
 go e
 goe s
 gu e
 gue s
 ha y
 hair c
 hairc u
 haircu t
 highe r
 hoo k
 hop e
 ju ng
 jung le
 ma s
 nu t
 ord in
 ordin a
 ordina r
 ordinar y
 own er
 pou r
 prin t
 sa c
 sac k
 see d
 shoe s
 smil i
 smili n
 smilin g
 smo k
 sol v
 spe a
 spe n
 tea s
 whis p
 whisp e
 whispe r
 who l
 whol e
 wil d
 H a
 Ma g
 Sam m
 Samm y
 acro s
 acros s
 ba n
 buck e
 bucke t
 clean ed
 co in
 coll e
 colle c
 collec t
 confus ed
 creat u
 creatu re
 da u
 dau g
 daug h
 daugh t
 daught e
 daughte r
 det e
 dete r
 deter m
 determ in
 ex am
 fan c
 fanc y
 ga s
 gat he
 gathe r
 gi g
 gig g
 gru m
 har m
 imag in
 j ee
 jee p
 la m
 lin e
 not e
 pe b
 peb b
 pebb l
 pebbl e
 rad i
 radi o
 rob ot
 scream e
 screame d
 shi v
 shiv e
 shive r
 ski r
 skir t
 smok e
 stea k
 sticker s
 sun s
 sw o
 tea m
 thi c
 thic k
 to r
 z o
 zo om
Ne xt
Tom m
Tomm y
ar k
co a
 Bu z
 Buz z
 Pipp in
 amaze d
 an c
 bak e
 bel l
 blo w
 che w
 cou c
 couc h
 determin ed
 dis t
 drive r
 ele p
 elep h
 eleph a
 elepha n
 elephan t
 es c
 esc a
 esca p
 expl or
 fri g
 frig h
 frigh t
 fright e
 frighte n
 frighten ed
 in v
 inc r
 j un
 journ e
 journe y
 jun k
 long e
 matc h
 miss ed
 mist a
 mista k
 mistak e
 ne t
 pig e
 pige o
 pigeo n
 pin e
 play g
 playg r
 playgr ou
 playgrou nd
 qu es
 qu it
 ques t
 quest i
 questi on
 re t
 ret u
 retu r
 retur n
 ro p
 rop e
 save d
 see k
 seem e
 seeme d
 shi p
 sli p
 solv e
 sup p
 yar n
C ome
L isa
am a
 C h
 Ho w
 R e
 appear e
 appeare d
 bar n
 bubble s
 build i
 buildi n
 buildin g
 cel er
 celer y
 co coa
 comp e
 compe t
 creati v
 dra in
 dra n
 dran k
 foo l
 fruit s
 glo w
 gra t
 grat e
 grate f
 gratef u
 gratefu l
 grum p
 grump y
 ig n
 jo y
 k is
 kis s
 la w
 los e
 mi r
 mir r
 mirr o
 mirro r
 myster i
 mysteri ou
 mysteriou s
 pa y
 pat h
 pick s
 plant s
 pretend e
 pretende d
 pro t
 prot e
 prote c
 protec t
 rem i
 remi nd
 shad o
 shado w
 ski p
 slip p
 teache r
 un u
 unc om
 uncom f
 uncomf o
 uncomfo r
 uncomfor t
 uncomfort a
 uncomforta b
 uncomfortab l
 uncomfortabl e
 unu s
 unus u
 unusu a
 unusua l
 was n
 y a
 yell ed
a re
 Da ve
 E v
 Ev en
 L i
 Ro se
 alon g
 ant s
 as l
 asl e
 asle e
 aslee p
 bee t
 beet l
 beetl e
 bi n
 bo s
 bos s
 cal m
 car d
 cau l
 caul i
 cauli f
 caulif l
 caulifl o
 cauliflo w
 cauliflow er
 chee s
 chees e
 cle v
 clev er
 compet it
 cost u
 costu m
 costum e
 delic i
 delici ou
 deliciou s
 dis c
 em b
 emb ar
 embar r
 embarr a
 embarra s
 embarras s
 fe ed
 fea t
 feat he
 feathe r
 fool i
 fooli s
 foolis h
 for t
 go a
 go l
 gra c
 grac e
 grace f
 gracef u
 gues s
 hel i
 heli c
 helic o
 helico p
 helicop t
 helicopt e
 helicopte r
 hid d
 hidd e
 hidde n
 k ay
 kay a
 kaya k
 li m
 pil o
 pilo t
 radis h
 rel a
 rela x
 ro ar
 se n
 sleep y
 sto o
 succe s
 succes s
 tap e
 taste d
 tea r
 tur t
 turt l
 turtl e
 uni q
 uniq u
 uniqu e
 yog u
 yogu r
 yogur t
H el
Hel p
K itty
St op
et a
ie l
or r
 P o
 Tw e
 Twe e
 Twee t
 ad d
 answer e
 answere d
 competit i
 dro v
 drov e
 ea g
 ear s
 en g
 eng in
 engin e
 je ll
 jell y
 mar r
 matt er
 mea l
 micro p
 microp h
 microph o
 micropho n
 microphon e
 mix ed
 mo d
 near b
 nearb y
 pa nd
 pand a
 pas t
 pil l
 pill o
 pillo w
 pu m
 pum p
 pump k
 pumpk in
 ra ke
 rubb er
 sau c
 sauc e
 ski n
 slipp e
 sn i
 spa g
 spag he
 spaghe t
 spaghet t
 spaghett i
 splas he
 spr a
 stoo d
 stu b
 stub b
 stubb o
 stubbo r
 stubbor n
 swo r
 swor d
 tig e
 tige r
 to a
 tra c
 trac k
 war d
 ward r
 wardr o
 wardro b
 wardrob e
 was h
 watch i
 watchi n
 watchin g
 wear i
 weari n
 wearin g
 wi p
 wonder e
 wondere d
 z ip
o e
  3
 C om
 Com e
 Lu l
 Lul u
 M im
 Mim i
 O K
 Ted d
 Tedd y
 ad o
 arm s
 bec o
 beco m
 bou g
 boug h
 bough t
 bu l
 cho o
 clo c
 cloc k
 cra z
 craz y
 creativ e
 cro s
 cros s
 crow n
 des i
 diff i
 diffi c
 diffic u
 difficu l
 difficul t
 disc o
 disco v
 discov e
 discove r
 egg s
 escap e
 fire p
 firep l
 firepl a
 firepla c
 fireplac e
 fle x
 flex i
 flexi b
 flexib l
 flexibl e
 gu n
 hoo p
 lam p
 lea k
 lic k
 lim e
 man a
 mana g
 mas k
 mov i
 movi e
 no r
 nod s
 nor m
 norm a
 norma l
 poo l
 power f
 powerf u
 powerfu l
 rain b
 rainb o
 rainbo w
 sel l
 smo o
 smoo t
 smoot h
 spr e
 spra y
 spre a
 sprea d
 star s
 swim m
 te r
 ter r
 terr i
 train s
 trie s
 tru e
 ve g
 veg et
 veget a
 vegeta b
 vegetab le
 whisper e
 whispere d
 wip e
A re
M um
ar t
b r
he a
  icy
 Car l
 Ell a
 Ja z
 Jaz z
 Jim m
 Jimm y
 M y
 ado r
 ador a
 adora b
 adorab l
 adorabl e
 adventure s
 bal d
 bath r
 bathr o
 bea k
 becom e
 bri c
 bric k
 bug s
 call in
 callin g
 chas e
 cheer f
 cheerf u
 cheerfu l
 cool er
 desi g
 desig n
 en v
 end i
 endi n
 endin g
 fee t
 fl u
 fur r
 furr y
 glo v
 glov e
 gracefu l
 harm l
 harml e
 harmle s
 harmles s
 hos p
 hosp i
 hospi t
 hospit a
 hospita l
 imp r
 imp re
 impr o
 impre s
 impres s
 impro v
 ja c
 jac ke
 jacke t
 letter s
 lif e
 longe r
 loo p
 loud l
 loudl y
 love s
 m ed
 ma c
 mac h
 mach in
 machin e
 one s
 or g
 org a
 orga n
 organ i
 organi z
 pi s
 pis t
 pist o
 pisto l
 pres s
 r h
 r ing
 ra z
 raz or
 reli a
 relia b
 reliab l
 reliabl e
 ric h
 rou g
 roug h
 ru s
 seed s
 spark l
 splashe d
 spo o
 squ e
 squa r
 squar e
 stra w
 straw b
 strawb e
 strawbe r
 strawber r
 swa n
 te m
 tem p
 temp l
 templ e
 tor n
 underst o
 understo o
 understoo d
 vegetable s
 wait i
 waiti n
 waitin g
 would n
J im
i ve
or s
pp y
 Bob b
 Bobb y
 K ay
 M an
 Man y
 T u
 adventur o
 adventuro u
 adventurou s
 bott o
 botto m
 car p
 carp e
 che c
 chec k
 choo s
 choos e
 cla s
 clas s
 co p
 comfort a
 comforta b
 comfortab l
 comfortabl e
 comp l
 creat e
 disapp e
 disappe a
 disappea r
 dist a
 dista n
 dr u
 dru m
 en c
 event u
 eventu a
 eventua ll
 eventuall y
 exp en
 expen s
 expens i
 expensi v
 expensiv e
 explor in
 explorin g
 fin g
 fing e
 finge r
 fla s
 ge m
 gi a
 gia n
 gian t
 ha l
 hear s
 ins e
 inse c
 insec t
 jewel r
 jewelr y
 kni f
 knif e
 knock ed
 le o
 leo p
 leop a
 leopa r
 leopar d
 lo y
 loy a
 loya l
 mean t
 mel t
 n er
 na i
 na t
 nai l
 ner v
 nerv ou
 nervou s
 nut s
 o c
 ob ed
 obed i
 obedi e
 obedie n
 obedien t
 paw s
 pol it
 polit e
 poo r
 pop c
 popc o
 popco r
 popcor n
 pra y
 question s
 res p
 sco o
 shor e
 sig he
 sighe d
 smell y
 sol d
 spoo n
 terri b
 terrib l
 tom a
 toma t
 tomat o
 tou g
 toug h
 v in
 vin e
 whi c
 whic h
 wro t
 wrot e
D a
E very
M e
M y
S ure
 Mr s
 P e
 W it
 Wit h
 a e
 ac t
 acc e
 acce p
 accep t
 ae r
 aer o
 aero p
 aerop l
 aeropl a
 aeropla n
 aeroplan e
 berr i
 berri e
 berrie s
 bri d
 bri l
 bril l
 brill i
 brilli a
 brillia n
 brillian t
 bus h
 carpe t
 che a
 ches s
 cla y
 clea r
 competiti v
 competitiv e
 cri e
 crie s
 cro c
 croc o
 croco d
 crocod i
 crocodi l
 crocodil e
 danc in
 dancin g
 enc ou
 fie r
 fier c
 fierc e
 find i
 findi n
 findin g
 fix ed
 flas h
 gar a
 gara g
 garag e
 ha m
 inv i
 invi t
 j am
 jog g
 lo g
 mot o
 moto r
 mov in
 movin g
 o v
 or i
 ori g
 orig in
 origin a
 origina l
 ov en
 pin c
 point ed
 re v
 reli e
 relie v
 reliev ed
 rest l
 restl e
 restle s
 restles s
 rev e
 se r
 shar k
 shel f
 shel l
 shin e
 sho c
 shoc k
 spo i
 spoi l
 str u
 stu f
 stuf f
 success f
 successf u
 successfu l
 te s
 tes t
 thre a
 to e
 too l
 work i
 worki n
 workin g
A nd
D ad
H ere
I ns
Ins id
Insid e
S a
Sa lly
es s
oo f
orr y
 B un
 Bun n
 Bunn y
 P le
 Ple a
 Plea s
 Pleas e
 S m
 Sm it
 Smit h
 The i
 Thei r
 al m
 all o
 allo w
 alm o
 almo s
 almos t
 ash a
 asha m
 asham e
 ashame d
 balloon s
 bi c
 bic y
 bicy c
 bicyc l
 bicycl e
 bo d
 bod y
 bor r
 borr o
 borro w
 bul l
 care l
 carel e
 carele s
 careles s
 cartoon s
 cha l
 ches t
 cloud s
 com b
 cover ed
 cra w
 craw l
 da i
 dad d
 dadd y
 dai s
 dog s
 eag er
 en or
 enor m
 enorm ou
 enormou s
 fish in
 fishin g
 ham m
 hamm e
 hamme r
 hang e
 hange r
 hone s
 hones t
 hu m
 hurt s
 ju d
 jud ge
 know in
 knowin g
 la r
 lar g
 larg e
 mis er
 miser a
 misera b
 miserab l
 miserabl e
 mod e
 nap k
 napk in
 nos y
 on i
 oni on
 place s
 po i
 po k
 pop p
 re f
 re w
 resp e
 respe c
 respec t
 rew a
 rewa r
 rewar d
 sal t
 small e
 sni f
 snif f
 spea k
 spi r
 strawberr y
 suns h
 sunsh i
 sunshi n
 sunshin e
 swimm i
 swimmi n
 swimmin g
 terribl e
 thu n
 thun d
 thund e
 thunde r
 ti c
 tic k
 toa s
 toas t
 use f
 usef u
 usefu l
 va ll
 vall e
 valle y
 valu e
M olly
S orry
T og
Tog et
Toget he
Togethe r
f or
h r
he l
i lly
os ie
te a
 Ell i
 Elli e
 I f
 Po lly
 S h
 S t
 Sp ar
 Spar k
 T V
 Tin y
 av o
 bal a
 bala n
 balan c
 blo o
 bor i
 bori n
 borin g
 boy s
 br u
 chea p
 cor n
 corn er
 cra c
 crac k
 cu s
 cus h
 cush i
 cushi o
 cushio n
 dea d
 del a
 dela y
 di z
 dia r
 diar y
 diz z
 dizz y
 du l
 dul l
 encou r
 encour a
 encoura g
 fin e
 fire w
 firew o
 firewo r
 firewor k
 flo a
 floa t
 fr a
 fra g
 frag i
 fragi l
 fragil e
 gla s
 glas s
 gol d
 gu it
 guit a
 guita r
 hat s
 hou r
 ign or
 improv e
 jo ll
 joll y
 loud e
 loude r
 mag a
 maga z
 magaz in
 magazin e
 mom s
 new s
 oc e
 oce an
 ot t
 ott er
 pho n
 phon e
 pi p
 pic n
 picn i
 picni c
 pip e
 play er
 po e
 poe m
 practic ed
 pres e
 prese n
 presen t
 res i
 resi s
 resis t
 sal a
 sala d
 sand w
 sandw i
 sandwi c
 sl a
 snow m
 snowm a
 snowma n
 spir i
 spiri t
 sque e
 squee z
 stand i
 standi n
 standin g
 strong e
 stronge r
 threa d
 tu m
 un l
 un p
 unp a
 unpa c
 unpac k
 va se
 was t
 wave s
 wi f
 wif e
 yours e
 yourse l
B o
Bo bo
E mma
W ell
W here
fi g
fig h
figh t
fight e
fighte r
il a
ou l
q ue
que en
  queen
 F o
 Fo x
 G o
 H or
 Hor s
 L o
 M am
 Mag g
 Magg ie
 Mam a
 S k
 acc i
 acci d
 accid e
 accide n
 acciden t
 anc i
 anci e
 ancie n
 ancien t
 any w
 avo c
 avoc a
 avoca d
 avocad o
 ban a
 bana na
 band a
 banda g
 bandag e
 bi l
 bigge s
 bigges t
 bil l
 brid g
 bridg e
 buil t
 co z
 col ou
 colou r
 comp u
 compu t
 comput er
 coz y
 cre e
 cree k
 dais y
 de p
 decid e
 decorat e
 dis h
 drum s
 embarrass ed
 ent h
 enth u
 enthu s
 enthus i
 enthusi a
 enthusia s
 explain ed
 fire fighter
 fle a
 gen er
 gigg l
 glo om
 gu i
 gui l
 guil t
 guilt y
 help s
 hur r
 ja z
 jaz z
 know s
 las e
 lase r
 lick ed
 lo a
 loa d
 matc he
 mi d
 micro s
 micros c
 microsc o
 microsco p
 microscop e
 mid d
 midd l
 middl e
 not h
 noth in
 nothin g
 nu m
 num b
 numb er
 pa l
 pack ed
 paint ed
 peac h
 peek ed
 pers i
 persi s
 persis t
 persist e
 persiste n
 persisten t
 ra c
 rh in
 rhin o
 rhino c
 rhinoc e
 rhinoce r
 rhinocer o
 rhinocero s
 ro s
 ros e
 scoo t
 scoot e
 scoote r
 searc h
 set t
 shock e
 shocke d
 shoo t
 shor t
 so i
 soi l
 sta g
 sta m
 stag e
 stam p
 sto v
 stone s
 stov e
 stu m
 take n
 tall e
 tra s
 tras h
 tru t
 trut h
 tu b
 tum m
 tumm y
 tun a
 wand e
 wande r
 wo m
 wom a
 woma n
 wrap p
L ila
op le
  No
  U
 A re
 Ins te
 Inste a
 Instea d
 R os
 Ros ie
 Z ip
 ad m
 adm i
 admi r
 al e
 ale r
 aler t
 ask i
 aski n
 askin g
 bed r
 bedr o
 bedro o
 bedroo m
 bel t
 berr y
 bill b
 billb o
 billbo a
 billboa r
 billboar d
 black b
 blackb o
 blackbo a
 blackboa r
 blackboar d
 bor ed
 boss y
 bounc e
 branc he
 branche s
 brother s
 bru s
 bu m
 bum p
 bur n
 cha in
 cha r
 char m
 charm in
 charmin g
 chu b
 chub b
 chubb y
 circle s
 dance r
 des t
 dis p
 disp l
 displ a
 displa y
 distan t
 eas y
 enthusias t
 enthusiast i
 enthusiasti c
 excit in
 excitin g
 ey e
 for w
 fort h
 forw a
 forwa r
 forwar d
 fru s
 frus t
 frust r
 frustr a
 frustra t
 frustrat ed
 gener ou
 generou s
 gloom y
 grape s
 happen i
 happeni n
 happenin g
 har s
 hars h
 help l
 helpl e
 helple s
 helples s
 hour s
 hum b
 humb l
 humbl e
 ig l
 igl oo
 impress i
 impressi v
 impressiv e
 kick ed
 kit e
 law y
 lawy e
 lawye r
 lo l
 lock ed
 lol l
 loll i
 lolli p
 lollip o
 lollipo p
 mail b
 mailb o
 mailbo x
 manag ed
 mark e
 marke t
 marr i
 mea t
 nat u
 natu re
 need l
 needl e
 nice l
 nicel y
 o at
 peanut s
 pi r
 pir a
 pira t
 pirat e
 res c
 resc u
 return ed
 roll in
 rollin g
 ru in
 sca t
 scat t
 scatt e
 scatte r
 shad e
 si z
 sig h
 siz e
 skip p
 sleep i
 sleepi n
 sleepin g
 smalle r
 sold i
 soldi e
 soldie r
 soldier s
 sound e
 sounde d
 spa c
 spac e
 spen t
 squeez e
 stu p
 stum b
 stumb l
 stumbl e
 stup i
 stupi d
 su g
 sur f
 tear s
 teas e
 ti d
 tom o
 tomo r
 tomor r
 tomorr o
 tomorro w
 torn a
 torna d
 tornad o
 tri a
 tria n
 trian g
 triang l
 triangl e
 tun n
 tunn e
 tunne l
 unl o
 unlo c
 unloc k
 v ide
 valu a
 valua b
 valuab le
 vide o
 war n
 wast e
 whe a
 whea t
 wrapp e
 y ie
 yie l
 yiel d
 yoursel f
J ane
Wh o
a id
a it
c rea
crea m
en a
ir p
u se
 B es
 Bes s
 Bess ie
 Ha ir
 Hair y
 Ho ot
 L a
 S n
 You r
 balanc e
 bathro o
 bathroo m
 blue b
 blueb e
 bluebe r
 blueber r
 boa r
 boar d
 bus he
 bushe s
 ce re
 cere a
 cerea l
 dep e
 depe nd
 depend a
 dependa b
 dependab l
 dependabl e
 di g
 e ld
 eld er
 elder l
 elderl y
 ent er
 fla g
 fo g
 fou n
 foun t
 fount a
 founta in
 fri d
 frid g
 fridg e
 fro w
 frow n
 gas p
 giggl ed
 giv in
 givin g
 goa l
 gr i
 gu ar
 gu m
 guar d
 laugh s
 le nd
 light s
 marc he
 marche d
 mea d
 mead o
 meado w
 miss i
 number s
 ord er
 paint in
 paintin g
 pe p
 pep p
 pepp er
 perf o
 perfo r
 perfor m
 pol e
 practic e
 pro v
 pu n
 ra v
 rav en
 remind e
 show s
 sla p
 sle p
 slep t
 soa p
 spot t
 spott e
 spotte d
 stri p
 succe e
 succee d
 supp l
 ta x
 tax i
 them s
 thems e
 themse l
 themsel v
 themselv e
 themselve s
 thi e
 thie f
 tie d
 towe l
 trouble d
 tru m
 tru n
 trum p
 trump e
 trumpe t
 trun k
 tur k
 turk e
 turke y
 u m
 um b
 umb re
 umbre l
 umbrel l
 umbrell a
 v an
 ve h
 veh i
 vehi c
 vehic le
 walk s
 wea l
 weal t
 wealt h
 wealth y
 wei g
 weig h
G o
I s
M ar
O u
Ou ch
c c
ig i
ll o
n ow
um p
  '
 Ch ir
 Chir p
 Chirp y
 L it
 Lit t
 Litt l
 Littl e
 Pe op
 Peop le
 Tin a
 Tu n
 Tun a
 a he
 ahe a
 ahea d
 ar g
 arg u
 bird c
 birdc a
 birdca g
 birdcag e
 blo u
 bloo m
 blou s
 blous e
 ca p
 cor d
 crawl ed
 creati o
 creatio n
 cry s
 crys t
 cryst a
 crysta l
 cup s
 des k
 dest r
 destr o
 destro y
 din o
 dino s
 dinos a
 dinosa u
 dinosau r
 dis g
 disg u
 draw e
 drawe r
 exp e
 expe c
 expec t
 fas h
 fash i
 fashi o
 fashio n
 fea r
 fig u
 figu r
 fol d
 friends h
 friendsh i
 friendshi p
 gasp ed
 get s
 gir a
 gira f
 giraf f
 giraff e
 happen s
 happi n
 happin e
 happine s
 happines s
 hard e
 harde r
 hel l
 hell o
 imagin e
 imp a
 impa t
 impat i
 impati e
 impatie n
 impatien t
 in d
 incr e
 incr ed
 incre a
 increa s
 incred i
 incredi b
 incredib l
 incredibl e
 ind e
 inde p
 indep e
 indepe nd
 independ e
 independe n
 independen t
 it c
 itc h
 lea d
 learn in
 learnin g
 lift ed
 lot i
 loti o
 lotio n
 lu g
 lug g
 lugg a
 lugga g
 luggag e
 meet in
 meetin g
 mel o
 melo n
 might y
 mix er
 mus h
 mush r
 mushr o
 mushro o
 mushroo m
 off er
 orange s
 pass ed
 press ed
 prov i
 provi d
 pun i
 puni s
 ra g
 reve r
 rever s
 ric e
 ro w
 rus he
 rushe d
 scre w
 searc he
 searche d
 shel t
 shelt e
 shelte r
 skipp e
 skippe d
 slide s
 slippe d
 sn u
 sof a
 some w
 somew he
 somewhe r
 somewher e
 spen d
 spi d
 spid e
 spide r
 splash i
 splashi n
 splashin g
 spoil e
 spr i
 spri n
 step s
 suppl y
 tell s
 tower s
 tra p
 twist y
 wa k
 wak e
 wall s
 whe e
 whee l
 when e
 whene v
 whenev e
 wheneve r
 wrappe d
 ya c
 yac h
 yach t
H ow
J ill
R e
W ill
ay s
o ld
ro g
ro om
u p
  Next
 Bi g
 G l
 Gl oo
 Gloo p
 L en
 Len a
 Lo la
 Re my
 W ou
 Wh a
 Wha le
 Wou l
 Woul d
 beh a
 beha v
 ben t
 bit t
 bitt e
 bitte r
 bl i
 bli n
 blin k
 brus h
 chan c
 chanc e
 che r
 cher r
 close t
 count in
 countin g
 cr u
 cra s
 d ou
 dea f
 deli g
 delig h
 deligh t
 di v
 disapp o
 disappear ed
 disappo in
 disappoin t
 discover ed
 disgu s
 disgus t
 disgust in
 disgustin g
 does n
 dou g
 doug h
 encourag e
 end e
 ende d
 env i
 ex er
 ex t
 exer c
 exerc i
 exerci s
 ext r
 extr a
 fa k
 fak e
 fall in
 fallin g
 faste s
 fastes t
 feather s
 finger s
 fla m
 fla p
 flam e
 flash l
 flashl i
 flashli g
 flashlig h
 flashligh t
 flo u
 flou r
 free z
 hal f
 happi e
 hi p
 hip p
 hipp o
 hope s
 hopp i
 hoppi n
 hoppin g
 hurr y
 j ea
 ja il
 jea l
 jeal ou
 jealou s
 jogg ing
 journ a
 journa l
 ju ic
 kind n
 kindn e
 kindne s
 kindnes s
 kn ot
 leav in
 leavin g
 listen in
 listenin g
 march in
 marchin g
 matche s
 me o
 meo w
 met a
 meta l
 min u
 minu t
 minut e
 mo o
 mum m
 mumm y
 nail s
 neck l
 neckl a
 neckla c
 necklac e
 notic e
 o a
 organiz ed
 pen g
 peng u
 pengu in
 pick in
 pickin g
 poli s
 popp ed
 puddle s
 qu ar
 quar re
 quarre l
 reminde d
 rep a
 repa i
 repai r
 rescu e
 ri b
 rib b
 ribb on
 rod e
 ruin ed
 sad l
 sadl y
 sc i
 sci s
 scis s
 sciss o
 scisso r
 scissor s
 sen t
 ser v
 serv e
 sett l
 shiver i
 shiveri n
 shiverin g
 show i
 showi n
 showin g
 sister s
 snack s
 sneeze d
 sniff e
 sniffe d
 spi l
 spil l
 sti r
 stre a
 stre t
 strea m
 stret c
 su b
 sub w
 subw a
 subwa y
 supp o
 sw u
 swu n
 swun g
 thi r
 trip p
 tripp e
 trippe d
 un k
 unk n
 unkn ow
 unknow n
 whistl i
 whistli n
 whistlin g
 wipe d
 wo l
 wol f
 ya w
 yaw n
' d
Da ve
G ive
Jo e
Mar y
S ee
Tim m
Timm y
W ait
Y ay
ar l
ba l
bal l
en t
re e
 E ld
 Eld er
 Elder l
 Elderl y
 Em ily
 Every w
 Everyw he
 Everywhe r
 Everywher e
 F ro
 Fred d
 Fredd y
 La s
 Las er
 Ro ck
 To b
 Tob y
 W hi
 W i
 Whi le
 Wi ll
 add e
 adde d
 admir e
 anyw he
 anywhe r
 anywher e
 att i
 av a
 ava i
 avai l
 avail a
 availa b
 availab l
 availabl e
 ban g
 bark i
 barki n
 barkin g
 basket ball
 bath t
 batht u
 bathtu b
 be nd
 bright e
 bro c
 broc c
 brocc o
 brocco l
 broccol i
 chal k
 cho s
 chos e
 colour f
 colourf u
 colourfu l
 compl e
 comple t
 creation s
 disappoint ed
 dream ed
 dream s
 du s
 dus t
 exercis e
 flu t
 fou r
 fre s
 fres h
 g h
 gat e
 gather e
 gathere d
 gh o
 gho s
 ghos t
 gigg le
 gri ll
 happie r
 he d
 hed g
 hedg e
 her o
 hu t
 j et
 juic y
 kiss ed
 lea s
 lo w
 mean s
 med i
 medi c
 medic i
 medici n
 medicin e
 mess a
 messa g
 messag e
 min t
 mine r
 miner a
 minera l
 missi l
 missil e
 mo l
 mode s
 modes t
 mol e
 note b
 noteb o
 notebo o
 noteboo k
 of t
 oft en
 old er
 on c
 onc e
 pal e
 pea r
 pinc he
 pinche d
 pl u
 pok e
 pour ed
 pre p
 prep a
 prepa re
 pri z
 priz e
 pur s
 purs e
 ra il
 rac ed
 re e
 re g
 read in
 readin g
 ree f
 ref r
 refr i
 refri g
 refrig e
 refrige r
 refriger a
 refrigera t
 refrigerat o
 refrigerato r
 reg u
 regu l
 regul a
 regula r
 rem a
 rema in
 repl a
 repla c
 rest o
 resto re
 revers e
 s y
 sand b
 sandb o
 sandbo x
 sandwic h
 scr a
 sen d
 settl e
 sha m
 sham p
 shamp o
 shampo o
 should e
 shoulde r
 shri n
 shrin k
 sigh t
 smell e
 smelle d
 sne a
 snea k
 spe e
 spee d
 spin n
 spinn i
 spinni n
 spinnin g
 spoile d
 sta d
 stad i
 stadi u
 stadiu m
 start s
 stop s
 stumble d
 sweet i
 sweeti e
 talle r
 thank s
 the s
 thes e
 think i
 thinki n
 thinkin g
 thir s
 thirs t
 thirst y
 tid y
 to n
 un it
 uni f
 unif or
 unifor m
 wall e
 walle t
 way s
 win e
?" .
A ll
B illy
F lu
Flu ff
Fluff y
I f
Sam m
Samm y
The i
Thei r
at c
ch oo
e or
ye ar
 A b
 B ow
 Car t
 Cart er
 Do ct
 Doct or
 Fro g
 G ig
 Gig i
 He re
 Hors y
 Kay a
 Kay l
 Kaya k
 Kayl a
 M is
 M u
 Mag n
 Magn et
 Mi c
 Mu m
 Tim o
 Timo t
 Timot h
 Timoth y
 abo v
 abov e
 al r
 anc h
 anch o
 ancho r
 ar t
 att r
 atti c
 attr a
 attra c
 attrac t
 attract i
 bag s
 bake r
 bike s
 books he
 bookshe l
 bookshel f
 bra i
 brai n
 bur y
 button s
 ca b
 clapp in
 clappin g
 cli f
 clif f
 coll a
 colla r
 comp a
 cont e
 cook in
 cookin g
 dea r
 di c
 dic t
 dict i
 dicti o
 dictio n
 diction a
 dictiona r
 dictionar y
 driv in
 drivin g
 ear t
 eart h
 eas il
 easil y
 ele v
 elev a
 eleva t
 elevat o
 elevato r
 envi ou
 enviou s
 exam in
 fam o
 famo u
 famou s
 favo u
 favou r
 favour i
 favouri t
 favourit e
 feeling s
 figur e
 fil m
 flu f
 fluf f
 fluff y
 flut e
 fou g
 foug h
 fough t
 freez e
 glow in
 glowin g
 goa t
 hair y
 hand l
 handl e
 hang i
 hangi n
 hangin g
 ignor a
 ignora n
 ignoran t
 invit ed
 its e
 itse l
 itsel f
 jelly f
 jellyf is
 jellyfis h
 join ed
 jump s
 kind l
 kind s
 kindl y
 king d
 kingd o
 kingdo m
 l y
 la b
 lett in
 lettin g
 li b
 li z
 lib r
 libr a
 libra r
 lic e
 lice n
 licen s
 licens e
 light n
 lightn in
 lightnin g
 live s
 liz a
 liza r
 lizar d
 ly in
 lyin g
 ma p
 marri a
 marria g
 marriag e
 measu r
 med a
 meda l
 mistake s
 motor c
 motorc y
 motorcy c
 motorcyc l
 motorcycl e
 mu f
 muf f
 muff in
 must a
 musta c
 mustac he
 need s
 no b
 nob o
 nobo d
 nobod y
 our s
 p it
 pa d
 pebble s
 plane t
 play f
 playf u
 playfu l
 po r
 po s
 polis h
 pre v
 prev e
 preve n
 preven t
 pri c
 pull s
 punis h
 safe l
 safel y
 sh u
 shak i
 shaki n
 shakin g
 sho v
 shov e
 shu t
 sk u
 sku l
 skul l
 slippe r
 slipper y
 sparkl y
 spea r
 spl i
 spli t
 star e
 stick y
 su f
 suf f
 suff e
 suffe r
 tho s
 thos e
 tick e
 ticke t
 ton g
 tong u
 tongu e
 tra f
 traf f
 traff i
 traffi c
 tro p
 trop h
 troph y
 trust e
 truste d
 tu g
 twi g
 unc le
 ve nd
 vend o
 vendo r
 warn e
 warne d
 whistle d
 wi r
 wir e
 wishe s
 writ i
 writi n
 writin g
 y et
B ye
H a
Ja me
Jame s
L itt
Litt l
Littl e
M ama
M r
Sara h
T here
ed g
el c
le x
ot h
ro w
sa g
sag e
ze b
zeb ra
  zebra
 B on
 Bon e
 Bone s
 D in
 D ot
 Do ll
 Doll y
 Don n
 Donn y
 Frog g
 Frogg y
 G ir
 Gir a
 Gira f
 Giraf f
 Giraff e
 Ha ll
 Hall o
 Hallo w
 Hallow e
 Hallowe e
 Hallowee n
 Mis s
 Re x
 Rock y
 Sa nd
 Sk e
 Ske ll
 Skell y
 Sn a
 Sna k
 Snak e
 Some o
 Someo n
 Someon e
 Su n
 Su s
 Su z
 Sus i
 Susi e
 Suz y
 When e
 Whene v
 Whenev e
 Wheneve r
 a x
 accident a
 accidenta l
 accidental l
 accidentall y
 admire d
 attracti v
 attractiv e
 aw e
 ax e
 break i
 break s
 breaki n
 breakin g
 brighte r
 cab in
 cam p
 car in
 card b
 cardb o
 cardbo a
 cardboa r
 cardboar d
 carin g
 cel e
 cele b
 celeb r
 celebr a
 celebra t
 chang ed
 chu r
 chur c
 churc h
 circ u
 circu s
 clean in
 cleanin g
 climb in
 climbin g
 conte n
 conten t
 cook ed
 cras h
 disa g
 disag re
 div e
 drink s
 e it
 e q
 ear l
 eat e
 eate n
 eit he
 eithe r
 env e
 enve l
 envel o
 envelo p
 envelop e
 eq u
 equ i
 equi p
 equip m
 equipm en
 equipmen t
 examin e
 exc la
 excla im
 exclaim ed
 fil t
 filt h
 filth y
 fire m
 frog s
 ga in
 grow n
 his t
 hist o
 histo r
 histor y
 hold s
 home s
 horn s
 house s
 insi s
 insis t
 inte l
 intel l
 intell i
 intelli g
 intellig e
 intellige n
 intelligen t
 is n
 kni gh
 knigh t
 l ed
 lea n
 learn t
 leas h
 lemon a
 lemona d
 lemonad e
 lion s
 meow ed
 moo n
 ne a
 nea t
 oat s
 off i
 offi c
 offic er
 organiz e
 pat c
 peac he
 peache s
 poi s
 point in
 pointin g
 pois o
 poiso n
 pop u
 popu l
 popul a
 popula r
 pray ed
 present s
 pric e
 problem s
 proud l
 proudl y
 pupp e
 puppe t
 puppet s
 r ug
 record in
 recordin g
 rem o
 remo v
 sau sage
 scar i
 scra t
 scrat c
 se p
 sep a
 sepa r
 separ a
 separa t
 separat e
 shi e
 shie l
 shiel d
 sho n
 shon e
 shove l
 showe r
 si r
 slid i
 slidi n
 slidin g
 smell s
 snu g
 snug g
 snugg l
 snuggl e
 soa r
 soft l
 softl y
 sp u
 spe l
 spel l
 sprin g
 spu n
 squirrel s
 sta f
 sta t
 staf f
 stamp s
 stat i
 stati o
 statio n
 stru c
 stru g
 strug g
 strugg l
 su m
 sug g
 sugg e
 sugge s
 sugges t
 sum m
 sun g
 sung l
 sungl a
 sungla s
 sunglas s
 sunglass e
 sunglasse s
 suppo r
 suppor t
 swam p
 sy m
 tas k
 te x
 tell i
 telli n
 tellin g
 tex t
 text u
 textu r
 textur e
 thank f
 thankf u
 thankfu l
 thought f
 thoughtf u
 thoughtfu l
 tool s
 tra v
 trap p
 trapp e
 trappe d
 trav e
 trave l
 truck s
 uni v
 unit e
 univ er
 univer s
 us in
 usin g
 wheel s
 wi g
 win n
 window s
 wit c
 witc h
 worm s
 wr e
 wre c
 wrec k
 yog a
 zoom ed
! '
Da isy
Jim m
Jimm y
L ul
Lul u
Mom o
O w
arr y
at e
b oo
ea c
edg e
iel d
ir s
ke y
la i
lo p
o se
y ield
  edge
 All y
 B ro
 Bro w
 Brow n
 Buzz y
 C a
 C ir
 Cir c
 Circ le
 E ar
 Ear t
 Eart h
 G i
 Gi ve
 L e
 L oo
 Le o
 Li ll
 Lill y
 Loo k
 M oo
 O li
 Oli ver
 P a
 Pipp a
 R it
 Rit a
 S im
 S l
 S q
 Sh a
 Sl o
 Slo w
 Slow l
 Slowl y
 Sq u
 St ar
 Star t
 W her
 Wher e
 a u
 ac o
 aco r
 acor n
 again s
 agains t
 al i
 ap r
 app r
 apr o
 apro n
 argu e
 arr o
 arro w
 ash t
 asht r
 ashtr a
 ashtra y
 bad l
 badl y
 bas e
 bat t
 batt e
 batte r
 behav e
 belong ed
 blow i
 blowi n
 blowin g
 blueberr i
 blueberri e
 blueberrie s
 bounc ed
 bounc y
 buck l
 buckl e
 bunn i
 bunni e
 bunnie s
 c it
 cap s
 cas e
 ce n
 cen t
 chair s
 check e
 checke d
 cherr i
 cherri e
 cherrie s
 cho i
 choi c
 choic e
 cit y
 coat s
 complet e
 count ed
 creature s
 cri b
 cu b
 cur l
 deli v
 deliv e
 delive r
 dish w
 dishw a
 dishwa s
 dishwas he
 dishwashe r
 dress ed
 eas i
 easi er
 fi v
 firem a
 firema n
 fiv e
 flap p
 fo a
 follow in
 followin g
 frown ed
 hal l
 hat e
 he s
 helpe r
 hes i
 hesi t
 hesit a
 ign o
 igno re
 imagin a
 imagina t
 imaginat i
 int r
 lau nd
 laund r
 laundr y
 li p
 loo s
 loos e
 ma ma
 mag n
 magn e
 magne t
 marr y
 me n
 melt in
 meltin g
 minute s
 mo p
 monkey s
 music i
 musici a
 musicia n
 myster y
 na v
 nav y
 news p
 newsp a
 newspa p
 newspap er
 open in
 openin g
 or n
 orn a
 orna m
 ornam e
 orname n
 ornamen t
 pad d
 padd l
 pai r
 par a
 para d
 parad e
 part i
 pass p
 passp o
 passpo r
 passpor t
 patc h
 pen c
 penc i
 penci l
 perf u
 perfu m
 perfum e
 pet a
 peta l
 petal s
 pi z
 pile s
 pinc h
 piz z
 pizz a
 planet s
 pleas ed
 plu m
 point s
 put t
 r at
 r oo
 reco g
 recog n
 recogn i
 recogni z
 rep e
 repe a
 repea t
 roo f
 room s
 rubb ed
 rus h
 sca l
 scari n
 scarin g
 scre e
 scree n
 search i
 searchi n
 searchin g
 shell s
 sil v
 silv e
 silve r
 sli c
 slic e
 sort e
 sorte d
 sparkl e
 spill e
 spille d
 squeeze d
 stair s
 stri k
 summ e
 summe r
 sun f
 sunf l
 sunfl o
 sunflo w
 sunflow e
 sunflowe r
 sur r
 swi t
 swit c
 switc h
 sym b
 symb o
 symbo l
 ta g
 teas i
 teasi n
 teasin g
 throw i
 throwi n
 throwin g
 thu m
 thum b
 ti p
 tick l
 tight l
 tightl y
 tre m
 trem b
 tremb l
 v et
 v ie
 vie w
 wav i
 wavi n
 wavin g
 we s
 wea t
 weat he
 weathe r
 wes t
 wig g
 wigg l
 wor s
A choo
Be ca
Beca u
Becau se
F red
M ark
R ea
W oof
Y um
ac k
at t
b i
el in
in n
ir d
le p
p ack
th an
than k
 A le
 Ab y
 Ale x
 Ann ie
 Bi pp
 Bipp y
 Bu m
 Bum p
 Bump y
 C D
 C la
 Ca re
 Ch ar
 Char l
 Charl i
 Charli e
 Cla i
 Clai re
 D i
 Di am
 Diam o
 Diamo nd
 He l
 Hel p
 Jill y
 John ny
 Mic ro
 Micro s
 Micros c
 Microsc o
 Microsco p
 Microscop e
 O wl
 P in
 Pa nd
 Pand y
 Pin k
 S e
 Sim i
 Sk y
 Su nd
 Sun n
 Sund a
 Sunda y
 Sunn y
 T a
 To o
 To t
 Too t
 Toot h
 Tot o
 Tu e
 Tue s
 Tues d
 Tuesd a
 Tuesda y
 W at
 W is
 Wis e
 Z o
 Zo e
 accept e
 accepte d
 ad u
 adu l
 adul t
 al a
 ala r
 alar m
 allow e
 allowe d
 alr e
 alre a
 alrea d
 alread y
 appl a
 appla u
 applau d
 att a
 atta c
 au n
 aun t
 back pack
 bak i
 baki n
 bakin g
 base b
 baseb a
 baseba l
 basebal l
 bathro b
 bathrob e
 bed s
 belong s
 break f
 breakf a
 breakfa s
 breakfas t
 bright l
 brightl y
 butterfl i
 butterfli e
 butterflie s
 cabin e
 cabine t
 catch in
 catchin g
 ce i
 cei l
 ceil in
 ceilin g
 chal l
 chall e
 challe n
 challen g
 chee k
 chi m
 chim n
 chimn e
 chimne y
 climb s
 collect i
 collecti o
 collectio n
 compa s
 compas s
 compass i
 compassi o
 compassio n
 cu d
 cud d
 cudd l
 decorat i
 decorati o
 decoratio n
 decoration s
 di p
 dream in
 dreamin g
 es p
 esp e
 espe c
 espec i
 especi a
 especia ll
 especiall y
 excited l
 excitedl y
 fall s
 find s
 firefighter s
 flapp ed
 follow s
 forg a
 forga v
 forgav e
 fur t
 furt he
 furthe r
 gather i
 gatheri n
 gatherin g
 gl it
 glit t
 glitt e
 glitte r
 gol f
 gra n
 gran t
 gun s
 hand e
 hande d
 head e
 heade d
 hel m
 helm e
 helme t
 hesita t
 home w
 homew o
 homewo r
 homewor k
 in g
 increas e
 ing r
 ingr ed
 ingred i
 ingredi e
 ingredie n
 ingredien t
 intr o
 intro d
 introd u
 introdu c
 keep in
 keepin g
 la p
 le c
 lean ed
 lec t
 lect u
 lectu re
 let s
 li d
 librar y
 lunch b
 lunchb o
 lunchbo x
 ma l
 mal l
 matt re
 mattre s
 mattres s
 me m
 mem o
 memo r
 men t
 ment i
 menti o
 mentio n
 mil l
 miss in
 missin g
 mode l
 monster s
 name s
 nu r
 nur s
 nurs e
 o il
 oa k
 ob j
 obj e
 obje c
 objec t
 offer ed
 pa u
 paddl e
 pai d
 paint s
 panda s
 par r
 parr o
 parro t
 pau s
 pepper s
 pho t
 phot o
 pigeon s
 pirate s
 por c
 porc h
 pos t
 pot a
 pota t
 potat o
 prepa r
 prepar ed
 pretend i
 pretendi n
 pretendin g
 pur r
 push in
 pushin g
 putt in
 puttin g
 puzzle s
 quit e
 r is
 r ot
 rel e
 rele a
 relea s
 remov e
 ro ot
 roar ed
 root s
 sail e
 saile d
 sav i
 savi n
 savin g
 scal e
 see i
 seei n
 seein g
 ser i
 seri o
 serio u
 seriou s
 shake s
 si p
 sin c
 sinc e
 slow e
 sna p
 snuggle d
 so b
 sob b
 solve d
 spo k
 spo r
 spok e
 spor t
 spray i
 sprayi n
 sprayin g
 sta b
 stab l
 stabl e
 ste e
 stea l
 sto m
 stretc h
 strip s
 struggl e
 suns e
 sunse t
 surprise s
 swing i
 swingi n
 swingin g
 tickl e
 time s
 tra y
 twist e
 twiste d
 v es
 v ro
 ves t
 vro om
 wagg i
 waggi n
 waggin g
 wai s
 wais t
 was he
 washe d
 weigh t
 whale s
 whi p
 wis d
 wisd o
 wisdo m
 wor t
 wors e
 wort h
 wri s
 wris t
!" ,
!" .
" ,
, ”
A n
B ell
Bell a
Every o
Everyo n
Everyon e
G rand
Grand m
Grandm a
J en
Jen n
Jenn y
N ot
O r
R ose
T o
The s
Thes e
W elc
Welc om
Welcom e
You r
et t
l ook
l w
look in
lookin g
nde r
rea t
w ay
  x
 Am b
 Amb er
 B ee
 Be b
 Beb e
 Big g
 Bigg ie
 Bu b
 Bub b
 Bubb le
 Bubble s
 Din o
 E le
 Ele p
 Elep h
 Eleph a
 Elepha n
 Elephan t
 Even t
 Event u
 Eventu a
 Eventua ll
 Eventuall y
 F ing
 F lo
 Fing e
 Finge r
 Flo p
 Flop s
 Flops y
 G e
 Ge or
 Geor g
 Georg e
 H at
 Hat t
 Hatt y
 Hors e
 It s
 K i
 K ing
 Ki k
 Kik i
 Li z
 Lu ck
 M itt
 Mitt e
 Mitte n
 Mitten s
 O r
 P ap
 P h
 Pap a
 Ph il
 Po pp
 Popp y
 Se e
 To d
 Tod a
 Toda y
 Tw i
 Twi g
 act i
 adv i
 advi c
 advic e
 ap a
 apa r
 apar t
 appr o
 appro a
 approa c
 bab i
 babi e
 babie s
 bal e
 bark s
 bat he
 bea t
 bear s
 blueberr y
 boo t
 boot s
 brave l
 bravel y
 breat he
 bu z
 buz z
 cal f
 car ed
 catc he
 cau s
 cent i
 centi m
 centim e
 centime t
 centimet er
 centimeter s
 chain s
 challeng e
 chas in
 chasin g
 chi r
 chir p
 clap s
 collect ed
 collect in
 collectin g
 compassion a
 compassiona t
 compassionat e
 conf i
 confi d
 confid e
 confide n
 continu e
 cop p
 copp er
 cow s
 cru n
 crun c
 cub e
 cur t
 curt a
 curta in
 de m
 delight ed
 dem a
 dema nd
 destroy ed
 disagre e
 dist u
 distu r
 distur b
 door s
 down s
 downs t
 downst a
 downsta i
 downstai r
 downstair s
 draw s
 dri ed
 eager l
 eagerl y
 earl y
 enjoy in
 enjoyin g
 excit e
 explor ed
 explore r
 explorer s
 f ed
 fat he
 fathe r
 foot b
 footb a
 footba l
 footbal l
 for k
 gift s
 gr in
 grab s
 grow l
 hard l
 hardl y
 head s
 heal e
 heale d
 hesitat e
 hesitate d
 hi v
 highe s
 highes t
 hit s
 hiv e
 ho c
 hoc k
 hock e
 hocke y
 hon k
 hop i
 hopi n
 hopin g
 hurt i
 hurti n
 hurtin g
 ignor ed
 imagin ed
 imaginati o
 imaginatio n
 impress ed
 in k
 increas ed
 ingredient s
 insist ed
 introduc e
 invit e
 jogg ed
 joke s
 key s
 kiss e
 kisse s
 lab e
 labe l
 law n
 lemon s
 lin ed
 measur ed
 memor y
 mention ed
 net w
 netw o
 netwo r
 networ k
 no n
 non e
 ob e
 obe y
 onion s
 pa g
 pag e
 pan i
 pani c
 pat t
 pho e
 phoe n
 phoen i
 phoeni x
 plan n
 pocket s
 popp y
 print s
 provid ed
 pumpkin s
 pushe s
 ra f
 ra is
 ra re
 rabbit s
 radis he
 radishe s
 raf t
 rain ed
 reache s
 recogniz e
 replac ed
 rest a
 rest ed
 resta u
 restau r
 restaur a
 restaura n
 restauran t
 reve a
 revea l
 rid in
 ridin g
 ru le
 sandwic he
 sandwiche s
 say i
 sayi n
 sayin g
 sco l
 scol d
 she d
 shout i
 shout s
 shouti n
 shoutin g
 shr u
 shru g
 shrug g
 shrugg e
 shrugge d
 sil e
 sile n
 sin k
 size s
 slap p
 slowe r
 sneak e
 sneake d
 snow b
 snowb a
 snowba l
 snowbal l
 soa k
 sobb e
 sobbe d
 sort i
 sorti n
 sortin g
 spi t
 star i
 stari n
 starin g
 stea m
 stir r
 stra i
 strai g
 straig h
 straigh t
 strik e
 struc t
 struct u
 structu r
 structur e
 stu d
 sug a
 suga r
 swe a
 swea t
 t y
 tent a
 their s
 toe s
 tor e
 trip s
 twi r
 twir l
 u r
 un h
 unh a
 unha p
 unhap p
 unhapp y
 univers e
 ur g
 v ac
 vac at
 vacat i
 vacati on
 vehicle s
 wait s
 wander e
 wandere d
 want i
 wanti n
 wantin g
 watche s
 wee p
 wiggl e
A ndy
B oo
Bob b
Bobb y
C ar
Car p
Carp e
Carpe t
D id
G reat
Good b
Goodb y
Goodby e
Ja zz
M a
Mum m
Mumm y
N ice
N ina
Re me
Re my
Reme m
Remem b
Rememb er
S and
S illy
Y uck
ac he
ac o
atc h
d am
er t
ic h
r ay
u cky
ur p
urp r
urpr is
urpris e
� �
 B a
 B ot
 Be c
 Be ing
 Bec a
 Beca u
 Becau se
 Bot h
 Bu g
 Ch r
 Chr is
 Da re
 E ls
 E nd
 Els a
 Fin n
 Finn y
 G r
 Gr um
 Grand p
 Grandp a
 Grum p
 Grump y
 H ar
 Har r
 Harr y
 I z
 Iz z
 Izz y
 J ay
 Ja me
 Jame s
 L or
 Lor r
 Lorr y
 Luck y
 Mi ke
 Mike y
 P at
 P ea
 P ut
 Pe te
 Pea c
 Peac e
 Pink y
 R oo
 Sand r
 Sandr a
 Sh o
 Sha p
 Shap e
 Shape y
 Sn o
 Sno w
 Snow y
 Squ e
 Sque a
 Squea k
 Squeak y
 T r
 Ta n
 Tan k
 To n
 Ton i
 U nc
 U nde
 Unc le
 Unde r
 Wat c
 Watc h
 after n
 aftern o
 afterno o
 afternoo n
 ali v
 aliv e
 anyw a
 anywa y
 approac he
 approache d
 argu i
 argui n
 arguin g
 as t
 bar b
 barb e
 barbe r
 bea m
 bee p
 beg i
 begi n
 bet w
 betw e
 betwe e
 betwee n
 bicycle s
 blink ed
 bot he
 bothe r
 bounc i
 bounci n
 bouncin g
 box e
 boxe s
 bracelet s
 brick s
 bring s
 bump ed
 burn ed
 bus i
 busi n
 busin e
 busine s
 busines s
 by e
 cake s
 cal e
 cale nd
 calend a
 calenda r
 call s
 cand i
 candi e
 candie s
 carry in
 carryin g
 castle s
 cat s
 celebrat e
 clu b
 coin s
 compl i
 cre p
 crep t
 cross ed
 cru m
 crum b
 crunc h
 crunch y
 cuddl ed
 curi o
 curio s
 curios it
 curiosit y
 cut t
 de n
 decorat in
 decoratin g
 deep e
 deepe r
 dig g
 dip p
 distan c
 distanc e
 dog g
 dogg y
 dress e
 dresse s
 drink in
 drinkin g
 eag le
 elephant s
 en er
 ener g
 fa u
 far t
 fart he
 fe t
 fet c
 fetc h
 firework s
 fl i
 fla v
 flav o
 fold ed
 ga z
 giraffe s
 grow in
 growin g
 gu s
 gus t
 heart s
 her b
 herb s
 his s
 hol i
 holi d
 holid a
 holida y
 hot e
 hote l
 hun t
 hunt e
 hunte r
 idea s
 inc h
 inte r
 kayak s
 keep s
 la n
 lam b
 lan g
 lang u
 langu a
 langua g
 languag e
 li e
 live l
 livel y
 load ed
 longe s
 longes t
 lu m
 ma z
 mar s
 marble s
 marri ed
 mars h
 mas s
 mask s
 mass a
 massa g
 massag e
 maz e
 meal s
 mil d
 mod er
 moder n
 mos q
 mosq u
 mosqu it
 mosquit o
 move s
 nat i
 nati o
 natio n
 neighbor s
 nic er
 no v
 nose s
 nov e
 nove l
 o h
 oa s
 oas is
 op in
 open s
 opin i
 opini o
 opinio n
 order ed
 own ed
 pack a
 packa g
 packag e
 parti e
 partie s
 past a
 paus ed
 pea k
 pen n
 penn y
 per m
 pla s
 plas t
 plast i
 plasti c
 plum s
 pou t
 pri d
 prid e
 provid e
 pull in
 pullin g
 qui z
 re i
 reali s
 rec e
 rece i
 recei v
 reg re
 regre t
 rei nd
 reind e
 reinde e
 reindee r
 releas ed
 replac e
 respect f
 respectf u
 respectfu l
 resto r
 restor ed
 rh y
 rhy th
 rhyth m
 rule s
 scatter e
 scattere d
 scratc h
 se w
 sell i
 selli n
 sellin g
 sign s
 silen c
 silenc e
 sir e
 sire n
 sit s
 sneeze s
 sni p
 some d
 somed a
 someda y
 sort s
 space s
 spaces h
 spacesh i
 spaceshi p
 sparkle d
 spot s
 spray e
 spraye d
 st y
 start i
 starti n
 startin g
 stee l
 sto l
 stol e
 strange r
 stretc he
 stretche d
 sty l
 styl e
 suggest e
 suggeste d
 sun l
 sunl i
 sunli g
 sunlig h
 sunligh t
 surr o
 surro u
 surrou n
 surroun d
 sweet he
 sweethe a
 sweethea r
 sweethear t
 talle s
 talles t
 teach i
 teachi n
 teachin g
 teas p
 teasp o
 teaspo o
 teaspoo n
 tenta c
 tentac l
 tentacl e
 throw s
 toa d
 tomato e
 tomatoe s
 track s
 trembl e
 tub e
 uni c
 unic or
 unicor n
 ups t
 upst a
 upsta ir
 upstair s
 urg ed
 van is
 vo ic
 voic es
 warm t
 warmt h
 water e
 watere d
 what e
 whate v
 whatev e
 whateve r
 wi z
 win t
 winn i
 winni n
 winnin g
 wint e
 winte r
 wiz a
 wiza r
 wizar d
 yawn ed
 young e
 yu c
 yuc k
 yuck y
 z i
 zi pp
A h
B ird
B l
B udd
Bl ue
Budd y
C hr
Chr is
D og
D ucky
Do lly
F in
G eor
Geor g
Georg e
H arry
Ha ppy
John ny
K ate
L arry
L o
M ad
M ich
M mm
M or
Mad d
Madd y
Mich a
Micha el
Mor a
Mora l
P e
Rea d
S ome
S urprise
S us
Sand r
Sandr a
St ay
Sus ie
a ke
an g
ce y
ee l
es is
es p
est ro
estro y
f ree
free z
freez e
ir on
la p
lli e
ma il
oul d
u ps
ul i
  1
  eel
  iron
 A l
 Al w
 Alw ay
 Alway s
 B et
 Be f
 Bef o
 Befo re
 Bet t
 Bett y
 Chris t
 Christ m
 Christm a
 Christma s
 E at
 Every t
 Everyt h
 Everyth in
 Everythin g
 F or
 H i
 Ha v
 Hav e
 Hi p
 Hip p
 Hipp y
 J ul
 Jo j
 Jo y
 Joj o
 K ee
 Kee p
 L ar
 L ee
 Lar r
 Larr y
 Li ke
 Li nd
 Lind a
 M el
 M ou
 Mel in
 Melin a
 Mi ll
 Mill i
 Milli e
 Mou s
 Mous e
 O ut
 Re me
 Reme m
 Remem b
 Rememb er
 Ro g
 Rog er
 Sand y
 Sh ar
 Sho w
 Sp r
 Spr in
 St o
 Sto p
 Th o
 Ti g
 Tig e
 Tige r
 To a
 Toa d
 W a
 Z ara
 Z er
 Zer o
 agree m
 agreem e
 agreeme n
 agreemen t
 an n
 ann o
 anno y
 annoy i
 annoyi n
 annoyin g
 ap o
 apo l
 apol o
 apolo g
 apolog i
 are a
 attac h
 awe s
 awes o
 aweso m
 awesom e
 bea d
 beaut y
 bee s
 begin n
 beginn i
 beginni n
 beginnin g
 bell y
 belo w
 bloo d
 bul b
 bump y
 bur i
 buri ed
 cau t
 caut i
 cauti ou
 cautiou s
 celebrat ed
 che f
 cherr y
 chew i
 chewi n
 chewin g
 chil i
 cla w
 claw s
 cli c
 clic k
 clown s
 competiti o
 competitio n
 compl a
 compla in
 confiden t
 count r
 cour a
 coura g
 courag e
 crack ed
 curl ed
 curl y
 cutt in
 cuttin g
 dar ed
 decorat ed
 design s
 di ed
 di re
 differen c
 differenc e
 digg in
 diggin g
 dipp ed
 dire c
 direc t
 direct i
 directi o
 directio n
 discover y
 drag g
 dragg ed
 dream t
 drive s
 dropp in
 droppin g
 du g
 eat s
 em er
 emer g
 en e
 encourag ed
 ene m
 energ y
 enter ed
 escap ed
 ex it
 exp er
 exper i
 experi e
 experie n
 experien c
 farthe r
 fear s
 fix in
 fixin g
 flavo r
 foa l
 foa m
 food s
 g y
 gaz ed
 gem s
 good n
 goodn i
 goodni g
 goodnig h
 goodnigh t
 grabb in
 grabbin g
 gre ed
 greed y
 grin n
 grinn ed
 gues t
 gy m
 hat ed
 he n
 heal i
 heali n
 healin g
 honk ed
 hugg i
 huggi n
 huggin g
 hurr i
 imag e
 image s
 improv ed
 in j
 inv e
 inve s
 inves t
 invest i
 investi g
 investig a
 investiga t
 investigat e
 kick in
 kickin g
 kne l
 knel t
 la i
 lady b
 ladyb u
 ladybu g
 lai d
 lea t
 leat he
 leathe r
 li ed
 lick s
 lip s
 load in
 loadin g
 lum b
 lumb e
 lumbe r
 manag er
 mark ed
 mat h
 matche d
 measur in
 measurin g
 mot i
 moti o
 motio n
 mud d
 mudd y
 mys e
 myse l
 mysel f
 neighbor h
 neighborh o
 neighborho o
 neighborhoo d
 no o
 noo n
 ob s
 obs er
 obser v
 ornament s
 out f
 outf i
 outfi t
 pass in
 passin g
 past e
 paste l
 pe c
 pec k
 pee l
 penguin s
 pet t
 pett ed
 pig s
 plac ed
 plane s
 plann ed
 plant ed
 play s
 pok ed
 polite l
 politel y
 pot i
 poti o
 potio n
 pour in
 pourin g
 pr u
 pretend s
 pru n
 prun e
 purr ed
 ra i
 ra k
 rain ing
 rais e
 realis ed
 ref re
 ref u
 refre s
 refu s
 relax ed
 remain ed
 res u
 resist ed
 resu l
 resul t
 ri p
 ribbon s
 saf a
 safa r
 safar i
 sail b
 sailb o
 sailbo a
 sailboa t
 sc u
 scoo p
 scoop e
 scoope d
 scratc he
 se v
 sea l
 sea s
 sec o
 seco n
 secon d
 sett i
 setti n
 settin g
 settle d
 sev e
 seve r
 sever a
 severa l
 shadow s
 shee t
 should n
 side s
 ski l
 skil l
 slapp e
 slappe d
 snowball s
 snu c
 snuc k
 soc c
 socc e
 socce r
 sock s
 sprin k
 sprink l
 sprinkl e
 sque a
 squea k
 stare d
 ste m
 ste r
 ster n
 stom a
 stoma c
 stomac h
 stre n
 stren g
 streng t
 strengt h
 stro l
 strol l
 stud y
 suffer e
 suffere d
 suit c
 suitc a
 suitca s
 suitcas e
 sup e
 supe r
 sweat e
 sweate r
 swimm e
 swimme r
 swo o
 swoo p
 swoop e
 swoope d
 ta n
 tail s
 tal e
 tale n
 talen t
 teache s
 tease d
 tid e
 tou r
 town s
 towns p
 townsp e
 townspe o
 townspeo p
 townspeop l
 townspeopl e
 tra d
 trad e
 trai l
 twirl e
 twirle d
 unpack ed
 us u
 usu a
 ve l
 vel v
 velv et
 vet er
 veter in
 veterin a
 veterina r
 veterinar i
 veterinari a
 veterinaria n
 waffle s
 wag s
 we b
 we d
 wea p
 weak e
 weake r
 weap o
 weapo n
 wed d
 wedd i
 weddi n
 weddin g
 where v
 wherev e
 whereve r
 winn e
 winne r
 wo b
 wob b
 wobb l
 wonder i
 wonder s
 wonderi n
 wonderin g
 woo l
 wood e
 woode n
 write s
 younge r
 z er
 zer o
 zipp er
 zoom in
 zoomin g
' ve
A bi
A dam
A mb
Abi ga
Abiga il
Amb er
B eep
B ess
Be fo
Befo re
Bess ie
D ays
E lla
E w
E x
Ex cu
Excu se
F ind
F o
Fo llo
Follo w
G igi
H ors
Ha ve
J ing
Ja ke
Lo la
M ag
M aya
M elin
M i
M o
Ma gg
Mag ic
Magg ie
Me ow
Melin a
Mi key
O k
O llie
P eac
P ipp
P olly
Peac e
Rea ll
Read y
Reall y
S op
Sop h
Soph ie
T ot
Thank s
Tot o
U h
V room
W atch
W ould
Z ip
a pp
and y
app le
d estroy
e ar
ea v
for t
in c
n j
na p
o h
op en
ow er
ri c
st er
ump y
ur ing
wel c
welc om
welcom e
” .
  2
  Nice
  X
 B er
 Ba ll
 Ber t
 Car s
 D el
 D es
 D id
 Des p
 Desp it
 Despit e
 Din a
 Dina h
 E a
 Ea ch
 F i
 F is
 F la
 Fis h
 Fla p
 G un
 Gun s
 I s
 J ac
 J um
 Jac o
 Jaco b
 Jul i
 Juli a
 Jum p
 Jump y
 L at
 L ie
 Lat er
 Lo g
 Log g
 Logg y
 Mar i
 Mari a
 May a
 Mic h
 Mich a
 Micha el
 Mum m
 Mumm y
 O ur
 R ac
 R y
 Rac he
 Rache l
 Ry an
 Sa d
 Sad l
 Sadl y
 Shar in
 Sharin g
 She l
 Shel l
 Shell y
 St ay
 Tho m
 Thom a
 Thoma s
 Tr i
 Tri a
 Tria n
 Trian g
 Triang l
 Triangl e
 W el
 W oo
 Wa it
 Wel c
 Welc om
 Welcom e
 Wh o
 Woo f
 ac h
 ach i
 achi e
 achie v
 achiev e
 act e
 acte d
 acti o
 actio n
 admir i
 admiri n
 admirin g
 after w
 afterw a
 afterwa r
 afterwar d
 afterward s
 air p
 ali e
 alie n
 alien s
 alr i
 alri g
 alrig h
 alrigh t
 am b
 am o
 amb u
 ambu l
 ambul a
 ambula n
 ambulan c
 ambulanc e
 amo u
 amou n
 amoun t
 an x
 anx i
 anxi o
 anxio u
 anxiou s
 anyt i
 anyti m
 anytim e
 apologi z
 apologiz e
 applaud e
 applaude d
 arm c
 armc h
 armch a
 armcha i
 armchai r
 ast r
 astr o
 astro n
 astron a
 astrona u
 astronau t
 attac he
 attache d
 bak ed
 banana s
 bang i
 bangi n
 bangin g
 bar s
 batter i
 batteri e
 batterie s
 bead s
 behav i
 behavi n
 behavin g
 believ ed
 bes i
 besi d
 besid e
 bla m
 bra nd
 brid e
 bridge s
 brus he
 bu d
 build e
 builde r
 builder s
 bur s
 burs t
 bus e
 buse s
 buy i
 buyi n
 buyin g
 buzz i
 buzzi n
 buzzin g
 camp in
 campin g
 care s
 catche r
 catche s
 caus ed
 cautious l
 cautiousl y
 challenge s
 cheek s
 chef s
 chicken s
 chil l
 chirp ed
 chirp in
 chirpin g
 cho p
 chu c
 chuc k
 chuck l
 chuckl ed
 class r
 classr o
 classro o
 classroo m
 clu e
 colour s
 compa n
 compan y
 complet ed
 con v
 cone s
 cont a
 conta in
 cor a
 cora l
 cos y
 costume s
 count e
 counte r
 countr y
 cover s
 cow b
 cowb o
 cowbo y
 cras he
 crashe d
 creativ i
 creativi t
 creativit y
 cri c
 cric k
 crick e
 cricke t
 cup b
 cupb o
 cupbo a
 cupboa r
 cupboar d
 da m
 dad s
 dance s
 dar l
 darl in
 darlin g
 dear s
 deci s
 decis i
 decisi o
 decisio n
 delay ed
 det a
 deta i
 detai l
 disagre ed
 dove s
 drawing s
 dri f
 drif t
 e f
 ear r
 earl i
 earli er
 earr in
 earrin g
 earring s
 earth q
 earthq u
 earthqu a
 earthqua k
 earthquak e
 eas e
 ef f
 eff or
 effor t
 emerg e
 emerge n
 emergen c
 emergenc y
 encourage m
 encourage s
 encouragem e
 encourageme n
 encouragemen t
 enem y
 exam i
 examin in
 examinin g
 experienc e
 fa d
 fa in
 fain t
 famil i
 fan t
 fant a
 fanta s
 fantas y
 fau c
 fauc e
 fauce t
 feed i
 feedi n
 feedin g
 figur ed
 fli e
 float ed
 float in
 floatin g
 floo d
 flow n
 fold e
 folde r
 foot s
 foots t
 footst e
 footste p
 footstep s
 forgiv in
 forgive n
 forgive s
 forgiven e
 forgivene s
 forgivenes s
 forgivin g
 freeze r
 fu e
 fue l
 g er
 gain ed
 ge ar
 ger m
 germ s
 giggle s
 give n
 glitter y
 go r
 goal s
 gold e
 golde n
 gor i
 gori ll
 gorill a
 gracefu ll
 gracefull y
 grand p
 grandp a
 grant ed
 gre y
 gri p
 gro a
 gro om
 groa n
 group s
 hair d
 haird r
 hairdr e
 hairdre s
 hairdres s
 hairdress e
 hairdresse r
 hand i
 handi n
 handin g
 hea t
 heav i
 heavi e
 heavie r
 hit t
 hitt i
 hitti n
 hittin g
 hole s
 hoo v
 hoov e
 hoove s
 horse s
 hum a
 huma n
 hurri c
 hurric a
 hurrica n
 hurrican e
 inc l
 incl u
 inclu d
 invit a
 invita t
 invitat i
 invitati o
 invitatio n
 j ok
 kitt y
 kno b
 knock in
 knock s
 knockin g
 land s
 leak s
 lett u
 lettu c
 lettuc e
 li a
 lia r
 librar i
 librari a
 libraria n
 light e
 lighte r
 log s
 los in
 losin g
 lov in
 lovin g
 magazine s
 magic i
 magici a
 magicia n
 mail m
 man n
 manag e
 mann er
 manner s
 mark s
 message s
 mind f
 mindf u
 mindfu l
 mis c
 misc h
 misch i
 mischi e
 missi o
 missio n
 mouth s
 mus e
 muse u
 museu m
 mushroom s
 necklace s
 now he
 nowhe r
 nowher e
 o x
 observ e
 on w
 onw ar
 onwar d
 onward s
 op er
 op p
 oper a
 opera t
 operat i
 operati o
 operatio n
 ours e
 ourse l
 oursel v
 ourselv e
 ourselve s
 over j
 overj o
 overjo y
 overjoy ed
 ox y
 oxy g
 oxyg en
 paper s
 park ed
 patt ed
 patt er
 patter n
 pear s
 peck ed
 per c
 perc he
 perche d
 perfect l
 perfectl y
 perm it
 pie s
 pillow s
 pipe s
 plant in
 plantin g
 play h
 playh ou
 playhou s
 playhous e
 pok in
 pokin g
 por t
 potato e
 potatoe s
 pout ed
 power s
 pray er
 prett i
 pretti e
 prettie s
 pretties t
 punis he
 punishe d
 qu a
 qua ck
 quiet l
 quietl y
 r in
 rac es
 ran c
 ranc h
 reach in
 reachin g
 realiz e
 rec i
 receiv ed
 refres h
 refresh in
 refreshin g
 refus ed
 repl y
 rin s
 ris in
 ris k
 risin g
 rock in
 rockin g
 safe r
 sat i
 sati s
 satis f
 sausage s
 scold e
 scolde d
 scr u
 seat s
 secret s
 sew e
 sewe d
 shape d
 shi m
 shim m
 shirt s
 shoot i
 shooti n
 shootin g
 shoulder s
 shr a
 shra n
 shran k
 si m
 side w
 sidew a
 sidewa l
 sidewal k
 sigh s
 sign e
 signe d
 sit u
 situ a
 situa t
 situat i
 situati o
 situatio n
 sk e
 ske l
 skel e
 skele t
 skelet o
 skeleto n
 skill s
 sla m
 slam m
 slamm e
 slamme d
 smalle s
 smalles t
 smile y
 sneak y
 soft e
 sparkl i
 sparkli n
 sparklin g
 spo n
 spon g
 spong e
 star f
 starf i
 starfi s
 starfis h
 stay i
 stayi n
 stayin g
 stirr e
 stirr i
 stirre d
 stirri n
 stirrin g
 stole n
 stom p
 store k
 storek e
 storeke e
 storekee p
 storekeep e
 storekeepe r
 storm s
 strawberr i
 strawberri e
 strawberrie s
 stro k
 strok e
 struc k
 struggle d
 stuff e
 stuffe d
 succeed e
 succeede d
 suggest i
 suggesti o
 suggestio n
 super he
 superhe r
 superher o
 suppo s
 suppos e
 suppose d
 surf b
 surf e
 surfb o
 surfbo a
 surfboa r
 surfboar d
 surfe r
 surpris i
 surprisi n
 surprisin g
 surr e
 surre n
 surren d
 surrend e
 surrende r
 surround i
 surroundi n
 surroundin g
 surrounding s
 swan s
 talent e
 talente d
 task s
 taste s
 team s
 tent s
 texture s
 the a
 thea t
 theat e
 theate r
 thr i
 thu d
 to i
 toi l
 toil e
 toile t
 trail e
 traile r
 treasure s
 trembl i
 trembli n
 tremblin g
 trick y
 tu c
 tuc k
 tug g
 tugg e
 tugge d
 turn i
 turni n
 turnin g
 twin k
 twink l
 twinkl e
 ty i
 ty p
 tyi n
 tyin g
 typ e
 umbrella s
 un s
 under g
 underg r
 undergr ou
 undergrou nd
 understand i
 understandi n
 understandin g
 univers it
 universit y
 unlock ed
 uns u
 unsu re
 usua ll
 usuall y
 vanis h
 video s
 waite r
 wash i
 washi n
 washin g
 water i
 wateri n
 waterin g
 weapon s
 weep i
 weepi n
 weepin g
 welcome d
 whi n
 wide n
 widen e
 widene d
 wind y
 wire s
 wo w
 wobbl e
 work s
 worke r
 wou n
 woun d
 yawn in
 yawnin g
 yes t
 yest er
 yester d
 yesterd a
 yesterda y
 you t
 yout h
. '
? '
A lex
A lw
Alw ays
An ot
Ann ie
Anot he
Anothe r
B ad
B ang
B ee
B ett
B oth
B umpy
Be hi
Behi nd
Ben n
Benn y
Bett y
But t
Butt er
Butter f
Butterf l
Butterfl y
C arl
C at
C h
D ina
D uring
Dina h
Do es
Don n
Donn y
E at
F ine
F lop
F rog
Flop s
Flops y
Frog g
Frogg y
G et
Hi pp
Hipp y
Hors y
J aco
Jaco b
Jo jo
L a
L ena
L illy
L ind
L una
La cey
Lind a
M andy
M iss
M itte
Mar i
Mari a
Mitte n
Mitten s
Mo ve
Ne ar
O ut
O ver
P ut
Pe ople
Pe te
Pipp in
Q ui
Qui ck
R ache
R esis
R og
R oo
R osie
R un
Rache l
Re x
Resis t
Rog er
S h
S imi
S l
S nap
S tea
Sl ow
Some t
Somet i
Someti m
Sometim e
Sometime s
St an
Stan le
Stanle y
Stea k
T ank
T ed
T od
T w
T we
Ted d
Tedd y
Th o
Tho se
Tod ay
Tw ig
Twe et
V inc
Vinc e
W ake
W he
W ith
Whe e
Y ea
Yea h
Z oe
an t
b ut
c at
ch ug
cu m
cum b
cumb er
ee k
is p
lo se
me ll
mell in
mellin g
ou t
p art
r ays
s eek
s melling
sh a
sha p
shap ed
v room
w ine
y es
  5
  =
  ?
  Quick
  

   
 1 0
 A d
 A g
 Ab i
 Abi g
 Abig a
 Abiga il
 Ad am
 B ir
 Ba d
 Be h
 Beh i
 Behi nd
 Bir d
 C el
 C ro
 Cat s
 Cel er
 Celer y
 Cro c
 Croc o
 Croco d
 Crocod i
 Crocodi le
 D ra
 Do ing
 E n
 Eat in
 Eatin g
 En j
 Enj o
 Enjo y
 Every d
 Everyd a
 Everyda y
 F ir
 F ri
 Fi gh
 Figh t
 Fight ing
 Fir s
 Firs t
 Fri e
 Frie nd
 Friend s
 G oo
 Goo d
 Good b
 Goodb y
 Goodby e
 How e
 Howe v
 Howev er
 Is n
 J ing
 L ea
 La ce
 Lace y
 Lea v
 Leav e
 Lis t
 List e
 Liste n
 Ma nd
 Mand y
 O t
 O w
 Ot her
 P ay
 P r
 R a
 R es
 Res is
 Resis t
 S it
 Sha ll
 So p
 Sop h
 Soph i
 Sophi e
 Spark y
 Sprin g
 Sprin k
 Sprink l
 Sprinkl e
 Sprinkle s
 Squ is
 Squis h
 Squish y
 T e
 Tiger s
 Tom a
 Toma t
 Tomat o
 Tr u
 U n
 U nt
 Un for
 Unfor t
 Unfort u
 Unfortu n
 Unfortun at
 Unfortunat e
 Unfortunate l
 Unfortunatel y
 Unt il
 W ay
 W ed
 W et
 Wat er
 Wed n
 Wedn e
 Wedne s
 Wednes d
 Wednesd a
 Wednesda y
 Who e
 Whoe ver
 achieve d
 acro b
 acrob a
 acroba t
 acrobat s
 acti n
 actin g
 ag o
 agree s
 ai s
 airp o
 airpo r
 airpor t
 ais l
 aisl e
 aisle s
 all e
 alle y
 amaze m
 amazem e
 amazeme n
 amazemen t
 angr i
 angri l
 angril y
 ant e
 ante n
 anten n
 antenn a
 antenna e
 apologize d
 appr e
 appre c
 apprec i
 appreci a
 apprecia t
 appreciat e
 argue d
 art i
 arti s
 artis t
 as i
 asi d
 asid e
 astronaut s
 awa k
 awa r
 awak e
 awar e
 back ed
 back w
 backw a
 backwa r
 backwar d
 backward s
 bad g
 badg e
 baker y
 balanc ed
 bale s
 bar e
 bare l
 barel y
 beam ed
 bed t
 bedt i
 bedti m
 bedtim e
 belo v
 belov ed
 bin o
 bino c
 binoc u
 binocu l
 binocul a
 binocula r
 binocular s
 bla d
 blad e
 blam ed
 blanket s
 ble ed
 ble nd
 blink i
 blinki n
 blinkin g
 blow s
 boat s
 boo m
 borrow ed
 bou l
 boul d
 bould e
 boulde r
 bow ed
 brain s
 brave r
 braver y
 bread c
 breadc r
 breadcr u
 breadcru m
 breadcrum b
 breadcrumb s
 bro o
 broo m
 bru i
 brui s
 bruis e
 brush i
 brushe d
 brushi n
 brushin g
 bull e
 bulle t
 bullet s
 bump s
 burn i
 burni n
 burnin g
 bury i
 buryi n
 buryin g
 buy s
 buzz ed
 c in
 ca c
 cac t
 cact u
 cactu s
 calm in
 calmin g
 cand l
 candl e
 candle s
 caus e
 chang in
 changin g
 chea t
 chew e
 chewe d
 chi p
 chop p
 chu g
 cin n
 cinn a
 cinna m
 cinnam o
 cinnamo n
 cl er
 clean er
 cler k
 click ed
 close l
 closel y
 clue s
 coa l
 cold e
 colde s
 coldes t
 color ed
 color in
 colorin g
 com m
 comb in
 combin g
 comf y
 compli c
 compli m
 complic a
 complica t
 complicat ed
 complim e
 complime n
 complimen t
 conf l
 confiden c
 confidenc e
 confl i
 confli c
 conflic t
 cont i
 continu in
 continuin g
 conv er
 conver s
 convers a
 conversa t
 conversat i
 conversati o
 conversatio n
 cou g
 cou s
 coug h
 cous in
 cowboy s
 crab s
 crash in
 crashin g
 creat ed
 cro a
 croa k
 cross in
 crossin g
 crumb s
 cu cumber
 curious l
 curiousl y
 cut s
 da re
 dais i
 daisi e
 daisie s
 dam a
 dama g
 damag e
 dar t
 darling s
 dea t
 deat h
 decide s
 deliver ed
 demand e
 demande d
 den t
 dent i
 denti s
 dentis t
 dep t
 dept h
 depth s
 des e
 des s
 dese r
 dess e
 desse r
 desser t
 dest in
 destin a
 destina t
 destinat i
 destinati o
 destinatio n
 detail s
 dinosaur s
 div ed
 do d
 dod g
 doll a
 dolla r
 dollar s
 draw n
 dress in
 dressin g
 driver s
 dry in
 dryin g
 du r
 dur in
 durin g
 dust y
 e c
 ec h
 ech o
 echo ed
 ele c
 elec t
 elect r
 electr i
 electri c
 electric it
 electricit y
 encou n
 encoun t
 encount e
 encounte r
 encounter ed
 ent r
 entr a
 entra n
 entran c
 entranc e
 envelope s
 envi r
 envir on
 environ m
 environm e
 environme n
 environmen t
 even in
 evenin g
 event s
 ex a
 exa c
 exac t
 exact l
 exactl y
 excite m
 excitem e
 exciteme n
 excitemen t
 expect ed
 fac ed
 fall e
 falle n
 famili a
 familia r
 fas c
 fau l
 faul t
 fea s
 feas t
 feed e
 feede r
 field s
 fight s
 finish in
 finishin g
 fir m
 fis t
 fishe s
 fist s
 fla t
 flavor s
 fli p
 flie s
 forget s
 forget t
 forgett in
 forgettin g
 forgot t
 forgott e
 forgotte n
 freez in
 freezin g
 fu z
 fur n
 furn i
 furni t
 furnit u
 furnitu r
 furnitur e
 fuz z
 fuzz y
 giggl in
 gigglin g
 gl im
 glim m
 glimm er
 glimmer in
 glimmerin g
 glove s
 glow ed
 gro c
 groan ed
 groc er
 growl in
 growlin g
 gru f
 gruf f
 grum b
 gu y
 guess e
 guess in
 guesse s
 guessin g
 had n
 hand f
 handf u
 handfu l
 he e
 head i
 headi n
 headin g
 hee l
 hero e
 heroe s
 hippo s
 honk i
 honki n
 honkin g
 hope l
 hopel e
 hopele s
 hopeles s
 hot t
 hott e
 hotte r
 hurt f
 hurtf u
 hurtfu l
 im m
 imaginati v
 imaginativ e
 importan c
 importanc e
 inc he
 inch w
 inchw o
 inchwo r
 inchwor m
 includ e
 inj e
 inj u
 inje c
 injec t
 inju r
 insect s
 inte n
 inten t
 intent l
 intentl y
 invit in
 invitin g
 itch y
 join s
 jok ed
 kayak er
 kick s
 king s
 land i
 landi n
 landin g
 laugh t
 laught e
 laughte r
 le n
 le v
 leas t
 lesson s
 lev e
 li l
 lift s
 lil y
 line s
 listen s
 loose n
 low e
 lowe r
 lu x
 lux u
 luxu r
 luxur y
 mailm a
 mailma n
 mar v
 marv e
 marve l
 me c
 mean in
 meanin g
 meat b
 meatb a
 meatba l
 meatbal l
 meatball s
 mec h
 mech a
 mecha n
 mechan i
 mechani c
 meeting s
 mind e
 minde d
 mischie v
 mischiev ou
 mischievou s
 mix e
 mixe s
 moment s
 momm i
 mommi e
 mommie s
 motorcycle s
 mu n
 muffin s
 mun c
 munc h
 nail ed
 nervous l
 nervousl y
 net s
 night m
 nightm a
 nightma re
 nu z
 nuz z
 nuzz l
 nuzzl ed
 o s
 oc t
 oct o
 octo p
 octop u
 octopu s
 opp o
 oppo s
 oppos it
 opposit e
 os t
 ost ri
 ostri c
 ostric h
 ow e
 p ed
 pa j
 pack in
 packin g
 pad s
 page s
 paj a
 paja m
 pajam a
 pajama s
 pal a
 pal s
 pala c
 palac e
 panic k
 panick ed
 parti c
 partic u
 particu l
 particul a
 particula r
 patien c
 patienc e
 patient l
 patientl y
 pattern s
 paus e
 pe er
 ped a
 peda l
 peek in
 peekin g
 peel s
 peer ed
 perform in
 performin g
 perm i
 permi s
 permis s
 permiss i
 permissi o
 permissio n
 permit s
 pistol s
 pit c
 pitc h
 planet a
 planeta r
 planetar i
 planetari u
 planetariu m
 plann in
 plannin g
 plate s
 pleas u
 pleasu re
 plu g
 plug g
 plugg ed
 poem s
 polis he
 polishe d
 pos s
 poss i
 possi b
 possib l
 possibl e
 pow d
 powd er
 pra i
 pra n
 prai s
 prais ed
 pran k
 pray in
 prayin g
 pre c
 prec i
 preci o
 precio u
 preciou s
 pri v
 princess e
 princesse s
 print ed
 print in
 printin g
 priv a
 pro p
 promise s
 prop er
 protect ed
 provid in
 providin g
 punish m
 punishm e
 punishme n
 punishmen t
 pup i
 pupi l
 pupp i
 puppi e
 puppie s
 quarrel ed
 quarrel in
 quarrelin g
 queen s
 r ul
 ra ck
 rac ing
 rain s
 rais ed
 rak ed
 rak ing
 ran g
 re q
 rea s
 receiv e
 reci t
 recit a
 recita l
 reco m
 recogniz ed
 recom m
 recomm e
 recomme nd
 record ed
 ref l
 refl e
 refle c
 reflec t
 reflect i
 reflecti o
 reflectio n
 releas e
 remember s
 remind i
 reminde r
 remindi n
 remindin g
 remov ed
 repeat ed
 req u
 requ e
 reque s
 reques t
 rescu ed
 resp o
 respo n
 respon s
 reveal ed
 reward ed
 ring s
 rins e
 rip e
 rip p
 risk y
 road s
 rob b
 robb er
 rope s
 rot t
 row ed
 ru m
 ru st
 rubb ing
 rul er
 safe t
 safet y
 sail i
 sail o
 sail s
 saili n
 sailin g
 sailo r
 sailor s
 sal o
 salo n
 salt y
 sand c
 sandc a
 sandca s
 sandcas t
 sandcast l
 sandcastl e
 satisf i
 satisfi e
 satisfie d
 sc e
 sca m
 scam p
 scamp e
 scampe r
 scamper e
 scampere d
 sce n
 sco w
 scow l
 scowl e
 scowle d
 scra p
 scrap e
 scrape d
 scratche d
 scratche s
 scu r
 scu t
 scur r
 scurr i
 scurri e
 scurrie d
 scut t
 scutt l
 scuttl e
 sea w
 seas o
 seaso n
 seaw e
 seawe e
 seawee d
 second s
 seem s
 sees a
 seesa w
 serve d
 shimm e
 shimme r
 shimmer i
 shimmeri n
 shimmerin g
 shine d
 shine y
 shiver e
 shivere d
 sho t
 shoo e
 shooe d
 shy l
 shyl y
 sim p
 simp l
 sing e
 sing l
 sing s
 singe r
 singer s
 singl e
 sink s
