  t
h e
  a
 t h
  s
  w
n d
 th e
e d
  b
 a n
 t o
 an d
  h
  f
i n
  T
r e
 w a
i t
o u
e r
  l
  d
  c
  p
a y
  m
 wa s
o m
 T he
  he
 s a
i s
a r
  n
o n
i m
i d
l l
 h a
l e
a t
  g
  S
t h
o r
m e
o t
e n
a n
i l
n t
t e
r i
n g
i r
l a
 c a
 w i
k e
 h i
 b i
e t
  it
  H
 The y
o o
 d a
u t
 p l
 pl a
 H e
  in
n e
 b e
i e
a m
r o
 w e
  "
o w
 s o
v er
 f o
  u
a l
 sa i
 l o
 pla y
 sai d
e s
 f r
 wi t
 da y
 wit h
  o
  y
p p
 he r
l d
u n
s t
 n o
c e
e e
  I
 S he
c k
e a
 m o
v e
 hi s
 T i
 Ti m
 s t
 d o
 bi g
 m a
 y ou
e nd
ver y
s e
 l i
 b a
  on
 ha p
 hap p
o k
 b o
 fr i
in g
e l
 fri e
 frie nd
 b u
 th a
  L
 the y
d e
 t r
 ha d
 no t
 wa n
r d
  e
 u p
 wan t
 o f
  r
t l
 t i
 fo r
it t
  B
g h
 h o
u l
il y
 g o
 tha t
 happ y
 a l
  M
 sa w
  very
g e
O ne
 mo m
' s
u g
 l it
k ed
i c
 s h
 lit t
 litt l
 littl e
 n a
c h
 s he
l y
 n e
l o
 ti m
 tim e
 f i
 na m
r t
. "
 d i
  k
 the r
 ther e
 w o
 L il
 nam ed
 s m
 Lil y
 p a
r a
 T o
 we r
 wer e
 want e
 wante d
 bu t
 a r
 friend s
T he
u r
u s
h t
c a
 To m
 c o
! "
h i
 he l
 bi r
 li k
r y
 to o
 bir d
p e
O n
y s
 I t
 w h
 we n
 wen t
v ed
  is
 f u
On ce
he r
 hel p
u e
 lo o
u c
 al l
 f e
 loo k
  A
 g i
 up on
 l e
a s
 s e
 f a
 fu n
 a s
n y
 to y
 a t
 di d
  j
 c ou
l i
 st a
 so m
 som e
  re
 c l
w a
 th i
a u
 ca t
 to g
 tog e
 toge t
 toget h
 togeth e
 togethe r
o d
e c
 s u
 tr e
  ou
r s
 p u
 t a
 m e
 lo v
 cou l
 coul d
 do g
 the i
 thei r
a d
 ca n
 gi r
 l a
 ha v
 gir l
 ba l
s s
m y
? "
 f l
 hi m
 play ed
t t
 tre e
 ar e
 ou t
 S u
 bal l
s i
 the m
 b r
he n
  ro
' t
r r
 pa r
p o
 sa d
i a
 fo u
 bo y
u m
 se e
a x
 ma n
 hav e
 sh o
 fou nd
 look ed
 s c
 fe l
 lov ed
 sta r
 S a
w n
 Su e
 as k
 sm i
 smi l
 ma k
g s
 s p
 p i
 smil e
 ba c
 bac k
 fr o
t i
o p
 ca r
 M a
a i
s h
 le a
 lik e
a c
w e
 Ma x
 be c
 thi n
 h u
 star t
g a
 bec a
 g r
c t
 par k
  One
 st o
 wo u
f t
 wou l
 woul d
 fel t
b o
t y
 sm a
 lik ed
 mak e
 d e
  W
Y ou
t o
 ne w
 ask e
 aske d
m a
 B ut
 start e
 starte d
 Sa m
 ca m
  ot
 w he
p l
 j u
 sc a
d d
 ot he
 othe r
 B en
 sma l
 smal l
 go o
n n
 cam e
 some t
 goo d
 sa y
m p
 sca r
 a g
i g
 m u
 wa t
 wo r
 smile d
 th o
 wa l
 he a
 tho u
 thou g
 thoug h
 wh a
 s i
 fi nd
n c
 sh a
 c r
 ma d
 e x
 p o
 a w
 fro m
 though t
 thin g
 wha t
 somet h
 someth i
 somethi n
 somethin g
 ho m
 hom e
 aw a
 S p
 pu t
 awa y
e p
n k
 p r
 play in
 playin g
 li v
 tr i
 be a
 mad e
 r a
 b l
o b
 e very
 g e
 r an
 Sp o
 Spo t
n s
 g a
 wal k
  F
 scar e
 k n
m b
 ho u
  J
 wi l
l s
 la u
 hou s
 hous e
 re a
 scare d
 ag a
 aga i
 agai n
 do w
 dow n
 too k
 lau g
b l
 lea r
 lear n
 bo x
 d r
ou d
 ar o
 aro u
 arou n
 aroun d
  You
 wil l
 pi c
f e
 toy s
 m y
n a
d y
 you r
i f
h a
 whe n
c y
 su n
 thing s
 liv ed
, "
 M i
 the n
t a
 t e
ou s
 p e
 s w
t u
 a b
 co m
 tri e
q u
 sha r
 Mi a
 p re
c he
 kn ow
o s
 say s
 lo t
 c h
 trie d
T im
 ge t
T h
 n i
 go t
i nd
 wh o
 bo t
 k ne
 ab o
g g
 s l
L ily
 m i
 su r
 abo u
 abou t
 man y
 r ed
re a
 cl o
id e
 an y
ll y
 L u
 pre t
 st r
t he
  D
f f
 u s
 de c
 kne w
 fl o
t er
  v
 mo re
p en
 st i
m o
 o p
 hea r
 Lu c
 in t
 ca re
 Luc y
 in s
� �
 learn ed
 al w
 alw a
 alwa y
 alway s
 wat e
 wate r
 be s
 tha n
b e
 beca m
 becam e
 ex c
 dec i
 bes t
 out s
 outs i
 outsi d
 outsid e
 S o
 hu g
 lo n
 deci d
 wi n
 sh i
b b
r m
 exc it
 g re
 beca u
 becau s
 becaus e
 sto r
  ea
 op en
n i
 c u
 laug he
 laughe d
m i
 co l
 M om
  ke
 B o
 sho w
 ro om
 int o
 decid ed
p r
 on e
 fe e
 bot h
s he
 ju m
 jum p
The y
 shar e
 A nd
 e at
 br o
 thi s
 da d
 Bo b
 ta k
nd e
l ed
T om
  E
 excit ed
 fa s
a p
a g
 t u
 r un
 ins i
 fas t
g i
 lon g
 ta l
 fee l
e ll
Y es
 ni c
 s k
 wh i
 insi d
 insid e
 nic e
ar d
 to l
 tol d
 pret t
 prett y
v en
 sp e
 a m
 fo o
 sur p
 surp r
 surpr i
 surpri s
 pic k
 surpris e
 tak e
ar a
 happ e
 happe n
 so r
 fi s
 k i
 an i
 ani m
 anim a
 anima l
a b
 ho w
 do n
 ea c
 eac h
 mu c
 muc h
 gr a
B ut
 fis h
 to w
 cl e
  or
 ga v
 gav e
 care f
 caref u
 carefu l
 o l
 sho u
ou nd
 shi n
  C
 sor r
 sorr y
 le t
 ol d
o l
 than k
 th r
 ro c
s o
i v
 W e
 foo d
 it s
 ha nd
re s
 j o
 walk e
 flo w
 walke d
 sto p
 A m
 ne ar
 flow e
 flowe r
 ki nd
 bea r
 cle a
 Am y
 ha r
 li s
 lis t
r om
i ce
 ju st
 H is
W h
u re
 list e
 liste n
 animal s
b y
 roc k
 wor k
c o
 did n
  en
 be t
 clo s
 happen ed
 bu g
  ide
 ide a
 tr y
 fl e
 wat c
 hear d
 tu r
 com e
 bet t
 bett e
 bette r
 A n
 F r
a k
i o
  if
 hi g
 e v
 br a
 ev en
m m
 sk y
 s n
 fi r
 any m
 anym o
 anymo r
 anymor e
 An n
u i
 sw i
 clea n
 T h
 ho l
 tr u
an k
  ri
 ca l
M om
 t w
e y
 sa f
 a f
Th an
Than k
 ch a
 u nd
 co o
 m ou
 und e
 unde r
 wi s
 ma g
 o ver
 fle w
 bo o
 b y
 saf e
 lot s
 spe c
 The n
 cl i
 spec i
 speci a
 specia l
h in
 d re
 ne v
 nev er
 gr ou
 fl y
 hu r
  end
 g ar
 win d
 har d
 da n
 ba d
e m
 tal k
 br i
 pr ou
 prou d
l u
 lov e
d i
 u n
f o
 gi v
 E very
 cli m
 clim b
 ga m
 gam e
 shin y
 sl i
 ca k
 cak e
 fa m
 for e
L et
 l ou
 lou d
 pe o
 peo p
 peop l
 peopl e
 do o
 doo r
in e
  qu
 Ann a
 c he
 me a
 u ne
' m
 une x
 unex p
 unexp e
 unexpe c
 unexpec t
 unexpect ed
 pick ed
 open ed
 gar d
 gard e
 garde n
 af t
 aft e
 afte r
 surprise d
 Fr om
 grou nd
 hur t
 ne ed
er s
 tur n
is e
 boo k
o c
 wa y
 pla n
  im
 no is
 thank e
 thanke d
 ho p
 cr a
 giv e
 mag i
 magi c
 y e
in t
 pla c
 H er
 e ver
 of f
i ll
A s
 cal l
N o
 hi d
y e
 hug g
 bl u
 S ar
 Sar a
 blu e
 fa r
 hugg ed
 dr a
 so u
 sti l
 stil l
 hig h
  K
 col o
 colo r
 tr a
 g l
 wa i
z e
 plac e
 fam i
 fami l
 s q
 sq u
 W hen
 a p
 happ i
 help e
x t
k ay
  ow
 wai t
 famil y
 a d
 shou l
 shoul d
 lo s
 jump ed
 te a
 rea d
 be e
 I n
 wa r
 no w
 mo v
 gre a
 grea t
 k id
 sa n
 nois e
r ed
 sta y
 st u
h o
 fi n
itt y
 di s
 show e
 bo a
 an g
 helpe d
 u nt
 bea u
 beau t
 d u
 fore s
 mu s
 fores t
 rea l
 pr o
 str o
  P
 sli d
 unt il
 beaut i
 beauti f
 beautif u
 beautifu l
 ex p
 ne x
 nex t
 stor y
a ck
 stro n
 stron g
I t
 showe d
f l
 whi l
 pic t
 pict u
 pictu re
 whil e
 so f
 re m
 im p
 dan c
 ha t
 but t
 stop p
 rea c
 stopp e
 stoppe d
 fro g
 ap p
e re
 tow n
 be i
 bei n
 bein g
 kid s
 ra in
 bl o
 happi l
 happil y
 los t
 k it
 me t
 par t
  R
 do l
 no d
 w r
 wor r
 ang r
 sti c
 stic k
 every o
 everyo n
 everyon e
 b ed
p er
 angr y
 se a
 sof t
 fa c
 mo r
 call ed
 cr y
 y u
 ke e
 kee p
 re s
N ow
W hen
 laug h
 boa t
 bro k
 brok e
 mo n
 si n
 slid e
 thr e
 lea v
 tru c
 truc k
 sp o
 yu m
 yum m
 K itt
 yumm y
 Kitt y
 could n
C an
k i
i z
 bra v
 brav e
 co n
 ti r
 thin k
 be l
 tir e
 qu i
 watc h
 hol e
 to u
 at e
 fo l
oo k
c r
 al s
 als o
 war m
 fac e
Wh at
 wo n
g o
 coo k
 flower s
 leav e
 whe r
 wher e
 gre e
d a
 bi t
 we a
 cr i
 us e
 bu n
in k
 dol l
 so o
w l
 pu s
 r u
 be f
 bef o
 befo r
 befor e
 soo n
 Sa ll
 Sall y
in a
 L et
 gree n
 mou s
 c re
 mous e
 J a
� �
� �
 fel l
 po nd
 bun n
Th at
 bu s
 cu r
 cat c
 bunn y
 ra b
 rab b
 rabb it
o y
 ba r
 p er
 ke p
 kep t
 sa t
 mea n
 catc h
 sin g
The n
 tw o
z z
i p
 ye ll
 D o
 te l
 cl a
 hav i
 havi n
 havin g
 hand s
 fun n
 tire d
 W h
 go in
 goin g
 funn y
 e y
 nod d
 stor e
 sp i
ay b
 bird s
 nodd ed
 swi n
 swin g
 cre a
 for g
 squ i
W e
 br e
 ha s
 us ed
 app l
 C an
 be h
 pu l
 thr o
 pul l
L ook
 o k
 J o
 other s
 di f
 dif f
 ou r
 rem em
 remem b
 rememb e
 remembe r
 look in
 lookin g
H i
 F l
 sl e
 mi s
 squi r
d er
 kit c
 kitc he
 kitche n
 fi x
 y ar
 Th a
 hea d
 a c
 v o
 la d
 mom m
 sun n
 bre a
 san d
 squir r
 squirr e
 squirre l
 wa v
 sunn y
 ad v
 tou c
 touc h
 Fl u
 Flu f
 Fluf f
ell o
 fir e
 Fluff y
H ello
  Now
 momm y
B en
 dre s
 dres s
 hi l
 hil l
 imp o
 Ja ck
 ch i
 ey es
 sou n
 soun d
  G
  z
 col d
 st e
 fir s
 firs t
 her e
 part y
h n
 appl e
 tre a
  ice
 si t
 pi e
z y
 cur i
 hu n
 impo r
 impor t
 import a
 importa n
 so n
 work e
A t
 ri g
 rig h
 righ t
 ag r
 agr e
 agre e
 du c
 duc k
 wav e
e v
 fa v
 fav o
 curi ou
 curiou s
 importan t
 bri g
 brig h
 brigh t
j o
p i
  “
 mor a
 mora l
S o
 be g
 re p
 ok ay
 me s
 bl a
 dra w
 fol l
 foll o
 follo w
 l u
 mak in
 makin g
 di r
 dir t
 pl e
 worke d
 mes s
D on
 adv e
om e
 adve n
 adven t
 advent u
 adventu r
 clo t
 clos e
 wo o
 share d
 ple a
 plea s
g l
 cu t
 sn a
W ow
H e
 fi l
 sw e
 butt e
 butte r
 tal l
 favo r
 en j
 enj o
 enjo y
 pa in
 sle e
 ba g
 favor i
 favori t
 favorit e
 F in
 we l
o re
 slee p
 ow n
 son g
 exp l
 watc he
 blo c
 bloc k
 diff e
 diffe re
 differe n
 beg a
 bega n
 che e
 tel l
 ta s
 g u
 yar d
 da r
 Th i
 ni g
 nig h
 nigh t
 Thi s
 gr o
 ta b
 worr y
 res t
 tab l
 tabl e
 watche d
 ta i
 tai l
 M r
 tra i
 ha i
 hai r
 hun g
 ne e
 need ed
 walk i
 walki n
 walkin g
 vo i
 voi ce
 beh i
 behi nd
 ra ce
A ft
Aft er
M ax
 agree d
 differen t
 feel i
 feeli n
 feelin g
 yell o
 yello w
 car s
 gra b
 p in
t r
 fi g
ou r
 to p
a z
p a
 gra s
 ho t
 dar k
 gras s
 pleas e
S am
 B u
 ma r
 leave s
 D ad
 pa p
 pap er
 li o
 lio n
 shou t
� �
 clos er
 gl a
 flo o
 fr u
ll a
 cri ed
 color s
Wh y
 tw i
 A s
 woo d
 pa t
 gro w
 tas t
 far m
 lad y
u dd
 mov e
 tow e
 tree s
 swe e
a nd
 we t
 wis he
 swee t
 hung r
 hungr y
 bee n
 adventur e
 al o
 swi m
 floo r
h y
 sw a
 friend l
 trai n
 Su d
 Sud d
 Sudd e
 Sudde n
 Sudden l
 Suddenl y
 friendl y
S ue
 alo n
 pain t
A nn
 cla p
 ma t
 car r
 butter f
 butterf l
 read y
 climb ed
 do e
 doe s
an e
 pie c
 reac he
 ro ll
g er
 piec e
 turn e
 turne d
 listen ed
 dr o
 de l
 pus he
ou g
 ba t
 rep l
 bu i
 bui l
 on l
 onl y
on e
 sm e
 sme l
 wal l
Ann a
 run n
 ti g
 smel l
 Bob o
 hid e
 wa g
 ge n
 pro m
 prom i
 promi s
 Tha t
 r ou
is y
 broke n
 an o
 ano t
 anot he
 anothe r
 runn in
 runnin g
 fig h
 figh t
 fu l
 pr in
 reache d
 ful l
  O
 coo l
v i
 bo w
S ara
u b
 help i
 helpi n
 helpin g
 dr i
 wishe d
S he
 block s
 hop p
S udd
Sudd en
Sudden l
Suddenl y
 cook i
 cooki e
 plan t
 crea m
 g on
 si g
 D a
 Every o
 Everyo n
 Everyon e
 butterfl y
 nam e
 pushe d
 good b
 goodb y
 goodby e
 pa s
 chi l
s p
 sc r
 stu c
 stuc k
 gon e
 won d
p s
 A ll
 do in
 doin g
 wond e
 wonde r
M ia
 hol d
 wea r
 d in
 li g
 lig h
 ligh t
 le s
 les s
 sn o
u st
 n u
 str e
 chil d
 gla d
 mom e
 mome n
 momen t
 qui ck
 not i
 noti c
 pret e
 prete nd
 ba b
 per f
 expl o
 del i
 fin i
 fini s
 big g
 bigg e
 sno w
 m in
 po l
 explo re
 am a
 ama z
 mi g
 mus t
 mig h
 migh t
 fa i
 dirt y
 don e
 tea c
 teac h
 a i
 fl a
 try i
 tryi n
 tryin g
 danc e
 str a
 J an
 sl o
 bab y
v y
 com p
 pi l
 sp a
 wis e
c l
 slo w
 see s
 look s
 In s
 Tim m
 Timm y
 fai r
g u
 wind o
 windo w
 r id
 towe r
 scar y
 Jan e
 com in
 comin g
 cl ou
 clou d
 fi e
 buil d
 fa l
 fal l
 pe a
 wr o
 cu p
 bar k
 sp l
 she l
d o
 Da is
 Dais y
 le f
 lef t
 shout e
 shoute d
 fru i
 frui t
 ai r
 repl i
 thro u
 throu g
 throug h
 repli ed
 sur e
 jo b
 bro t
 brot he
 brothe r
 wood s
 remember ed
 clap p
 ti n
 wh y
 cr o
 pull ed
 dre a
 la nd
 drea m
 si l
 bu y
 con t
 swa m
o om
 ball o
 ballo o
 balloo n
 jo in
 tin y
 book s
 dri v
O kay
 an t
 bot t
 reac h
 pe n
nd y
 game s
 grab b
 li f
 hel d
 bra n
 bran c
 wor d
hi le
 thre e
 trea t
n o
 mu m
' re
 The r
 Ther e
 mo t
 any t
 clot he
 clothe s
 less o
 lesso n
 ca nd
 ke y
 se t
 win g
 see n
 B e
 notic ed
 quick l
 quickl y
 grabb ed
 cou n
 hea v
 stay e
 staye d
 coun t
 wor l
 worl d
 fil l
 ow l
 tig h
 tigh t
 M ar
 mou t
 mout h
c u
 mis s
 bigge r
 ca u
 bl e
 whi s
H er
 A f
 hopp ed
 picture s
 no s
 color f
 colorf u
 colorfu l
 real i
le a
 Af t
 Aft er
 j e
L uc
Luc y
 wave d
O h
 pu r
 sp r
 every w
 everyw he
 everywhe r
 everywher e
 wait e
 spl a
 sa v
 somet i
 someti m
 sometim e
 clapp ed
 heav y
 anyt h
 anyth i
 anythi n
 anythin g
J o
 pin k
 re l
 ca s
 spla s
 sometime s
 spo t
a in
 bi k
 alon e
 bo u
 bik e
 Bu d
 Bud d
 Budd y
 mon s
e b
 gl o
 mons t
 monst er
S p
 ne s
 nes t
 ye ar
Th is
 na p
 scr e
 Jo h
 chee r
 enjoy ed
 waite d
 fr e
 him s
 hims e
 himse l
 himsel f
 rid e
k y
 gen t
 follow ed
 like s
 de s
 thre w
ed i
 ble w
 mus i
 musi c
Sp ot
 Mom m
 po t
 fast e
 la t
 se c
 mi l
 sho e
 Joh n
 su c
 turn s
 Momm y
 ho r
 mi x
 make s
 c e
 forg o
 forgo t
 gi f
 gif t
 sk i
 B i
 ho n
 rou nd
 bea c
 beac h
 ste p
o g
 stra n
 stran g
 strang e
 R e
 danc ed
 ar m
 de e
 dee p
" .
 brea k
 pa re
 pare n
 paren t
 si d
 sid e
 ch o
 v i
 sav e
at e
 Ins id
 Insid e
 cha i
 chai r
 fie l
 fiel d
 E m
 bott l
 bottl e
 lea f
 wel l
 whi t
 whit e
f i
 want s
I n
 Wh at
 din n
 dinn e
 dinne r
 qui et
 cha s
D o
 bat h
 co a
 tr o
 rock s
F rom
 gra nd
 sil l
 wro n
 wron g
 fu r
 tast e
 dro p
 hon e
 cont in
 contin u
 sill y
 M ay
 bla n
 blan k
 cha n
 fly i
 flyi n
 flyin g
 to d
 reali z
 butt o
 butto n
 e m
 hi t
 sec r
 secr e
 secre t
 fre e
 under s
 unders t
 blank e
 blanke t
 po o
 bro u
 brou g
 broug h
 brough t
 sho o
 dan g
Jo hn
  el
 dang er
 san g
 some o
 someo n
 someon e
 fe a
 ri v
 riv er
 deli c
 tod a
 toda y
 bla c
 blac k
 worr i
 worri e
 ba s
 si s
 v is
 Tom m
 Tomm y
 le g
 sis t
 sist e
 siste r
W hile
 continu ed
 sma r
 smar t
l v
 cookie s
 str i
 talk e
 talke d
 vis it
H is
 ar r
 mot he
 mothe r
 shar i
 shari n
 sharin g
 Sara h
 lu n
 perf e
 perfe c
 perfec t
 cas t
 wag g
is s
w i
 careful l
 carefull y
 dr y
 sto n
 ston e
A my
 real l
 reall y
 worrie d
 bo r
 bow l
 sai l
er a
 dra g
 finis he
 mu d
 be n
 plan e
 el se
 wis h
 cast l
 castl e
 e le
 sho p
 Bi ll
 finishe d
 pu d
 pud d
 co w
 promis ed
 May b
 Mayb e
 hig he
 y es
 sig n
 faste r
 min e
 bit e
 branc h
 pudd l
 puddl e
 pus h
o a
 So on
 or a
 ora n
 oran g
 orang e
 dr in
 drin k
 every t
 realiz ed
 A t
 fo x
 prin c
 en ou
 enou g
 enoug h
 everyt h
 everyth in
 everythin g
 Lil a
 pi g
 princ e
 get t
 gett in
 gettin g
 mo s
 sha p
 shap e
 smile s
 Jo e
 child re
 childre n
 pur p
 ask s
 danger ou
 dangerou s
 purp l
 purpl e
ayb e
b a
 do c
 e ar
 cra b
 fi t
 parent s
 underst a
 understa nd
M aybe
 doc t
 doct o
 docto r
 highe r
 drag o
 drago n
 word s
 cry in
 cryin g
J ust
i on
 lun c
 pe t
 wel c
 welc o
 welco m
 co in
 chan g
 lunc h
 pa w
 fill ed
 shin i
 wagg e
 wagge d
 pr a
 ti e
 welcom e
 at t
 liv in
 livin g
 let t
 as h
 thro w
s er
 so l
 she e
 shini n
 shinin g
 sm o
 eat in
 eatin g
 shoe s
 se l
 cra y
 cray o
 crayo n
 roll ed
 trea s
 treas u
 treasu r
 treasur e
 piece s
lea s
leas e
 clos ed
 sc h
 sch o
 scho o
 schoo l
 bel o
 whis t
 whist l
  -
e o
 pu p
 bel i
 beli e
 fa n
 wing s
! ”
a ll
  ve
 belie v
 po w
 with o
 witho u
 withou t
. ”
 bri n
 brin g
 co r
 sna c
 snac k
ra nd
 lo c
 bro w
 brow n
 coa t
 so a
 mon k
 ro a
 bark ed
 monk e
 monke y
s a
 bu r
ll i
 her s
 loc k
 j ar
 nos e
 own er
 roa d
 H o
 mov ed
 re c
 sit t
 sitt i
 sitti n
 sittin g
 fin a
 Bill y
 fina l
 pea c
le s
 dis a
 pla t
 think s
b r
 laugh in
 laughin g
 plat e
 sou p
 cau g
 caug h
 caugh t
 lon e
 lone l
 cou r
 hop ed
 year s
 cand y
 final l
 finall y
 po p
 talk i
 talki n
 talkin g
 twi n
 la k
 lak e
 sha k
P lease
 hor s
 hors e
 ro b
it e
 lonel y
 run s
B ob
oo d
 fair y
 pas t
 we i
 wr i
 po in
 poin t
  Z
im i
 sa m
 squ a
 ste a
 to m
r u
 J en
 apple s
o x
 sam e
Mom m
 B l
 S om
 crea t
 de a
 you n
 youn g
 Som e
 amaz i
 amazi n
 amazin g
 rain b
 rainb o
 rainbo w
 sna k
 ele p
 elep h
 eleph a
 elepha n
 elephan t
 snak e
 hid i
 hidi n
 hidin g
 liv e
 tri p
 hea l
 la s
 pa n
 ben c
es t
 day s
 te d
 ted d
 tedd y
 bus h
 gent le
 g at
 mor n
 morn in
 mornin g
 lif t
 ce l
 tro u
 trou b
 troub l
 troubl e
 whistl e
 clot h
 rob ot
 Fr ed
 hers e
 herse l
 hersel f
 in c
 spi n
 G ra
 see m
 vi ll
 vill a
Momm y
 grand m
 k is
 kis s
at er
 benc h
 sea r
 sear c
 delic i
 delici ou
 deliciou s
 pas s
 p h
 ph o
 k ing
 mo d
 belo n
 belon g
 villa g
a v
 spo o
 believ e
 mon e
 mone y
 ru b
 tri c
e k
 Em ma
 gr u
 sh r
 spoo n
 c i
 my s
 see d
 gre w
 scre a
 screa m
 ki ck
O K
 co v
 gru m
 na u
 nau g
 naug h
 naugh t
 Wh is
 cov er
 cut e
 naught y
 sing i
 singi n
 singin g
 ac t
 doll s
 shee p
 whe e
 whee l
 wri t
er v
 per s
 tric k
 wo k
 wok e
 bo n
 ci r
 cir c
 grandm a
 su d
 sud d
 sudd e
 sudde n
 up s
 bu c
 buc k
 grum p
 pat i
 pati e
 patie n
 wor e
 M im
 Mim i
 bon e
 pow er
 con f
 lett er
 pup p
 cheer e
 cheere d
 shoo k
 bou n
 boun c
 ne c
 grump y
 mis t
 stor m
 Bl u
 an s
 ans w
 answ e
 answe r
 ma i
 mai l
 Blu e
 hear t
 pol i
 pro b
 sa c
 sac k
 splas h
 arr i
 arri v
 cour s
 cours e
 farm e
 farme r
 o b
 arriv e
 bus y
 feel s
 kit e
 tast y
 carr y
 rel i
 bas k
 bask e
 baske t
 ins t
 mil k
 swing s
 un i
 Whis k
 Whisk er
 Whisker s
 ab l
 abl e
 amaz e
 brea d
 cl u
 drop p
 fore v
 forev e
 foreve r
 gr ay
 kn o
 teach e
 or g
 org a
 orga n
 mat c
 prob l
 probl e
 proble m
 pupp y
 touch e
 wan d
 ea s
 ma c
 Tha n
 Than k
 chee s
 mar k
 organ i
 organi z
 chees e
 fa t
 mac h
 mach in
 machin e
 pa i
 fight i
 fighti n
 fightin g
 l in
 patien t
 sta n
 stan d
 villag e
G ood
ck y
 bel l
 help f
 helpf u
 helpfu l
 sh y
 shape s
 treat s
 Gra nd
 nec k
 twin s
' ll
re l
v a
 jo y
er r
 disa p
 disap p
 m ay
 spa r
 car d
 dropp ed
F ina
Fina l
Final l
Finall y
am a
 circ l
 circl e
 e g
 eg g
 fe w
 ha n
J ack
 ba k
 han g
 pa c
 pil e
er i
 C h
 bug s
 hop e
 mos t
 stre e
 stree t
 tow a
 towa r
 towar d
 ro p
 rop e
i pp
 nu t
 sha d
 song s
 teache r
 see k
 touche d
 your s
 magic a
 magica l
 pre s
 wonder f
 wonderf u
 wonderfu l
ar r
 carr o
 carro t
 sound s
 T in
 dad d
 pac k
 prin t
 shak e
 mat t
 li c
 spar k
 ri c
er y
  ig
 ca b
 col l
 fe n
 fen c
 fenc e
 arrive d
 dadd y
L ater
 ba nd
 noise s
 promis e
 spe n
 amaze d
 com f
 dis t
 suc c
 succ e
 toward s
 in v
 lu c
 luc k
 sa l
 u g
 ug l
 ugl y
 bir t
 birt h
 birth d
 birthd a
 birthda y
 j ou
 jou r
 jour n
 lat e
 sea t
 shi r
 shir t
B e
 sc o
 ta p
 wo l
 po c
 poc k
 pock e
 pocke t
S ure
 inst e
 inste a
 instea d
 rec o
 slow l
 slowl y
 sta t
w o
 jo ke
 stor i
 z o
 zo om
 ru de
 snow m
 dr u
 ne t
 not e
 su p
 Mar k
 ca v
 j a
 Re my
 cav e
 dru m
is a
 Fin a
 Fina l
 Final l
 Finall y
 conf u
 confu s
 dis c
 wol f
 cra w
 craw l
 hug e
 ju i
 jui ce
 kn i
 shel l
 stri n
 strin g
 M o
 dro v
 drov e
 im a
 ima g
 mys t
 myst er
 stori e
 storie s
 wr a
 wra p
 draw in
 drawin g
 sli p
 wi p
 an c
 lin e
it h
 can n
 cann o
 confus ed
 ho s
 las t
 ro ar
 fol d
 hold i
 holdi n
 holdin g
 pat h
 comf o
 comfo r
 comfor t
 miss ed
 nu m
 num b
 numb er
 pil l
o lly
 tak i
 taki n
 takin g
 z oo
 bri d
 si c
 sic k
 C at
 driv er
 hone y
 sn e
 snowm a
 snowma n
 ac c
 ball s
 canno t
 ch u
 p ou
 ups et
 forg e
 forge t
 glo w
 prince s
 princes s
 brid g
 bridg e
 cloud s
 dre w
 k itt
 me e
 mee t
 te n
 ti d
  i
 bo s
 bos s
 chang e
 mo o
al u
 di g
 o v
 wil d
 C om
 J u
 come s
 mar c
 pr i
 step p
u ck
 cor n
 fr a
 hug s
 ov en
es s
 driv e
 or d
 pu z
 puz z
 puzz l
 v al
 R o
 kno ck
 wi d
 writ e
 ac r
 acr o
 ba n
 dog s
 sa u
 tur t
 turt l
 turtl e
 val u
 wid e
 un c
is h
 Com e
 su g
 J i
 Ji ll
 bath r
 bathr o
 go l
 gr at
un n
 acro s
 acros s
 inv i
 leg s
 lif e
 spi c
 wip e
 J im
 adventure s
 hid d
 hidd e
 hidde n
 sou r
 star s
? ”
 seem e
 seeme d
O f
ic y
 Mom o
 car t
 grat e
 grate f
 gratef u
 was n
 wor m
 O ll
 Oll i
 Olli e
 cle v
 fix ed
 inc r
 mi c
 sand w
 sandw i
 sandwi c
 ski p
 Grand m
 mess y
 pho n
 phon e
 shel f
 sudden l
 suddenl y
 clev er
 fruit s
 gratefu l
 r ing
 stepp e
 steppe d
H ey
 shar p
M um
 Grandm a
 shr i
 me l
 puzzl e
 sleep y
 was h
 duck s
 fea t
 twi s
 twis t
 S t
 build i
 buildi n
 buildin g
 dis h
 invi t
 lat er
 spic y
 who l
 whol e
 che s
 feat he
 feathe r
 save d
 smo o
 splas he
 crayon s
 smoo t
 je ll
 jell y
 luck y
 sel f
 smoot h
 so c
 J er
 app e
 jo g
 self i
 sti r
il a
 appe a
 selfi s
 selfis h
L ila
 appea r
 cal m
 land e
 lande d
 long er
 pou r
 pro t
 prot e
 L is
 pra c
 prac t
 pract i
 prote c
 protec t
her e
 moo n
  On
 Jer r
 Jerr y
 Ju st
 buck e
 bucke t
 shi p
 take s
ee p
  es
 ho o
 mea s
 meas u
 watch i
 watchi n
 watchin g
 a v
 fin g
 fing e
 finge r
 heal t
 healt h
 mi nd
 cro s
 cros s
 smell y
 spr a
 chas ed
 finis h
 pol it
 polit e
 alon g
 con e
 eas y
 peac e
So on
 bu b
 bub b
 bubb l
 practi c
 sho r
 suc h
 T r
 boss y
 la z
 laz y
 ea g
 kne e
 la w
 may b
 mayb e
 Be ll
 clea r
 fl u
 lad d
 ladd er
 mod e
 bou g
 boug h
 bough t
 expl or
 face s
 Bell a
 Dad d
 Dadd y
 P e
S t
 clo w
 clow n
 fro n
 fron t
 ig n
 plant s
 poo l
 tea r
 tu b
 y a
 arm s
 place s
 stick s
 stu d
 wait i
 waiti n
 waitin g
ir p
 B un
 Bun n
 Bunn y
 Lis a
 Wh y
 bea k
 bubbl e
 clean ed
 forg i
 forgi v
 spra y
 close t
 cro w
 health y
 res p
 tea s
 Mar y
 co z
 coz y
 spo i
 spoi l
 v a
 we e
C ome
 poo r
 tid y
 tu n
 M y
 com b
 fa k
 fak e
 sol v
u p
 P o
 bal d
 blo o
 brea t
 bu l
 comp l
 kitt e
 kitte n
 mic r
 micr o
 wea k
 ad m
 adm i
 be r
 ber r
 o c
 spe a
 tel e
 int e
 ro d
 scar f
 stre t
 stret c
 tru s
 trus t
 ad d
 admi r
 em b
 foo t
 back y
 backy a
 backya r
 backyar d
 inte re
 intere s
 interes t
 interest in
 interestin g
 la y
 re t
 ret u
 retu r
 retur n
 rub b
 se r
 gi a
 gia n
 gian t
 matc h
 pill o
 pillo w
 splashe d
 L e
 W it
 ne i
 nei g
 pen c
 penc i
 penci l
 rou g
 soc k
 solv e
 spark l
 wonder e
 wondere d
 Wit h
 emb ar
 embar r
 embarr a
 embarra s
 embarras s
 fea r
 mist a
 mista k
 mistak e
 n er
 ner v
 nerv ou
 nervou s
 roug h
 th u
 T V
 The i
 Thei r
 forgiv e
 hone s
 hones t
 love l
et er
 em p
 le m
 lem o
 lemo n
 wag o
 wago n
 br u
 emp t
 empt y
 neig h
 pa l
 work i
 worki n
 workin g
M y
 To g
 Tog e
 Toge t
 Toget he
 Togethe r
 af r
 afr a
 afra i
 afrai d
 fan c
 lovel y
 D on
 bak e
 coll e
 colle c
 collec t
 creat i
 din o
 dino s
 dinos a
 dinosa u
 dinosau r
 fanc y
 fla g
 jump ing
 mi r
 mo l
 L i
 ash a
 asha m
 asham e
 ashame d
 qu es
 ques t
 di a
 disc o
 neigh b
 not h
 noth in
 nothin g
 smell e
 smelle d
 sup p
 give s
 mol e
 quest i
 questi on
 sun s
in s
 disco v
 discov er
 power f
 powerf u
 powerfu l
un a
 Ch ir
 Chir p
 boa r
 bru s
 imag in
 mov i
 movi e
 shar k
 go e
 goe s
 near b
 nearb y
 slip p
Tom m
Tomm y
 Re x
 boar d
 exp en
 exp la
 expen s
 expens i
 expensi v
 expensiv e
 gat he
 gathe r
 pers o
 perso n
 spa c
 spac e
 swim m
 D u
 Tin y
 appear e
 appeare d
 bea n
 eag er
 fee t
 pi z
 piz z
 pizz a
 ra d
 te e
 bar b
 barb e
 ca p
 tee t
 teet h
 Le o
 da u
 dau g
 daug h
 daugh t
 daught er
 expla in
 mir r
 mirr o
 mirro r
 point ed
 barbe r
 dist a
 dista n
 on t
 ont o
 pretend e
 pretende d
 sto o
 to a
 toa s
 toas t
 cel e
 cele b
 celeb r
 celebr a
 celebra t
 gu n
 la r
 lar g
 wo m
 wom a
 woma n
 ban a
 bana na
 fin e
 gent l
 gentl y
 hu m
 shin e
K itty
 fru s
 frus t
 frust r
 frustr a
 frustra t
 lo g
 put s
 I f
 cha l
 cou c
 couc h
 larg e
 myster i
 shad o
 shado w
 wha l
 whal e
 frustrat ed
 small e
 spi d
 spid e
 spide r
 squa r
 squar e
et a
 Sam m
 Samm y
 beh a
 beha v
 ra c
 taste d
 Ho w
 Some t
 disapp e
 disappe a
 disappea r
 love s
 nos y
 ro s
 corn er
 la m
 mysteri ou
 mysteriou s
 ric h
 sal a
 sala d
 te s
 tes t
 wear i
 weari n
  N
 Chirp y
 L un
 balloon s
 lic k
 los e
 wearin g
 Mo ll
 Moll y
 new s
 ros e
 W i
 poli c
 pu m
 pum p
 stoo d
 sun f
 sunf l
 sunfl o
 sunflo w
 sunflow e
 sunflowe r
 swimm i
 swimmi n
 swimmin g
e an
or m
 Ben n
 Benn y
 Du ck
 any o
 anyo n
 anyon e
 bor i
 bori n
 borin g
 gl u
 nois y
 polic e
 searc h
 Lun a
 bec o
 beco m
 che w
 cra z
 even t
 gu e
 gue s
 lea d
 ve g
 creati v
 slipp e
 tom o
 tomo r
 tomor r
 tomorr o
 tomorro w
 trie s
St op
f a
pp er
  icy
 craz y
 es c
 esc a
 esca p
 fur r
 furr y
 tru e
w el
 imp re
 impre s
 impres s
 succe s
 succes s
 veg et
 veget a
 vegeta b
 vegetab le
 wei g
 y o
 yo g
s c
 G o
 M am
 lam p
 mou n
 moun t
 pump k
 pumpk in
 wei r
 weir d
 z ip
 comfort a
 comforta b
 comfortab l
 de er
 her o
 mar r
 marc h
 matt er
 mount a
 mounta in
 paint ed
 Tr u
 chas e
 crow n
 ga s
 paint in
 paintin g
 bal a
 bala n
 balan c
 flo a
 floa t
 incr ed
 incred i
 incredi b
 incredib l
 jo ll
 joll y
 tra c
i ve
 admir e
 bat t
 bloo m
 comfortabl e
 go at
 gol d
 se n
 wave s
 z i
 zi pp
A nd
a lly
 Mam a
 ant s
 je w
 scream e
 screame d
 spr i
 spri n
 E v
 fam o
 famo u
 famou s
 glu e
 jew el
 journ e
 journe y
 no r
 po k
 re f
 resp e
 respe c
 respec t
 sne e
 snee z
 to r
n ow
 bur n
 creativ e
 di z
 diz z
 dizz y
 mea l
 measu re
 might y
 mom s
 nor m
 norm a
 norma l
 pa y
 sc i
 tom a
 toma t
 tomat o
  U
 ex am
 ha l
 incredibl e
 m ed
 mo p
 pe e
 sandwic h
 ti c
 tic k
 embarrass ed
 ma s
 sug a
 suga r
 te r
 M u
 bounc e
 ca g
 cag e
 carr i
 co p
 for k
 gi g
 j am
 smalle r
 ter r
 cand l
 candl e
 fra g
 gues s
 ja c
 jac ke
 jacke t
 peace f
 peacef u
 peacefu l
 ten t
er t
 batt e
 batte r
 frag i
 fragi l
 fragil e
 fro w
 frow n
 gig g
 ra re
 sca l
 smil i
 smili n
 smilin g
 squ e
 en v
 sw o
 whis p
 whisp e
 whispe r
S ally
ow n
 free z
 gen er
 thank f
 thankf u
 thankfu l
 cra c
 crac k
 du l
 dul l
 hair y
 knock ed
 paw s
 soa p
 stu f
 stuf f
 terr i
u d
 creat u
 creatu re
 explor in
 explorin g
 organiz ed
 sor t
b u
he l
 hel l
 hell o
 know in
 knowin g
 ma p
 pe p
 pep p
 pepp er
 roc ke
 rocke t
 sol d
 spen t
 too l
 wa f
 would n
 becom e
 danc in
 dancin g
 gener ou
 generou s
 na t
 spoil e
 squa s
 trac k
 waf f
 waff l
 waffl e
 was he
k n
oo f
  3
 Tru e
 a u
 carri ed
 freez e
 sci s
 scis s
 sciss o
 scisso r
 scissor s
 spoile d
 B es
 pic n
 picn i
 picni c
 reli e
 scal e
 tap e
 Ev en
 cu b
 hur r
 str u
 the s
 thes e
 un k
 yell ed
 Do gg
 Dogg y
 berr i
 berri e
 berrie s
 hear s
ue en
 Bes s
 P le
 Ple a
 Plea s
 Pleas e
 Somet i
 Someti m
 Sometim e
 Sometime s
 comp a
 foo l
 glo om
 pres e
 prese n
 stone s
 stud y
 towe l
 washe d
H el
Hel p
or r
pp y
 Be ar
 E ll
 breat h
 dra n
 dran k
 end i
 endi n
 endin g
 fla s
 gloom y
 thi c
 thic k
 wea l
 weal t
 wealt h
 Bess ie
 Em ily
 branc he
 branche s
 co s
 presen t
 squas h
 u m
 um b
 umb re
 umbre l
 umbrel l
 umbrell a
 unk n
 unkn ow
 va se
ir d
r in
 Duck y
 lo y
 loy a
 loya l
 unknow n
ou n
 cat s
 chal k
 cover ed
 du g
 grou p
 smo k
 tig e
 tige r
 v an
 wro t
 wrot e
W here
 Bob b
 Ho p
 Wi ll
 brus h
 che a
 clo c
 cloc k
 cos t
 do v
 dov e
 fool i
 mix ed
 sel l
g re
 Mu m
 bro c
 broc c
 brocc o
 brocco l
 broccol i
 fooli s
 foolis h
 har m
 j ug
 off i
 offi c
 sneez e
 war n
 wealth y
te a
 W hi
 any w
 blo w
 boy s
 decid e
 man a
 mana g
 re v
 rev e
 ta u
 v in
 vin e
 ask i
 aski n
 askin g
 op er
 oper a
 past a
 stu p
 stup i
 stupi d
 tau g
 taug h
 taugh t
 underst o
 understo o
 understoo d
 uni q
 uniq u
 whi c
 whic h
A re
or a
  No
 Bobb y
 as l
 asl e
 asle e
 aslee p
 cab in
 ches t
 dec o
 deco r
 decor a
 decora t
 diff i
 diffi c
 diffic u
 difficu l
 difficul t
 hos e
 searc he
 searche d
 terri b
 terrib l
 un u
 uniqu e
 unu s
 valu e
 bar n
 bl i
 boo t
 cra n
 cro c
 dis g
 disg u
 rel a
 terribl e
 unus u
 unusu a
 unusua l
 cau l
 caul i
 cauli f
 caulif l
 caulifl o
 cauliflo w
 cauliflow er
 chi c
 chic k
 excit in
 excitin g
 fe ed
 o y
 oy s
 oys t
 oyst er
 rela x
 sau c
 sauc e
rea m
  '
 T w
 bo d
 for t
 ign or
 r h
 reco r
 recor d
 relie v
 reliev ed
 smok e
 spr e
 spre a
 sprea d
 stea l
al ou
an g
q ueen
  queen
 Jen n
 cri c
 cric k
 crick e
 cricke t
 cub e
 des i
 disgu s
 disgus t
 r at
T og
Tog et
Toget he
Togethe r
re e
 ang e
 av o
 croc o
 croco d
 crocod i
 crocodi l
 crocodil e
 desi g
 desig n
 flas h
 neck l
 neckl a
 neckla c
 necklac e
 sco o
 sur f
 tri a
 tria n
 trian g
 triang l
 triangl e
 yar n
c ream
 cran e
 escap e
 join ed
 thought f
 thoughtf u
 thoughtfu l
 tub e
 wa k
 adventur o
 adventuro u
 adventurou s
 bli n
 blin k
 fri d
 frid g
 fridg e
 gat e
 je al
 jeal ou
 jealou s
 pri z
 reli a
 relia b
 reliab l
 reliabl e
 sig h
 snack s
H ere
 Ins te
 Inste a
 Instea d
 P a
 dea d
 fou n
 foun t
 fount a
 founta i
 fountai n
 kni f
 knif e
 priz e
 swo r
 swor d
 weig h
 bathro o
 bathroo m
 cla s
 disgust in
 disgustin g
 hat s
 loo p
 nod s
 use f
 usef u
 usefu l
 yours e
 yourse l
he a
 a e
 ae r
 aer o
 aero p
 aerop l
 aeropl a
 aeropla n
 aeroplan e
 clas s
 dol p
 dolp h
 dolph in
 gra c
 pick s
 stu b
 stub b
 vi o
en n
it i
ro w
 grac e
 mel t
 stubb o
 stubbo r
 stubbor n
a re
orr y
 B ir
 Bu z
 Buz z
 bel t
 blue b
 blueb e
 bluebe r
 blueber r
 fie r
 fier c
 fierc e
 find i
 findi n
 findin g
 stat u
 statu e
 su i
 sui t
 tur k
 turk e
 turke y
 vio l
 viol in
I ns
 bas e
 boat s
 col ou
 colou r
 egg s
 j et
 li z
 liz a
 liza r
 lizar d
 loud e
 oc e
 oce an
 shri m
 shrim p
 thi r
 thre a
gh t
 anc i
 anci e
 ancie n
 ancien t
 ange l
 bi c
 bic y
 bicy c
 bicyc l
 bicycl e
 cost u
 costu m
 costum e
 tra p
 trick s
i lly
 ac o
 aco r
 acor n
 gu i
 gui l
 guil t
 ha y
 house s
 o a
 p it
 swa n
 wak e
D ad
M ar
 B ou
 Bou n
 Boun c
 la b
 ord in
 ordin a
 ordina r
 ordinar y
 pee k
 tea m
 time s
b i
c an
 bit t
 bitt e
 cha r
 chea p
 clu m
 clum s
 clums y
 comp u
 compu t
 comput er
 wipe d
 Whi le
 bod y
 chang ed
 grace f
 gracef u
 hair c
 hairc u
 haircu t
 hopp i
 hoppi n
 hoppin g
 lo w
 loude r
 mail b
 neighb o
 neighbo r
 nut s
 off er
 pi r
 pir a
 pira t
 pirat e
 skip p
 tru n
 trun k
 wi r
 wir e
B o
The i
Thei r
an o
 B ro
 clu b
 fla m
 guilt y
 hor n
 mailb o
 mailbo x
 shor e
 spot t
 spott e
 spotte d
 strange r
 tou g
 toug h
Ins id
Insid e
h r
 A l
 ha m
 met a
 meta l
 mis er
 rem i
 remi nd
 soa r
 sun g
S orry
 al m
 alm o
 almo s
 almos t
 base b
 baseb a
 baseba l
 basebal l
 comp e
 fire w
 firew o
 harm l
 harml e
 harmle s
 harmles s
 impress i
 impressi v
 impressiv e
 miser a
 misera b
 miserab l
 miserabl e
 nap k
 napk in
 ot t
 ott er
 un l
 vo l
J im
r ou
 bu m
 che c
 chec k
 chick e
 chicke n
 compe t
 mag n
 ru g
 sprin g
 sque e
 squee z
 stat i
 stati o
 statio n
 sung l
 sungl a
 sungla s
 sunglas s
 sunglass e
 sunglasse s
 vegetable s
 vol c
 volc an
 volcan o
 firewo r
 firewor k
 flash l
 flashl i
 flashli g
 flashlig h
 flashligh t
 m it
 min u
 minu t
 minut e
 mit t
 mov in
 movin g
 qu it
 shoo t
 Jenn y
 balanc e
 bra c
 brac e
 cheer f
 cheerf u
 cheerfu l
 explain ed
 fear f
 fearf u
 fearfu l
 gra p
 grap e
 hel m
 helm e
 helme t
 mark e
 marke t
 par a
 supp o
 tele p
 telep h
 teleph o
 telepho n
 telephon e
i k
 Bir d
 Z oom
 brace l
 bracel e
 bracele t
 bum p
 cho c
 choc o
 choco l
 chocol a
 chocola t
 count ed
 g h
 gh o
 gho s
 ghos t
 mitt e
 mitte n
 po i
 slippe d
 stand i
 standi n
 standin g
 tun n
 tunn e
 tunne l
 whisper e
 whispere d
ld er
 box e
 boxe s
 bubble s
 cho o
 chocolat e
 cri e
 crie s
 lock ed
 mas k
 need s
 news p
 newsp a
 newspa p
 newspap er
 pig e
 pige o
 pigeo n
 pra y
 si z
 ta n
 take n
 unl o
 wit c
 yoursel f
E very
 Bro w
 Brow n
 anc h
 anch o
 ancho r
 arr o
 arro w
 att a
 atta c
 cab l
 cabl e
 compet it
 competit i
 e ld
 kick ed
 ra v
 rav en
 success f
 successf u
 successfu l
 tell s
 thi e
M e
The r
Ther e
 P i
 cat er
 cater p
 caterp i
 caterpi l
 caterpil l
 caterpill a
 caterpilla r
 eld er
 har s
 ri b
 te m
 tem p
 tie d
 trouble d
Wh o
m ou
 bor r
 borr o
 borro w
 care l
 carel e
 carele s
 careles s
 compa s
 compas s
 compass i
 compassi o
 compassio n
 gracefu l
 hars h
 mos q
 mosq u
 mosqu it
 mosquit o
 pa nd
 pand a
 para d
 poli s
 pop u
 popu l
 popul a
 popula r
 rib b
 stri p
 thir s
 thirs t
 thirst y
 too t
 whe a
 whea t
 wheel s
 acc e
 avo c
 avoc a
 avoca d
 avocad o
 belong ed
 en or
 enor m
 enorm ou
 enormou s
 gar a
 gara g
 garag e
 pa g
 pag e
 po s
 pres s
 ru in
 siz e
 sna p
 tall e
 us in
 usin g
 witc h
 acce p
 accep t
 flam e
 gla s
 glas s
 mode s
 modes t
 mu g
 parad e
 ru s
 show s
 spe e
 sta i
 swi t
 swit c
an y
f or
 al e
 ale r
 aler t
 bor ed
 inte l
 intel l
 intell i
 intelli g
 intellig e
 intellige n
 me n
 po n
 sold i
 soldi e
 soldie r
 spe l
 spee d
 spel l
 stre a
 toot h
 tro p
 unc om
 uncom f
 uncomf o
 uncomfo r
 uncomfor t
 uncomfort a
 uncomforta b
 uncomfortab l
 uncomfortabl e
 elder l
 elderl y
 for w
 forw a
 forwa r
 forwar d
 them s
 thems e
 themse l
 themsel v
 themselv e
 themselve s
 trop h
 troph y
I f
 M an
 You r
 dea f
 des t
 hard e
 intelligen t
 j ee
 jee p
 magn e
 magne t
 mea d
 mead o
 meado w
 mu f
 muf f
 muff in
 pot a
 pota t
 potat o
 spi l
 spil l
 sta g
 stag e
 stick e
 sticke r
 strea m
 twi g
re t
 an x
 anx i
 att i
 cam er
 camer a
 fil e
 gu it
 guit a
 guita r
 scre e
 ser i
 seri o
 serio u
 seriou s
 suns h
 sunsh i
 sunshi n
 sunshin e
 unlo c
 unloc k
e xt
ver s
 all o
 allo w
 anxi o
 anxio u
 anxiou s
 choo s
 en t
 fri g
 frig h
 frigh t
 glo v
 glov e
 ham m
 hamm e
 hamme r
 lea n
 pers i
 persi s
 persis t
 sto v
 stov e
 thie f
M ama
 char m
 cla y
 co b
 goo s
 goos e
 set t
 sho c
 shoc k
 tear s
H ow
 Man y
 button s
 choos e
 chu b
 chub b
 chubb y
 delic a
 fright e
 frighte n
 hun t
 mix er
 mot o
 moto r
 na i
 nai l
 pea n
 pean u
 peanu t
 play f
 playf u
 playfu l
 po r
 pour ed
 scr a
 shi v
 shiv e
 shive r
 wi f
 wif e
 wrap p
J ane
in o
 cob w
 cobw e
 cobwe b
 delica t
 delicat e
 event u
 eventu a
 eventua ll
 eventuall y
 fig u
 figu r
 fil t
 filt h
 pat t
 persist e
 persiste n
 ribb on
 rubb ed
 scree n
 sig he
 sighe d
 sk u
 spea k
 spen d
 squeez e
 strong e
 tra v
 trav e
 trave l
 unc le
 T ed
 bed r
 bedr o
 bedro o
 bedroo m
 bitte r
 chu r
 chur c
 churc h
 filth y
 li b
 lib r
 libr a
 libra r
 med i
 rac ed
 re g
 stretc h
 tor n
 answer e
 answere d
 clean in
 cleanin g
 co co
 compassion a
 compassiona t
 compassionat e
 harde r
 lift ed
 r ot
 seed s
 ski n
 ya c
 yac h
 yach t
 Ell a
 atti c
 bi n
 frighten ed
 hang e
 hange r
 happi n
 happin e
 happine s
 happines s
 medi c
 medic i
 medici n
 medicin e
 mi d
 mid d
 midd l
 middl e
 no v
 nov e
 nove l
 par r
 parr o
 parro t
 perf o
 perfo r
 perfor m
 ra f
 raf t
 reg u
 regu l
 regul a
 regula r
 sta c
 stac k
 bag s
 bri l
 bril l
 brill i
 brilli a
 brillia n
 brillian t
 coin s
 crawl ed
 drawing s
 e r
 er a
 era s
 eras er
 home s
 ju d
 make u
 makeu p
 mat h
 micro p
 microp h
 microph o
 micropho n
 microphon e
 mil l
 mus h
 ord er
 organiz e
 pea r
 persisten t
 qu ar
 quar re
 quarre l
 sin k
 C o
 behav e
 di v
 feather s
 flu t
 hum b
 humb l
 kni gh
 knigh t
 rod e
 sh u
 stir r
 To d
 al r
 competiti v
 competitiv e
 cry s
 crys t
 cryst a
 crysta l
 de p
 dep e
 depe nd
 excit e
 gigg l
 hoo p
 humbl e
 lo a
 pon y
 shell s
Tim m
Timm y
it he
 charm in
 charmin g
 cor d
 cup b
 cupb o
 cupbo a
 cupboa r
 cupboar d
 distan t
 ear l
 fire m
 friends h
 friendsh i
 friendshi p
 get s
 hos p
 hosp i
 hospi t
 hospit a
 hospita l
 in d
 ind e
 inde p
 indep e
 indepe nd
 independ e
 independe n
 mush r
 mushr o
 mushro o
 mushroo m
 shu t
 sta m
 teas e
 tick e
 ticke t
 wee k
 B a
 Jim m
 Jimm y
 Lu l
 Lul u
 bul l
 bus he
 bushe s
 ca c
 carrot s
 dia m
 diam o
 diamo nd
 giv in
 givin g
 gr i
 help s
 hurt s
 it c
 jud ge
 one s
 sand b
 stronge r
 wand e
 wande r
M olly
b ra
 en g
 fle x
 loa d
 mod er
 moder n
 nice l
 nicel y
 practic ed
 sandb o
 sandbo x
 stam p
 temp l
 templ e
Bo bo
 F o
 acc i
 acci d
 accid e
 accide n
 acciden t
 batter y
 cac t
 celebrat e
 coco a
 figur e
 help l
 helpl e
 helple s
 helples s
 independen t
 ju ng
 jung le
 pe b
 peb b
 pebb l
 pebbl e
 pol e
 return ed
 skipp e
 skippe d
 sleep i
 wrapp e
 yog a
ar l
ze b
zeb ra
  zebra
 L o
 Po lly
 ash t
 asht r
 ashtr a
 ashtra y
 call in
 callin g
 cu s
 disapp o
 disappo in
 disappoin t
 en c
 eng in
 engin e
 flex i
 flexi b
 flexib l
 flexibl e
 happen i
 happeni n
 happenin g
 invit ed
 itc h
 li m
 matt re
 mattre s
 mattres s
 need l
 needl e
 offic e
 polis h
 rep a
 repa i
 think i
 thinki n
 thinkin g
 threa d
 wrappe d
Sara h
at i
 ar g
 arg u
 bar r
 barr e
 barre l
 buil t
 cook ed
 depend a
 dependa b
 dream s
 happi e
 ins e
 nu r
 number s
 pan t
 pu n
 repai r
 rest l
 restl e
 restle s
 restles s
 ruin ed
 scra t
 scrat c
 sle p
 sleepi n
 sleepin g
 slep t
 sp u
 spu n
 switc h
ir s
 che r
 compl a
 count in
 countin g
 deli g
 delig h
 deligh t
 dependab l
 dependabl e
 fire p
 ge ar
 hi v
 hiv e
 mag a
 maga z
 magaz in
 magazin e
 nur s
 r oo
 roo f
 safe l
 safel y
 shi e
 shie l
 shiel d
j e
 Tod a
 Toda y
 cact u
 cactu s
 disappoint ed
 du s
 dus t
 firep l
 firepl a
 firepla c
 fireplac e
 he d
 hed g
 hedg e
 nurs e
 pant s
 ra is
 Sp i
 am b
 bott o
 botto m
 deli v
 deliv er
 enc ou
 fou r
 hand l
 handl e
 journ a
 journa l
 perf u
 perfu m
 perfum e
 pr u
 pru n
 pun i
 puni s
 v ide
 vide o
a it
 amb u
 ambu l
 ambul a
 ambula n
 ambulan c
 ambulanc e
 bathro b
 bathrob e
 d ou
 dest r
 flu f
 fluf f
 laugh s
 ob ed
 obed i
 obedi e
 obedie n
 pi a
 pia n
 prun e
 rem o
 show i
 showi n
 showin g
 stea k
 tan k
 un p
an n
 L oo
 O K
 bur y
 cher r
 destr o
 destro y
 obedien t
 rad i
 And y
 P et
 kn ot
 lick ed
 mu l
 patt er
 patter n
 pian o
 r is
 ra g
 ra z
 radi o
 raz or
 sn i
 stai r
ed g
 Pet er
 all i
 alli g
 allig a
 alliga t
 alligat o
 alligato r
 de t
 fat he
 fathe r
 l y
 librar y
 lim e
 lu g
 lug g
 lugg a
 lugga g
 luggag e
 ly in
 lyin g
 mul e
 succe e
 succee d
 unp a
 unpa c
 unpac k
, ”
 ce re
 cere a
 cerea l
 des k
 disappear ed
 fl i
 hou r
 imp a
 impa t
 impat i
 impati e
 impatie n
 impatien t
 inse c
 insec t
 jelly f
 jellyf is
 jellyfis h
 kiss ed
 law y
 lawy er
 pass ed
 sau s
 saus a
 sausa g
 sausag e
 sca t
 scat t
 scatt e
 scatte r
 sku l
 skul l
 stra w
 Pa nd
 cup s
 dish w
 dishw a
 dishwa s
 dishwas he
 dishwashe r
 dou g
 doug h
 fluff y
 hel i
 heli c
 helic o
 helico p
 helicop t
 helicopt e
 helicopte r
 lic e
 lice n
 licen s
 licens e
 mean t
 pur s
 repl a
 ro ot
 scoo t
 tower s
 when e
 whene v
 whenev e
 wheneve r
 ya w
 yaw n
?" .
 Pand y
 bul b
 draw er
 l ed
 learn in
 learnin g
 mean s
 miss i
 music i
 musici a
 musicia n
 or i
 ori g
 orig in
 origin a
 origina l
 pi p
 pip e
 purs e
 repla c
 res c
 resc u
 shri n
 shrin k
 spin n
 spinn i
 spinni n
 spinnin g
 suppo r
 suppor t
or g
 att r
 attr a
 attra c
 attrac t
 brother s
 cook in
 cookin g
 encou r
 encour a
 encoura g
 env i
 fall s
 gift ed
 gir a
 gira f
 giraf f
 giraff e
 helpe r
 mess a
 messa g
 messag e
 ob s
 scoot e
 scoote r
 talle r
 thu n
 thun d
 thund e
 thunde r
 tu t
 walk s
 Loo k
 Tw e
 Twe e
 Twee t
 ad o
 ap r
 apr o
 apro n
 bee s
 compl e
 comple t
 ent er
 freeze r
 go r
 hoo k
 in k
 marr y
 sni f
 snif f
 sparkl e
 spi r
 spir i
 spiri t
 su b
 ta g
 uni ver
 univer s
 zipp er
D a
 T u
 des s
 dess er
 desser t
 hunt e
 hunte r
 light s
 mel o
 per m
 plane t
 pop p
 question s
 reali s
 rem a
 say i
 sayi n
 sayin g
 swe a
 tra y
R e
ou l
 ado r
 blink ed
 cel er
 celer y
 cur t
 curt a
 curta in
 ear s
 flut e
 gor i
 gori ll
 gorill a
 me o
 meo w
 micro s
 micros c
 microsc o
 microsco p
 swea t
 v et
 whi p
 woo l
G o
S ee
ay a
 N e
 ador a
 adora b
 adorab l
 attract i
 au n
 aun t
 bigge s
 bigges t
 blueberr i
 blueberri e
 blueberrie s
 climb in
 climbin g
 cus h
 cush i
 cushi o
 cushio n
 matc he
 microscop e
 G i
 adorabl e
 attracti v
 attractiv e
 gather e
 gathere d
 gri ll
 imp r
 impr o
 impro v
 manag ed
 mode l
 pack a
 packa g
 packag e
 pen n
 straw b
 strawb e
 strawbe r
 strawber r
 sub w
 subw a
 subwa y
W ait
th u
 fold e
 folde r
 ge m
 gu m
 her b
 melo n
 mum m
 penn y
 rh in
 rhin o
 ric e
 sigh t
op le
 S n
 bi l
 bil l
 bri c
 bric k
 e it
 eit he
 eithe r
 en th
 enth u
 enthu s
 giggl ed
 go a
 goa l
 ignor a
 ignora n
 mumm y
 pop c
 popc o
 popco r
 popcor n
 rema in
 remo v
 way s
 cam p
 car p
 carp e
 carpe t
 cas e
 compla in
 enthus i
 enthusi a
 enthusia s
 excite m
 excitem e
 exciteme n
 excitemen t
 fle a
 gas p
 lea s
 live l
 loud l
 loudl y
 min t
 on c
 onc e
 peac h
 sail e
 saile d
 stretc he
 wall s
Jim m
Jimm y
t en
 Pi pp
 Ro se
 Su n
 arm c
 armc h
 armch a
 armcha i
 armchai r
 circle s
 come t
 creat e
 envi ou
 enviou s
 fu e
 fue l
 grow n
 hat e
 hour s
 ignoran t
 le o
 leo p
 leop a
 leopa r
 leopar d
 livel y
 sail o
 sailo r
 scre w
 sock s
 spea r
 u r
 ur g
 wee p
W ell
r ay
 D an
 Pe te
 S h
 band a
 bark i
 barki n
 barkin g
 bee t
 beet l
 beetl e
 fil m
 hole s
 is l
 isl a
 isla nd
 k ay
 kay a
 kaya k
 le nd
 on i
 oni on
 rad is
 realis ed
 ref u
 refu s
 rep e
 repe a
 repea t
 sen d
 shad e
 sl a
 smell s
 stru c
 tell i
 telli n
 tellin g
 thu m
 tut o
 tuto r
edg e
 Tin a
 banda g
 bandag e
 cart o
 carto o
 cartoo n
 does n
 fort h
 grow l
 hu t
 joke s
 mus e
 muse u
 museu m
 po e
 poe m
 ran c
 ranc h
 stea m
 sweet i
 sweeti e
 ta x
 tax i
 tu m
 Spi k
 Spik e
 bill b
 billb o
 billbo a
 billboa r
 billboar d
 me m
 mea t
 note b
 noteb o
 notebo o
 noteboo k
 p ed
 pack ed
 ped a
 peda l
 pin c
 practic e
 sha m
 spill e
 spille d
 tho s
 thos e
 wall e
 walle t
E m
r is
  edge
 Bounc e
 Gi ve
 P at
 Pe op
 Peop le
 Zoom y
 det er
 fa u
 glow in
 glowin g
 notic e
 obs er
 obser v
 of t
 oft en
 pho t
 phot o
 se p
 sep a
 sepa r
 separ a
 separa t
 shor t
 sne a
 snea k
 thum b
!" .
 F ro
 faste s
 fastes t
 hi p
 ne a
 separat e
 sparkl y
 stu m
I s
 act i
 banana s
 buck l
 ches s
 cri b
 deter m
 determ in
 div e
 ear t
 eart h
 enthusias t
 enthusiast i
 enthusiasti c
 ey e
 firem a
 firema n
 pal a
 pala c
 palac e
 pok e
 pro v
 ser v
 sett l
 sham p
 shamp o
 shampo o
 shel t
 shelt e
 shelte r
 ski r
 skir t
 ste e
 stretche d
 stum b
 stumb l
 train s
 win t
 wint e
 winte r
Da isy
M r
Mum my
e i
ri c
 Do lly
 Every w
 Everyw he
 Everywhe r
 Everywher e
 Hop p
 air p
 coa l
 earl y
 hal l
 hold s
 horse s
 mil d
 oa k
 ob j
 obj e
 obje c
 objec t
 shock e
 shocke d
 spa g
 spag he
 spaghe t
 spaghet t
 spaghett i
 tra d
 C ar
 dist u
 distu r
 distur b
 fla p
 flo u
 flou r
 its e
 itse l
 itsel f
 kind n
 kindn e
 kindne s
 kindnes s
 know s
 li e
 mem o
 memo r
 nat u
 pan i
 pani c
 sal t
 should e
 shoulde r
 stirr e
 stirre d
 swam p
 tre m
 trem b
 tremb l
 tum m
 y et
F in
J ill
th a
x y
 Su s
 admire d
 happie r
 hip p
 hipp o
 jog g
 name s
 pat c
 reve r
 rever s
 ru le
 sea l
 settl e
 star e
ie l
 L ee
 R a
 add e
 adde d
 c it
 ele v
 fis he
 fra m
 frown ed
 grape s
 int r
 missi l
 missil e
 stumbl e
 sur r
 trad e
 trip p
ff y
 H a
 adv i
 argu e
 bike s
 buckl e
 cho s
 chos e
 decorat e
 discover ed
 ex t
 fram e
 minute s
 pil o
 pilo t
 rhino c
 rhinoc e
 rhinoce r
 rhinocer o
 rhinocero s
 sil v
 silv e
 silve r
 trai l
' d
G ive
 advi c
 advic e
 alr e
 alre a
 alrea d
 alread y
 coll a
 dia r
 diar y
 driv in
 drivin g
 elev a
 eleva t
 elevat o
 elevato r
 finger s
 frog s
 gasp ed
 hal f
 hurr y
 por c
 porc h
 re i
 rei nd
 reind e
 reinde e
 reindee r
 tripp e
 trippe d
 tumm y
 un it
 Fin n
 M is
 basket b
 basketb a
 basketba l
 basketbal l
 chi m
 cit y
 di c
 dic t
 dict i
 dicti o
 dictio n
 diction a
 dictiona r
 dictionar y
 exam in
 ga in
 grow in
 growin g
 myster y
 patc h
 pen g
 peng u
 pengu in
 pleas ed
 pos t
 shr u
 tas k
  x
 Mis s
 a he
 ahe a
 ahea d
 attac h
 av a
 blo u
 blou s
 blous e
 book c
 bookc a
 bookca s
 bookcas e
 distan c
 distanc e
 hang i
 hangi n
 hangin g
 ho c
 hoc k
 hock e
 hocke y
 imagin e
 land s
 lea k
 nea t
 rec e
 slide s
 so i
 soi l
 valu a
 valua b
 valuab le
 wishe s
G rand
H a
 B ee
 Bu b
 R ed
 allow e
 allowe d
 bat he
 belong s
 chim n
 chimn e
 chimne y
 del a
 dela y
 dream in
 dreamin g
 fac t
 hurr i
 k an
 kan g
 kang ar
 kangar o
 kangaro o
 marr i
 point in
 pointin g
 radis h
 remind e
 ri p
 ris e
 sug g
 sugg e
 sugge s
 sugges t
B illy
 A re
 Ted d
 Tedd y
 al a
 ala r
 alar m
 card b
 cardb o
 cardbo a
 cardboa r
 cardboar d
 cra s
 ext r
 extr a
 fe s
 fes t
 fest i
 festi v
 festiv a
 festiva l
 listen in
 listenin g
 lo l
 lol l
 loll i
 lolli p
 lollip o
 lollipo p
 ma z
 maz e
 nat i
 nati o
 natio n
 natu re
 play g
 playg r
 playgr ou
 playgrou nd
 proud l
 proudl y
 showe r
 si r
 soa k
 sta b
a id
 Co c
 Coc o
 a x
 ava i
 avai l
 ax e
 carry in
 carryin g
 colla r
 cow s
 leas h
 marc he
 open s
 pal e
 sound e
 sounde d
 torn a
 torna d
 tornad o
 truck s
O w
 anyw a
 anyw he
 anywa y
 anywhe r
 anywher e
 cool er
 dis p
 invit e
 las er
 monkey s
 must a
 offer ed
 point s
 rid in
 ridin g
 stab l
 stabl e
 step s
 tele v
 telev i
 televi s
 televis i
 televisi o
 televisio n
 tru t
 trut h
 wea t
 weat he
 weathe r
 y ie
 yie l
 yiel d
u ch
 Bub b
 R ob
 Z ara
 avail a
 availa b
 availab l
 availabl e
 cha in
 chas in
 chasin g
 complet e
 cre e
 determin ed
 disp l
 displ a
 displa y
 en er
 ener g
 enjoy in
 enjoyin g
 fishe r
 fo g
 ma l
 musta c
 mustac he
 na v
 nav y
 pre v
 reg re
 regre t
 roar ed
 roll in
 rollin g
 shee t
 shru g
 to e
 L it
 Lit t
 Litt l
 Littl e
 W her
 Wher e
 fisher m
 grand p
 grandp a
 jump s
 lot i
 loti o
 lotio n
 mine r
 miner a
 minera l
 prev e
 preve n
 preven t
 read in
 readin g
 rece i
 recei v
 serv e
 sweat e
 sweate r
 track s
B ye
R ea
 Ja ke
 T a
 again s
 agains t
 bounc ed
 bright e
 cont e
 cree k
 gol f
 marche d
 punis h
 rescu e
 rest a
 resta u
 restau r
 restaur a
 restaura n
 restauran t
 sof a
 soft l
 softl y
 su f
 suf f
 suff e
 suffe r
 sup e
 supe r
 to n
 v es
 war d
 ward r
 wardr o
 wardro b
 wardrob e
 was t
 F i
 R u
 airp o
 airpo r
 airpor t
 ben t
 dra in
 o il
 plate s
 replac e
 revers e
 sandwic he
 sandwiche s
 shak i
 shaki n
 shakin g
 shout s
 sta d
 stad i
 stadi u
 stadiu m
 stop s
 v ie
 ves t
 vie w
ro om
tha n
than k
 Li z
 Sus i
 Susi e
 abo v
 abov e
 bee p
 cal e
 cale nd
 calend a
 calenda r
 card s
 fisherm a
 fisherma n
 foot b
 footb a
 footba l
 footbal l
 gu ar
 guar d
 mal l
 pai r
 peek ed
 press ed
 problem s
 ra ke
 sho v
 sla p
 sun r
 swing i
 swingi n
 swingin g
 ther m
 therm o
 thermo m
 thermom e
 thermome t
 thermomet e
 thermomete r
 tool s
 win e
D id
O uch
W ill
 B ow
 Pipp in
 app r
 hand e
 hande d
 o s
 os t
 ost ri
 ostri c
 pretend i
 pretendi n
 pretendin g
 re e
 ree f
 shov e
 sunr i
 sunri s
Jo e
ll o
 He re
 Hopp y
 Po pp
 Popp y
 colour f
 colourf u
 colourfu l
 cr u
 fi v
 lau nd
 laund r
 laundr y
 prov i
 provi d
 rais e
 ref r
 refr i
 refri g
 refrig e
 refrige r
 refriger a
 refrigera t
 refrigerat o
 refrigerato r
 spl i
 sunris e
 tru m
 trum p
 trump e
 trumpe t
F lu
Flu ff
un k
 Mi ke
 ap o
 apo l
 apol o
 apolo g
 books he
 bookshe l
 bookshel f
 bright l
 brightl y
 butterfl i
 butterfli e
 butterflie s
 car ed
 cu d
 cud d
 cudd l
 disa g
 disag re
 exp e
 expe c
 expec t
 fiv e
 in f
 kind s
 put t
 rubb er
 shove l
 struc t
 struct u
 structu r
 structur e
 wast e
 win n
Fluff y
nde r
or t
 B et
 G e
 bee f
 dea r
 ign o
 igno re
 incr e
 incre a
 increa s
 motor c
 motorc y
 motorcy c
 motorcyc l
 motorcycl e
 past r
 putt in
 puttin g
 spli t
 start s
 stumble d
 tra s
 tras h
 tu g
 yog u
 yogu r
 yogur t
c le
itt l
ittl e
li ve
 K at
 Sn o
 Sp e
 bean s
 black b
 break f
 breakf a
 breakfa s
 breakfas t
 cli f
 clif f
 forg a
 forga v
 forgav e
 ju ic
 leav in
 leavin g
 matche s
 pow d
 powd er
 reve a
 revea l
 rule s
 rus he
 sand c
 sandc a
 sandca s
 sandcas t
 sandcast l
 sandcastl e
 sk e
 squirrel s
 sticker s
 supp l
 tight l
 tightl y
L ittle
 K im
 O li
 S e
 blackb o
 blackbo a
 blackboa r
 blackboar d
 co f
 cof f
 coff e
 coffe e
 disc u
 discu s
 discus s
 fall i
 falli n
 fallin g
 g y
 ga z
 gy m
 improv e
 lion s
 oc t
 oct o
 octo p
 octop u
 octopu s
 pass p
 passp o
 passpo r
 passpor t
 play er
 remov e
 sen t
 strawberr y
 teas p
 teasp o
 teaspo o
 teaspoo n
B udd
Budd y
 Sno w
 Sun n
 Sunn y
 brighte r
 cho i
 choi c
 choic e
 drop s
 fact o
 facto r
 factor y
 fau c
 fauc e
 fauce t
 happen s
 ig l
 igl oo
 lean ed
 letter s
 me c
 mec h
 mech a
 mecha n
 mechan i
 mechani c
 mistake s
 pa u
 pau s
 popp ed
 reco g
 recog n
 recogn i
 recogni z
 rushe d
 spo k
 spok e
 sta f
 staf f
 al i
 bath t
 batht u
 bathtu b
 cha m
 cherr i
 cherri e
 cherrie s
 ex er
 exer c
 exerc i
 exerci s
 intr o
 intro d
 introd u
 introdu c
 j un
 jun k
 live s
 mar b
 marb l
 marbl e
 puddle s
 re w
 refus ed
 rew a
 rewa r
 rewar d
 sco r
 ske l
 skel e
 skele t
 skelet o
 skeleto n
 stair s
 stare d
 sw u
 warn e
 warne d
 zipp ed
  ir
 Fo x
 Fred d
 Fro g
 Ja z
 Jaz z
 Ne xt
 Spe ed
 bird c
 birdc a
 birdca g
 birdcag e
 find s
 har b
 harb o
 ostric h
 pick in
 pickin g
 res i
 resi s
 resis t
 sho n
 shon e
 sto m
 suns e
 sunse t
 swu n
 swun g
ig z
 O r
 To b
 Tob y
 apolog i
 break s
 de m
 fix i
 fixi n
 fixin g
 harbo r
 juic y
 lett in
 lettin g
 neighb ou
 neighbou r
 past e
 push in
 pushin g
 scor e
 to i
 toi l
 toil e
 toile t
 vet er
 veter in
 veterin a
 veterina r
 veterinar i
 veterinari a
 veterinaria n
Mar k
 Bi g
 Bubb le
 Ge or
 Geor g
 Mr s
 cham b
 chamb er
 env e
 enve l
 envel o
 envelo p
 envelop e
 imag e
 imagin ed
 ir on
 pok ed
 window s
 zoom ed
 accident a
 accidenta l
 accidental l
 accidentall y
 can e
 da i
 dem a
 dema nd
 dream ed
 energ y
 exercis e
 fou g
 foug h
 fough t
 inf a
 infa n
 infan t
 page s
 rel e
 rele a
 relea s
 shake s
 sniff e
 sniffe d
 stru g
 strug g
 strugg l
Grand m
y l
 St e
 au t
 bur i
 car in
 carin g
 feeling s
 fre s
 hill s
 hot e
 hote l
 observ e
 or n
 orn a
 orna m
 ornam e
 orname n
 ornamen t
 reminde d
 sco l
 scol d
 ti p
 tou r
Grandm a
You r
ar k
enn y
o ld
 Bubble s
 Speed y
 W ou
 Wou l
 Woul d
 appl a
 appla u
 dai s
 dis he
 dishe s
 fres h
 grab s
 miss in
 missin g
 paste l
 pla s
 plas t
 plast i
 plasti c
 scratc h
 trust e
 truste d
ay s
is t
 Georg e
 Lo la
 aut o
 auto m
 autom o
 automo b
 automob i
 automobi l
 automobil e
 buri ed
 cabin e
 cabine t
 delight ed
 door s
 even in
 evenin g
 excited l
 excitedl y
 hop i
 hopi n
 hopin g
 meow ed
 our s
 paint e
 painte r
 qu a
 ra i
 snap p
 splash i
 splashi n
 splashin g
 spo r
 spor t
 thank s
 tun a
 unit e
 van is
 whistle d
 wi g
Em ma
el c
 Al i
 Ali ce
 Oli ve
 chair s
 danc er
 insi s
 insis t
 li d
 qua ck
 rest o
 resto re
 suggest e
 suggeste d
 throw i
 throwi n
 throwin g
 trembl e
 twi r
 twir l
 wr e
 Buzz y
 S k
 U nde
 Unde r
 acorn s
 boot s
 castle s
 conte n
 conten t
 da re
 jewel r
 jewelr y
 light n
 lightn in
 lightnin g
 men u
 old er
 opera t
 operat i
 operati o
 operatio n
 part s
 pie s
 pull s
 rain ed
 reco m
 recom m
 recomm e
 recomme nd
 su m
 sum m
 E lly
 Z ip
 applau d
 bump ed
 eat e
 eate n
 examin e
 ja il
 keep in
 keepin g
 li p
 net w
 netw o
 netwo r
 networ k
 qui z
 rus h
 sneeze d
 super he
 superhe r
 superher o
 surr e
 surre n
 surren d
 surrend e
 surrende r
 un h
 writ i
 writi n
 writin g
N ext
Y ay
Y um
ac at
ig i
 J es
 Li ll
 Lill y
 give n
 measu r
 men t
 ment i
 menti o
 mentio n
 pinc h
 sad l
 sadl y
 sav i
 savi n
 savin g
 shop k
 shopk e
 shopke e
 shopkee p
 shopkeep e
 shopkeepe r
 sn u
 univers e
 v ac
 ve nd
 vend o
 vendo r
 wig g
 wigg l
A li
Ali ce
at t
er d
er o
 Bet t
 Bett y
 E nd
 cho re
 clapp in
 clappin g
 coat s
 dig g
 digg in
 diggin g
 end e
 ende d
 favo u
 favou r
 hum a
 huma n
 increas e
 knee l
 mys e
 myse l
 mysel f
 o at
 pet a
 peta l
 pin e
 squeeze d
 sti t
 stick y
 stit c
 summ e
 summe r
 vac at
 vacat i
 vacati on
at c
 Car l
 Tu e
 Tue s
 Tues d
 Tuesd a
 Tuesda y
 apologi z
 apologiz e
 bark s
 bu z
 burn ed
 buz z
 chore s
 gigg le
 imagin a
 inc l
 incl u
 inclu d
 perm it
 plac ed
 rh y
 snapp e
 snappe d
 ups t
 upst a
 upsta ir
 upstair s
 urg e
 ve h
 veh i
 vehi c
 vehic le
 wav i
 wavi n
 wavin g
F red
 Fredd y
 Mum m
 Mumm y
 breat he
 chan c
 chanc e
 check e
 checke d
 flap p
 follow i
 followi n
 followin g
 fro z
 froz e
 hol i
 holi d
 holid a
 holida y
 med a
 meda l
 pre p
 prep a
 search i
 searchi n
 searchin g
 seat s
 the a
 thea t
 va ll
 vall e
 valle y
a h
  �
 Ma nd
 Mand y
 Su nd
 Sund a
 Sunda y
 ali v
 aliv e
 call s
 count r
 explor ed
 invit a
 invita t
 invitat i
 invitati o
 invitatio n
 kno b
 oa s
 oas is
 pastr y
 pri c
 ra il
 ran g
 rhy th
 rhyth m
 spray e
 spraye d
 unh a
 unha p
 unhap p
l ook
 G oo
 G re
 Goo d
 L a
 P en
 bea m
 believ ed
 bra i
 chicken s
 cras h
 cross ed
 favour i
 favouri t
 favourit e
 fli e
 flie s
 lea t
 leat he
 leathe r
 pai d
 respect f
 respectf u
 respectfu l
 shrug g
 shrugg e
 shrugge d
 ski l
 skil l
 unhapp y
 uni f
 unif or
 unifor m
C h
L isa
look in
lookin g
ur p
 He l
 Hel p
 Jes s
 Lu ck
 Pen n
 Penn y
 bak i
 baki n
 bakin g
 berr y
 bet w
 betw e
 betwe e
 betwee n
 cel l
 cour a
 coura g
 courag e
 exp er
 fall e
 falle n
 hea t
 imagina t
 imaginat i
 jogg ed
 lu m
 no b
 petal s
 pi s
 pis t
 pist o
 pisto l
 poi s
 prepa re
 ro w
 spa d
 spad e
 wre c
 wrec k
Mar y
and y
p ack
 Ba b
 Bab y
 Bird y
 S q
 Sh ar
 Sq u
 att e
 back pack
 ce i
 cei l
 ceil in
 ceilin g
 countr y
 cur l
 encourag e
 float ed
 gra n
 introduc e
 provid e
 pushe s
 slippe r
 solve d
 spoon s
 spot s
 surprise s
 ve il
. .
W elc
Welc om
Welcom e
ac he
 B in
 Bounc y
 Ste v
 W ed
 Wed n
 Wedn e
 Wedne s
 Wednes d
 Wednesd a
 Wednesda y
 aw e
 brai n
 bridge s
 cla w
 class r
 classr o
 classro o
 classroo m
 destroy ed
 gre ed
 growl ed
 head s
 his t
 hist o
 histo r
 histor y
 night m
 nightm a
 nightma re
 nob o
 nobo d
 nobod y
 plane s
 pois o
 poiso n
 s y
 shiver i
 shiveri n
 shiverin g
 stre n
 stren g
 streng t
 strengt h
 theat e
 theate r
 tick l
 whistl i
 whistli n
 whistlin g
 yawn ed
 I s
 blow i
 blowi n
 blowin g
 dress e
 elephant s
 es p
 esp e
 espe c
 espec i
 especi a
 especia ll
 especiall y
 forgot t
 forgott e
 forgotte n
 fur n
 fur t
 furn i
 furni t
 furnit u
 furnitu r
 furnitur e
 furt he
 gran t
 imaginati o
 imaginatio n
 insist ed
 learn t
 lum b
 lumb er
 meet in
 meetin g
 pa d
 prune s
 slipper y
 snu g
 stitc h
 suppl y
 tor e
 tra f
 traf f
 traff i
 traffi c
 weigh t
 win k
A ll
W ith
bb it
le x
  Q
 Grand p
 Grandp a
 Ha v
 bad l
 badl y
 be nd
 belo w
 cand i
 candi e
 candie s
 earth q
 earthq u
 earthqu a
 earthqua k
 earthquak e
 furthe r
 gold e
 golde n
 in g
 ing r
 ingr ed
 ingred i
 ingredi e
 ingredie n
 ingredien t
 law n
 pit c
 scratc he
 stee l
 stri k
 twist e
 twiste d
 waffle s
 wag s
 warn i
 warni n
 warnin g
Y uck
an t
 Da ve
 G ig
 Gig i
 Stev e
 Wh o
 close l
 closel y
 dresse s
 exc la
 excla im
 greed y
 gro c
 groc er
 plan n
 recogniz e
 se w
 sign s
 slid i
 slidi n
 slidin g
 start i
 starti n
 startin g
 sy m
 under g
 underg r
 undergr ou
 undergrou nd
E ven
R o
Rea d
Read y
a w
nc le
 A b
 Hav e
 Luck y
 Se e
 ar t
 atte n
 cop p
 copp er
 creature s
 cut t
 cutt in
 cuttin g
 exclaim ed
 hurri c
 hurric a
 hurrica n
 hurrican e
 idea s
 lab e
 labe l
 memor i
 memori e
 memorie s
 pitc h
 quit e
 rabbit s
 rac ing
 scoo p
 see i
 seei n
 seein g
 snow b
 snowb a
 snowba l
 snowbal l
 struggl e
 sym b
 symb o
 symbo l
 wea p
 weap o
 weapo n
J enny
ye ar
 John ny
 P in
 ap a
 apa r
 apar t
 blueberr y
 collect i
 collecti o
 collectio n
 creat ed
 eager l
 eagerl y
 exper i
 fish i
 fishi n
 fishin g
 follow s
 ingredient s
 kitt y
 lady b
 lands c
 landsc a
 landsca p
 landscap e
 lu x
 lux u
 luxu r
 marri a
 marria g
 marriag e
 mus c
 musc l
 muscl e
 paper s
 pig s
 pull in
 pullin g
 releas e
 stom a
 stoma c
 stomac h
 wiggl e
Sam m
Samm y
on a
 A le
 Ale x
 Fi f
 Fif i
 O wl
 Pin k
 Ru by
 When e
 Whene v
 Whenev e
 Wheneve r
 ag o
 atten t
 attent i
 bed s
 bone s
 bring s
 celebrat ed
 chi r
 chir p
 count e
 counte r
 e q
 eq u
 firework s
 flapp ed
 laugh t
 luxur y
 manag e
 offic er
 ol i
 oli v
 play s
 re q
 req u
 requ e
 reque s
 reques t
 scold e
 scolde d
 snug g
 snugg l
 strik e
 stuff e
 stuffe d
 v ro
 vro om
 wo b
 wob b
 wobb l
 worke r
T o
 H ar
 H u
 M at
 Ro ck
 accept e
 accepte d
 attenti o
 attentio n
 bad g
 badg e
 bot he
 bothe r
 glove s
 impress ed
 know n
 laught er
 paus ed
 peac he
 peache s
 pirate s
 puzzle s
 reache s
 receiv e
 ru l
 saf a
 safa r
 safar i
 si p
Re my
urp r
urpr is
 B y
 Every t
 Gre e
 Gree n
 Mi ll
 Pink y
 bake r
 brus he
 cake s
 dress ed
 heart s
 ma ma
 pear l
 prett i
 pretti e
 sail i
 saili n
 sailin g
 shine d
 some w
 somew he
 somewhe r
 somewher e
 space s
 teach i
 teachi n
 teachin g
 wagg i
 waggi n
 waggin g
 z ig
 zig z
 zigz a
Dad d
Dadd y
M ora
Mora l
S urpris
 Bin k
 Bink y
 Dan n
 Dann y
 Ell i
 Elli e
 Everyt h
 Everyth in
 Everythin g
 L ou
 St ar
 claw s
 fla t
 he e
 ignor ed
 is n
 lick s
 o h
 perm i
 permi s
 permis s
 permiss i
 permissi o
 permissio n
 plant ed
 pric e
 resp o
 sea s
 sec o
 seco n
 secon d
 sparkle d
 ton g
 tong u
 tongu e
 univers it
 universit y
 z er
 zer o
J a
T od
am ie
i re
 Blue y
 D id
 D in
 E a
 K ing
 R ac
 Rac he
 Rache l
 ban g
 dais y
 di p
 dri ed
 em er
 emer g
 equ i
 equi p
 equip me
 equipme n
 equipmen t
 far t
 fold ed
 mail m
 mailm a
 mailma n
 oat s
 pattern s
 pedal s
 ribbon s
 room s
 sell i
 selli n
 sellin g
 sil e
 sile n
 size s
 snuggl e
 sprin k
 sprink l
 ve l
 vel v
 velv et
 weep i
 weepi n
 weepin g
 welcome d
 work s
 � �
" ,
' ve
Tod ay
W oof
 Ch ar
 J e
 W is
 appr o
 bak ed
 beaut y
 ea st
 eas il
 easil y
 enter ed
 experi e
 experie n
 experien c
 fart he
 float i
 floati n
 floatin g
 grocer y
 ja z
 jaz z
 lun g
 rain ing
 skill s
 sort s
 sprinkl e
 stud i
 throw s
 worm s
Surpris e
ri e
 Bee p
 K i
 by e
 chew i
 chewi n
 chewin g
 deep er
 guess ed
 hee l
 la n
 move s
 pad d
 padd l
 print ed
 relax ed
 rul er
 shirt s
 spaces h
 spacesh i
 spaceshi p
 studi e
 wai s
 wais t
 yu c
 yuc k
 zigza g
Be fo
Befo re
M imi
S ome
The s
Thes e
ap a
l ue
lli e
  V
 Ab i
 U nc
 Unc le
 bear s
 bounc i
 bounci n
 bouncin g
 cherr y
 colour s
 disagre e
 gr in
 loo s
 march in
 marchin g
 nail s
 pepper s
 quiet l
 quietl y
 scatter e
 scattere d
 scream s
 spi k
 studie d
 study i
 studyi n
 studyin g
 twist y
Good b
Goodb y
Goodby e
 Pe pp
 Pepp er
 To n
 attac he
 behav ed
 bite s
 costume s
 differen c
 differenc e
 lemon s
 memor y
 por t
 pur r
 sto l
 stol e
 sweet he
 sweethe a
 sweethea r
 sweethear t
 tickl e
 yuck y
N ot
O k
P eter
i le
 Ea ch
 Liz z
 S l
 after n
 aftern o
 afterno o
 afternoo n
 appro a
 approa c
 attache d
 beam ed
 bloo d
 discover y
 ex it
 fe t
 fet c
 had n
 hope s
 lan g
 lang u
 langu a
 langua g
 languag e
 lemon a
 lemona d
 lemonad e
 loos e
 mouth s
 pal m
 pray ed
 rest in
 restin g
 secret s
 side w
 sidew a
 sidewa l
 sidewal k
 spik e
 tomato e
 tomatoe s
 wor s
B lue
ch oo
in c
re c
u ps
 Sa nd
 Shar in
 Sharin g
 Sp r
 Spr in
 Sprin g
 W at
 blanket s
 des er
 encourag ed
 experienc e
 fli p
 fro s
 fros t
 his s
 includ e
 key s
 let s
 perfect l
 perfectl y
 snuggle d
 stra i
 wash i
 washi n
 washin g
 winn e
 winne r
Be ca
Beca u
Becau se
P e
en r
u ack
um p
 Ann ie
 B on
 Ba ll
 C l
 Jess ie
 P ap
 P r
 Pa ul
 S c
 ac h
 behav i
 chee k
 du r
 dur in
 durin g
 eas i
 easi er
 emerg e
 emerge n
 emergen c
 floo d
 froze n
 gaz ed
 hit s
 kick in
 kickin g
 ladyb u
 ladybu g
 o x
 ox y
 oxy g
 oxyg en
 pillow s
 res u
 sin c
 sinc e
 sit s
 sque a
 tid e
 us u
 usu a
 water e
 watere d
 wis d
 wisd o
 wisdo m
 wonder s
B oo
G e
 Bo th
 Even t
 Event u
 Eventu a
 Eventua ll
 Eventuall y
 Ma g
 Pap a
 R os
 Sl o
 Slo w
 Su z
 ach i
 act e
 acte d
 acti n
 actin g
 beg g
 bloom ed
 bro o
 broo m
 cap t
 collect ed
 dog g
 dogg y
 frost i
 frosti n
 frostin g
 head e
 heade d
 mark s
 mitten s
 mud d
 mudd y
 now he
 nowhe r
 nowher e
 pot s
 road s
 si m
 st y
 sty l
 teas i
 teasi n
 teasin g
 trap p
 urg ed
 weig he
 weighe d
 wors e
' .
A l
Every o
Everyo n
Everyon e
S h
 Be f
 Bef o
 Befo re
 C u
 Rob b
 Slow l
 Slowl y
 St o
 Ti l
 Til l
 Till y
 Ton y
 W a
 Wis d
 Wisd om
 achi e
 achie v
 approac he
 approache d
 begg ed
 chal l
 chall e
 challe n
 challen g
 chew e
 chewe d
 cont r
 fetc h
 flag s
 hon k
 marri ed
 mention ed
 pet t
 pri d
 prid e
 record ed
 sett i
 setti n
 settin g
 si x
 sneak e
 succeed e
 succeede d
 trapp e
 trappe d
 unlock ed
 wander e
 wandere d
 winn i
 winni n
 winnin g
 wobbl e
 wor t
 wort h
Even t
Event u
Eventu a
Eventua ll
Eventuall y
O llie
hi ck
itt e
oul d
ui ck
 C la
 Do g
 H i
 Ki k
 Kik i
 Pi p
 Sand y
 Snow y
 The s
 Thes e
 apologize d
 boo m
 catch in
 catchin g
 cau s
 decorat i
 decorati o
 decoratio n
 emergenc y
 hurri ed
 hurt i
 hurti n
 hurtin g
 kiss e
 kisse s
 kneel ed
 lead er
 mic e
 no n
 orange s
 peanut s
 pinc he
 pra i
 prai s
 print e
 printe r
 resu l
 resul t
 rip p
 seas o
 seaso n
 sho t
 slap p
 sneake d
 styl e
 twin k
 twink l
 we s
 wes t
 you t
 yout h
A ndy
Ge org
ell a
hel l
o e
u z
w ar
 Bl in
 Blin k
 Char l
 Go go
 H en
 Har r
 Harr y
 K e
 K ee
 Kee p
 Robb y
 St it
 Stit c
 Stitc h
 achiev e
 alr i
 alri g
 alrig h
 alrigh t
 anyt i
 anyti m
 anytim e
 contr o
 contro l
 deci s
 decis i
 decisi o
 decisio n
 drink in
 drink s
 drinkin g
 gift s
 giraffe s
 jogg ing
 measur ed
 melt ed
 non e
 pencil s
 police m
 punis he
 punishe d
 rest ed
 rock ed
 sna i
 snai l
 strai g
 straig h
 straigh t
 stranger s
 ton i
 toni g
 tonig h
 tonigh t
a il
in y
unn y
 F u
 J am
 J on
 Lo ve
 Ro bo
 Sk y
 appr e
 appre c
 apprec i
 appreci a
 apprecia t
 crab s
 crawl in
 crawlin g
 cru n
 crun c
 decide s
 disagre ed
 e f
 ef f
 escap ed
 good n
 he s
 hes i
 hesi t
 hesit a
 inv e
 j ok
 power s
 print s
 receiv ed
 remain ed
 respo n
 respon s
 shout i
 shouti n
 shoutin g
 sim p
 simp l
 soldier s
 suppo s
 suppos e
 suppose d
 threa t
 toe s
 treasure s
 tube s
 turn i
 turni n
 turnin g
 vanis he
 vanishe d
 vo ic
 voic es
!" ,
E x
Georg e
M mm

  
 Bo p
 C hi
 F ri
 Fri e
 Frie nd
 Friend s
 Fu z
 Fuz z
 So p
 Sop h
 Soph i
 ble ed
 bounc y
 burn i
 burni n
 burnin g
 candle s
 down s
 downs t
 downst a
 downsta i
 downstai r
 downstair s
 lin ed
 part i
 pl u
 plann ed
 present s
 pro p
 pup i
 pupi l
 realiz e
 scratche d
 she d
 soak e
 soake d
 splashe s
 trick e
 tricke d
 villag er
 wait s
B ella
Bob b
Me ow
T r
ay l
ot he
 Be th
 Frog g
 Frogg y
 H an
 J ul
 Kat e
 L at
 Lat er
 Lizz y
 Sa d
 Some o
 Someo n
 Someon e
 Sp ar
 Spar k
 admir i
 admiri n
 admirin g
 buzz i
 buzzi n
 buzzin g
 capt a
 capta in
 crunc h
 cuddl e
 disturb ed
 dolphin s
 famil i
 farthe r
 kne l
 knel t
 pett ed
 pile s
 play t
 playt i
 playti m
 playtim e
 policem a
 policema n
 reveal ed
 safe t
 safet y
 should n
 sister s
 slapp e
 sli m
 spend i
 spendi n
 spendin g
 stick i
 sticki n
 stickin g
 stirr i
 stirri n
 stretch i
 stretchi n
 stretchin g
 swim s
 their s
 trip s
 tu c
 tuc k
 use s
 villager s
 what e
 whate v
 whatev e
 whateve r
 yes t
 yest er
 yester d
 yesterd a
 yesterda y
B u
Bobb y
Some t
hell o
ir a
o h
 Fo ll
 Foll o
 Follo w
 Jam ie
 Li ke
 M itt
 Mitt e
 Mitte n
 Mitten s
 R oo
 acti o
 actio n
 bre e
 break i
 breaki n
 breakin g
 bree z
 breez e
 clear in
 clearin g
 climb s
 con s
 cru m
 crunch y
 dar ed
 de n
 do t
 fas c
 fasc i
 fasci n
 fascin a
 fascina t
 glow ed
 grin n
 grinn ed
 keep s
 melt in
 meltin g
 nap s
 no o
 ours e
 ourse l
 oursel v
 ourselv e
 ourselve s
 pe c
 pet s
 pinche d
 prepa r
 rais ed
 root s
 rot t
 side s
 sing e
 singe r
 slappe d
 soc c
 socc e
 socce r
 steal i
 steali n
 stealin g
 stirrin g
 ticket s
 time r
 twirl e
 twirle d
 understand i
 understandi n
 understandin g
 vanis h
 video s
 visit ed
 watche s
 wi z
 wiz a
 wiza r
 wizar d
Em ily
L eo
M andy
Rea ll
Reall y
ee k
p lease
  X
 Bu g
 Cat t
 Chi ck
 Hop e
 Hu g
 Joe y
 M oo
 Mill i
 O ut
 Somet h
 Someth in
 Somethin g
 W or
 are a
 bea t
 brave l
 bravel y
 bring i
 bringi n
 bringin g
 cartoon s
 che f
 compa n
 decoration s
 eff or
 effor t
 f ed
 gear s
 herb s
 inve s
 inves t
 invest i
 investi g
 investig a
 investiga t
 investigat e
 la p
 line s
 matche d
 muffin s
 nic er
 ri n
 ring in
 ringin g
 ripp ed
 shoot i
 shooti n
 shootin g
 slim y
 sneak y
 some d
 somed a
 someda y
 stay i
 stayi n
 stayin g
 strawberr i
 strawberri e
 strawberrie s
 t y
 where v
 wherev e
 whereve r
Mom o
 Abi g
 Abig a
 Abiga il
 Catt y
 Charl i
 Charli e
 Cu dd
 Cudd le
 D i
 Hi p
 Hip p
 Hipp y
 Kat i
 Kati e
 Milli e
 O ur
 Squ e
 Sque a
 Squea k
 Squeak y
 crack ed
 curl ed
 demand e
 demande d
 dip p
 dipp ed
 earl i
 earli er
 eat s
 fas h
 fash i
 fashi o
 fashio n
 gl it
 glit t
 glitt e
 glitte r
 gun s
 hat ed
 hide r
 im m
 imm ed
 immed i
 immedi a
 immedia t
 immediat e
 immediate l
 immediatel y
 match in
 matchin g
 mist er
 mix in
 mixin g
 nap p
 own ed
 pass e
 pee l
 respons i
 responsi b
 ru st
 scale s
 simpl e
 sing s
 sort i
 sorti n
 sortin g
 spi t
 stee p
 sti n
 string s
 talle s
 talles t
 touch i
 touchi n
 touchin g
 tug g
 v ic
 vic t
 vict or
L o
M a
Re x
S us
W ould
 B oo
 Ball y
 Gra ce
 It s
 Mar i
 Mari a
 O w
 Th o
 Wi g
 Wig g
 Wigg ly
 act u
 actu a
 actua l
 actual l
 actuall y
 appreciat e
 awa k
 awak e
 batter i
 batteri e
 batterie s
 bun c
 bunc h
 cho p
 clu e
 cone s
 cras he
 cube s
 eag le
 famili e
 familie s
 firem e
 fireme n
 fu t
 fut u
 futu r
 futur e
 girl s
 goodn i
 goodni g
 goodnig h
 goodnigh t
 he n
 improv ed
 king d
 kingd o
 kingdo m
 m er
 moment s
 muscle s
 on w
 onw ar
 onwar d
 prais ed
 pre c
 prec i
 preci o
 precio u
 preciou s
 scr u
 se v
 sev e
 skipp i
 skippi n
 skippin g
 soar e
 soare d
 sor e
 sort e
 sorte d
 spo n
 spon g
 spong e
 surr o
 surro u
 surrou n
 surroun d
 tail s
 toast e
 trembl i
 trembli n
 tremblin g
 twig s
 warm t
 warmt h
F irs
Firs t
U h
b oo
ea v
u cky
  Yes
 Bon e
 Bone s
 F a
 M e
 Mat t
 Ros ie
 Sh a
 So f
 bab i
 babi e
 babie s
 bow ed
 brave r
 cap e
 crum b
 dinosaur s
 gu s
 gus t
 la i
 lai d
 lip s
 load ed
 play r
 playr o
 playro o
 playroo m
 repeat ed
 ride s
 ring s
 seek e
 seeke r
 shoulder s
 silen c
 silenc e
 tal e
 thr i
 toaste r
 un f
! '
C at
Ha ve
R u
Somet i
Someti m
Sometim e
Sometime s
atc h
he e
on g
on y
 All y
 Be c
 Bec a
 Beca u
 Becau se
 Every d
 Everyd a
 Everyda y
 L en
 Rock y
 acc o
 acco m
 accom p
 accomp l
 accompl i
 accompli s
 agree m
 agreem e
 agreeme n
 agreemen t
 bes i
 besi d
 besid e
 brushe s
 bucket s
 catc he
 challeng e
 chi p
 circ u
 circu s
 cont a
 crashe d
 deser v
 field s
 fla v
 flav o
 food s
 goal s
 gu y
 happie s
 happies t
 horn s
 inc h
 knight s
 li ed
 man e
 measur in
 measurin g
 oliv e
 painting s
 parti e
 partie s
 planet s
 pos s
 rock in
 rockin g
 scar i
 scoop e
 scoope d
 shop p
 sprinkle s
 star f
 starf i
 starfi s
 starfis h
 stin g
 strip e
 tease d
 thri l
 thril l
 tugg e
 tugge d
 unt i
 yell in
 yellin g
 zoom in
 zoomin g
O ur
R ob
Wh is
s l
ur ing
 A d
 Ch lo
 Chlo e
 Di z
 Diz z
 Dizz y
 Han n
 Hann a
 Mi c
 Ra z
 Raz or
 Sk e
 Z ig
 acti v
 amaze m
 amazem e
 amazeme n
 amazemen t
 an n
 bell y
 bloom i
 bloomi n
 bloomin g
 bu d
 bunn i
 bunni e
 bunnie s
 catche s
 compan y
 conf i
 conta in
 decorat ed
 dragon s
 helmet s
 hesita t
 inst r
 instr u
 le c
 lec t
 lect u
 lectu re
 monster s
 neighbor s
 out d
 outd o
 outdo o
 outdoo r
 passe n
 passen g
 passeng er
 pec k
 pok in
 pokin g
 rainbow s
 remember s
 replac ed
 sat i
 sati s
 satis f
 sc u
 scru b
 settle d
 snowball s
 spray i
 sprayi n
 sprayin g
 stro k
 tale n
 talen t
 te x
 tex t
 text u
 textu r
 textur e
 tun e
 victor y
 we b
 wood e
 woode n
A h
B ad
Ha ppy
John ny
M i
Sus ie
en t
err y
 B re
 Bre e
 Chick y
 Fro s
 Fros t
 Frost y
 Mar t
 Ra bb
 Rabb it
 Ro ver
 Steve n
 T e
 Ta k
 To t
 Tot o
 ba m
 balanc i
 balanci n
 balancin g
 bam b
 bamb o
 bambo o
 beg i
 begi n
 behavi n
 behavin g
 building s
 celebrat i
 celebrati o
 celebratio n
 confi d
 confid e
 confide n
 dad s
 drag g
 dragg ed
 examin ed
 gaz e
 got t
 gott e
 gotte n
 helper s
 importan c
 importanc e
 it e
 ite m
 log s
 mat er
 mater i
 materi a
 materia l
 neighbor h
 neighborh o
 neighborho o
 neighborhoo d
 observ ed
 outdoor s
 polish in
 polishin g
 popp y
 prepar ed
 prettie s
 pretties t
 protect in
 protectin g
 rip e
 sea w
 slow e
 sparkle s
 squea k
 suffer i
 sufferi n
 sufferin g
 sweetie s
 wonder i
 wonderi n
 wonderin g
 wri s
 wris t
B ird
P olly
Pe te
R i
T iny
an c
el i
ic h
l ow
rea t
 Cuddle s
 Din o
 F ir
 Fir s
 Firs t
 G od
 How e
 Howe v
 Howev er
 La u
 P ut
 Ske ll
 Skell y
 Sto p
 U n
 applaud e
 applaude d
 argue d
 balanc ed
 cheer i
 cheeri n
 cheerin g
 clap s
 confiden t
 cre p
 crep t
 dark er
 fau l
 faul t
 fear s
 gain ed
 gre y
 highe s
 highes t
 home w
 homew o
 homewo r
 homewor k
 keep er
 la c
 li q
 liq u
 liqu i
 liqui d
 lov in
 lovin g
 mas s
 mask s
 movie s
 napp in
 nappin g
 paus e
 poem s
 point y
 quack ed
 rea s
 refus e
 remov ed
 responsib l
 responsibl e
 sad n
 sadn e
 sadne s
 sadnes s
 screw s
 shopp i
 shoppi n
 shoppin g
 sigh s
 sli c
 slic e
 smart e
 stai n
 stamp s
 strok e
 thrill e
 thrille d
 tunnel s
 want i
 wanti n
 wantin g
 woo f
D uring
S illy
T ina
Whis k
Whisk er
Whisker s
s eek
 Co pp
 Copp er
 Did i
 Hen r
 Henr y
 K ay
 L ea
 Lea v
 M el
 M ou
 Mag g
 Magg ie
 Mou s
 R ay
 Sophi a
 U ni
 Z ee
 action s
 ann o
 avo i
 avoi d
 ben e
 complet ed
 cop y
 creati o
 creatio n
 curi o
 curio s
 curios it
 curiosit y
 curtain s
 dar l
 darl in
 darlin g
 draw s
 every d
 everyd a
 everyda y
 ex a
 exa c
 exac t
 gen i
 geni e
 inte r
 kind l
 kindl y
 load in
 loadin g
 low er
 machine s
 organiz in
 organizin g
 pebble s
 per c
 poss i
 possi b
 possib l
 possibl e
 potato e
 potatoe s
 practic in
 practicin g
 record in
 recordin g
 ref re
 refre s
 repl y
 river s
 ru m
 sausage s
 scari n
 scarin g
 seaw e
 seawe e
 seawee d
 seem s
 sees a
 seesa w
 shel v
 shelv e
 shelve s
 sle d
 sparkl i
 sparkli n
 sparklin g
 struc k
 tan g
 unit ed
 wip i
 wipi n
 wipin g
?" ,
Bu zz
E lla
J erry
Ja ke
Ru by
Tim e
Tr ue
ann a
e ar
ind e
oc co
” .
 B r
 Bird i
 Birdi e
 By e
 Cl ara
 Fr an
 Je an
 Jon a
 Mar c
 Q ui
 Qui ck
 Re me
 Reme m
 Remem b
 Rememb er
 W oo
 Wa ll
 answer s
 bit i
 biti n
 bitin g
 bleed i
 bleedi n
 bleedin g
 cover s
 da m
 deserv e
 giggl in
 gigglin g
 grand c
 grandc h
 grandch i
 grandchi l
 grandchil d
 hard l
 hardl y
 insect s
 jok in
 jokin g
 lac e
 lime s
 mass a
 massa g
 massag e
 napkin s
 oliv es
 prettie r
 prop er
 rain y
 repair ed
 scare c
 scarec r
 scarecr o
 scarecro w
 shadow s
 shiver e
 shivere d
 sight s
 sir e
 sire n
 snow f
 snowf l
 snowfl a
 snowfla k
 snowflak e
 sun l
 sunl i
 sunli g
 sunlig h
 sunligh t
 taste s
 tuck e
 tucke d
A n
Ri bbit
T ed
id s
ro s
we et
 Al w
 Alw ay
 Alway s
 C he
 Da re
 Ha p
 Hap p
 Ja me
 Jame s
 Joh ns
 Johns on
 Leav e
 P u
 Sa n
 San t
 Sant a
 St re
 Stre t
 Stret c
 Stretc h
 Th u
 Wall y
 Zig z
 Zigz a
 Zigza g
 ai m
 anno y
 argu i
 argui n
 arguin g
 bitte n
 brick s
 bump y
 chu c
 chuc k
 cli c
 clic k
 collect in
 collectin g
 crumb s
 cuddl ed
 dais i
 daisi e
 daisie s
 di re
 dire c
 direc t
 ex h
 exact l
 exactl y
 fire f
 firef l
 flavo r
 fork s
 go b
 group s
 hide s
 impo s
 impos s
 imposs i
 impossi b
 impossib l
 impossibl e
 jewel s
 knee s
 lett u
 lettu c
 lettuc e
 neighbour h
 neighbourh o
 neighbourho o
 neighbourhoo d
 ob e
 obe y
 panic k
 pray er
 rai nd
 raind r
 raindr o
 raindro p
 recogniz ed
 rel u
 relu c
 reluc t
 reluct a
 relucta n
 reluctan t
 rob b
 rott in
 rottin g
 sneez i
 sneezi n
 sneezin g
 squi s
 ste m
 stom p
 suppl i
 suppli e
 surround e
 surrounde d
 tho r
 thor n
 warm e
 who s
 whos e
 wiggle d
. '
Ben n
Benn y
F ine
G reat
H anna
O r
R un
an i
ess ie
la s
op s
 A u
 F or
 Fuzz y
 Jo y
 Mic ro
 Mous e
 Q u
 Qu ack
 Ro lly
 Sp l
 Uni ver
 Univer s
 Univers it
 Universit y
 Wat er
 Z o
 activ i
 activi t
 awe s
 becom i
 becomi n
 becomin g
 bene a
 benea t
 beneat h
 bowl s
 bracelet s
 brushe d
 cau t
 caut i
 chirp ed
 chuck l
 clue s
 complete l
 completel y
 con c
 conf l
 confl i
 confli c
 conflic t
 cuddl y
 des p
 di ed
 exh a
 exha u
 exhau st
 fascinat ed
 gather i
 gatheri n
 gatherin g
 gree t
 grow s
 includ ed
 kite s
 knock s
 listen s
 magazine s
 mountain s
 noo n
 op in
 opin i
 opini o
 opinio n
 out f
 outf it
 paddl e
 pan c
 panc a
 panca k
 pancak e
 perc he
 perche d
 quarrel in
 quarrelin g
 reluctant l
 reluctantl y
 roar in
 roarin g
 robb er
 rub s
 rubb ing
 sailor s
 sit u
 situ a
 situa t
 situat i
 situati o
 situatio n
 smalle s
 smalles t
 soar i
 soari n
 soarin g
 stu n
 tang l
 tangl e
 tangle d
 tast i
 travel e
 tru l
 trul y
 valu ed
 win s
B ill
J en
Mi ke
Thank s
W atch
ar t
arr y
  Y
 Bug g
 Bugg y
 C ra
 Cat h
 Cath y
 Cla i
 Clai re
 F re
 Happ y
 Mo p
 P am
 R i
 S i
 Squ i
 Suz i
 To o
 Tw i
 Twi s
 Twis t
 Wat c
 Watc h
 agree s
 awes o
 aweso m
 awesom e
 back ed
 ban k
 bea d
 bra nd
 bull y
 bump s
 calm ed
 chea t
 chuckl ed
 crow d
 dest in
 destin a
 destina t
 destinat i
 destinati o
 destinatio n
 doll a
 dolla r
 dot s
 drive s
 exhaust ed
 expect ed
 fir m
 flut t
 flutt e
 flutte r
 fold i
 foldi n
 foldin g
 hanger s
 heav i
 hiss ed
 lea p
 mark er
 note s
 onward s
 pastel s
 pea s
 polis he
 poo d
 pood l
 poodl e
 pray in
 prayin g
 princess e
 princesse s
 pumpkin s
 raindrop s
 refres he
 refreshe d
 reminde r
 scratche s
 scu r
 scur r
 soft e
 stud e
 stude n
 studen t
 surf e
 tie s
 travele d
 un s
 usua l
 usua ll
 usuall y
 v en
 ven t
 vent u
 waite r
 week s
 were n
 wobble d
 zoo ke
 zooke e
 zookee p
 zookeep er
 zoom s
.. ."
D ays
D ucky
Lo la
Q uack
R a
Re me
Reme m
Remem b
Rememb er
U n
Z oom
il o
ir at
le e
ng r
y es
y ou
 Ch r
 Chr is
 Finn y
 G ina
 Jul i
 Juli a
 L ar
 Lau r
 Laur a
 M on
 O t
 Ot her
 Rob er
 Rober t
 Sad i
 Sadi e
 She l
 Shel l
 Shell y
 Sof i
 Sofi a
 Suz y
 Ta r
 Tar a
 Te s
 Tes s
 Tr e
 Tw in
 Twin k
 Twink l
 Twinkl e
 Whi pp
 Whipp y
 Whis t
 Whist l
 Wor r
 accomplis h
 as t
 bed t
 bedt i
 bedti m
 bedtim e
 choice s
 continu e
 crack er
 dress in
 dressin g
 fac ed
 far a
 fara w
 faraw a
 farawa y
 grandm o
 grandmo t
 grandmot he
 grandmothe r
 hesitat e
 hesitate d
 hope f
 hopef u
 hopefu l
 hum m
 le n
 light er
 missi o
 missio n
 ne it
 neit he
 neithe r
 order ed
 park ed
 patien c
 patienc e
 plu g
 pocket s
 pour in
 pourin g
 pretend s
 purr ed
 releas ed
 remember in
 rememberin g
 rescu ed
 rope s
 rum b
 safe r
 satisf i
 satisfi e
 satisfie d
 sen s
 sku n
 skun k
 sla m
 square s
 squis h
 star i
 stari n
 starin g
 stripe s
 surf i
 surfi n
 surfin g
 switc he
 tight e
 to s
 tos s
 trade d
 tw e
 twinkl i
 twinkli n
 twinklin g
 wind y
 wink e
 winke d
. ..
Ex cu
Excu se
G ra
M ay
O ops
S pi
S unny
Spi ke
W hee
ann y
el v
im on
ink y
od o
se y
v room
   
 Din a
 Good b
 Goodb y
 Goodby e
 Jan i
 Je f
 Jef f
 Jona t
 Jonat h
 Jonath a
 Jonatha n
 Lis t
 List e
 Liste n
 Lu ke
 M il
 P ir
 Pir at
 Pirat e
 Ra v
 Rav i
 S m
 Sp in
 Spi r
 Spir it
 Too t
 Tw o
 bar e
 bead s
 braver y
 caus ed
 cauti ou
 cautiou s
 ce n
 cen t
 comf y
 comfort ed
 con n
 conn e
 conne c
 connec t
 conte s
 contes t
 cow b
 cowb o
 cowbo y
 cross in
 crossin g
 direct i
 directi o
 directio n
 div in
 divin g
 doll h
 dollh ou
 dollhou s
 dollhous e
 fa d
 fe v
 fev e
 feve r
 firefl y
 float s
 fo c
 foc u
 focu s
 forget s
 fu z
 fuz z
 fuzz y
 glass e
 glasse s
 grant ed
 growl s
 gu id
 heal e
 heale d
 hero e
 heroe s
 inde e
 indee d
 intr i
 intri g
 intrig u
 intrigu ed
 li l
 lil y
 open in
 openin g
 pan s
 pastr i
 pastri e
 pastrie s
 pe er
 penguin s
 plann in
 plannin g
 polishe d
 pou t
 print in
 printin g
 resto r
 rocket s
 scream i
 screami n
 screamin g
 scrub b
 sew e
 sewe d
 silen t
 slipp i
 slippi n
 slippin g
 so b
 store k
 storek e
 storeke e
 storekee p
 storekeep e
 storekeepe r
 struggl i
 struggli n
 strugglin g
 surf a
 surfa c
 surfac e
 ti l
 towel s
 twinkl e
 unpack ed
 visit in
 visitin g
 waste d
 we d
 worker s
B ig
B unny
Ch irp
D an
D anny
D og
Do gg
Dogg y
Ma gg
Magg ie
P at
S ad
Sh h
T weet
ac o
ani e
b eep
r rr
 C am
 D od
 D ot
 Dod o
 G et
 Hanna h
 Her b
 Ho o
 I m
 Jess i
 Jessi c
 Jessic a
 Jo sh
 Ke lly
 La s
 Las er
 Pat c
 Patc h
 Pr in
 Prin c
 Princ e
 R oc
 Roc co
 Ru dy
 Squi r
 Squir re
 Squirre l
 Ti a
 Tr y
 Tre e
 Un f
 Unf or
 Unfor t
 Unfort u
 Unfortu n
 Unfortun at
 Unfortunat e
 Unfortunate l
 Unfortunatel y
 Worr y
 add i
 ag e
 bear d
 block i
 blocki n
 blockin g
 bottle s
 buy i
 buyi n
 buyin g
 chase s
 clown s
 competiti o
 competitio n
 compla i
 complain ed
 complain in
 complainin g
 conc er
 dam a
 dama g
 diamond s
 dri p
 e c
 fa b
 fab r
 fabr i
 fabri c
 gem s
