{
  "0": "\u0000",
  "1": "\u0001",
  "2": "\u0002",
  "3": "\u0003",
  "4": "\u0004",
  "5": "\u0005",
  "6": "\u0006",
  "7": "\u0007",
  "8": "\b",
  "9": "\t",
  "10": "\n",
  "11": "\u000b",
  "12": "\f",
  "13": "\r",
  "14": "\u000e",
  "15": "\u000f",
  "16": "\u0010",
  "17": "\u0011",
  "18": "\u0012",
  "19": "\u0013",
  "20": "\u0014",
  "21": "\u0015",
  "22": "\u0016",
  "23": "\u0017",
  "24": "\u0018",
  "25": "\u0019",
  "26": "\u001a",
  "27": "\u001b",
  "28": "\u001c",
  "29": "\u001d",
  "30": "\u001e",
  "31": "\u001f",
  "32": " ",
  "33": "!",
  "34": "\"",
  "35": "#",
  "36": "$",
  "37": "%",
  "38": "&",
  "39": "'",
  "40": "(",
  "41": ")",
  "42": "*",
  "43": "+",
  "44": ",",
  "45": "-",
  "46": ".",
  "47": "/",
  "48": "0",
  "49": "1",
  "50": "2",
  "51": "3",
  "52": "4",
  "53": "5",
  "54": "6",
  "55": "7",
  "56": "8",
  "57": "9",
  "58": ":",
  "59": ";",
  "60": "<",
  "61": "=",
  "62": ">",
  "63": "?",
  "64": "@",
  "65": "A",
  "66": "B",
  "67": "C",
  "68": "D",
  "69": "E",
  "70": "F",
  "71": "G",
  "72": "H",
  "73": "I",
  "74": "J",
  "75": "K",
  "76": "L",
  "77": "M",
  "78": "N",
  "79": "O",
  "80": "P",
  "81": "Q",
  "82": "R",
  "83": "S",
  "84": "T",
  "85": "U",
  "86": "V",
  "87": "W",
  "88": "X",
  "89": "Y",
  "90": "Z",
  "91": "[",
  "92": "\\",
  "93": "]",
  "94": "^",
  "95": "_",
  "96": "`",
  "97": "a",
  "98": "b",
  "99": "c",
  "100": "d",
  "101": "e",
  "102": "f",
  "103": "g",
  "104": "h",
  "105": "i",
  "106": "j",
  "107": "k",
  "108": "l",
  "109": "m",
  "110": "n",
  "111": "o",
  "112": "p",
  "113": "q",
  "114": "r",
  "115": "s",
  "116": "t",
  "117": "u",
  "118": "v",
  "119": "w",
  "120": "x",
  "121": "y",
  "122": "z",
  "123": "{",
  "124": "|",
  "125": "}",
  "126": "~",
  "127": "",
  "128": "�",
  "129": "�",
  "130": "�",
  "131": "�",
  "132": "�",
  "133": "�",
  "134": "�",
  "135": "�",
  "136": "�",
  "137": "�",
  "138": "�",
  "139": "�",
  "140": "�",
  "141": "�",
  "142": "�",
  "143": "�",
  "144": "�",
  "145": "�",
  "146": "�",
  "147": "�",
  "148": "�",
  "149": "�",
  "150": "�",
  "151": "�",
  "152": "�",
  "153": "�",
  "154": "�",
  "155": "�",
  "156": "�",
  "157": "�",
  "158": "�",
  "159": "�",
  "160": "�",
  "161": "�",
  "162": "�",
  "163": "�",
  "164": "�",
  "165": "�",
  "166": "�",
  "167": "�",
  "168": "�",
  "169": "�",
  "170": "�",
  "171": "�",
  "172": "�",
  "173": "�",
  "174": "�",
  "175": "�",
  "176": "�",
  "177": "�",
  "178": "�",
  "179": "�",
  "180": "�",
  "181": "�",
  "182": "�",
  "183": "�",
  "184": "�",
  "185": "�",
  "186": "�",
  "187": "�",
  "188": "�",
  "189": "�",
  "190": "�",
  "191": "�",
  "192": "�",
  "193": "�",
  "194": "�",
  "195": "�",
  "196": "�",
  "197": "�",
  "198": "�",
  "199": "�",
  "200": "�",
  "201": "�",
  "202": "�",
  "203": "�",
  "204": "�",
  "205": "�",
  "206": "�",
  "207": "�",
  "208": "�",
  "209": "�",
  "210": "�",
  "211": "�",
  "212": "�",
  "213": "�",
  "214": "�",
  "215": "�",
  "216": "�",
  "217": "�",
  "218": "�",
  "219": "�",
  "220": "�",
  "221": "�",
  "222": "�",
  "223": "�",
  "224": "�",
  "225": "�",
  "226": "�",
  "227": "�",
  "228": "�",
  "229": "�",
  "230": "�",
  "231": "�",
  "232": "�",
  "233": "�",
  "234": "�",
  "235": "�",
  "236": "�",
  "237": "�",
  "238": "�",
  "239": "�",
  "240": "�",
  "241": "�",
  "242": "�",
  "243": "�",
  "244": "�",
  "245": "�",
  "246": "�",
  "247": "�",
  "248": "�",
  "249": "�",
  "250": "�",
  "251": "�",
  "252": "�",
  "253": "�",
  "254": "�",
  "255": "�",
  "256": "<|endoftext|>",
  "257": "<pad>",
  "258": "<unk>",
  "259": "he",
  "260": " t",
  "261": " a",
  "262": " s",
  "263": " w",
  "264": " the",
  "265": "nd",
  "266": "ed",
  "267": " b",
  "268": " an",
  "269": " to",
  "270": " and",
  "271": " h",
  "272": "in",
  "273": " f",
  "274": " T",
  "275": "re",
  "276": " wa",
  "277": "ou",
  "278": "it",
  "279": " l",
  "280": " d",
  "281": "er",
  "282": " c",
  "283": " p",
  "284": "ay",
  "285": " m",
  "286": " was",
  "287": "om",
  "288": " The",
  "289": " he",
  "290": "is",
  "291": "ar",
  "292": " sa",
  "293": " n",
  "294": "im",
  "295": "on",
  "296": "id",
  "297": "ll",
  "298": " ha",
  "299": " S",
  "300": "le",
  "301": " g",
  "302": "at",
  "303": "or",
  "304": "en",
  "305": "ot",
  "306": "me",
  "307": "te",
  "308": "an",
  "309": "il",
  "310": "nt",
  "311": "th",
  "312": "ri",
  "313": "ir",
  "314": "la",
  "315": "ng",
  "316": "ke",
  "317": " hi",
  "318": "et",
  "319": "am",
  "320": " H",
  "321": " bi",
  "322": " wi",
  "323": " ca",
  "324": " it",
  "325": " th",
  "326": " They",
  "327": "ut",
  "328": "oo",
  "329": " da",
  "330": " He",
  "331": " in",
  "332": " pl",
  "333": "ro",
  "334": "ea",
  "335": " \"",
  "336": "ie",
  "337": " be",
  "338": " pla",
  "339": "ne",
  "340": " we",
  "341": "ow",
  "342": " so",
  "343": " sai",
  "344": " fo",
  "345": " u",
  "346": " lo",
  "347": " said",
  "348": " y",
  "349": "ver",
  "350": "al",
  "351": " o",
  "352": " play",
  "353": "es",
  "354": " fr",
  "355": " day",
  "356": "pp",
  "357": " wit",
  "358": " with",
  "359": "ck",
  "360": "ve",
  "361": "ld",
  "362": " her",
  "363": "st",
  "364": "ce",
  "365": " She",
  "366": " no",
  "367": "ee",
  "368": " do",
  "369": "un",
  "370": " Ti",
  "371": " Tim",
  "372": " I",
  "373": " his",
  "374": " mo",
  "375": " you",
  "376": " st",
  "377": " ma",
  "378": " big",
  "379": " li",
  "380": "very",
  "381": "end",
  "382": "ing",
  "383": "se",
  "384": "her",
  "385": " ba",
  "386": " bo",
  "387": "ok",
  "388": " tr",
  "389": " bu",
  "390": " hap",
  "391": " happ",
  "392": " on",
  "393": " L",
  "394": " they",
  "395": "de",
  "396": "el",
  "397": " fri",
  "398": " frie",
  "399": " friend",
  "400": " not",
  "401": " of",
  "402": " tha",
  "403": " B",
  "404": " e",
  "405": " wan",
  "406": " had",
  "407": " up",
  "408": " want",
  "409": "ra",
  "410": "gh",
  "411": "ul",
  "412": "itt",
  "413": " ti",
  "414": " for",
  "415": "'s",
  "416": " ho",
  "417": "ge",
  "418": " M",
  "419": " al",
  "420": "ic",
  "421": " very",
  "422": " saw",
  "423": "ug",
  "424": " sh",
  "425": " that",
  "426": "One",
  "427": " mom",
  "428": " happy",
  "429": "ily",
  "430": " na",
  "431": " go",
  "432": " lit",
  "433": " litt",
  "434": " littl",
  "435": " little",
  "436": "ly",
  "437": " she",
  "438": " ne",
  "439": " di",
  "440": " nam",
  "441": "rt",
  "442": ".\"",
  "443": "lo",
  "444": " k",
  "445": " wo",
  "446": "ch",
  "447": " tim",
  "448": " time",
  "449": " named",
  "450": " ther",
  "451": " there",
  "452": " but",
  "453": " wer",
  "454": " were",
  "455": " To",
  "456": "ca",
  "457": " Lil",
  "458": " sm",
  "459": " r",
  "460": " lik",
  "461": "ur",
  "462": " Lily",
  "463": " ar",
  "464": " Tom",
  "465": " wante",
  "466": " wanted",
  "467": "the",
  "468": " bir",
  "469": "!\"",
  "470": " friends",
  "471": " too",
  "472": "The",
  "473": "ue",
  "474": " bird",
  "475": " pa",
  "476": "pe",
  "477": " hel",
  "478": " fi",
  "479": "hi",
  "480": " co",
  "481": "uc",
  "482": " is",
  "483": " wh",
  "484": "us",
  "485": " fe",
  "486": "On",
  "487": "ys",
  "488": " It",
  "489": " fu",
  "490": " le",
  "491": "as",
  "492": " wen",
  "493": " went",
  "494": " loo",
  "495": "Once",
  "496": " all",
  "497": "ved",
  "498": " help",
  "499": " look",
  "500": " gi",
  "501": " did",
  "502": " upon",
  "503": " A",
  "504": " fa",
  "505": " j",
  "506": " se",
  "507": " as",
  "508": " at",
  "509": " fun",
  "510": " som",
  "511": " some",
  "512": " thi",
  "513": " re",
  "514": "ec",
  "515": " pu",
  "516": " tog",
  "517": " toge",
  "518": " toget",
  "519": " togethe",
  "520": " together",
  "521": " tre",
  "522": "ny",
  "523": " toy",
  "524": "au",
  "525": " cou",
  "526": " me",
  "527": " ou",
  "528": " cl",
  "529": " lov",
  "530": " thei",
  "531": " their",
  "532": "od",
  "533": " sta",
  "534": " la",
  "535": " him",
  "536": " su",
  "537": " Su",
  "538": " bal",
  "539": " cat",
  "540": " dog",
  "541": " ta",
  "542": " hav",
  "543": " br",
  "544": " ro",
  "545": " can",
  "546": "?\"",
  "547": " are",
  "548": " ball",
  "549": " played",
  "550": " out",
  "551": " coul",
  "552": " could",
  "553": "'t",
  "554": " them",
  "555": " tree",
  "556": " gir",
  "557": " fl",
  "558": " girl",
  "559": " fou",
  "560": " fel",
  "561": "hen",
  "562": " sad",
  "563": "rr",
  "564": "um",
  "565": " Sue",
  "566": " have",
  "567": "ax",
  "568": " found",
  "569": "ia",
  "570": " sc",
  "571": " see",
  "572": "ad",
  "573": " par",
  "574": " pi",
  "575": " sho",
  "576": " boy",
  "577": " looked",
  "578": "my",
  "579": "li",
  "580": "gs",
  "581": " like",
  "582": " ask",
  "583": " Sa",
  "584": " loved",
  "585": " smi",
  "586": " smil",
  "587": " hu",
  "588": " man",
  "589": " fro",
  "590": "we",
  "591": " bac",
  "592": " back",
  "593": " sp",
  "594": " Ma",
  "595": " Ben",
  "596": " mak",
  "597": " thin",
  "598": " smile",
  "599": "op",
  "600": " ot",
  "601": " Max",
  "602": " car",
  "603": " lea",
  "604": "ti",
  "605": " othe",
  "606": " other",
  "607": "ft",
  "608": " wou",
  "609": " felt",
  "610": " woul",
  "611": " would",
  "612": " gr",
  "613": " de",
  "614": " star",
  "615": "ac",
  "616": "You",
  "617": " bec",
  "618": "sh",
  "619": " park",
  "620": " liked",
  "621": "bo",
  "622": " ju",
  "623": " sca",
  "624": " beca",
  "625": "to",
  "626": " But",
  "627": " sto",
  "628": " One",
  "629": " aske",
  "630": " asked",
  "631": " new",
  "632": "ma",
  "633": " cam",
  "634": " scar",
  "635": " make",
  "636": "ga",
  "637": " Sam",
  "638": "dd",
  "639": " start",
  "640": " sma",
  "641": "nn",
  "642": "ct",
  "643": " came",
  "644": " wor",
  "645": " mu",
  "646": "ig",
  "647": " hea",
  "648": " W",
  "649": " somet",
  "650": " wal",
  "651": " J",
  "652": " wha",
  "653": " si",
  "654": " sha",
  "655": " starte",
  "656": " started",
  "657": " tho",
  "658": " say",
  "659": " smiled",
  "660": " thing",
  "661": " mad",
  "662": " thou",
  "663": " thoug",
  "664": " though",
  "665": " put",
  "666": " whe",
  "667": " ag",
  "668": " tri",
  "669": " aw",
  "670": " ga",
  "671": " smal",
  "672": " small",
  "673": " what",
  "674": " from",
  "675": " wat",
  "676": " awa",
  "677": " goo",
  "678": " good",
  "679": " ex",
  "680": " away",
  "681": "ns",
  "682": "ob",
  "683": " thought",
  "684": " bl",
  "685": " ge",
  "686": " made",
  "687": " someth",
  "688": " somethi",
  "689": " somethin",
  "690": " something",
  "691": "nc",
  "692": " box",
  "693": " cr",
  "694": " find",
  "695": " scare",
  "696": " pr",
  "697": " walk",
  "698": " bea",
  "699": " You",
  "700": " hom",
  "701": " home",
  "702": " scared",
  "703": "ep",
  "704": " my",
  "705": " playin",
  "706": " playing",
  "707": " ran",
  "708": " liv",
  "709": " dow",
  "710": " down",
  "711": "gg",
  "712": " po",
  "713": " took",
  "714": " lau",
  "715": " F",
  "716": " ra",
  "717": " kn",
  "718": " wil",
  "719": " laug",
  "720": " hou",
  "721": " every",
  "722": " dr",
  "723": "ls",
  "724": " aga",
  "725": " agai",
  "726": " again",
  "727": " things",
  "728": " your",
  "729": "na",
  "730": " hous",
  "731": " house",
  "732": " will",
  "733": " rea",
  "734": " pic",
  "735": "qu",
  "736": " lear",
  "737": " learn",
  "738": " toys",
  "739": " trie",
  "740": " shar",
  "741": "mb",
  "742": " sw",
  "743": " pe",
  "744": " ab",
  "745": " sl",
  "746": " get",
  "747": " te",
  "748": " Sp",
  "749": " when",
  "750": " aro",
  "751": " arou",
  "752": " aroun",
  "753": " around",
  "754": ",\"",
  "755": "if",
  "756": " tried",
  "757": "ha",
  "758": " D",
  "759": " lived",
  "760": " says",
  "761": " Lu",
  "762": " Spo",
  "763": " Spot",
  "764": "Th",
  "765": " then",
  "766": " abo",
  "767": " ch",
  "768": " know",
  "769": " pre",
  "770": " lot",
  "771": " str",
  "772": " abou",
  "773": " about",
  "774": " ni",
  "775": " sun",
  "776": " com",
  "777": " bot",
  "778": " hug",
  "779": "ff",
  "780": "Tim",
  "781": " mi",
  "782": " kne",
  "783": " Mi",
  "784": "rea",
  "785": " Mom",
  "786": " Luc",
  "787": " Lucy",
  "788": "os",
  "789": " who",
  "790": " dec",
  "791": "lly",
  "792": "ew",
  "793": " Mia",
  "794": " op",
  "795": " sti",
  "796": " us",
  "797": "ide",
  "798": " ea",
  "799": " flo",
  "800": " sur",
  "801": "�",
  "802": "Tom",
  "803": " ins",
  "804": " open",
  "805": " col",
  "806": " share",
  "807": " eat",
  "808": " pret",
  "809": " clo",
  "810": "ind",
  "811": " v",
  "812": " care",
  "813": " knew",
  "814": " deci",
  "815": " shi",
  "816": " got",
  "817": " show",
  "818": " And",
  "819": " So",
  "820": " alw",
  "821": " alwa",
  "822": " alway",
  "823": " always",
  "824": " decid",
  "825": " int",
  "826": " red",
  "827": " becam",
  "828": " became",
  "829": " laughe",
  "830": " laughed",
  "831": " learned",
  "832": " more",
  "833": " Bo",
  "834": " Bob",
  "835": "ap",
  "836": " hear",
  "837": " both",
  "838": " win",
  "839": "she",
  "840": " stor",
  "841": " fee",
  "842": " lon",
  "843": " any",
  "844": "ara",
  "845": " dad",
  "846": " E",
  "847": " room",
  "848": " decided",
  "849": "be",
  "850": " bes",
  "851": " jum",
  "852": " jump",
  "853": " exc",
  "854": " best",
  "855": " roc",
  "856": " outs",
  "857": " outsi",
  "858": " outsid",
  "859": " outside",
  "860": " into",
  "861": " becau",
  "862": " becaus",
  "863": " because",
  "864": "led",
  "865": " gre",
  "866": " wate",
  "867": " water",
  "868": " excit",
  "869": " many",
  "870": "ag",
  "871": "bb",
  "872": " feel",
  "873": " gra",
  "874": "Lily",
  "875": " nic",
  "876": " foo",
  "877": " eac",
  "878": " each",
  "879": " spe",
  "880": "nde",
  "881": " nice",
  "882": " than",
  "883": " whi",
  "884": " bro",
  "885": "Yes",
  "886": " insi",
  "887": " one",
  "888": " tol",
  "889": " told",
  "890": " long",
  "891": " fas",
  "892": "ard",
  "893": " pick",
  "894": "They",
  "895": " tu",
  "896": " this",
  "897": " how",
  "898": " rock",
  "899": " tak",
  "900": " excited",
  "901": " insid",
  "902": " inside",
  "903": " cu",
  "904": " happe",
  "905": " happen",
  "906": " sk",
  "907": " or",
  "908": " am",
  "909": " sor",
  "910": " ke",
  "911": " run",
  "912": " let",
  "913": " fast",
  "914": " ol",
  "915": " old",
  "916": " tal",
  "917": "ell",
  "918": " bear",
  "919": " don",
  "920": " surp",
  "921": " surpr",
  "922": " surpri",
  "923": " surpris",
  "924": "ven",
  "925": " gav",
  "926": " gave",
  "927": " surprise",
  "928": " prett",
  "929": " muc",
  "930": " much",
  "931": " take",
  "932": " dol",
  "933": " ki",
  "934": " pretty",
  "935": " ani",
  "936": " anim",
  "937": " anima",
  "938": " animal",
  "939": " shou",
  "940": " His",
  "941": " bra",
  "942": " flow",
  "943": "But",
  "944": " fis",
  "945": " flowe",
  "946": " flower",
  "947": " food",
  "948": "Can",
  "949": " hand",
  "950": " didn",
  "951": " lis",
  "952": " list",
  "953": " shin",
  "954": " sorr",
  "955": " sorry",
  "956": "co",
  "957": " bet",
  "958": " liste",
  "959": " listen",
  "960": " en",
  "961": " caref",
  "962": " carefu",
  "963": " careful",
  "964": " walke",
  "965": " walked",
  "966": "ice",
  "967": " fir",
  "968": " bett",
  "969": " bette",
  "970": " better",
  "971": " thr",
  "972": " near",
  "973": " tow",
  "974": " bug",
  "975": " doll",
  "976": " jo",
  "977": " just",
  "978": " spec",
  "979": " speci",
  "980": " specia",
  "981": " special",
  "982": " try",
  "983": "Wh",
  "984": "mm",
  "985": " swi",
  "986": "ey",
  "987": " stop",
  "988": " tw",
  "989": "iv",
  "990": " An",
  "991": " Ann",
  "992": " hur",
  "993": " work",
  "994": " fle",
  "995": "ine",
  "996": " kind",
  "997": " thank",
  "998": " hol",
  "999": "Mom",
  "1000": "ure",
  "1001": " sn",
  "1002": " tur",
  "1003": "ank",
  "1004": " boo",
  "1005": " watc",
  "1006": " Anna",
  "1007": " happened",
  "1008": " mou",
  "1009": "lu",
  "1010": " animals",
  "1011": " cal",
  "1012": " saf",
  "1013": " ev",
  "1014": " even",
  "1015": " lots",
  "1016": " love",
  "1017": " un",
  "1018": "idea",
  "1019": " idea",
  "1020": " sli",
  "1021": "ui",
  "1022": " fish",
  "1023": " by",
  "1024": " safe",
  "1025": " grou",
  "1026": " hurt",
  "1027": " ye",
  "1028": "Than",
  "1029": "Thank",
  "1030": " dan",
  "1031": " mea",
  "1032": " giv",
  "1033": "rom",
  "1034": " har",
  "1035": " Fr",
  "1036": " Th",
  "1037": " gar",
  "1038": " tru",
  "1039": " Then",
  "1040": " book",
  "1041": " kid",
  "1042": " dre",
  "1043": " af",
  "1044": " tra",
  "1045": " cha",
  "1046": " sky",
  "1047": " blu",
  "1048": "Let",
  "1049": "by",
  "1050": " blue",
  "1051": " come",
  "1052": " lou",
  "1053": " loud",
  "1054": " und",
  "1055": " unde",
  "1056": " under",
  "1057": " heard",
  "1058": " if",
  "1059": " We",
  "1060": " clos",
  "1061": " hugg",
  "1062": " cle",
  "1063": " give",
  "1064": " mag",
  "1065": " bri",
  "1066": " end",
  "1067": " hugged",
  "1068": " opened",
  "1069": " qu",
  "1070": " ri",
  "1071": " gam",
  "1072": " game",
  "1073": " wind",
  "1074": " che",
  "1075": " nev",
  "1076": " never",
  "1077": " picked",
  "1078": " flew",
  "1079": " gard",
  "1080": " garde",
  "1081": " garden",
  "1082": "xt",
  "1083": " shiny",
  "1084": " sou",
  "1085": " anym",
  "1086": " anymo",
  "1087": " anymor",
  "1088": " anymore",
  "1089": " Sar",
  "1090": " Sara",
  "1091": " gl",
  "1092": " cli",
  "1093": " sq",
  "1094": " squ",
  "1095": " bad",
  "1096": " hig",
  "1097": " its",
  "1098": " mov",
  "1099": " turn",
  "1100": " call",
  "1101": "hin",
  "1102": "kay",
  "1103": " doo",
  "1104": " door",
  "1105": " fly",
  "1106": " ground",
  "1107": " slid",
  "1108": " tea",
  "1109": " coo",
  "1110": " dra",
  "1111": " talk",
  "1112": " ever",
  "1113": " prou",
  "1114": " proud",
  "1115": " wis",
  "1116": " kids",
  "1117": " stro",
  "1118": "em",
  "1119": " war",
  "1120": "fo",
  "1121": " clea",
  "1122": " colo",
  "1123": " color",
  "1124": " aft",
  "1125": " afte",
  "1126": " after",
  "1127": " magi",
  "1128": " magic",
  "1129": " surprised",
  "1130": "No",
  "1131": " butt",
  "1132": " clim",
  "1133": " climb",
  "1134": "As",
  "1135": " far",
  "1136": " happi",
  "1137": " off",
  "1138": " stic",
  "1139": " stick",
  "1140": "'m",
  "1141": " When",
  "1142": " hard",
  "1143": " stron",
  "1144": " strong",
  "1145": " nois",
  "1146": "fl",
  "1147": " From",
  "1148": " ap",
  "1149": " fore",
  "1150": " los",
  "1151": " unt",
  "1152": "ye",
  "1153": " Every",
  "1154": " stil",
  "1155": " still",
  "1156": "ill",
  "1157": " over",
  "1158": " wr",
  "1159": " Her",
  "1160": " ang",
  "1161": " angr",
  "1162": " until",
  "1163": "ina",
  "1164": " ad",
  "1165": " angry",
  "1166": " ow",
  "1167": " une",
  "1168": " unex",
  "1169": " unexp",
  "1170": " unexpe",
  "1171": " unexpec",
  "1172": " unexpect",
  "1173": " unexpected",
  "1174": " im",
  "1175": " Ja",
  "1176": " read",
  "1177": " swin",
  "1178": " swing",
  "1179": "red",
  "1180": " boa",
  "1181": " fam",
  "1182": " way",
  "1183": "hes",
  "1184": " clean",
  "1185": " nex",
  "1186": " next",
  "1187": " peo",
  "1188": " peop",
  "1189": " peopl",
  "1190": " people",
  "1191": " slide",
  "1192": " brav",
  "1193": " brave",
  "1194": " showe",
  "1195": " high",
  "1196": " thanke",
  "1197": " thanked",
  "1198": " danc",
  "1199": " jumped",
  "1200": " In",
  "1201": " plan",
  "1202": " stay",
  "1203": " helpe",
  "1204": " need",
  "1205": " shoul",
  "1206": " should",
  "1207": " app",
  "1208": " exp",
  "1209": " sof",
  "1210": "It",
  "1211": " fami",
  "1212": " famil",
  "1213": " happil",
  "1214": " happily",
  "1215": " leav",
  "1216": " nod",
  "1217": " yu",
  "1218": " wai",
  "1219": " K",
  "1220": " frog",
  "1221": " showed",
  "1222": " Am",
  "1223": " family",
  "1224": "Ben",
  "1225": " als",
  "1226": " also",
  "1227": " mon",
  "1228": " boat",
  "1229": " fell",
  "1230": " mor",
  "1231": " story",
  "1232": " tou",
  "1233": " yum",
  "1234": " bee",
  "1235": " fac",
  "1236": " grea",
  "1237": " great",
  "1238": " helped",
  "1239": " hid",
  "1240": " res",
  "1241": " bed",
  "1242": " du",
  "1243": " stu",
  "1244": " think",
  "1245": " blo",
  "1246": " cre",
  "1247": " called",
  "1248": " noise",
  "1249": " wait",
  "1250": " yumm",
  "1251": " Amy",
  "1252": " face",
  "1253": " flowers",
  "1254": " lost",
  "1255": " cla",
  "1256": " yummy",
  "1257": " Let",
  "1258": " real",
  "1259": " wea",
  "1260": "ook",
  "1261": " bei",
  "1262": " bein",
  "1263": " being",
  "1264": " leave",
  "1265": " rem",
  "1266": " soft",
  "1267": "itty",
  "1268": "ze",
  "1269": " mus",
  "1270": " now",
  "1271": " thre",
  "1272": " Do",
  "1273": " fin",
  "1274": " met",
  "1275": " cry",
  "1276": " everyo",
  "1277": " everyon",
  "1278": " everyone",
  "1279": " sat",
  "1280": " beau",
  "1281": " beaut",
  "1282": " qui",
  "1283": " cra",
  "1284": " hop",
  "1285": " pro",
  "1286": " two",
  "1287": " won",
  "1288": " C",
  "1289": " bre",
  "1290": " brea",
  "1291": " hole",
  "1292": " pie",
  "1293": " trea",
  "1294": "ef",
  "1295": "ki",
  "1296": " butte",
  "1297": " butter",
  "1298": " hat",
  "1299": " imp",
  "1300": " mar",
  "1301": " pul",
  "1302": " pull",
  "1303": " stopp",
  "1304": "wl",
  "1305": "“",
  "1306": "”",
  "1307": " beauti",
  "1308": " beautif",
  "1309": " beautifu",
  "1310": " beautiful",
  "1311": " con",
  "1312": " fores",
  "1313": " ok",
  "1314": " others",
  "1315": " plac",
  "1316": " trai",
  "1317": " forest",
  "1318": " stoppe",
  "1319": " stopped",
  "1320": "Look",
  "1321": " bit",
  "1322": " brok",
  "1323": " broke",
  "1324": " whil",
  "1325": " P",
  "1326": " while",
  "1327": "Now",
  "1328": " mean",
  "1329": " place",
  "1330": " train",
  "1331": " Fl",
  "1332": " ate",
  "1333": " bun",
  "1334": " crea",
  "1335": " touc",
  "1336": "zz",
  "1337": " Flu",
  "1338": " Fluf",
  "1339": " Fluff",
  "1340": " Fluffy",
  "1341": " okay",
  "1342": " pict",
  "1343": " pictu",
  "1344": " picture",
  "1345": " used",
  "1346": " worr",
  "1347": "That",
  "1348": "ip",
  "1349": " bunn",
  "1350": " cur",
  "1351": " reac",
  "1352": " tir",
  "1353": " tire",
  "1354": " use",
  "1355": "When",
  "1356": " Wh",
  "1357": " goin",
  "1358": " going",
  "1359": " gree",
  "1360": " per",
  "1361": " soo",
  "1362": " warm",
  "1363": "ink",
  "1364": " green",
  "1365": " kee",
  "1366": " keep",
  "1367": " laugh",
  "1368": " hands",
  "1369": " rain",
  "1370": " soon",
  "1371": " spi",
  "1372": " cak",
  "1373": " cake",
  "1374": " cri",
  "1375": " kit",
  "1376": " pus",
  "1377": "What",
  "1378": " ey",
  "1379": " nodd",
  "1380": " sea",
  "1381": " dis",
  "1382": " nodded",
  "1383": " truc",
  "1384": " truck",
  "1385": " appl",
  "1386": " cook",
  "1387": " fire",
  "1388": " part",
  "1389": " sit",
  "1390": "Then",
  "1391": "go",
  "1392": " “",
  "1393": " bunny",
  "1394": "oy",
  "1395": " firs",
  "1396": " first",
  "1397": " move",
  "1398": " Kitt",
  "1399": " Kitty",
  "1400": " cold",
  "1401": " duc",
  "1402": " duck",
  "1403": " fav",
  "1404": " favo",
  "1405": " lad",
  "1406": " pin",
  "1407": " watch",
  "1408": " couldn",
  "1409": " has",
  "1410": " sin",
  "1411": " lookin",
  "1412": " looking",
  "1413": "ayb",
  "1414": "ere",
  "1415": " Jo",
  "1416": " hai",
  "1417": " hair",
  "1418": " kep",
  "1419": " kept",
  "1420": " mous",
  "1421": " mouse",
  "1422": " ru",
  "1423": " Bu",
  "1424": " apple",
  "1425": " Tha",
  "1426": " catc",
  "1427": " town",
  "1428": "At",
  "1429": " Jack",
  "1430": "Hi",
  "1431": " Can",
  "1432": " bef",
  "1433": " befo",
  "1434": " befor",
  "1435": " before",
  "1436": " birds",
  "1437": " curi",
  "1438": " squi",
  "1439": "Sara",
  "1440": " brig",
  "1441": " brigh",
  "1442": " bright",
  "1443": " mora",
  "1444": " moral",
  "1445": " Mr",
  "1446": " Sall",
  "1447": " Sally",
  "1448": " shared",
  "1449": " son",
  "1450": " squir",
  "1451": " squirr",
  "1452": " squirre",
  "1453": " squirrel",
  "1454": "and",
  "1455": " eyes",
  "1456": " favor",
  "1457": " favori",
  "1458": " favorit",
  "1459": " favorite",
  "1460": " funn",
  "1461": " funny",
  "1462": " head",
  "1463": "hn",
  "1464": "ome",
  "1465": " catch",
  "1466": " forg",
  "1467": " gu",
  "1468": " kitc",
  "1469": " kitche",
  "1470": " kitchen",
  "1471": " rig",
  "1472": " righ",
  "1473": " right",
  "1474": " san",
  "1475": " yell",
  "1476": "ane",
  "1477": " clap",
  "1478": " curiou",
  "1479": " curious",
  "1480": " dres",
  "1481": " dress",
  "1482": "zy",
  "1483": " adv",
  "1484": " bel",
  "1485": " butterf",
  "1486": " butterfl",
  "1487": " dif",
  "1488": " diff",
  "1489": " farm",
  "1490": " spo",
  "1491": " yar",
  "1492": "We",
  "1493": " Now",
  "1494": " shout",
  "1495": " sing",
  "1496": " ple",
  "1497": " sle",
  "1498": " ste",
  "1499": " tas",
  "1500": " plea",
  "1501": " remem",
  "1502": " rememb",
  "1503": " remembe",
  "1504": " remember",
  "1505": " soun",
  "1506": " sound",
  "1507": " watche",
  "1508": " wher",
  "1509": " where",
  "1510": "one",
  "1511": " carr",
  "1512": " lu",
  "1513": " momm",
  "1514": " party",
  "1515": " pleas",
  "1516": " rep",
  "1517": " tired",
  "1518": " beg",
  "1519": " chi",
  "1520": " havi",
  "1521": " havin",
  "1522": " having",
  "1523": " mis",
  "1524": " pea",
  "1525": " piec",
  "1526": " piece",
  "1527": " worke",
  "1528": "jo",
  "1529": " adve",
  "1530": " adven",
  "1531": " advent",
  "1532": " adventu",
  "1533": " adventur",
  "1534": " leaves",
  "1535": " mommy",
  "1536": "So",
  "1537": " ice",
  "1538": " butterfly",
  "1539": " store",
  "1540": " walki",
  "1541": " walkin",
  "1542": " walking",
  "1543": " rest",
  "1544": " treat",
  "1545": " worked",
  "1546": "Max",
  "1547": " z",
  "1548": " our",
  "1549": " song",
  "1550": " top",
  "1551": " watched",
  "1552": "Why",
  "1553": "iz",
  "1554": " roll",
  "1555": "He",
  "1556": " bloc",
  "1557": " block",
  "1558": " cried",
  "1559": " expl",
  "1560": " here",
  "1561": " tast",
  "1562": " thro",
  "1563": "Wow",
  "1564": " bega",
  "1565": " began",
  "1566": " gla",
  "1567": " hun",
  "1568": " sunn",
  "1569": " tall",
  "1570": " vo",
  "1571": " G",
  "1572": " Da",
  "1573": " Jan",
  "1574": " Jane",
  "1575": " Thi",
  "1576": " This",
  "1577": " bar",
  "1578": " sna",
  "1579": " sunny",
  "1580": " towe",
  "1581": "gu",
  "1582": " bui",
  "1583": " buil",
  "1584": " clot",
  "1585": " dar",
  "1586": " gon",
  "1587": " please",
  "1588": " twi",
  "1589": "Ann",
  "1590": "our",
  "1591": " R",
  "1592": " agr",
  "1593": " agre",
  "1594": " agree",
  "1595": " gone",
  "1596": " makin",
  "1597": " making",
  "1598": " wear",
  "1599": " whis",
  "1600": " feelin",
  "1601": " feeling",
  "1602": " gras",
  "1603": " grass",
  "1604": " slee",
  "1605": " sleep",
  "1606": " touch",
  "1607": " wav",
  "1608": " bla",
  "1609": " chee",
  "1610": " doe",
  "1611": " does",
  "1612": " enj",
  "1613": " enjo",
  "1614": " enjoy",
  "1615": " hung",
  "1616": "Aft",
  "1617": "After",
  "1618": "Anna",
  "1619": "Hell",
  "1620": "Hello",
  "1621": " ant",
  "1622": " dee",
  "1623": " ful",
  "1624": " full",
  "1625": " race",
  "1626": " sig",
  "1627": " turne",
  "1628": " turned",
  "1629": " voi",
  "1630": " voice",
  "1631": " wishe",
  "1632": "Sue",
  "1633": " Be",
  "1634": " bus",
  "1635": " fol",
  "1636": " lig",
  "1637": " ligh",
  "1638": " light",
  "1639": " mes",
  "1640": " woo",
  "1641": " draw",
  "1642": " fix",
  "1643": " mess",
  "1644": " prin",
  "1645": " slo",
  "1646": " slow",
  "1647": "lla",
  "1648": "ps",
  "1649": " dance",
  "1650": " pil",
  "1651": " swe",
  "1652": " tig",
  "1653": " worry",
  "1654": "Don",
  "1655": " beh",
  "1656": " diffe",
  "1657": " differe",
  "1658": " differen",
  "1659": " hold",
  "1660": " trees",
  "1661": " wag",
  "1662": "no",
  "1663": " ac",
  "1664": " fru",
  "1665": " rab",
  "1666": " rabb",
  "1667": " rabbit",
  "1668": " scary",
  "1669": " bag",
  "1670": " clapp",
  "1671": " closer",
  "1672": " cooki",
  "1673": " cookie",
  "1674": " dark",
  "1675": " grab",
  "1676": " impo",
  "1677": " lady",
  "1678": " quick",
  "1679": " repl",
  "1680": " wood",
  "1681": "Sam",
  "1682": " Sud",
  "1683": " Sudd",
  "1684": " Sudde",
  "1685": " Sudden",
  "1686": " Suddenl",
  "1687": " Suddenly",
  "1688": " colors",
  "1689": " impor",
  "1690": " import",
  "1691": " importa",
  "1692": " importan",
  "1693": " lio",
  "1694": " lion",
  "1695": " pond",
  "1696": " tel",
  "1697": " wave",
  "1698": " adventure",
  "1699": " agreed",
  "1700": " cars",
  "1701": " different",
  "1702": " gif",
  "1703": " gift",
  "1704": " nig",
  "1705": " nigh",
  "1706": " night",
  "1707": " tell",
  "1708": " yard",
  "1709": "isa",
  "1710": "’",
  "1711": " cut",
  "1712": " gro",
  "1713": " important",
  "1714": " pain",
  "1715": " ready",
  "1716": " tower",
  "1717": "do",
  "1718": "hy",
  "1719": " As",
  "1720": " heav",
  "1721": " held",
  "1722": " hungr",
  "1723": " listened",
  "1724": " min",
  "1725": " tryi",
  "1726": " tryin",
  "1727": " trying",
  "1728": " wished",
  "1729": "She",
  "1730": " O",
  "1731": " fig",
  "1732": " glad",
  "1733": " hungry",
  "1734": " runn",
  "1735": " shoute",
  "1736": " shouted",
  "1737": " yello",
  "1738": " yellow",
  "1739": " That",
  "1740": " bigg",
  "1741": " bigge",
  "1742": " build",
  "1743": " del",
  "1744": " pat",
  "1745": " runnin",
  "1746": " running",
  "1747": " swee",
  "1748": " word",
  "1749": " heavy",
  "1750": " owl",
  "1751": " sees",
  "1752": " sweet",
  "1753": " tai",
  "1754": " tail",
  "1755": " Dad",
  "1756": " fini",
  "1757": " finis",
  "1758": " foll",
  "1759": " follo",
  "1760": " follow",
  "1761": " swa",
  "1762": " wet",
  "1763": " ama",
  "1764": " amaz",
  "1765": " helpi",
  "1766": " helpin",
  "1767": " helping",
  "1768": " wall",
  "1769": "cu",
  "1770": "isy",
  "1771": " bab",
  "1772": " broken",
  "1773": " clapped",
  "1774": " comin",
  "1775": " coming",
  "1776": " les",
  "1777": " less",
  "1778": " nee",
  "1779": " needed",
  "1780": " prete",
  "1781": " pretend",
  "1782": " quickl",
  "1783": " quickly",
  "1784": " stuc",
  "1785": " stuck",
  "1786": " tab",
  "1787": " tabl",
  "1788": " table",
  "1789": "Jo",
  "1790": "ust",
  "1791": " All",
  "1792": " behi",
  "1793": " behind",
  "1794": " close",
  "1795": " Bobo",
  "1796": " Bud",
  "1797": " Budd",
  "1798": " Buddy",
  "1799": " dir",
  "1800": " dirt",
  "1801": " grow",
  "1802": " likes",
  "1803": " mig",
  "1804": " migh",
  "1805": " might",
  "1806": " own",
  "1807": " pulled",
  "1808": "udd",
  "1809": " alo",
  "1810": " alon",
  "1811": " climbed",
  "1812": " cream",
  "1813": " mout",
  "1814": " mouth",
  "1815": " name",
  "1816": " pushe",
  "1817": " wel",
  "1818": " Fin",
  "1819": " dro",
  "1820": " explo",
  "1821": " frui",
  "1822": " fruit",
  "1823": " hot",
  "1824": " mum",
  "1825": " must",
  "1826": " plant",
  "1827": " repli",
  "1828": " replied",
  "1829": " sis",
  "1830": " sist",
  "1831": " siste",
  "1832": " sister",
  "1833": " why",
  "1834": " year",
  "1835": " blocks",
  "1836": " dri",
  "1837": " drea",
  "1838": " dream",
  "1839": " explore",
  "1840": " nos",
  "1841": " onl",
  "1842": " pol",
  "1843": " wond",
  "1844": " wonde",
  "1845": " wonder",
  "1846": " Ins",
  "1847": " baby",
  "1848": " break",
  "1849": " faste",
  "1850": " lett",
  "1851": " mot",
  "1852": " only",
  "1853": " reache",
  "1854": " ski",
  "1855": "Sudd",
  "1856": "Sudden",
  "1857": "Suddenl",
  "1858": "Suddenly",
  "1859": " floo",
  "1860": " job",
  "1861": " Dais",
  "1862": " Daisy",
  "1863": " figh",
  "1864": " fight",
  "1865": " gen",
  "1866": " lif",
  "1867": " someti",
  "1868": " sometim",
  "1869": " sometime",
  "1870": " three",
  "1871": "fi",
  "1872": " Everyo",
  "1873": " Everyon",
  "1874": " Everyone",
  "1875": " Mar",
  "1876": " ano",
  "1877": " anot",
  "1878": " anothe",
  "1879": " another",
  "1880": " cro",
  "1881": " mat",
  "1882": " pushed",
  "1883": " sand",
  "1884": " smar",
  "1885": " smart",
  "1886": " sometimes",
  "1887": " whist",
  "1888": " whistl",
  "1889": " wing",
  "1890": "Mia",
  "1891": "og",
  "1892": " Bi",
  "1893": " Timm",
  "1894": " Timmy",
  "1895": " cau",
  "1896": " floor",
  "1897": " friendl",
  "1898": " friendly",
  "1899": " seen",
  "1900": " stri",
  "1901": " tigh",
  "1902": " tight",
  "1903": " wro",
  "1904": " Af",
  "1905": " Aft",
  "1906": " After",
  "1907": " done",
  "1908": " fal",
  "1909": " fall",
  "1910": " hil",
  "1911": " hill",
  "1912": " mome",
  "1913": " momen",
  "1914": " moment",
  "1915": " noti",
  "1916": " notic",
  "1917": " windo",
  "1918": " window",
  "1919": " bigger",
  "1920": " brot",
  "1921": " brothe",
  "1922": " brother",
  "1923": " cookies",
  "1924": " fie",
  "1925": " hor",
  "1926": " land",
  "1927": " looks",
  "1928": " prom",
  "1929": " promi",
  "1930": " promis",
  "1931": " reached",
  "1932": " spa",
  "1933": " spl",
  "1934": " woods",
  "1935": " bow",
  "1936": " cho",
  "1937": " deli",
  "1938": " grabb",
  "1939": " heal",
  "1940": " lesso",
  "1941": " lesson",
  "1942": " perf",
  "1943": " scr",
  "1944": " stra",
  "1945": " ben",
  "1946": " chai",
  "1947": " chair",
  "1948": " cheer",
  "1949": " comp",
  "1950": " lat",
  "1951": " late",
  "1952": " lef",
  "1953": " left",
  "1954": " pap",
  "1955": " paint",
  "1956": " paper",
  "1957": " princ",
  "1958": " prince",
  "1959": " pup",
  "1960": " rel",
  "1961": " turns",
  "1962": " fai",
  "1963": " fair",
  "1964": " rou",
  "1965": " someo",
  "1966": " someon",
  "1967": " someone",
  "1968": "\".",
  "1969": "Luc",
  "1970": "Lucy",
  "1971": " Lis",
  "1972": " ai",
  "1973": " bark",
  "1974": " cool",
  "1975": " mons",
  "1976": " monst",
  "1977": " monster",
  "1978": " pupp",
  "1979": " sav",
  "1980": " staye",
  "1981": " stayed",
  "1982": " stre",
  "1983": " swim",
  "1984": " wants",
  "1985": "John",
  "1986": " ballo",
  "1987": " balloo",
  "1988": " balloon",
  "1989": " ble",
  "1990": " books",
  "1991": " clothe",
  "1992": " clothes",
  "1993": " colorf",
  "1994": " colorfu",
  "1995": " colorful",
  "1996": " grabbed",
  "1997": " mine",
  "1998": " squa",
  "1999": "mma",
  "2000": " Lisa",
  "2001": " air",
  "2002": " faster",
  "2003": " mix",
  "2004": " nap",
  "2005": " pictures",
  "2006": " suc",
  "2007": " sure",
  "2008": " teac",
  "2009": " thinks",
  "2010": " wri",
  "2011": "In",
  "2012": " bat",
  "2013": " been",
  "2014": " cont",
  "2015": " din",
  "2016": " hims",
  "2017": " himse",
  "2018": " himsel",
  "2019": " himself",
  "2020": " join",
  "2021": " lette",
  "2022": " letter",
  "2023": " pink",
  "2024": " rid",
  "2025": " remembered",
  "2026": " sign",
  "2027": "Okay",
  "2028": "This",
  "2029": " Momm",
  "2030": " Mommy",
  "2031": " Ther",
  "2032": " There",
  "2033": " What",
  "2034": " buy",
  "2035": " enjoyed",
  "2036": " fla",
  "2037": " peac",
  "2038": " set",
  "2039": " unders",
  "2040": " underst",
  "2041": " Insid",
  "2042": " Inside",
  "2043": " ce",
  "2044": " cart",
  "2045": " dia",
  "2046": " driv",
  "2047": " fil",
  "2048": " games",
  "2049": " hopp",
  "2050": " swam",
  "2051": " taste",
  "2052": " throu",
  "2053": " throug",
  "2054": " through",
  "2055": " whistle",
  "2056": " Soon",
  "2057": " anyt",
  "2058": " blew",
  "2059": " dirty",
  "2060": " everyw",
  "2061": " everywhe",
  "2062": " everywher",
  "2063": " everywhere",
  "2064": " fox",
  "2065": " glo",
  "2066": " makes",
  "2067": " miss",
  "2068": " reach",
  "2069": " spla",
  "2070": " splas",
  "2071": " vi",
  "2072": " worl",
  "2073": " words",
  "2074": " world",
  "2075": "else",
  "2076": "lea",
  "2077": " else",
  "2078": " Em",
  "2079": " bik",
  "2080": " bike",
  "2081": " blac",
  "2082": " black",
  "2083": " chil",
  "2084": " dang",
  "2085": " dange",
  "2086": " danger",
  "2087": " deep",
  "2088": " doin",
  "2089": " doing",
  "2090": " drin",
  "2091": " drink",
  "2092": " hide",
  "2093": " leg",
  "2094": " nose",
  "2095": " noticed",
  "2096": " pas",
  "2097": " reali",
  "2098": " save",
  "2099": " spot",
  "2100": " understa",
  "2101": " understand",
  "2102": " waite",
  "2103": " wise",
  "2104": "Her",
  "2105": " bou",
  "2106": " bowl",
  "2107": " bran",
  "2108": " branc",
  "2109": " creat",
  "2110": " danced",
  "2111": " doc",
  "2112": " doct",
  "2113": " docto",
  "2114": " doctor",
  "2115": " dry",
  "2116": " eatin",
  "2117": " eating",
  "2118": " gent",
  "2119": " goodb",
  "2120": " goodby",
  "2121": " goodbye",
  "2122": " pers",
  "2123": " pur",
  "2124": " rec",
  "2125": " threw",
  "2126": " tin",
  "2127": " tro",
  "2128": "'re",
  "2129": "His",
  "2130": " anyth",
  "2131": " anythi",
  "2132": " anythin",
  "2133": " anything",
  "2134": " fur",
  "2135": " hon",
  "2136": " musi",
  "2137": " music",
  "2138": " sil",
  "2139": " tie",
  "2140": " witho",
  "2141": " withou",
  "2142": " without",
  "2143": "Do",
  "2144": "Oh",
  "2145": " benc",
  "2146": " bott",
  "2147": " em",
  "2148": " hit",
  "2149": " pig",
  "2150": " pieces",
  "2151": " pud",
  "2152": " pudd",
  "2153": " puddl",
  "2154": " puddle",
  "2155": " shoo",
  "2156": " sno",
  "2157": " snow",
  "2158": " step",
  "2159": " tiny",
  "2160": " waited",
  "2161": "hile",
  "2162": " Som",
  "2163": " Some",
  "2164": " alone",
  "2165": " amazi",
  "2166": " amazin",
  "2167": " amazing",
  "2168": " bench",
  "2169": " drop",
  "2170": " eg",
  "2171": " egg",
  "2172": " gett",
  "2173": " gettin",
  "2174": " getting",
  "2175": " puppy",
  "2176": " ride",
  "2177": " scre",
  "2178": " spr",
  "2179": " writ",
  "2180": "lli",
  "2181": " chas",
  "2182": " monk",
  "2183": " rad",
  "2184": " realiz",
  "2185": " sme",
  "2186": " smel",
  "2187": " whit",
  "2188": " white",
  "2189": " Bill",
  "2190": " brou",
  "2191": " broug",
  "2192": " brough",
  "2193": " brought",
  "2194": " cow",
  "2195": " cup",
  "2196": " dangerou",
  "2197": " dangerous",
  "2198": " drag",
  "2199": " lift",
  "2200": " mothe",
  "2201": " mother",
  "2202": " pra",
  "2203": " push",
  "2204": " sch",
  "2205": " scho",
  "2206": " schoo",
  "2207": " school",
  "2208": " trip",
  "2209": ".”",
  "2210": " Joe",
  "2211": " cas",
  "2212": " child",
  "2213": " fre",
  "2214": " monke",
  "2215": " monkey",
  "2216": " nes",
  "2217": " nest",
  "2218": " pet",
  "2219": " pow",
  "2220": " smell",
  "2221": " storm",
  "2222": " vis",
  "2223": " visit",
  "2224": " wron",
  "2225": " wrong",
  "2226": "cky",
  "2227": "itte",
  "2228": "ood",
  "2229": " chan",
  "2230": " coa",
  "2231": " des",
  "2232": " drive",
  "2233": " fat",
  "2234": " fiel",
  "2235": " field",
  "2236": " finishe",
  "2237": " finished",
  "2238": " flyin",
  "2239": " flying",
  "2240": " grand",
  "2241": " hone",
  "2242": " je",
  "2243": " lak",
  "2244": " lake",
  "2245": " luc",
  "2246": " luck",
  "2247": " mil",
  "2248": " realized",
  "2249": " wagg",
  "2250": " wings",
  "2251": " Joh",
  "2252": " John",
  "2253": " bas",
  "2254": " dinn",
  "2255": " dinne",
  "2256": " dinner",
  "2257": " dolls",
  "2258": " fairy",
  "2259": " farme",
  "2260": " farmer",
  "2261": " hoo",
  "2262": " leaf",
  "2263": " nu",
  "2264": " pot",
  "2265": " power",
  "2266": " quiet",
  "2267": " rolled",
  "2268": " sel",
  "2269": " sid",
  "2270": " side",
  "2271": " sour",
  "2272": "Bob",
  "2273": "Sp",
  "2274": "ndy",
  "2275": " Jim",
  "2276": " bath",
  "2277": " coat",
  "2278": " delic",
  "2279": " ear",
  "2280": " fan",
  "2281": " hopped",
  "2282": " jui",
  "2283": " juice",
  "2284": " shap",
  "2285": " shape",
  "2286": " shel",
  "2287": " strin",
  "2288": " string",
  "2289": " tod",
  "2290": " toda",
  "2291": " today",
  "2292": "!”",
  "2293": " Billy",
  "2294": " Emma",
  "2295": " Momo",
  "2296": " drago",
  "2297": " dragon",
  "2298": " hos",
  "2299": " pile",
  "2300": " seat",
  "2301": " snac",
  "2302": " snack",
  "2303": "Ja",
  "2304": "Mayb",
  "2305": "Maybe",
  "2306": "Spot",
  "2307": " ve",
  "2308": " arm",
  "2309": " bor",
  "2310": " carefull",
  "2311": " carefully",
  "2312": " contin",
  "2313": " continu",
  "2314": " grandm",
  "2315": " grandma",
  "2316": " ja",
  "2317": " perfe",
  "2318": " perfec",
  "2319": " perfect",
  "2320": " pop",
  "2321": " reco",
  "2322": " riv",
  "2323": " river",
  "2324": " shari",
  "2325": " sharin",
  "2326": " sharing",
  "2327": " smo",
  "2328": " soc",
  "2329": " sol",
  "2330": " swings",
  "2331": " talke",
  "2332": " talked",
  "2333": " trou",
  "2334": " troub",
  "2335": " troubl",
  "2336": " trouble",
  "2337": " twin",
  "2338": " waved",
  "2339": "Good",
  "2340": "Just",
  "2341": " ans",
  "2342": " answ",
  "2343": " answe",
  "2344": " answer",
  "2345": " apples",
  "2346": " butto",
  "2347": " button",
  "2348": " forgo",
  "2349": " forgot",
  "2350": " key",
  "2351": " las",
  "2352": " lucky",
  "2353": " round",
  "2354": " shr",
  "2355": " sne",
  "2356": " uni",
  "2357": "est",
  "2358": " At",
  "2359": " May",
  "2360": " brow",
  "2361": " brown",
  "2362": " clou",
  "2363": " cloud",
  "2364": " enou",
  "2365": " enoug",
  "2366": " enough",
  "2367": " hers",
  "2368": " kitt",
  "2369": " marc",
  "2370": " ora",
  "2371": " oran",
  "2372": " orang",
  "2373": " orange",
  "2374": " sec",
  "2375": " soup",
  "2376": " spic",
  "2377": " spicy",
  "2378": " tric",
  "2379": " trick",
  "2380": " wid",
  "2381": " wide",
  "2382": " write",
  "2383": " years",
  "2384": "While",
  "2385": " Sarah",
  "2386": " bite",
  "2387": " carro",
  "2388": " carrot",
  "2389": " cast",
  "2390": " castl",
  "2391": " castle",
  "2392": " cour",
  "2393": " cryin",
  "2394": " crying",
  "2395": " diam",
  "2396": " diamo",
  "2397": " diamond",
  "2398": " hugs",
  "2399": " pare",
  "2400": " paren",
  "2401": " parent",
  "2402": " princes",
  "2403": " roa",
  "2404": " road",
  "2405": " rocks",
  "2406": " slowl",
  "2407": " slowly",
  "2408": " wagge",
  "2409": " wagged",
  "2410": " wok",
  "2411": " woke",
  "2412": " wore",
  "2413": " zoo",
  "2414": " branch",
  "2415": " closed",
  "2416": " feels",
  "2417": " followed",
  "2418": " heart",
  "2419": " huge",
  "2420": " pan",
  "2421": " pati",
  "2422": " patie",
  "2423": " patien",
  "2424": " princess",
  "2425": " shoe",
  "2426": " sill",
  "2427": " smiles",
  "2428": " sock",
  "2429": " squas",
  "2430": " squash",
  "2431": " well",
  "2432": "From",
  "2433": "Momm",
  "2434": "Mommy",
  "2435": " Mayb",
  "2436": " Maybe",
  "2437": " bask",
  "2438": " baske",
  "2439": " basket",
  "2440": " beac",
  "2441": " beach",
  "2442": " bub",
  "2443": " bubb",
  "2444": " bubbl",
  "2445": " fill",
  "2446": " kitte",
  "2447": " kitten",
  "2448": " may",
  "2449": " mos",
  "2450": " mud",
  "2451": " pen",
  "2452": " perso",
  "2453": " person",
  "2454": " poli",
  "2455": " silly",
  "2456": " sitt",
  "2457": " sitti",
  "2458": " sittin",
  "2459": " sitting",
  "2460": " snak",
  "2461": " snake",
  "2462": " stran",
  "2463": " strang",
  "2464": " strange",
  "2465": " twins",
  "2466": " wei",
  "2467": " worri",
  "2468": " worrie",
  "2469": " worried",
  "2470": "OK",
  "2471": "ish",
  "2472": "ite",
  "2473": "uck",
  "2474": " Fred",
  "2475": " Mark",
  "2476": " band",
  "2477": " ci",
  "2478": " cheere",
  "2479": " cheered",
  "2480": " cir",
  "2481": " circ",
  "2482": " clu",
  "2483": " continued",
  "2484": " king",
  "2485": " loc",
  "2486": " lock",
  "2487": " morn",
  "2488": " mornin",
  "2489": " morning",
  "2490": " patient",
  "2491": " plane",
  "2492": " rub",
  "2493": " sang",
  "2494": " secr",
  "2495": " secre",
  "2496": " secret",
  "2497": " shapes",
  "2498": " shini",
  "2499": " sud",
  "2500": " sudd",
  "2501": " sudde",
  "2502": " sudden",
  "2503": " tasty",
  "2504": " throw",
  "2505": " treats",
  "2506": " worm",
  "2507": "leas",
  "2508": "lease",
  "2509": " Jen",
  "2510": " bubble",
  "2511": " cours",
  "2512": " course",
  "2513": " crab",
  "2514": " forev",
  "2515": " foreve",
  "2516": " forever",
  "2517": " free",
  "2518": " herse",
  "2519": " hersel",
  "2520": " herself",
  "2521": " knee",
  "2522": " mai",
  "2523": " mail",
  "2524": " meas",
  "2525": " measu",
  "2526": " nau",
  "2527": " naug",
  "2528": " naugh",
  "2529": " naught",
  "2530": " naughty",
  "2531": " poin",
  "2532": " point",
  "2533": " purp",
  "2534": " purpl",
  "2535": " purple",
  "2536": " sam",
  "2537": " same",
  "2538": " shinin",
  "2539": " shining",
  "2540": " sticke",
  "2541": " sticker",
  "2542": " tap",
  "2543": "Amy",
  "2544": "Please",
  "2545": "arr",
  "2546": "ipp",
  "2547": " asks",
  "2548": " barked",
  "2549": " chang",
  "2550": " dea",
  "2551": " dov",
  "2552": " dove",
  "2553": " dropp",
  "2554": " fishe",
  "2555": " han",
  "2556": " hang",
  "2557": " mark",
  "2558": " matc",
  "2559": " milk",
  "2560": " mone",
  "2561": " money",
  "2562": " ord",
  "2563": " poo",
  "2564": " reall",
  "2565": " really",
  "2566": " Mo",
  "2567": " arr",
  "2568": " beli",
  "2569": " belie",
  "2570": " believ",
  "2571": " caug",
  "2572": " caugh",
  "2573": " caught",
  "2574": " coun",
  "2575": " count",
  "2576": " disa",
  "2577": " holdi",
  "2578": " holdin",
  "2579": " holding",
  "2580": " jog",
  "2581": " kick",
  "2582": " livin",
  "2583": " living",
  "2584": " plat",
  "2585": " plate",
  "2586": " promised",
  "2587": " shak",
  "2588": " shook",
  "2589": " stea",
  "2590": " stree",
  "2591": " street",
  "2592": " touche",
  "2593": " touched",
  "2594": "ater",
  "2595": " ig",
  "2596": " Ho",
  "2597": " Ji",
  "2598": " Jill",
  "2599": " brin",
  "2600": " bring",
  "2601": " cand",
  "2602": " cav",
  "2603": " cave",
  "2604": " cov",
  "2605": " cone",
  "2606": " cover",
  "2607": " ducks",
  "2608": " fisher",
  "2609": " hidi",
  "2610": " hidin",
  "2611": " hiding",
  "2612": " mic",
  "2613": " most",
  "2614": " parents",
  "2615": " peace",
  "2616": " recor",
  "2617": " record",
  "2618": " reli",
  "2619": " sail",
  "2620": " shad",
  "2621": " shri",
  "2622": " spin",
  "2623": " splash",
  "2624": " stan",
  "2625": " stand",
  "2626": " treas",
  "2627": " treasu",
  "2628": " treasur",
  "2629": " treasure",
  "2630": "'ll",
  "2631": "ith",
  "2632": "rand",
  "2633": " Du",
  "2634": " Duck",
  "2635": " Ro",
  "2636": " bottl",
  "2637": " bottle",
  "2638": " carto",
  "2639": " cartoo",
  "2640": " cartoon",
  "2641": " cray",
  "2642": " crayo",
  "2643": " crayon",
  "2644": " deer",
  "2645": " fea",
  "2646": " fisherm",
  "2647": " fisherma",
  "2648": " fisherman",
  "2649": " hoped",
  "2650": " jar",
  "2651": " laz",
  "2652": " lun",
  "2653": " micr",
  "2654": " micro",
  "2655": " moved",
  "2656": " pass",
  "2657": " pee",
  "2658": " puts",
  "2659": " scarf",
  "2660": " sort",
  "2661": " twis",
  "2662": " twist",
  "2663": " yes",
  "2664": " Ell",
  "2665": " Than",
  "2666": " Thank",
  "2667": " believe",
  "2668": " bread",
  "2669": " creati",
  "2670": " dropped",
  "2671": " ele",
  "2672": " fit",
  "2673": " gat",
  "2674": " jou",
  "2675": " jour",
  "2676": " journ",
  "2677": " laughin",
  "2678": " laughing",
  "2679": " lazy",
  "2680": " lunc",
  "2681": " lunch",
  "2682": " pac",
  "2683": " pres",
  "2684": " rude",
  "2685": " sal",
  "2686": " snee",
  "2687": " sneez",
  "2688": " sui",
  "2689": " succ",
  "2690": " succe",
  "2691": " suit",
  "2692": " teach",
  "2693": " ug",
  "2694": " ugl",
  "2695": " ugly",
  "2696": " ups",
  "2697": " wra",
  "2698": " wrap",
  "2699": "Hey",
  "2700": "aya",
  "2701": "ery",
  "2702": "olly",
  "2703": " -",
  "2704": " Bell",
  "2705": " Bella",
  "2706": " Tomm",
  "2707": " Tommy",
  "2708": " balls",
  "2709": " belo",
  "2710": " cag",
  "2711": " cage",
  "2712": " carry",
  "2713": " ches",
  "2714": " chic",
  "2715": " chick",
  "2716": " cloth",
  "2717": " coll",
  "2718": " everyt",
  "2719": " fen",
  "2720": " fenc",
  "2721": " fence",
  "2722": " healt",
  "2723": " health",
  "2724": " inst",
  "2725": " joke",
  "2726": " ladd",
  "2727": " ladde",
  "2728": " ladder",
  "2729": " live",
  "2730": " mys",
  "2731": " ob",
  "2732": " paw",
  "2733": " pack",
  "2734": " screa",
  "2735": " scream",
  "2736": " singi",
  "2737": " singin",
  "2738": " singing",
  "2739": " songs",
  "2740": " ston",
  "2741": " stone",
  "2742": "Of",
  "2743": "ba",
  "2744": "iss",
  "2745": " Ted",
  "2746": " acc",
  "2747": " ash",
  "2748": " bak",
  "2749": " boun",
  "2750": " bounc",
  "2751": " busy",
  "2752": " conf",
  "2753": " drawin",
  "2754": " drawing",
  "2755": " eas",
  "2756": " everyth",
  "2757": " everythin",
  "2758": " everything",
  "2759": " filled",
  "2760": " grap",
  "2761": " grape",
  "2762": " honey",
  "2763": " horn",
  "2764": " hors",
  "2765": " horse",
  "2766": " inc",
  "2767": " inste",
  "2768": " instea",
  "2769": " instead",
  "2770": " lem",
  "2771": " legs",
  "2772": " lemo",
  "2773": " lemon",
  "2774": " moun",
  "2775": " mount",
  "2776": " mounta",
  "2777": " mountain",
  "2778": " prob",
  "2779": " probl",
  "2780": " proble",
  "2781": " problem",
  "2782": " seem",
  "2783": " shee",
  "2784": " shor",
  "2785": " sic",
  "2786": " sick",
  "2787": " sneeze",
  "2788": " ted",
  "2789": " tedd",
  "2790": " teddy",
  "2791": " wee",
  "2792": " welc",
  "2793": " welco",
  "2794": " welcom",
  "2795": "eep",
  "2796": "wo",
  "2797": " Dadd",
  "2798": " Daddy",
  "2799": " Ju",
  "2800": " Lila",
  "2801": " blan",
  "2802": " blank",
  "2803": " buc",
  "2804": " buck",
  "2805": " cann",
  "2806": " canno",
  "2807": " cannot",
  "2808": " cel",
  "2809": " circl",
  "2810": " cute",
  "2811": " isl",
  "2812": " isla",
  "2813": " island",
  "2814": " lovel",
  "2815": " pant",
  "2816": " pants",
  "2817": " poc",
  "2818": " pock",
  "2819": " pocke",
  "2820": " pocket",
  "2821": " shy",
  "2822": " shir",
  "2823": " shirt",
  "2824": " shop",
  "2825": " ten",
  "2826": " tom",
  "2827": " toot",
  "2828": " tooth",
  "2829": " trus",
  "2830": " trust",
  "2831": " unc",
  "2832": " va",
  "2833": " welcome",
  "2834": "Later",
  "2835": " i",
  "2836": " Bl",
  "2837": " Car",
  "2838": " Ducky",
  "2839": " Just",
  "2840": " Pi",
  "2841": " Pipp",
  "2842": " ber",
  "2843": " berr",
  "2844": " birt",
  "2845": " birth",
  "2846": " birthd",
  "2847": " birthda",
  "2848": " birthday",
  "2849": " brac",
  "2850": " brace",
  "2851": " bracel",
  "2852": " bracele",
  "2853": " bracelet",
  "2854": " breat",
  "2855": " childre",
  "2856": " children",
  "2857": " circle",
  "2858": " clum",
  "2859": " clums",
  "2860": " comes",
  "2861": " forgi",
  "2862": " forgiv",
  "2863": " group",
  "2864": " highe",
  "2865": " kno",
  "2866": " lin",
  "2867": " lovely",
  "2868": " march",
  "2869": " mayb",
  "2870": " maybe",
  "2871": " peek",
  "2872": " pia",
  "2873": " pian",
  "2874": " piano",
  "2875": " ric",
  "2876": " sounds",
  "2877": " suddenl",
  "2878": " suddenly",
  "2879": " val",
  "2880": " valu",
  "2881": " wish",
  "2882": " wonderf",
  "2883": " wonderfu",
  "2884": " wonderful",
  "2885": " youn",
  "2886": " young",
  "2887": "?”",
  "2888": "Jack",
  "2889": "ggy",
  "2890": "here",
  "2891": "icy",
  "2892": "wel",
  "2893": " es",
  "2894": " Andy",
  "2895": " Bear",
  "2896": " Benn",
  "2897": " Benny",
  "2898": " Blu",
  "2899": " Blue",
  "2900": " Gra",
  "2901": " Grand",
  "2902": " abl",
  "2903": " able",
  "2904": " arri",
  "2905": " arriv",
  "2906": " arrive",
  "2907": " blanke",
  "2908": " blanket",
  "2909": " bur",
  "2910": " candy",
  "2911": " clumsy",
  "2912": " cor",
  "2913": " deco",
  "2914": " decor",
  "2915": " decora",
  "2916": " decorat",
  "2917": " dolp",
  "2918": " dolph",
  "2919": " dolphin",
  "2920": " drew",
  "2921": " ent",
  "2922": " faces",
  "2923": " few",
  "2924": " finish",
  "2925": " foot",
  "2926": " gentle",
  "2927": " gray",
  "2928": " grew",
  "2929": " helpf",
  "2930": " helpfu",
  "2931": " helpful",
  "2932": " last",
  "2933": " lone",
  "2934": " lonel",
  "2935": " mel",
  "2936": " measure",
  "2937": " mul",
  "2938": " mule",
  "2939": " myst",
  "2940": " myster",
  "2941": " pou",
  "2942": " pean",
  "2943": " peanu",
  "2944": " peanut",
  "2945": " polic",
  "2946": " police",
  "2947": " rubb",
  "2948": " sticks",
  "2949": " towa",
  "2950": " towar",
  "2951": " toward",
  "2952": " upset",
  "2953": " vill",
  "2954": " villa",
  "2955": " villag",
  "2956": " waf",
  "2957": " waff",
  "2958": " waffl",
  "2959": " waffle",
  "2960": " wago",
  "2961": " wagon",
  "2962": " whal",
  "2963": " whale",
  "2964": " yo",
  "2965": " yog",
  "2966": " yours",
  "2967": "Fina",
  "2968": "Final",
  "2969": "Finall",
  "2970": "Finally",
  "2971": "imi",
  "2972": "una",
  "2973": " Jake",
  "2974": " Moll",
  "2975": " Molly",
  "2976": " Oll",
  "2977": " Olli",
  "2978": " Ollie",
  "2979": " backy",
  "2980": " backya",
  "2981": " backyar",
  "2982": " backyard",
  "2983": " bon",
  "2984": " bone",
  "2985": " cater",
  "2986": " caterp",
  "2987": " caterpi",
  "2988": " caterpil",
  "2989": " caterpill",
  "2990": " caterpilla",
  "2991": " caterpillar",
  "2992": " crow",
  "2993": " disap",
  "2994": " disapp",
  "2995": " event",
  "2996": " fron",
  "2997": " front",
  "2998": " glu",
  "2999": " ima",
  "3000": " imag",
  "3001": " lic",
  "3002": " lonely",
  "3003": " magica",
  "3004": " magical",
  "3005": " noises",
  "3006": " ont",
  "3007": " onto",
  "3008": " prac",
  "3009": " pract",
  "3010": " practi",
  "3011": " practic",
  "3012": " promise",
  "3013": " sau",
  "3014": " sheep",
  "3015": " spar",
  "3016": " spark",
  "3017": " stai",
  "3018": " stori",
  "3019": " storie",
  "3020": " stories",
  "3021": " takes",
  "3022": " tun",
  "3023": " village",
  "3024": " wand",
  "3025": " weak",
  "3026": "St",
  "3027": " Cat",
  "3028": " Dogg",
  "3029": " Doggy",
  "3030": " Jenn",
  "3031": " Jenny",
  "3032": " Whis",
  "3033": " Whisk",
  "3034": " Whisker",
  "3035": " Whiskers",
  "3036": " afr",
  "3037": " afra",
  "3038": " afrai",
  "3039": " afraid",
  "3040": " appe",
  "3041": " appea",
  "3042": " appear",
  "3043": " belon",
  "3044": " belong",
  "3045": " camer",
  "3046": " camera",
  "3047": " carri",
  "3048": " change",
  "3049": " chicke",
  "3050": " chicken",
  "3051": " clow",
  "3052": " clown",
  "3053": " cos",
  "3054": " emp",
  "3055": " empt",
  "3056": " forge",
  "3057": " forget",
  "3058": " forgive",
  "3059": " glue",
  "3060": " healthy",
  "3061": " knock",
  "3062": " lay",
  "3063": " later",
  "3064": " mind",
  "3065": " mug",
  "3066": " nec",
  "3067": " peacef",
  "3068": " peacefu",
  "3069": " peaceful",
  "3070": " puz",
  "3071": " puzz",
  "3072": " puzzl",
  "3073": " runs",
  "3074": " sharp",
  "3075": " stair",
  "3076": " tau",
  "3077": " talki",
  "3078": " talkin",
  "3079": " talking",
  "3080": " tee",
  "3081": " teet",
  "3082": " teeth",
  "3083": " towards",
  "3084": " weir",
  "3085": " weird",
  "3086": "Ne",
  "3087": "sa",
  "3088": " Z",
  "3089": " Don",
  "3090": " Fina",
  "3091": " Final",
  "3092": " Finall",
  "3093": " Finally",
  "3094": " Tin",
  "3095": " Tw",
  "3096": " bookc",
  "3097": " bookca",
  "3098": " bookcas",
  "3099": " bookcase",
  "3100": " carried",
  "3101": " chased",
  "3102": " comf",
  "3103": " days",
  "3104": " det",
  "3105": " empty",
  "3106": " fina",
  "3107": " final",
  "3108": " finall",
  "3109": " finally",
  "3110": " gru",
  "3111": " inte",
  "3112": " intere",
  "3113": " interes",
  "3114": " interest",
  "3115": " interestin",
  "3116": " interesting",
  "3117": " jew",
  "3118": " jewel",
  "3119": " jumping",
  "3120": " kni",
  "3121": " marb",
  "3122": " marbl",
  "3123": " marble",
  "3124": " matt",
  "3125": " mee",
  "3126": " meet",
  "3127": " mist",
  "3128": " neck",
  "3129": " ph",
  "3130": " pho",
  "3131": " pri",
  "3132": " puzzle",
  "3133": " radis",
  "3134": " self",
  "3135": " selfi",
  "3136": " selfis",
  "3137": " selfish",
  "3138": " shake",
  "3139": " sup",
  "3140": " taug",
  "3141": " taugh",
  "3142": " taught",
  "3143": " tent",
  "3144": " vio",
  "3145": " viol",
  "3146": " violin",
  "3147": " Jer",
  "3148": " Jerr",
  "3149": " Jerry",
  "3150": " Lun",
  "3151": " Luna",
  "3152": " Somet",
  "3153": " Tog",
  "3154": " Toge",
  "3155": " Toget",
  "3156": " Togethe",
  "3157": " Together",
  "3158": " Why",
  "3159": " acr",
  "3160": " acro",
  "3161": " arrived",
  "3162": " att",
  "3163": " chu",
  "3164": " hose",
  "3165": " lande",
  "3166": " landed",
  "3167": " mit",
  "3168": " messy",
  "3169": " mitt",
  "3170": " mitte",
  "3171": " mitten",
  "3172": " nei",
  "3173": " neig",
  "3174": " neigh",
  "3175": " neighb",
  "3176": " neighbo",
  "3177": " neighbor",
  "3178": " noisy",
  "3179": " pai",
  "3180": " rob",
  "3181": " rod",
  "3182": " rocke",
  "3183": " rocket",
  "3184": " sco",
  "3185": " sear",
  "3186": " searc",
  "3187": " shrim",
  "3188": " shrimp",
  "3189": " soa",
  "3190": " stepp",
  "3191": " steppe",
  "3192": " stepped",
  "3193": " such",
  "3194": " taki",
  "3195": " takin",
  "3196": " taking",
  "3197": " teache",
  "3198": " thu",
  "3199": " tricks",
  "3200": " week",
  "3201": "Be",
  "3202": "Soon",
  "3203": "loo",
  "3204": " On",
  "3205": " Grandm",
  "3206": " Grandma",
  "3207": " Mary",
  "3208": " Someti",
  "3209": " Sometim",
  "3210": " Sometime",
  "3211": " Sometimes",
  "3212": " av",
  "3213": " amaze",
  "3214": " anyo",
  "3215": " anyon",
  "3216": " anyone",
  "3217": " breath",
  "3218": " carrots",
  "3219": " choc",
  "3220": " choco",
  "3221": " chocol",
  "3222": " chocola",
  "3223": " chocolat",
  "3224": " chocolate",
  "3225": " comfo",
  "3226": " comfor",
  "3227": " comfort",
  "3228": " confu",
  "3229": " confus",
  "3230": " cost",
  "3231": " crayons",
  "3232": " delica",
  "3233": " delicat",
  "3234": " delicate",
  "3235": " expla",
  "3236": " explain",
  "3237": " fightin",
  "3238": " fighting",
  "3239": " gentl",
  "3240": " gently",
  "3241": " gifted",
  "3242": " gives",
  "3243": " goe",
  "3244": " goes",
  "3245": " gue",
  "3246": " gues",
  "3247": " hay",
  "3248": " hairc",
  "3249": " haircu",
  "3250": " haircut",
  "3251": " higher",
  "3252": " hook",
  "3253": " hope",
  "3254": " jung",
  "3255": " jungle",
  "3256": " mas",
  "3257": " nut",
  "3258": " ordin",
  "3259": " ordina",
  "3260": " ordinar",
  "3261": " ordinary",
  "3262": " owner",
  "3263": " pour",
  "3264": " print",
  "3265": " sac",
  "3266": " sack",
  "3267": " seed",
  "3268": " shoes",
  "3269": " smili",
  "3270": " smilin",
  "3271": " smiling",
  "3272": " smok",
  "3273": " solv",
  "3274": " spea",
  "3275": " spen",
  "3276": " teas",
  "3277": " whisp",
  "3278": " whispe",
  "3279": " whisper",
  "3280": " whol",
  "3281": " whole",
  "3282": " wild",
  "3283": " Ha",
  "3284": " Mag",
  "3285": " Samm",
  "3286": " Sammy",
  "3287": " acros",
  "3288": " across",
  "3289": " ban",
  "3290": " bucke",
  "3291": " bucket",
  "3292": " cleaned",
  "3293": " coin",
  "3294": " colle",
  "3295": " collec",
  "3296": " collect",
  "3297": " confused",
  "3298": " creatu",
  "3299": " creature",
  "3300": " dau",
  "3301": " daug",
  "3302": " daugh",
  "3303": " daught",
  "3304": " daughte",
  "3305": " daughter",
  "3306": " dete",
  "3307": " deter",
  "3308": " determ",
  "3309": " determin",
  "3310": " exam",
  "3311": " fanc",
  "3312": " fancy",
  "3313": " gas",
  "3314": " gathe",
  "3315": " gather",
  "3316": " gig",
  "3317": " gigg",
  "3318": " grum",
  "3319": " harm",
  "3320": " imagin",
  "3321": " jee",
  "3322": " jeep",
  "3323": " lam",
  "3324": " line",
  "3325": " note",
  "3326": " peb",
  "3327": " pebb",
  "3328": " pebbl",
  "3329": " pebble",
  "3330": " radi",
  "3331": " radio",
  "3332": " robot",
  "3333": " screame",
  "3334": " screamed",
  "3335": " shiv",
  "3336": " shive",
  "3337": " shiver",
  "3338": " skir",
  "3339": " skirt",
  "3340": " smoke",
  "3341": " steak",
  "3342": " stickers",
  "3343": " suns",
  "3344": " swo",
  "3345": " team",
  "3346": " thic",
  "3347": " thick",
  "3348": " tor",
  "3349": " zo",
  "3350": " zoom",
  "3351": "Next",
  "3352": "Tomm",
  "3353": "Tommy",
  "3354": "ark",
  "3355": "coa",
  "3356": " Buz",
  "3357": " Buzz",
  "3358": " Pippin",
  "3359": " amazed",
  "3360": " anc",
  "3361": " bake",
  "3362": " bell",
  "3363": " blow",
  "3364": " chew",
  "3365": " couc",
  "3366": " couch",
  "3367": " determined",
  "3368": " dist",
  "3369": " driver",
  "3370": " elep",
  "3371": " eleph",
  "3372": " elepha",
  "3373": " elephan",
  "3374": " elephant",
  "3375": " esc",
  "3376": " esca",
  "3377": " escap",
  "3378": " explor",
  "3379": " frig",
  "3380": " frigh",
  "3381": " fright",
  "3382": " frighte",
  "3383": " frighten",
  "3384": " frightened",
  "3385": " inv",
  "3386": " incr",
  "3387": " jun",
  "3388": " journe",
  "3389": " journey",
  "3390": " junk",
  "3391": " longe",
  "3392": " match",
  "3393": " missed",
  "3394": " mista",
  "3395": " mistak",
  "3396": " mistake",
  "3397": " net",
  "3398": " pige",
  "3399": " pigeo",
  "3400": " pigeon",
  "3401": " pine",
  "3402": " playg",
  "3403": " playgr",
  "3404": " playgrou",
  "3405": " playground",
  "3406": " ques",
  "3407": " quit",
  "3408": " quest",
  "3409": " questi",
  "3410": " question",
  "3411": " ret",
  "3412": " retu",
  "3413": " retur",
  "3414": " return",
  "3415": " rop",
  "3416": " rope",
  "3417": " saved",
  "3418": " seek",
  "3419": " seeme",
  "3420": " seemed",
  "3421": " ship",
  "3422": " slip",
  "3423": " solve",
  "3424": " supp",
  "3425": " yarn",
  "3426": "Come",
  "3427": "Lisa",
  "3428": "ama",
  "3429": " Ch",
  "3430": " How",
  "3431": " Re",
  "3432": " appeare",
  "3433": " appeared",
  "3434": " barn",
  "3435": " bubbles",
  "3436": " buildi",
  "3437": " buildin",
  "3438": " building",
  "3439": " celer",
  "3440": " celery",
  "3441": " cocoa",
  "3442": " compe",
  "3443": " compet",
  "3444": " creativ",
  "3445": " drain",
  "3446": " dran",
  "3447": " drank",
  "3448": " fool",
  "3449": " fruits",
  "3450": " glow",
  "3451": " grat",
  "3452": " grate",
  "3453": " gratef",
  "3454": " gratefu",
  "3455": " grateful",
  "3456": " grump",
  "3457": " grumpy",
  "3458": " ign",
  "3459": " joy",
  "3460": " kis",
  "3461": " kiss",
  "3462": " law",
  "3463": " lose",
  "3464": " mir",
  "3465": " mirr",
  "3466": " mirro",
  "3467": " mirror",
  "3468": " mysteri",
  "3469": " mysteriou",
  "3470": " mysterious",
  "3471": " pay",
  "3472": " path",
  "3473": " picks",
  "3474": " plants",
  "3475": " pretende",
  "3476": " pretended",
  "3477": " prot",
  "3478": " prote",
  "3479": " protec",
  "3480": " protect",
  "3481": " remi",
  "3482": " remind",
  "3483": " shado",
  "3484": " shadow",
  "3485": " skip",
  "3486": " slipp",
  "3487": " teacher",
  "3488": " unu",
  "3489": " uncom",
  "3490": " uncomf",
  "3491": " uncomfo",
  "3492": " uncomfor",
  "3493": " uncomfort",
  "3494": " uncomforta",
  "3495": " uncomfortab",
  "3496": " uncomfortabl",
  "3497": " uncomfortable",
  "3498": " unus",
  "3499": " unusu",
  "3500": " unusua",
  "3501": " unusual",
  "3502": " wasn",
  "3503": " ya",
  "3504": " yelled",
  "3505": "are",
  "3506": " Dave",
  "3507": " Ev",
  "3508": " Even",
  "3509": " Li",
  "3510": " Rose",
  "3511": " along",
  "3512": " ants",
  "3513": " asl",
  "3514": " asle",
  "3515": " aslee",
  "3516": " asleep",
  "3517": " beet",
  "3518": " beetl",
  "3519": " beetle",
  "3520": " bin",
  "3521": " bos",
  "3522": " boss",
  "3523": " calm",
  "3524": " card",
  "3525": " caul",
  "3526": " cauli",
  "3527": " caulif",
  "3528": " caulifl",
  "3529": " cauliflo",
  "3530": " cauliflow",
  "3531": " cauliflower",
  "3532": " chees",
  "3533": " cheese",
  "3534": " clev",
  "3535": " clever",
  "3536": " competit",
  "3537": " costu",
  "3538": " costum",
  "3539": " costume",
  "3540": " delici",
  "3541": " deliciou",
  "3542": " delicious",
  "3543": " disc",
  "3544": " emb",
  "3545": " embar",
  "3546": " embarr",
  "3547": " embarra",
  "3548": " embarras",
  "3549": " embarrass",
  "3550": " feed",
  "3551": " feat",
  "3552": " feathe",
  "3553": " feather",
  "3554": " fooli",
  "3555": " foolis",
  "3556": " foolish",
  "3557": " fort",
  "3558": " goa",
  "3559": " gol",
  "3560": " grac",
  "3561": " grace",
  "3562": " gracef",
  "3563": " gracefu",
  "3564": " guess",
  "3565": " heli",
  "3566": " helic",
  "3567": " helico",
  "3568": " helicop",
  "3569": " helicopt",
  "3570": " helicopte",
  "3571": " helicopter",
  "3572": " hidd",
  "3573": " hidde",
  "3574": " hidden",
  "3575": " kay",
  "3576": " kaya",
  "3577": " kayak",
  "3578": " lim",
  "3579": " pilo",
  "3580": " pilot",
  "3581": " radish",
  "3582": " rela",
  "3583": " relax",
  "3584": " roar",
  "3585": " sen",
  "3586": " sleepy",
  "3587": " stoo",
  "3588": " succes",
  "3589": " success",
  "3590": " tape",
  "3591": " tasted",
  "3592": " tear",
  "3593": " turt",
  "3594": " turtl",
  "3595": " turtle",
  "3596": " uniq",
  "3597": " uniqu",
  "3598": " unique",
  "3599": " yogu",
  "3600": " yogur",
  "3601": " yogurt",
  "3602": "Hel",
  "3603": "Help",
  "3604": "Kitty",
  "3605": "Stop",
  "3606": "eta",
  "3607": "iel",
  "3608": "orr",
  "3609": " Po",
  "3610": " Twe",
  "3611": " Twee",
  "3612": " Tweet",
  "3613": " add",
  "3614": " answere",
  "3615": " answered",
  "3616": " competiti",
  "3617": " drov",
  "3618": " drove",
  "3619": " eag",
  "3620": " ears",
  "3621": " eng",
  "3622": " engin",
  "3623": " engine",
  "3624": " jell",
  "3625": " jelly",
  "3626": " marr",
  "3627": " matter",
  "3628": " meal",
  "3629": " microp",
  "3630": " microph",
  "3631": " micropho",
  "3632": " microphon",
  "3633": " microphone",
  "3634": " mixed",
  "3635": " mod",
  "3636": " nearb",
  "3637": " nearby",
  "3638": " pand",
  "3639": " panda",
  "3640": " past",
  "3641": " pill",
  "3642": " pillo",
  "3643": " pillow",
  "3644": " pum",
  "3645": " pump",
  "3646": " pumpk",
  "3647": " pumpkin",
  "3648": " rake",
  "3649": " rubber",
  "3650": " sauc",
  "3651": " sauce",
  "3652": " skin",
  "3653": " slippe",
  "3654": " sni",
  "3655": " spag",
  "3656": " spaghe",
  "3657": " spaghet",
  "3658": " spaghett",
  "3659": " spaghetti",
  "3660": " splashe",
  "3661": " spra",
  "3662": " stood",
  "3663": " stub",
  "3664": " stubb",
  "3665": " stubbo",
  "3666": " stubbor",
  "3667": " stubborn",
  "3668": " swor",
  "3669": " sword",
  "3670": " tige",
  "3671": " tiger",
  "3672": " toa",
  "3673": " trac",
  "3674": " track",
  "3675": " ward",
  "3676": " wardr",
  "3677": " wardro",
  "3678": " wardrob",
  "3679": " wardrobe",
  "3680": " wash",
  "3681": " watchi",
  "3682": " watchin",
  "3683": " watching",
  "3684": " weari",
  "3685": " wearin",
  "3686": " wearing",
  "3687": " wip",
  "3688": " wondere",
  "3689": " wondered",
  "3690": " zip",
  "3691": "oe",
  "3692": " 3",
  "3693": " Com",
  "3694": " Come",
  "3695": " Lul",
  "3696": " Lulu",
  "3697": " Mim",
  "3698": " Mimi",
  "3699": " OK",
  "3700": " Tedd",
  "3701": " Teddy",
  "3702": " ado",
  "3703": " arms",
  "3704": " beco",
  "3705": " becom",
  "3706": " boug",
  "3707": " bough",
  "3708": " bought",
  "3709": " bul",
  "3710": " choo",
  "3711": " cloc",
  "3712": " clock",
  "3713": " craz",
  "3714": " crazy",
  "3715": " creative",
  "3716": " cros",
  "3717": " cross",
  "3718": " crown",
  "3719": " desi",
  "3720": " diffi",
  "3721": " diffic",
  "3722": " difficu",
  "3723": " difficul",
  "3724": " difficult",
  "3725": " disco",
  "3726": " discov",
  "3727": " discove",
  "3728": " discover",
  "3729": " eggs",
  "3730": " escape",
  "3731": " firep",
  "3732": " firepl",
  "3733": " firepla",
  "3734": " fireplac",
  "3735": " fireplace",
  "3736": " flex",
  "3737": " flexi",
  "3738": " flexib",
  "3739": " flexibl",
  "3740": " flexible",
  "3741": " gun",
  "3742": " hoop",
  "3743": " lamp",
  "3744": " leak",
  "3745": " lick",
  "3746": " lime",
  "3747": " mana",
  "3748": " manag",
  "3749": " mask",
  "3750": " movi",
  "3751": " movie",
  "3752": " nor",
  "3753": " nods",
  "3754": " norm",
  "3755": " norma",
  "3756": " normal",
  "3757": " pool",
  "3758": " powerf",
  "3759": " powerfu",
  "3760": " powerful",
  "3761": " rainb",
  "3762": " rainbo",
  "3763": " rainbow",
  "3764": " sell",
  "3765": " smoo",
  "3766": " smoot",
  "3767": " smooth",
  "3768": " spre",
  "3769": " spray",
  "3770": " sprea",
  "3771": " spread",
  "3772": " stars",
  "3773": " swimm",
  "3774": " ter",
  "3775": " terr",
  "3776": " terri",
  "3777": " trains",
  "3778": " tries",
  "3779": " true",
  "3780": " veg",
  "3781": " veget",
  "3782": " vegeta",
  "3783": " vegetab",
  "3784": " vegetable",
  "3785": " whispere",
  "3786": " whispered",
  "3787": " wipe",
  "3788": "Are",
  "3789": "Mum",
  "3790": "art",
  "3791": "br",
  "3792": "hea",
  "3793": " icy",
  "3794": " Carl",
  "3795": " Ella",
  "3796": " Jaz",
  "3797": " Jazz",
  "3798": " Jimm",
  "3799": " Jimmy",
  "3800": " My",
  "3801": " ador",
  "3802": " adora",
  "3803": " adorab",
  "3804": " adorabl",
  "3805": " adorable",
  "3806": " adventures",
  "3807": " bald",
  "3808": " bathr",
  "3809": " bathro",
  "3810": " beak",
  "3811": " become",
  "3812": " bric",
  "3813": " brick",
  "3814": " bugs",
  "3815": " callin",
  "3816": " calling",
  "3817": " chase",
  "3818": " cheerf",
  "3819": " cheerfu",
  "3820": " cheerful",
  "3821": " cooler",
  "3822": " desig",
  "3823": " design",
  "3824": " env",
  "3825": " endi",
  "3826": " endin",
  "3827": " ending",
  "3828": " feet",
  "3829": " flu",
  "3830": " furr",
  "3831": " furry",
  "3832": " glov",
  "3833": " glove",
  "3834": " graceful",
  "3835": " harml",
  "3836": " harmle",
  "3837": " harmles",
  "3838": " harmless",
  "3839": " hosp",
  "3840": " hospi",
  "3841": " hospit",
  "3842": " hospita",
  "3843": " hospital",
  "3844": " impr",
  "3845": " impre",
  "3846": " impro",
  "3847": " impres",
  "3848": " impress",
  "3849": " improv",
  "3850": " jac",
  "3851": " jacke",
  "3852": " jacket",
  "3853": " letters",
  "3854": " life",
  "3855": " longer",
  "3856": " loop",
  "3857": " loudl",
  "3858": " loudly",
  "3859": " loves",
  "3860": " med",
  "3861": " mac",
  "3862": " mach",
  "3863": " machin",
  "3864": " machine",
  "3865": " ones",
  "3866": " org",
  "3867": " orga",
  "3868": " organ",
  "3869": " organi",
  "3870": " organiz",
  "3871": " pis",
  "3872": " pist",
  "3873": " pisto",
  "3874": " pistol",
  "3875": " press",
  "3876": " rh",
  "3877": " ring",
  "3878": " raz",
  "3879": " razor",
  "3880": " relia",
  "3881": " reliab",
  "3882": " reliabl",
  "3883": " reliable",
  "3884": " rich",
  "3885": " roug",
  "3886": " rough",
  "3887": " rus",
  "3888": " seeds",
  "3889": " sparkl",
  "3890": " splashed",
  "3891": " spoo",
  "3892": " sque",
  "3893": " squar",
  "3894": " square",
  "3895": " straw",
  "3896": " strawb",
  "3897": " strawbe",
  "3898": " strawber",
  "3899": " strawberr",
  "3900": " swan",
  "3901": " tem",
  "3902": " temp",
  "3903": " templ",
  "3904": " temple",
  "3905": " torn",
  "3906": " understo",
  "3907": " understoo",
  "3908": " understood",
  "3909": " vegetables",
  "3910": " waiti",
  "3911": " waitin",
  "3912": " waiting",
  "3913": " wouldn",
  "3914": "Jim",
  "3915": "ive",
  "3916": "ors",
  "3917": "ppy",
  "3918": " Bobb",
  "3919": " Bobby",
  "3920": " Kay",
  "3921": " Man",
  "3922": " Many",
  "3923": " Tu",
  "3924": " adventuro",
  "3925": " adventurou",
  "3926": " adventurous",
  "3927": " botto",
  "3928": " bottom",
  "3929": " carp",
  "3930": " carpe",
  "3931": " chec",
  "3932": " check",
  "3933": " choos",
  "3934": " choose",
  "3935": " clas",
  "3936": " class",
  "3937": " cop",
  "3938": " comforta",
  "3939": " comfortab",
  "3940": " comfortabl",
  "3941": " comfortable",
  "3942": " compl",
  "3943": " create",
  "3944": " disappe",
  "3945": " disappea",
  "3946": " disappear",
  "3947": " dista",
  "3948": " distan",
  "3949": " dru",
  "3950": " drum",
  "3951": " enc",
  "3952": " eventu",
  "3953": " eventua",
  "3954": " eventuall",
  "3955": " eventually",
  "3956": " expen",
  "3957": " expens",
  "3958": " expensi",
  "3959": " expensiv",
  "3960": " expensive",
  "3961": " explorin",
  "3962": " exploring",
  "3963": " fing",
  "3964": " finge",
  "3965": " finger",
  "3966": " flas",
  "3967": " gem",
  "3968": " gia",
  "3969": " gian",
  "3970": " giant",
  "3971": " hal",
  "3972": " hears",
  "3973": " inse",
  "3974": " insec",
  "3975": " insect",
  "3976": " jewelr",
  "3977": " jewelry",
  "3978": " knif",
  "3979": " knife",
  "3980": " knocked",
  "3981": " leo",
  "3982": " leop",
  "3983": " leopa",
  "3984": " leopar",
  "3985": " leopard",
  "3986": " loy",
  "3987": " loya",
  "3988": " loyal",
  "3989": " meant",
  "3990": " melt",
  "3991": " ner",
  "3992": " nai",
  "3993": " nat",
  "3994": " nail",
  "3995": " nerv",
  "3996": " nervou",
  "3997": " nervous",
  "3998": " nuts",
  "3999": " oc",
  "4000": " obed",
  "4001": " obedi",
  "4002": " obedie",
  "4003": " obedien",
  "4004": " obedient",
  "4005": " paws",
  "4006": " polit",
  "4007": " polite",
  "4008": " poor",
  "4009": " popc",
  "4010": " popco",
  "4011": " popcor",
  "4012": " popcorn",
  "4013": " pray",
  "4014": " questions",
  "4015": " resp",
  "4016": " scoo",
  "4017": " shore",
  "4018": " sighe",
  "4019": " sighed",
  "4020": " smelly",
  "4021": " sold",
  "4022": " spoon",
  "4023": " terrib",
  "4024": " terribl",
  "4025": " toma",
  "4026": " tomat",
  "4027": " tomato",
  "4028": " toug",
  "4029": " tough",
  "4030": " vin",
  "4031": " vine",
  "4032": " whic",
  "4033": " which",
  "4034": " wrot",
  "4035": " wrote",
  "4036": "Da",
  "4037": "Every",
  "4038": "Me",
  "4039": "My",
  "4040": "Sure",
  "4041": " Mrs",
  "4042": " Pe",
  "4043": " Wit",
  "4044": " With",
  "4045": " ae",
  "4046": " act",
  "4047": " acce",
  "4048": " accep",
  "4049": " accept",
  "4050": " aer",
  "4051": " aero",
  "4052": " aerop",
  "4053": " aeropl",
  "4054": " aeropla",
  "4055": " aeroplan",
  "4056": " aeroplane",
  "4057": " berri",
  "4058": " berrie",
  "4059": " berries",
  "4060": " brid",
  "4061": " bril",
  "4062": " brill",
  "4063": " brilli",
  "4064": " brillia",
  "4065": " brillian",
  "4066": " brilliant",
  "4067": " bush",
  "4068": " carpet",
  "4069": " chea",
  "4070": " chess",
  "4071": " clay",
  "4072": " clear",
  "4073": " competitiv",
  "4074": " competitive",
  "4075": " crie",
  "4076": " cries",
  "4077": " croc",
  "4078": " croco",
  "4079": " crocod",
  "4080": " crocodi",
  "4081": " crocodil",
  "4082": " crocodile",
  "4083": " dancin",
  "4084": " dancing",
  "4085": " encou",
  "4086": " fier",
  "4087": " fierc",
  "4088": " fierce",
  "4089": " findi",
  "4090": " findin",
  "4091": " finding",
  "4092": " fixed",
  "4093": " flash",
  "4094": " gara",
  "4095": " garag",
  "4096": " garage",
  "4097": " ham",
  "4098": " invi",
  "4099": " invit",
  "4100": " jam",
  "4101": " jogg",
  "4102": " log",
  "4103": " moto",
  "4104": " motor",
  "4105": " movin",
  "4106": " moving",
  "4107": " ov",
  "4108": " ori",
  "4109": " orig",
  "4110": " origin",
  "4111": " origina",
  "4112": " original",
  "4113": " oven",
  "4114": " pinc",
  "4115": " pointed",
  "4116": " rev",
  "4117": " relie",
  "4118": " reliev",
  "4119": " relieved",
  "4120": " restl",
  "4121": " restle",
  "4122": " restles",
  "4123": " restless",
  "4124": " reve",
  "4125": " ser",
  "4126": " shark",
  "4127": " shelf",
  "4128": " shell",
  "4129": " shine",
  "4130": " shoc",
  "4131": " shock",
  "4132": " spoi",
  "4133": " spoil",
  "4134": " stru",
  "4135": " stuf",
  "4136": " stuff",
  "4137": " successf",
  "4138": " successfu",
  "4139": " successful",
  "4140": " tes",
  "4141": " test",
  "4142": " threa",
  "4143": " toe",
  "4144": " tool",
  "4145": " worki",
  "4146": " workin",
  "4147": " working",
  "4148": "And",
  "4149": "Dad",
  "4150": "Here",
  "4151": "Ins",
  "4152": "Insid",
  "4153": "Inside",
  "4154": "Sa",
  "4155": "Sally",
  "4156": "ess",
  "4157": "oof",
  "4158": "orry",
  "4159": " Bun",
  "4160": " Bunn",
  "4161": " Bunny",
  "4162": " Ple",
  "4163": " Plea",
  "4164": " Pleas",
  "4165": " Please",
  "4166": " Sm",
  "4167": " Smit",
  "4168": " Smith",
  "4169": " Thei",
  "4170": " Their",
  "4171": " alm",
  "4172": " allo",
  "4173": " allow",
  "4174": " almo",
  "4175": " almos",
  "4176": " almost",
  "4177": " asha",
  "4178": " asham",
  "4179": " ashame",
  "4180": " ashamed",
  "4181": " balloons",
  "4182": " bic",
  "4183": " bicy",
  "4184": " bicyc",
  "4185": " bicycl",
  "4186": " bicycle",
  "4187": " bod",
  "4188": " body",
  "4189": " borr",
  "4190": " borro",
  "4191": " borrow",
  "4192": " bull",
  "4193": " carel",
  "4194": " carele",
  "4195": " careles",
  "4196": " careless",
  "4197": " cartoons",
  "4198": " chal",
  "4199": " chest",
  "4200": " clouds",
  "4201": " comb",
  "4202": " covered",
  "4203": " craw",
  "4204": " crawl",
  "4205": " dai",
  "4206": " dadd",
  "4207": " daddy",
  "4208": " dais",
  "4209": " dogs",
  "4210": " eager",
  "4211": " enor",
  "4212": " enorm",
  "4213": " enormou",
  "4214": " enormous",
  "4215": " fishin",
  "4216": " fishing",
  "4217": " hamm",
  "4218": " hamme",
  "4219": " hammer",
  "4220": " hange",
  "4221": " hanger",
  "4222": " hones",
  "4223": " honest",
  "4224": " hum",
  "4225": " hurts",
  "4226": " jud",
  "4227": " judge",
  "4228": " knowin",
  "4229": " knowing",
  "4230": " lar",
  "4231": " larg",
  "4232": " large",
  "4233": " miser",
  "4234": " misera",
  "4235": " miserab",
  "4236": " miserabl",
  "4237": " miserable",
  "4238": " mode",
  "4239": " napk",
  "4240": " napkin",
  "4241": " nosy",
  "4242": " oni",
  "4243": " onion",
  "4244": " places",
  "4245": " poi",
  "4246": " pok",
  "4247": " popp",
  "4248": " ref",
  "4249": " rew",
  "4250": " respe",
  "4251": " respec",
  "4252": " respect",
  "4253": " rewa",
  "4254": " rewar",
  "4255": " reward",
  "4256": " salt",
  "4257": " smalle",
  "4258": " snif",
  "4259": " sniff",
  "4260": " speak",
  "4261": " spir",
  "4262": " strawberry",
  "4263": " sunsh",
  "4264": " sunshi",
  "4265": " sunshin",
  "4266": " sunshine",
  "4267": " swimmi",
  "4268": " swimmin",
  "4269": " swimming",
  "4270": " terrible",
  "4271": " thun",
  "4272": " thund",
  "4273": " thunde",
  "4274": " thunder",
  "4275": " tic",
  "4276": " tick",
  "4277": " toas",
  "4278": " toast",
  "4279": " usef",
  "4280": " usefu",
  "4281": " useful",
  "4282": " vall",
  "4283": " valle",
  "4284": " valley",
  "4285": " value",
  "4286": "Molly",
  "4287": "Sorry",
  "4288": "Tog",
  "4289": "Toget",
  "4290": "Togethe",
  "4291": "Together",
  "4292": "for",
  "4293": "hr",
  "4294": "hel",
  "4295": "illy",
  "4296": "osie",
  "4297": "tea",
  "4298": " Elli",
  "4299": " Ellie",
  "4300": " If",
  "4301": " Polly",
  "4302": " Sh",
  "4303": " St",
  "4304": " Spar",
  "4305": " Spark",
  "4306": " TV",
  "4307": " Tiny",
  "4308": " avo",
  "4309": " bala",
  "4310": " balan",
  "4311": " balanc",
  "4312": " bloo",
  "4313": " bori",
  "4314": " borin",
  "4315": " boring",
  "4316": " boys",
  "4317": " bru",
  "4318": " cheap",
  "4319": " corn",
  "4320": " corner",
  "4321": " crac",
  "4322": " crack",
  "4323": " cus",
  "4324": " cush",
  "4325": " cushi",
  "4326": " cushio",
  "4327": " cushion",
  "4328": " dead",
  "4329": " dela",
  "4330": " delay",
  "4331": " diz",
  "4332": " diar",
  "4333": " diary",
  "4334": " dizz",
  "4335": " dizzy",
  "4336": " dul",
  "4337": " dull",
  "4338": " encour",
  "4339": " encoura",
  "4340": " encourag",
  "4341": " fine",
  "4342": " firew",
  "4343": " firewo",
  "4344": " firewor",
  "4345": " firework",
  "4346": " floa",
  "4347": " float",
  "4348": " fra",
  "4349": " frag",
  "4350": " fragi",
  "4351": " fragil",
  "4352": " fragile",
  "4353": " glas",
  "4354": " glass",
  "4355": " gold",
  "4356": " guit",
  "4357": " guita",
  "4358": " guitar",
  "4359": " hats",
  "4360": " hour",
  "4361": " ignor",
  "4362": " improve",
  "4363": " joll",
  "4364": " jolly",
  "4365": " loude",
  "4366": " louder",
  "4367": " maga",
  "4368": " magaz",
  "4369": " magazin",
  "4370": " magazine",
  "4371": " moms",
  "4372": " news",
  "4373": " oce",
  "4374": " ocean",
  "4375": " ott",
  "4376": " otter",
  "4377": " phon",
  "4378": " phone",
  "4379": " pip",
  "4380": " picn",
  "4381": " picni",
  "4382": " picnic",
  "4383": " pipe",
  "4384": " player",
  "4385": " poe",
  "4386": " poem",
  "4387": " practiced",
  "4388": " prese",
  "4389": " presen",
  "4390": " present",
  "4391": " resi",
  "4392": " resis",
  "4393": " resist",
  "4394": " sala",
  "4395": " salad",
  "4396": " sandw",
  "4397": " sandwi",
  "4398": " sandwic",
  "4399": " sla",
  "4400": " snowm",
  "4401": " snowma",
  "4402": " snowman",
  "4403": " spiri",
  "4404": " spirit",
  "4405": " squee",
  "4406": " squeez",
  "4407": " standi",
  "4408": " standin",
  "4409": " standing",
  "4410": " stronge",
  "4411": " stronger",
  "4412": " thread",
  "4413": " tum",
  "4414": " unl",
  "4415": " unp",
  "4416": " unpa",
  "4417": " unpac",
  "4418": " unpack",
  "4419": " vase",
  "4420": " wast",
  "4421": " waves",
  "4422": " wif",
  "4423": " wife",
  "4424": " yourse",
  "4425": " yoursel",
  "4426": "Bo",
  "4427": "Bobo",
  "4428": "Emma",
  "4429": "Well",
  "4430": "Where",
  "4431": "fig",
  "4432": "figh",
  "4433": "fight",
  "4434": "fighte",
  "4435": "fighter",
  "4436": "ila",
  "4437": "oul",
  "4438": "que",
  "4439": "queen",
  "4440": " queen",
  "4441": " Fo",
  "4442": " Fox",
  "4443": " Go",
  "4444": " Hor",
  "4445": " Hors",
  "4446": " Lo",
  "4447": " Mam",
  "4448": " Magg",
  "4449": " Maggie",
  "4450": " Mama",
  "4451": " Sk",
  "4452": " acci",
  "4453": " accid",
  "4454": " accide",
  "4455": " acciden",
  "4456": " accident",
  "4457": " anci",
  "4458": " ancie",
  "4459": " ancien",
  "4460": " ancient",
  "4461": " anyw",
  "4462": " avoc",
  "4463": " avoca",
  "4464": " avocad",
  "4465": " avocado",
  "4466": " bana",
  "4467": " banana",
  "4468": " banda",
  "4469": " bandag",
  "4470": " bandage",
  "4471": " bil",
  "4472": " bigges",
  "4473": " biggest",
  "4474": " bill",
  "4475": " bridg",
  "4476": " bridge",
  "4477": " built",
  "4478": " coz",
  "4479": " colou",
  "4480": " colour",
  "4481": " compu",
  "4482": " comput",
  "4483": " computer",
  "4484": " cozy",
  "4485": " cree",
  "4486": " creek",
  "4487": " daisy",
  "4488": " dep",
  "4489": " decide",
  "4490": " decorate",
  "4491": " dish",
  "4492": " drums",
  "4493": " embarrassed",
  "4494": " enth",
  "4495": " enthu",
  "4496": " enthus",
  "4497": " enthusi",
  "4498": " enthusia",
  "4499": " enthusias",
  "4500": " explained",
  "4501": " firefighter",
  "4502": " flea",
  "4503": " gener",
  "4504": " giggl",
  "4505": " gloom",
  "4506": " gui",
  "4507": " guil",
  "4508": " guilt",
  "4509": " guilty",
  "4510": " helps",
  "4511": " hurr",
  "4512": " jaz",
  "4513": " jazz",
  "4514": " knows",
  "4515": " lase",
  "4516": " laser",
  "4517": " licked",
  "4518": " loa",
  "4519": " load",
  "4520": " matche",
  "4521": " mid",
  "4522": " micros",
  "4523": " microsc",
  "4524": " microsco",
  "4525": " microscop",
  "4526": " microscope",
  "4527": " midd",
  "4528": " middl",
  "4529": " middle",
  "4530": " noth",
  "4531": " nothin",
  "4532": " nothing",
  "4533": " num",
  "4534": " numb",
  "4535": " number",
  "4536": " pal",
  "4537": " packed",
  "4538": " painted",
  "4539": " peach",
  "4540": " peeked",
  "4541": " persi",
  "4542": " persis",
  "4543": " persist",
  "4544": " persiste",
  "4545": " persisten",
  "4546": " persistent",
  "4547": " rac",
  "4548": " rhin",
  "4549": " rhino",
  "4550": " rhinoc",
  "4551": " rhinoce",
  "4552": " rhinocer",
  "4553": " rhinocero",
  "4554": " rhinoceros",
  "4555": " ros",
  "4556": " rose",
  "4557": " scoot",
  "4558": " scoote",
  "4559": " scooter",
  "4560": " search",
  "4561": " sett",
  "4562": " shocke",
  "4563": " shocked",
  "4564": " shoot",
  "4565": " short",
  "4566": " soi",
  "4567": " soil",
  "4568": " stag",
  "4569": " stam",
  "4570": " stage",
  "4571": " stamp",
  "4572": " stov",
  "4573": " stones",
  "4574": " stove",
  "4575": " stum",
  "4576": " taken",
  "4577": " talle",
  "4578": " tras",
  "4579": " trash",
  "4580": " trut",
  "4581": " truth",
  "4582": " tub",
  "4583": " tumm",
  "4584": " tummy",
  "4585": " tuna",
  "4586": " wande",
  "4587": " wander",
  "4588": " wom",
  "4589": " woma",
  "4590": " woman",
  "4591": " wrapp",
  "4592": "Lila",
  "4593": "ople",
  "4594": " No",
  "4595": " U",
  "4596": " Are",
  "4597": " Inste",
  "4598": " Instea",
  "4599": " Instead",
  "4600": " Ros",
  "4601": " Rosie",
  "4602": " Zip",
  "4603": " adm",
  "4604": " admi",
  "4605": " admir",
  "4606": " ale",
  "4607": " aler",
  "4608": " alert",
  "4609": " aski",
  "4610": " askin",
  "4611": " asking",
  "4612": " bedr",
  "4613": " bedro",
  "4614": " bedroo",
  "4615": " bedroom",
  "4616": " belt",
  "4617": " berry",
  "4618": " billb",
  "4619": " billbo",
  "4620": " billboa",
  "4621": " billboar",
  "4622": " billboard",
  "4623": " blackb",
  "4624": " blackbo",
  "4625": " blackboa",
  "4626": " blackboar",
  "4627": " blackboard",
  "4628": " bored",
  "4629": " bossy",
  "4630": " bounce",
  "4631": " branche",
  "4632": " branches",
  "4633": " brothers",
  "4634": " brus",
  "4635": " bum",
  "4636": " bump",
  "4637": " burn",
  "4638": " chain",
  "4639": " char",
  "4640": " charm",
  "4641": " charmin",
  "4642": " charming",
  "4643": " chub",
  "4644": " chubb",
  "4645": " chubby",
  "4646": " circles",
  "4647": " dancer",
  "4648": " dest",
  "4649": " disp",
  "4650": " displ",
  "4651": " displa",
  "4652": " display",
  "4653": " distant",
  "4654": " easy",
  "4655": " enthusiast",
  "4656": " enthusiasti",
  "4657": " enthusiastic",
  "4658": " excitin",
  "4659": " exciting",
  "4660": " eye",
  "4661": " forw",
  "4662": " forth",
  "4663": " forwa",
  "4664": " forwar",
  "4665": " forward",
  "4666": " frus",
  "4667": " frust",
  "4668": " frustr",
  "4669": " frustra",
  "4670": " frustrat",
  "4671": " frustrated",
  "4672": " generou",
  "4673": " generous",
  "4674": " gloomy",
  "4675": " grapes",
  "4676": " happeni",
  "4677": " happenin",
  "4678": " happening",
  "4679": " hars",
  "4680": " harsh",
  "4681": " helpl",
  "4682": " helple",
  "4683": " helples",
  "4684": " helpless",
  "4685": " hours",
  "4686": " humb",
  "4687": " humbl",
  "4688": " humble",
  "4689": " igl",
  "4690": " igloo",
  "4691": " impressi",
  "4692": " impressiv",
  "4693": " impressive",
  "4694": " kicked",
  "4695": " kite",
  "4696": " lawy",
  "4697": " lawye",
  "4698": " lawyer",
  "4699": " lol",
  "4700": " locked",
  "4701": " loll",
  "4702": " lolli",
  "4703": " lollip",
  "4704": " lollipo",
  "4705": " lollipop",
  "4706": " mailb",
  "4707": " mailbo",
  "4708": " mailbox",
  "4709": " managed",
  "4710": " marke",
  "4711": " market",
  "4712": " marri",
  "4713": " meat",
  "4714": " natu",
  "4715": " nature",
  "4716": " needl",
  "4717": " needle",
  "4718": " nicel",
  "4719": " nicely",
  "4720": " oat",
  "4721": " peanuts",
  "4722": " pir",
  "4723": " pira",
  "4724": " pirat",
  "4725": " pirate",
  "4726": " resc",
  "4727": " rescu",
  "4728": " returned",
  "4729": " rollin",
  "4730": " rolling",
  "4731": " ruin",
  "4732": " scat",
  "4733": " scatt",
  "4734": " scatte",
  "4735": " scatter",
  "4736": " shade",
  "4737": " siz",
  "4738": " sigh",
  "4739": " size",
  "4740": " skipp",
  "4741": " sleepi",
  "4742": " sleepin",
  "4743": " sleeping",
  "4744": " smaller",
  "4745": " soldi",
  "4746": " soldie",
  "4747": " soldier",
  "4748": " soldiers",
  "4749": " sounde",
  "4750": " sounded",
  "4751": " spac",
  "4752": " space",
  "4753": " spent",
  "4754": " squeeze",
  "4755": " stup",
  "4756": " stumb",
  "4757": " stumbl",
  "4758": " stumble",
  "4759": " stupi",
  "4760": " stupid",
  "4761": " sug",
  "4762": " surf",
  "4763": " tears",
  "4764": " tease",
  "4765": " tid",
  "4766": " tomo",
  "4767": " tomor",
  "4768": " tomorr",
  "4769": " tomorro",
  "4770": " tomorrow",
  "4771": " torna",
  "4772": " tornad",
  "4773": " tornado",
  "4774": " tria",
  "4775": " trian",
  "4776": " triang",
  "4777": " triangl",
  "4778": " triangle",
  "4779": " tunn",
  "4780": " tunne",
  "4781": " tunnel",
  "4782": " unlo",
  "4783": " unloc",
  "4784": " unlock",
  "4785": " vide",
  "4786": " valua",
  "4787": " valuab",
  "4788": " valuable",
  "4789": " video",
  "4790": " warn",
  "4791": " waste",
  "4792": " whea",
  "4793": " wheat",
  "4794": " wrappe",
  "4795": " yie",
  "4796": " yiel",
  "4797": " yield",
  "4798": " yourself",
  "4799": "Jane",
  "4800": "Who",
  "4801": "aid",
  "4802": "ait",
  "4803": "crea",
  "4804": "cream",
  "4805": "ena",
  "4806": "irp",
  "4807": "use",
  "4808": " Bes",
  "4809": " Bess",
  "4810": " Bessie",
  "4811": " Hair",
  "4812": " Hairy",
  "4813": " Hoot",
  "4814": " La",
  "4815": " Sn",
  "4816": " Your",
  "4817": " balance",
  "4818": " bathroo",
  "4819": " bathroom",
  "4820": " blueb",
  "4821": " bluebe",
  "4822": " blueber",
  "4823": " blueberr",
  "4824": " boar",
  "4825": " board",
  "4826": " bushe",
  "4827": " bushes",
  "4828": " cere",
  "4829": " cerea",
  "4830": " cereal",
  "4831": " depe",
  "4832": " depend",
  "4833": " dependa",
  "4834": " dependab",
  "4835": " dependabl",
  "4836": " dependable",
  "4837": " dig",
  "4838": " eld",
  "4839": " elder",
  "4840": " elderl",
  "4841": " elderly",
  "4842": " enter",
  "4843": " flag",
  "4844": " fog",
  "4845": " foun",
  "4846": " fount",
  "4847": " founta",
  "4848": " fountain",
  "4849": " frid",
  "4850": " fridg",
  "4851": " fridge",
  "4852": " frow",
  "4853": " frown",
  "4854": " gasp",
  "4855": " giggled",
  "4856": " givin",
  "4857": " giving",
  "4858": " goal",
  "4859": " gri",
  "4860": " guar",
  "4861": " gum",
  "4862": " guard",
  "4863": " laughs",
  "4864": " lend",
  "4865": " lights",
  "4866": " marche",
  "4867": " marched",
  "4868": " mead",
  "4869": " meado",
  "4870": " meadow",
  "4871": " missi",
  "4872": " numbers",
  "4873": " order",
  "4874": " paintin",
  "4875": " painting",
  "4876": " pep",
  "4877": " pepp",
  "4878": " pepper",
  "4879": " perfo",
  "4880": " perfor",
  "4881": " perform",
  "4882": " pole",
  "4883": " practice",
  "4884": " prov",
  "4885": " pun",
  "4886": " rav",
  "4887": " raven",
  "4888": " reminde",
  "4889": " shows",
  "4890": " slap",
  "4891": " slep",
  "4892": " slept",
  "4893": " soap",
  "4894": " spott",
  "4895": " spotte",
  "4896": " spotted",
  "4897": " strip",
  "4898": " succee",
  "4899": " succeed",
  "4900": " suppl",
  "4901": " tax",
  "4902": " taxi",
  "4903": " thems",
  "4904": " themse",
  "4905": " themsel",
  "4906": " themselv",
  "4907": " themselve",
  "4908": " themselves",
  "4909": " thie",
  "4910": " thief",
  "4911": " tied",
  "4912": " towel",
  "4913": " troubled",
  "4914": " trum",
  "4915": " trun",
  "4916": " trump",
  "4917": " trumpe",
  "4918": " trumpet",
  "4919": " trunk",
  "4920": " turk",
  "4921": " turke",
  "4922": " turkey",
  "4923": " um",
  "4924": " umb",
  "4925": " umbre",
  "4926": " umbrel",
  "4927": " umbrell",
  "4928": " umbrella",
  "4929": " van",
  "4930": " veh",
  "4931": " vehi",
  "4932": " vehic",
  "4933": " vehicle",
  "4934": " walks",
  "4935": " weal",
  "4936": " wealt",
  "4937": " wealth",
  "4938": " wealthy",
  "4939": " weig",
  "4940": " weigh",
  "4941": "Go",
  "4942": "Is",
  "4943": "Mar",
  "4944": "Ou",
  "4945": "Ouch",
  "4946": "cc",
  "4947": "igi",
  "4948": "llo",
  "4949": "now",
  "4950": "ump",
  "4951": " '",
  "4952": " Chir",
  "4953": " Chirp",
  "4954": " Chirpy",
  "4955": " Lit",
  "4956": " Litt",
  "4957": " Littl",
  "4958": " Little",
  "4959": " Peop",
  "4960": " People",
  "4961": " Tina",
  "4962": " Tun",
  "4963": " Tuna",
  "4964": " ahe",
  "4965": " ahea",
  "4966": " ahead",
  "4967": " arg",
  "4968": " argu",
  "4969": " birdc",
  "4970": " birdca",
  "4971": " birdcag",
  "4972": " birdcage",
  "4973": " blou",
  "4974": " bloom",
  "4975": " blous",
  "4976": " blouse",
  "4977": " cap",
  "4978": " cord",
  "4979": " crawled",
  "4980": " creatio",
  "4981": " creation",
  "4982": " crys",
  "4983": " cryst",
  "4984": " crysta",
  "4985": " crystal",
  "4986": " cups",
  "4987": " desk",
  "4988": " destr",
  "4989": " destro",
  "4990": " destroy",
  "4991": " dino",
  "4992": " dinos",
  "4993": " dinosa",
  "4994": " dinosau",
  "4995": " dinosaur",
  "4996": " disg",
  "4997": " disgu",
  "4998": " drawe",
  "4999": " drawer",
  "5000": " expe",
  "5001": " expec",
  "5002": " expect",
  "5003": " fash",
  "5004": " fashi",
  "5005": " fashio",
  "5006": " fashion",
  "5007": " fear",
  "5008": " figu",
  "5009": " figur",
  "5010": " fold",
  "5011": " friendsh",
  "5012": " friendshi",
  "5013": " friendship",
  "5014": " gasped",
  "5015": " gets",
  "5016": " gira",
  "5017": " giraf",
  "5018": " giraff",
  "5019": " giraffe",
  "5020": " happens",
  "5021": " happin",
  "5022": " happine",
  "5023": " happines",
  "5024": " happiness",
  "5025": " harde",
  "5026": " harder",
  "5027": " hell",
  "5028": " hello",
  "5029": " imagine",
  "5030": " impa",
  "5031": " impat",
  "5032": " impati",
  "5033": " impatie",
  "5034": " impatien",
  "5035": " impatient",
  "5036": " ind",
  "5037": " incre",
  "5038": " incred",
  "5039": " increa",
  "5040": " increas",
  "5041": " incredi",
  "5042": " incredib",
  "5043": " incredibl",
  "5044": " incredible",
  "5045": " inde",
  "5046": " indep",
  "5047": " indepe",
  "5048": " independ",
  "5049": " independe",
  "5050": " independen",
  "5051": " independent",
  "5052": " itc",
  "5053": " itch",
  "5054": " lead",
  "5055": " learnin",
  "5056": " learning",
  "5057": " lifted",
  "5058": " loti",
  "5059": " lotio",
  "5060": " lotion",
  "5061": " lug",
  "5062": " lugg",
  "5063": " lugga",
  "5064": " luggag",
  "5065": " luggage",
  "5066": " meetin",
  "5067": " meeting",
  "5068": " melo",
  "5069": " melon",
  "5070": " mighty",
  "5071": " mixer",
  "5072": " mush",
  "5073": " mushr",
  "5074": " mushro",
  "5075": " mushroo",
  "5076": " mushroom",
  "5077": " offer",
  "5078": " oranges",
  "5079": " passed",
  "5080": " pressed",
  "5081": " provi",
  "5082": " provid",
  "5083": " puni",
  "5084": " punis",
  "5085": " rag",
  "5086": " rever",
  "5087": " revers",
  "5088": " rice",
  "5089": " row",
  "5090": " rushe",
  "5091": " rushed",
  "5092": " screw",
  "5093": " searche",
  "5094": " searched",
  "5095": " shelt",
  "5096": " shelte",
  "5097": " shelter",
  "5098": " skippe",
  "5099": " skipped",
  "5100": " slides",
  "5101": " slipped",
  "5102": " snu",
  "5103": " sofa",
  "5104": " somew",
  "5105": " somewhe",
  "5106": " somewher",
  "5107": " somewhere",
  "5108": " spend",
  "5109": " spid",
  "5110": " spide",
  "5111": " spider",
  "5112": " splashi",
  "5113": " splashin",
  "5114": " splashing",
  "5115": " spoile",
  "5116": " spri",
  "5117": " sprin",
  "5118": " steps",
  "5119": " supply",
  "5120": " tells",
  "5121": " towers",
  "5122": " trap",
  "5123": " twisty",
  "5124": " wak",
  "5125": " wake",
  "5126": " walls",
  "5127": " whee",
  "5128": " wheel",
  "5129": " whene",
  "5130": " whenev",
  "5131": " wheneve",
  "5132": " whenever",
  "5133": " wrapped",
  "5134": " yac",
  "5135": " yach",
  "5136": " yacht",
  "5137": "How",
  "5138": "Jill",
  "5139": "Re",
  "5140": "Will",
  "5141": "ays",
  "5142": "old",
  "5143": "rog",
  "5144": "room",
  "5145": "up",
  "5146": " Next",
  "5147": " Big",
  "5148": " Gl",
  "5149": " Gloo",
  "5150": " Gloop",
  "5151": " Len",
  "5152": " Lena",
  "5153": " Lola",
  "5154": " Remy",
  "5155": " Wou",
  "5156": " Wha",
  "5157": " Whale",
  "5158": " Woul",
  "5159": " Would",
  "5160": " beha",
  "5161": " behav",
  "5162": " bent",
  "5163": " bitt",
  "5164": " bitte",
  "5165": " bitter",
  "5166": " bli",
  "5167": " blin",
  "5168": " blink",
  "5169": " brush",
  "5170": " chanc",
  "5171": " chance",
  "5172": " cher",
  "5173": " cherr",
  "5174": " closet",
  "5175": " countin",
  "5176": " counting",
  "5177": " cru",
  "5178": " cras",
  "5179": " dou",
  "5180": " deaf",
  "5181": " delig",
  "5182": " deligh",
  "5183": " delight",
  "5184": " div",
  "5185": " disappo",
  "5186": " disappeared",
  "5187": " disappoin",
  "5188": " disappoint",
  "5189": " discovered",
  "5190": " disgus",
  "5191": " disgust",
  "5192": " disgustin",
  "5193": " disgusting",
  "5194": " doesn",
  "5195": " doug",
  "5196": " dough",
  "5197": " encourage",
  "5198": " ende",
  "5199": " ended",
  "5200": " envi",
  "5201": " exer",
  "5202": " ext",
  "5203": " exerc",
  "5204": " exerci",
  "5205": " exercis",
  "5206": " extr",
  "5207": " extra",
  "5208": " fak",
  "5209": " fake",
  "5210": " fallin",
  "5211": " falling",
  "5212": " fastes",
  "5213": " fastest",
  "5214": " feathers",
  "5215": " fingers",
  "5216": " flam",
  "5217": " flap",
  "5218": " flame",
  "5219": " flashl",
  "5220": " flashli",
  "5221": " flashlig",
  "5222": " flashligh",
  "5223": " flashlight",
  "5224": " flou",
  "5225": " flour",
  "5226": " freez",
  "5227": " half",
  "5228": " happie",
  "5229": " hip",
  "5230": " hipp",
  "5231": " hippo",
  "5232": " hopes",
  "5233": " hoppi",
  "5234": " hoppin",
  "5235": " hopping",
  "5236": " hurry",
  "5237": " jea",
  "5238": " jail",
  "5239": " jeal",
  "5240": " jealou",
  "5241": " jealous",
  "5242": " jogging",
  "5243": " journa",
  "5244": " journal",
  "5245": " juic",
  "5246": " kindn",
  "5247": " kindne",
  "5248": " kindnes",
  "5249": " kindness",
  "5250": " knot",
  "5251": " leavin",
  "5252": " leaving",
  "5253": " listenin",
  "5254": " listening",
  "5255": " marchin",
  "5256": " marching",
  "5257": " matches",
  "5258": " meo",
  "5259": " meow",
  "5260": " meta",
  "5261": " metal",
  "5262": " minu",
  "5263": " minut",
  "5264": " minute",
  "5265": " moo",
  "5266": " mumm",
  "5267": " mummy",
  "5268": " nails",
  "5269": " neckl",
  "5270": " neckla",
  "5271": " necklac",
  "5272": " necklace",
  "5273": " notice",
  "5274": " oa",
  "5275": " organized",
  "5276": " peng",
  "5277": " pengu",
  "5278": " penguin",
  "5279": " pickin",
  "5280": " picking",
  "5281": " polis",
  "5282": " popped",
  "5283": " puddles",
  "5284": " quar",
  "5285": " quarre",
  "5286": " quarrel",
  "5287": " reminded",
  "5288": " repa",
  "5289": " repai",
  "5290": " repair",
  "5291": " rescue",
  "5292": " rib",
  "5293": " ribb",
  "5294": " ribbon",
  "5295": " rode",
  "5296": " ruined",
  "5297": " sadl",
  "5298": " sadly",
  "5299": " sci",
  "5300": " scis",
  "5301": " sciss",
  "5302": " scisso",
  "5303": " scissor",
  "5304": " scissors",
  "5305": " sent",
  "5306": " serv",
  "5307": " serve",
  "5308": " settl",
  "5309": " shiveri",
  "5310": " shiverin",
  "5311": " shivering",
  "5312": " showi",
  "5313": " showin",
  "5314": " showing",
  "5315": " sisters",
  "5316": " snacks",
  "5317": " sneezed",
  "5318": " sniffe",
  "5319": " sniffed",
  "5320": " spil",
  "5321": " spill",
  "5322": " stir",
  "5323": " strea",
  "5324": " stret",
  "5325": " stream",
  "5326": " stretc",
  "5327": " sub",
  "5328": " subw",
  "5329": " subwa",
  "5330": " subway",
  "5331": " suppo",
  "5332": " swu",
  "5333": " swun",
  "5334": " swung",
  "5335": " thir",
  "5336": " tripp",
  "5337": " trippe",
  "5338": " tripped",
  "5339": " unk",
  "5340": " unkn",
  "5341": " unknow",
  "5342": " unknown",
  "5343": " whistli",
  "5344": " whistlin",
  "5345": " whistling",
  "5346": " wiped",
  "5347": " wol",
  "5348": " wolf",
  "5349": " yaw",
  "5350": " yawn",
  "5351": "'d",
  "5352": "Dave",
  "5353": "Give",
  "5354": "Joe",
  "5355": "Mary",
  "5356": "See",
  "5357": "Timm",
  "5358": "Timmy",
  "5359": "Wait",
  "5360": "Yay",
  "5361": "arl",
  "5362": "bal",
  "5363": "ball",
  "5364": "ent",
  "5365": "ree",
  "5366": " Eld",
  "5367": " Elder",
  "5368": " Elderl",
  "5369": " Elderly",
  "5370": " Emily",
  "5371": " Everyw",
  "5372": " Everywhe",
  "5373": " Everywher",
  "5374": " Everywhere",
  "5375": " Fro",
  "5376": " Fredd",
  "5377": " Freddy",
  "5378": " Las",
  "5379": " Laser",
  "5380": " Rock",
  "5381": " Tob",
  "5382": " Toby",
  "5383": " Whi",
  "5384": " Wi",
  "5385": " While",
  "5386": " Will",
  "5387": " adde",
  "5388": " added",
  "5389": " admire",
  "5390": " anywhe",
  "5391": " anywher",
  "5392": " anywhere",
  "5393": " atti",
  "5394": " ava",
  "5395": " avai",
  "5396": " avail",
  "5397": " availa",
  "5398": " availab",
  "5399": " availabl",
  "5400": " available",
  "5401": " bang",
  "5402": " barki",
  "5403": " barkin",
  "5404": " barking",
  "5405": " basketball",
  "5406": " batht",
  "5407": " bathtu",
  "5408": " bathtub",
  "5409": " bend",
  "5410": " brighte",
  "5411": " broc",
  "5412": " brocc",
  "5413": " brocco",
  "5414": " broccol",
  "5415": " broccoli",
  "5416": " chalk",
  "5417": " chos",
  "5418": " chose",
  "5419": " colourf",
  "5420": " colourfu",
  "5421": " colourful",
  "5422": " comple",
  "5423": " complet",
  "5424": " creations",
  "5425": " disappointed",
  "5426": " dreamed",
  "5427": " dreams",
  "5428": " dus",
  "5429": " dust",
  "5430": " exercise",
  "5431": " flut",
  "5432": " four",
  "5433": " fres",
  "5434": " fresh",
  "5435": " gh",
  "5436": " gate",
  "5437": " gathere",
  "5438": " gathered",
  "5439": " gho",
  "5440": " ghos",
  "5441": " ghost",
  "5442": " giggle",
  "5443": " grill",
  "5444": " happier",
  "5445": " hed",
  "5446": " hedg",
  "5447": " hedge",
  "5448": " hero",
  "5449": " hut",
  "5450": " jet",
  "5451": " juicy",
  "5452": " kissed",
  "5453": " leas",
  "5454": " low",
  "5455": " means",
  "5456": " medi",
  "5457": " medic",
  "5458": " medici",
  "5459": " medicin",
  "5460": " medicine",
  "5461": " messa",
  "5462": " messag",
  "5463": " message",
  "5464": " mint",
  "5465": " miner",
  "5466": " minera",
  "5467": " mineral",
  "5468": " missil",
  "5469": " missile",
  "5470": " mol",
  "5471": " modes",
  "5472": " modest",
  "5473": " mole",
  "5474": " noteb",
  "5475": " notebo",
  "5476": " noteboo",
  "5477": " notebook",
  "5478": " oft",
  "5479": " often",
  "5480": " older",
  "5481": " onc",
  "5482": " once",
  "5483": " pale",
  "5484": " pear",
  "5485": " pinche",
  "5486": " pinched",
  "5487": " plu",
  "5488": " poke",
  "5489": " poured",
  "5490": " prep",
  "5491": " prepa",
  "5492": " prepare",
  "5493": " priz",
  "5494": " prize",
  "5495": " purs",
  "5496": " purse",
  "5497": " rail",
  "5498": " raced",
  "5499": " ree",
  "5500": " reg",
  "5501": " readin",
  "5502": " reading",
  "5503": " reef",
  "5504": " refr",
  "5505": " refri",
  "5506": " refrig",
  "5507": " refrige",
  "5508": " refriger",
  "5509": " refrigera",
  "5510": " refrigerat",
  "5511": " refrigerato",
  "5512": " refrigerator",
  "5513": " regu",
  "5514": " regul",
  "5515": " regula",
  "5516": " regular",
  "5517": " rema",
  "5518": " remain",
  "5519": " repla",
  "5520": " replac",
  "5521": " resto",
  "5522": " restore",
  "5523": " reverse",
  "5524": " sy",
  "5525": " sandb",
  "5526": " sandbo",
  "5527": " sandbox",
  "5528": " sandwich",
  "5529": " scra",
  "5530": " send",
  "5531": " settle",
  "5532": " sham",
  "5533": " shamp",
  "5534": " shampo",
  "5535": " shampoo",
  "5536": " shoulde",
  "5537": " shoulder",
  "5538": " shrin",
  "5539": " shrink",
  "5540": " sight",
  "5541": " smelle",
  "5542": " smelled",
  "5543": " snea",
  "5544": " sneak",
  "5545": " spee",
  "5546": " speed",
  "5547": " spinn",
  "5548": " spinni",
  "5549": " spinnin",
  "5550": " spinning",
  "5551": " spoiled",
  "5552": " stad",
  "5553": " stadi",
  "5554": " stadiu",
  "5555": " stadium",
  "5556": " starts",
  "5557": " stops",
  "5558": " stumbled",
  "5559": " sweeti",
  "5560": " sweetie",
  "5561": " taller",
  "5562": " thanks",
  "5563": " thes",
  "5564": " these",
  "5565": " thinki",
  "5566": " thinkin",
  "5567": " thinking",
  "5568": " thirs",
  "5569": " thirst",
  "5570": " thirsty",
  "5571": " tidy",
  "5572": " ton",
  "5573": " unit",
  "5574": " unif",
  "5575": " unifor",
  "5576": " uniform",
  "5577": " walle",
  "5578": " wallet",
  "5579": " ways",
  "5580": " wine",
  "5581": "?\".",
  "5582": "All",
  "5583": "Billy",
  "5584": "Flu",
  "5585": "Fluff",
  "5586": "Fluffy",
  "5587": "If",
  "5588": "Samm",
  "5589": "Sammy",
  "5590": "Thei",
  "5591": "Their",
  "5592": "atc",
  "5593": "choo",
  "5594": "eor",
  "5595": "year",
  "5596": " Ab",
  "5597": " Bow",
  "5598": " Cart",
  "5599": " Carter",
  "5600": " Doct",
  "5601": " Doctor",
  "5602": " Frog",
  "5603": " Gig",
  "5604": " Gigi",
  "5605": " Here",
  "5606": " Horsy",
  "5607": " Kaya",
  "5608": " Kayl",
  "5609": " Kayak",
  "5610": " Kayla",
  "5611": " Mis",
  "5612": " Mu",
  "5613": " Magn",
  "5614": " Magnet",
  "5615": " Mic",
  "5616": " Mum",
  "5617": " Timo",
  "5618": " Timot",
  "5619": " Timoth",
  "5620": " Timothy",
  "5621": " abov",
  "5622": " above",
  "5623": " alr",
  "5624": " anch",
  "5625": " ancho",
  "5626": " anchor",
  "5627": " art",
  "5628": " attr",
  "5629": " attic",
  "5630": " attra",
  "5631": " attrac",
  "5632": " attract",
  "5633": " attracti",
  "5634": " bags",
  "5635": " baker",
  "5636": " bikes",
  "5637": " bookshe",
  "5638": " bookshel",
  "5639": " bookshelf",
  "5640": " brai",
  "5641": " brain",
  "5642": " bury",
  "5643": " buttons",
  "5644": " cab",
  "5645": " clappin",
  "5646": " clapping",
  "5647": " clif",
  "5648": " cliff",
  "5649": " colla",
  "5650": " collar",
  "5651": " compa",
  "5652": " conte",
  "5653": " cookin",
  "5654": " cooking",
  "5655": " dear",
  "5656": " dic",
  "5657": " dict",
  "5658": " dicti",
  "5659": " dictio",
  "5660": " diction",
  "5661": " dictiona",
  "5662": " dictionar",
  "5663": " dictionary",
  "5664": " drivin",
  "5665": " driving",
  "5666": " eart",
  "5667": " earth",
  "5668": " easil",
  "5669": " easily",
  "5670": " elev",
  "5671": " eleva",
  "5672": " elevat",
  "5673": " elevato",
  "5674": " elevator",
  "5675": " enviou",
  "5676": " envious",
  "5677": " examin",
  "5678": " famo",
  "5679": " famou",
  "5680": " famous",
  "5681": " favou",
  "5682": " favour",
  "5683": " favouri",
  "5684": " favourit",
  "5685": " favourite",
  "5686": " feelings",
  "5687": " figure",
  "5688": " film",
  "5689": " fluf",
  "5690": " fluff",
  "5691": " fluffy",
  "5692": " flute",
  "5693": " foug",
  "5694": " fough",
  "5695": " fought",
  "5696": " freeze",
  "5697": " glowin",
  "5698": " glowing",
  "5699": " goat",
  "5700": " hairy",
  "5701": " handl",
  "5702": " handle",
  "5703": " hangi",
  "5704": " hangin",
  "5705": " hanging",
  "5706": " ignora",
  "5707": " ignoran",
  "5708": " ignorant",
  "5709": " invited",
  "5710": " itse",
  "5711": " itsel",
  "5712": " itself",
  "5713": " jellyf",
  "5714": " jellyfis",
  "5715": " jellyfish",
  "5716": " joined",
  "5717": " jumps",
  "5718": " kindl",
  "5719": " kinds",
  "5720": " kindly",
  "5721": " kingd",
  "5722": " kingdo",
  "5723": " kingdom",
  "5724": " ly",
  "5725": " lab",
  "5726": " lettin",
  "5727": " letting",
  "5728": " lib",
  "5729": " liz",
  "5730": " libr",
  "5731": " libra",
  "5732": " librar",
  "5733": " lice",
  "5734": " licen",
  "5735": " licens",
  "5736": " license",
  "5737": " lightn",
  "5738": " lightnin",
  "5739": " lightning",
  "5740": " lives",
  "5741": " liza",
  "5742": " lizar",
  "5743": " lizard",
  "5744": " lyin",
  "5745": " lying",
  "5746": " map",
  "5747": " marria",
  "5748": " marriag",
  "5749": " marriage",
  "5750": " measur",
  "5751": " meda",
  "5752": " medal",
  "5753": " mistakes",
  "5754": " motorc",
  "5755": " motorcy",
  "5756": " motorcyc",
  "5757": " motorcycl",
  "5758": " motorcycle",
  "5759": " muf",
  "5760": " muff",
  "5761": " muffin",
  "5762": " musta",
  "5763": " mustac",
  "5764": " mustache",
  "5765": " needs",
  "5766": " nob",
  "5767": " nobo",
  "5768": " nobod",
  "5769": " nobody",
  "5770": " ours",
  "5771": " pit",
  "5772": " pad",
  "5773": " pebbles",
  "5774": " planet",
  "5775": " playf",
  "5776": " playfu",
  "5777": " playful",
  "5778": " por",
  "5779": " pos",
  "5780": " polish",
  "5781": " prev",
  "5782": " preve",
  "5783": " preven",
  "5784": " prevent",
  "5785": " pric",
  "5786": " pulls",
  "5787": " punish",
  "5788": " safel",
  "5789": " safely",
  "5790": " shu",
  "5791": " shaki",
  "5792": " shakin",
  "5793": " shaking",
  "5794": " shov",
  "5795": " shove",
  "5796": " shut",
  "5797": " sku",
  "5798": " skul",
  "5799": " skull",
  "5800": " slipper",
  "5801": " slippery",
  "5802": " sparkly",
  "5803": " spear",
  "5804": " spli",
  "5805": " split",
  "5806": " stare",
  "5807": " sticky",
  "5808": " suf",
  "5809": " suff",
  "5810": " suffe",
  "5811": " suffer",
  "5812": " thos",
  "5813": " those",
  "5814": " ticke",
  "5815": " ticket",
  "5816": " tong",
  "5817": " tongu",
  "5818": " tongue",
  "5819": " traf",
  "5820": " traff",
  "5821": " traffi",
  "5822": " traffic",
  "5823": " trop",
  "5824": " troph",
  "5825": " trophy",
  "5826": " truste",
  "5827": " trusted",
  "5828": " tug",
  "5829": " twig",
  "5830": " uncle",
  "5831": " vend",
  "5832": " vendo",
  "5833": " vendor",
  "5834": " warne",
  "5835": " warned",
  "5836": " whistled",
  "5837": " wir",
  "5838": " wire",
  "5839": " wishes",
  "5840": " writi",
  "5841": " writin",
  "5842": " writing",
  "5843": " yet",
  "5844": "Bye",
  "5845": "Ha",
  "5846": "Jame",
  "5847": "James",
  "5848": "Litt",
  "5849": "Littl",
  "5850": "Little",
  "5851": "Mama",
  "5852": "Mr",
  "5853": "Sarah",
  "5854": "There",
  "5855": "edg",
  "5856": "elc",
  "5857": "lex",
  "5858": "oth",
  "5859": "row",
  "5860": "sag",
  "5861": "sage",
  "5862": "zeb",
  "5863": "zebra",
  "5864": " zebra",
  "5865": " Bon",
  "5866": " Bone",
  "5867": " Bones",
  "5868": " Din",
  "5869": " Dot",
  "5870": " Doll",
  "5871": " Dolly",
  "5872": " Donn",
  "5873": " Donny",
  "5874": " Frogg",
  "5875": " Froggy",
  "5876": " Gir",
  "5877": " Gira",
  "5878": " Giraf",
  "5879": " Giraff",
  "5880": " Giraffe",
  "5881": " Hall",
  "5882": " Hallo",
  "5883": " Hallow",
  "5884": " Hallowe",
  "5885": " Hallowee",
  "5886": " Halloween",
  "5887": " Miss",
  "5888": " Rex",
  "5889": " Rocky",
  "5890": " Sand",
  "5891": " Ske",
  "5892": " Skell",
  "5893": " Skelly",
  "5894": " Sna",
  "5895": " Snak",
  "5896": " Snake",
  "5897": " Someo",
  "5898": " Someon",
  "5899": " Someone",
  "5900": " Sun",
  "5901": " Sus",
  "5902": " Suz",
  "5903": " Susi",
  "5904": " Susie",
  "5905": " Suzy",
  "5906": " Whene",
  "5907": " Whenev",
  "5908": " Wheneve",
  "5909": " Whenever",
  "5910": " ax",
  "5911": " accidenta",
  "5912": " accidental",
  "5913": " accidentall",
  "5914": " accidentally",
  "5915": " admired",
  "5916": " attractiv",
  "5917": " attractive",
  "5918": " awe",
  "5919": " axe",
  "5920": " breaki",
  "5921": " breaks",
  "5922": " breakin",
  "5923": " breaking",
  "5924": " brighter",
  "5925": " cabin",
  "5926": " camp",
  "5927": " carin",
  "5928": " cardb",
  "5929": " cardbo",
  "5930": " cardboa",
  "5931": " cardboar",
  "5932": " cardboard",
  "5933": " caring",
  "5934": " cele",
  "5935": " celeb",
  "5936": " celebr",
  "5937": " celebra",
  "5938": " celebrat",
  "5939": " changed",
  "5940": " chur",
  "5941": " churc",
  "5942": " church",
  "5943": " circu",
  "5944": " circus",
  "5945": " cleanin",
  "5946": " cleaning",
  "5947": " climbin",
  "5948": " climbing",
  "5949": " conten",
  "5950": " content",
  "5951": " cooked",
  "5952": " crash",
  "5953": " disag",
  "5954": " disagre",
  "5955": " dive",
  "5956": " drinks",
  "5957": " eit",
  "5958": " eq",
  "5959": " earl",
  "5960": " eate",
  "5961": " eaten",
  "5962": " eithe",
  "5963": " either",
  "5964": " enve",
  "5965": " envel",
  "5966": " envelo",
  "5967": " envelop",
  "5968": " envelope",
  "5969": " equ",
  "5970": " equi",
  "5971": " equip",
  "5972": " equipm",
  "5973": " equipmen",
  "5974": " equipment",
  "5975": " examine",
  "5976": " excla",
  "5977": " exclaim",
  "5978": " exclaimed",
  "5979": " filt",
  "5980": " filth",
  "5981": " filthy",
  "5982": " firem",
  "5983": " frogs",
  "5984": " gain",
  "5985": " grown",
  "5986": " hist",
  "5987": " histo",
  "5988": " histor",
  "5989": " history",
  "5990": " holds",
  "5991": " homes",
  "5992": " horns",
  "5993": " houses",
  "5994": " insis",
  "5995": " insist",
  "5996": " intel",
  "5997": " intell",
  "5998": " intelli",
  "5999": " intellig",
  "6000": " intellige",
  "6001": " intelligen",
  "6002": " intelligent",
  "6003": " isn",
  "6004": " knigh",
  "6005": " knight",
  "6006": " led",
  "6007": " lean",
  "6008": " learnt",
  "6009": " leash",
  "6010": " lemona",
  "6011": " lemonad",
  "6012": " lemonade",
  "6013": " lions",
  "6014": " meowed",
  "6015": " moon",
  "6016": " nea",
  "6017": " neat",
  "6018": " oats",
  "6019": " offi",
  "6020": " offic",
  "6021": " officer",
  "6022": " organize",
  "6023": " patc",
  "6024": " peache",
  "6025": " peaches",
  "6026": " pois",
  "6027": " pointin",
  "6028": " pointing",
  "6029": " poiso",
  "6030": " poison",
  "6031": " popu",
  "6032": " popul",
  "6033": " popula",
  "6034": " popular",
  "6035": " prayed",
  "6036": " presents",
  "6037": " price",
  "6038": " problems",
  "6039": " proudl",
  "6040": " proudly",
  "6041": " puppe",
  "6042": " puppet",
  "6043": " puppets",
  "6044": " rug",
  "6045": " recordin",
  "6046": " recording",
  "6047": " remo",
  "6048": " remov",
  "6049": " sausage",
  "6050": " scari",
  "6051": " scrat",
  "6052": " scratc",
  "6053": " sep",
  "6054": " sepa",
  "6055": " separ",
  "6056": " separa",
  "6057": " separat",
  "6058": " separate",
  "6059": " shie",
  "6060": " shiel",
  "6061": " shield",
  "6062": " shon",
  "6063": " shone",
  "6064": " shovel",
  "6065": " shower",
  "6066": " sir",
  "6067": " slidi",
  "6068": " slidin",
  "6069": " sliding",
  "6070": " smells",
  "6071": " snug",
  "6072": " snugg",
  "6073": " snuggl",
  "6074": " snuggle",
  "6075": " soar",
  "6076": " softl",
  "6077": " softly",
  "6078": " spu",
  "6079": " spel",
  "6080": " spell",
  "6081": " spring",
  "6082": " spun",
  "6083": " squirrels",
  "6084": " staf",
  "6085": " stat",
  "6086": " staff",
  "6087": " stamps",
  "6088": " stati",
  "6089": " statio",
  "6090": " station",
  "6091": " struc",
  "6092": " strug",
  "6093": " strugg",
  "6094": " struggl",
  "6095": " sum",
  "6096": " sugg",
  "6097": " sugge",
  "6098": " sugges",
  "6099": " suggest",
  "6100": " summ",
  "6101": " sung",
  "6102": " sungl",
  "6103": " sungla",
  "6104": " sunglas",
  "6105": " sunglass",
  "6106": " sunglasse",
  "6107": " sunglasses",
  "6108": " suppor",
  "6109": " support",
  "6110": " swamp",
  "6111": " sym",
  "6112": " task",
  "6113": " tex",
  "6114": " telli",
  "6115": " tellin",
  "6116": " telling",
  "6117": " text",
  "6118": " textu",
  "6119": " textur",
  "6120": " texture",
  "6121": " thankf",
  "6122": " thankfu",
  "6123": " thankful",
  "6124": " thoughtf",
  "6125": " thoughtfu",
  "6126": " thoughtful",
  "6127": " tools",
  "6128": " trav",
  "6129": " trapp",
  "6130": " trappe",
  "6131": " trapped",
  "6132": " trave",
  "6133": " travel",
  "6134": " trucks",
  "6135": " univ",
  "6136": " unite",
  "6137": " univer",
  "6138": " univers",
  "6139": " usin",
  "6140": " using",
  "6141": " wheels",
  "6142": " wig",
  "6143": " winn",
  "6144": " windows",
  "6145": " witc",
  "6146": " witch",
  "6147": " worms",
  "6148": " wre",
  "6149": " wrec",
  "6150": " wreck",
  "6151": " yoga",
  "6152": " zoomed",
  "6153": "!'",
  "6154": "Daisy",
  "6155": "Jimm",
  "6156": "Jimmy",
  "6157": "Lul",
  "6158": "Lulu",
  "6159": "Momo",
  "6160": "Ow",
  "6161": "arry",
  "6162": "ate",
  "6163": "boo",
  "6164": "eac",
  "6165": "edge",
  "6166": "ield",
  "6167": "irs",
  "6168": "key",
  "6169": "lai",
  "6170": "lop",
  "6171": "ose",
  "6172": "yield",
  "6173": " edge",
  "6174": " Ally",
  "6175": " Bro",
  "6176": " Brow",
  "6177": " Brown",
  "6178": " Buzzy",
  "6179": " Ca",
  "6180": " Cir",
  "6181": " Circ",
  "6182": " Circle",
  "6183": " Ear",
  "6184": " Eart",
  "6185": " Earth",
  "6186": " Gi",
  "6187": " Give",
  "6188": " Le",
  "6189": " Loo",
  "6190": " Leo",
  "6191": " Lill",
  "6192": " Lilly",
  "6193": " Look",
  "6194": " Moo",
  "6195": " Oli",
  "6196": " Oliver",
  "6197": " Pa",
  "6198": " Pippa",
  "6199": " Rit",
  "6200": " Rita",
  "6201": " Sim",
  "6202": " Sl",
  "6203": " Sq",
  "6204": " Sha",
  "6205": " Slo",
  "6206": " Slow",
  "6207": " Slowl",
  "6208": " Slowly",
  "6209": " Squ",
  "6210": " Star",
  "6211": " Start",
  "6212": " Wher",
  "6213": " Where",
  "6214": " au",
  "6215": " aco",
  "6216": " acor",
  "6217": " acorn",
  "6218": " agains",
  "6219": " against",
  "6220": " ali",
  "6221": " apr",
  "6222": " appr",
  "6223": " apro",
  "6224": " apron",
  "6225": " argue",
  "6226": " arro",
  "6227": " arrow",
  "6228": " asht",
  "6229": " ashtr",
  "6230": " ashtra",
  "6231": " ashtray",
  "6232": " badl",
  "6233": " badly",
  "6234": " base",
  "6235": " batt",
  "6236": " batte",
  "6237": " batter",
  "6238": " behave",
  "6239": " belonged",
  "6240": " blowi",
  "6241": " blowin",
  "6242": " blowing",
  "6243": " blueberri",
  "6244": " blueberrie",
  "6245": " blueberries",
  "6246": " bounced",
  "6247": " bouncy",
  "6248": " buckl",
  "6249": " buckle",
  "6250": " bunni",
  "6251": " bunnie",
  "6252": " bunnies",
  "6253": " cit",
  "6254": " caps",
  "6255": " case",
  "6256": " cen",
  "6257": " cent",
  "6258": " chairs",
  "6259": " checke",
  "6260": " checked",
  "6261": " cherri",
  "6262": " cherrie",
  "6263": " cherries",
  "6264": " choi",
  "6265": " choic",
  "6266": " choice",
  "6267": " city",
  "6268": " coats",
  "6269": " complete",
  "6270": " counted",
  "6271": " creatures",
  "6272": " crib",
  "6273": " cub",
  "6274": " curl",
  "6275": " deliv",
  "6276": " delive",
  "6277": " deliver",
  "6278": " dishw",
  "6279": " dishwa",
  "6280": " dishwas",
  "6281": " dishwashe",
  "6282": " dishwasher",
  "6283": " dressed",
  "6284": " easi",
  "6285": " easier",
  "6286": " fiv",
  "6287": " firema",
  "6288": " fireman",
  "6289": " five",
  "6290": " flapp",
  "6291": " foa",
  "6292": " followin",
  "6293": " following",
  "6294": " frowned",
  "6295": " hall",
  "6296": " hate",
  "6297": " hes",
  "6298": " helper",
  "6299": " hesi",
  "6300": " hesit",
  "6301": " hesita",
  "6302": " igno",
  "6303": " ignore",
  "6304": " imagina",
  "6305": " imaginat",
  "6306": " imaginati",
  "6307": " intr",
  "6308": " laund",
  "6309": " laundr",
  "6310": " laundry",
  "6311": " lip",
  "6312": " loos",
  "6313": " loose",
  "6314": " mama",
  "6315": " magn",
  "6316": " magne",
  "6317": " magnet",
  "6318": " marry",
  "6319": " men",
  "6320": " meltin",
  "6321": " melting",
  "6322": " minutes",
  "6323": " mop",
  "6324": " monkeys",
  "6325": " musici",
  "6326": " musicia",
  "6327": " musician",
  "6328": " mystery",
  "6329": " nav",
  "6330": " navy",
  "6331": " newsp",
  "6332": " newspa",
  "6333": " newspap",
  "6334": " newspaper",
  "6335": " openin",
  "6336": " opening",
  "6337": " orn",
  "6338": " orna",
  "6339": " ornam",
  "6340": " orname",
  "6341": " ornamen",
  "6342": " ornament",
  "6343": " padd",
  "6344": " paddl",
  "6345": " pair",
  "6346": " para",
  "6347": " parad",
  "6348": " parade",
  "6349": " parti",
  "6350": " passp",
  "6351": " passpo",
  "6352": " passpor",
  "6353": " passport",
  "6354": " patch",
  "6355": " penc",
  "6356": " penci",
  "6357": " pencil",
  "6358": " perfu",
  "6359": " perfum",
  "6360": " perfume",
  "6361": " peta",
  "6362": " petal",
  "6363": " petals",
  "6364": " piz",
  "6365": " piles",
  "6366": " pinch",
  "6367": " pizz",
  "6368": " pizza",
  "6369": " planets",
  "6370": " pleased",
  "6371": " plum",
  "6372": " points",
  "6373": " putt",
  "6374": " rat",
  "6375": " roo",
  "6376": " recog",
  "6377": " recogn",
  "6378": " recogni",
  "6379": " recogniz",
  "6380": " repe",
  "6381": " repea",
  "6382": " repeat",
  "6383": " roof",
  "6384": " rooms",
  "6385": " rubbed",
  "6386": " rush",
  "6387": " scal",
  "6388": " scarin",
  "6389": " scaring",
  "6390": " scree",
  "6391": " screen",
  "6392": " searchi",
  "6393": " searchin",
  "6394": " searching",
  "6395": " shells",
  "6396": " silv",
  "6397": " silve",
  "6398": " silver",
  "6399": " slic",
  "6400": " slice",
  "6401": " sorte",
  "6402": " sorted",
  "6403": " sparkle",
  "6404": " spille",
  "6405": " spilled",
  "6406": " squeezed",
  "6407": " stairs",
  "6408": " strik",
  "6409": " summe",
  "6410": " summer",
  "6411": " sunf",
  "6412": " sunfl",
  "6413": " sunflo",
  "6414": " sunflow",
  "6415": " sunflowe",
  "6416": " sunflower",
  "6417": " surr",
  "6418": " swit",
  "6419": " switc",
  "6420": " switch",
  "6421": " symb",
  "6422": " symbo",
  "6423": " symbol",
  "6424": " tag",
  "6425": " teasi",
  "6426": " teasin",
  "6427": " teasing",
  "6428": " throwi",
  "6429": " throwin",
  "6430": " throwing",
  "6431": " thum",
  "6432": " thumb",
  "6433": " tip",
  "6434": " tickl",
  "6435": " tightl",
  "6436": " tightly",
  "6437": " trem",
  "6438": " tremb",
  "6439": " trembl",
  "6440": " vet",
  "6441": " vie",
  "6442": " view",
  "6443": " wavi",
  "6444": " wavin",
  "6445": " waving",
  "6446": " wes",
  "6447": " weat",
  "6448": " weathe",
  "6449": " weather",
  "6450": " west",
  "6451": " wigg",
  "6452": " wiggl",
  "6453": " wors",
  "6454": "Achoo",
  "6455": "Beca",
  "6456": "Becau",
  "6457": "Because",
  "6458": "Fred",
  "6459": "Mark",
  "6460": "Rea",
  "6461": "Woof",
  "6462": "Yum",
  "6463": "ack",
  "6464": "att",
  "6465": "bi",
  "6466": "elin",
  "6467": "inn",
  "6468": "ird",
  "6469": "lep",
  "6470": "pack",
  "6471": "than",
  "6472": "thank",
  "6473": " Ale",
  "6474": " Aby",
  "6475": " Alex",
  "6476": " Annie",
  "6477": " Bipp",
  "6478": " Bippy",
  "6479": " Bum",
  "6480": " Bump",
  "6481": " Bumpy",
  "6482": " CD",
  "6483": " Cla",
  "6484": " Care",
  "6485": " Char",
  "6486": " Charl",
  "6487": " Charli",
  "6488": " Charlie",
  "6489": " Clai",
  "6490": " Claire",
  "6491": " Di",
  "6492": " Diam",
  "6493": " Diamo",
  "6494": " Diamond",
  "6495": " Hel",
  "6496": " Help",
  "6497": " Jilly",
  "6498": " Johnny",
  "6499": " Micro",
  "6500": " Micros",
  "6501": " Microsc",
  "6502": " Microsco",
  "6503": " Microscop",
  "6504": " Microscope",
  "6505": " Owl",
  "6506": " Pin",
  "6507": " Pand",
  "6508": " Pandy",
  "6509": " Pink",
  "6510": " Se",
  "6511": " Simi",
  "6512": " Sky",
  "6513": " Sund",
  "6514": " Sunn",
  "6515": " Sunda",
  "6516": " Sunday",
  "6517": " Sunny",
  "6518": " Ta",
  "6519": " Too",
  "6520": " Tot",
  "6521": " Toot",
  "6522": " Tooth",
  "6523": " Toto",
  "6524": " Tue",
  "6525": " Tues",
  "6526": " Tuesd",
  "6527": " Tuesda",
  "6528": " Tuesday",
  "6529": " Wat",
  "6530": " Wis",
  "6531": " Wise",
  "6532": " Zo",
  "6533": " Zoe",
  "6534": " accepte",
  "6535": " accepted",
  "6536": " adu",
  "6537": " adul",
  "6538": " adult",
  "6539": " ala",
  "6540": " alar",
  "6541": " alarm",
  "6542": " allowe",
  "6543": " allowed",
  "6544": " alre",
  "6545": " alrea",
  "6546": " alread",
  "6547": " already",
  "6548": " appla",
  "6549": " applau",
  "6550": " applaud",
  "6551": " atta",
  "6552": " attac",
  "6553": " aun",
  "6554": " aunt",
  "6555": " backpack",
  "6556": " baki",
  "6557": " bakin",
  "6558": " baking",
  "6559": " baseb",
  "6560": " baseba",
  "6561": " basebal",
  "6562": " baseball",
  "6563": " bathrob",
  "6564": " bathrobe",
  "6565": " beds",
  "6566": " belongs",
  "6567": " breakf",
  "6568": " breakfa",
  "6569": " breakfas",
  "6570": " breakfast",
  "6571": " brightl",
  "6572": " brightly",
  "6573": " butterfli",
  "6574": " butterflie",
  "6575": " butterflies",
  "6576": " cabine",
  "6577": " cabinet",
  "6578": " catchin",
  "6579": " catching",
  "6580": " cei",
  "6581": " ceil",
  "6582": " ceilin",
  "6583": " ceiling",
  "6584": " chall",
  "6585": " challe",
  "6586": " challen",
  "6587": " challeng",
  "6588": " cheek",
  "6589": " chim",
  "6590": " chimn",
  "6591": " chimne",
  "6592": " chimney",
  "6593": " climbs",
  "6594": " collecti",
  "6595": " collectio",
  "6596": " collection",
  "6597": " compas",
  "6598": " compass",
  "6599": " compassi",
  "6600": " compassio",
  "6601": " compassion",
  "6602": " cud",
  "6603": " cudd",
  "6604": " cuddl",
  "6605": " decorati",
  "6606": " decoratio",
  "6607": " decoration",
  "6608": " decorations",
  "6609": " dip",
  "6610": " dreamin",
  "6611": " dreaming",
  "6612": " esp",
  "6613": " espe",
  "6614": " espec",
  "6615": " especi",
  "6616": " especia",
  "6617": " especiall",
  "6618": " especially",
  "6619": " excitedl",
  "6620": " excitedly",
  "6621": " falls",
  "6622": " finds",
  "6623": " firefighters",
  "6624": " flapped",
  "6625": " follows",
  "6626": " forga",
  "6627": " forgav",
  "6628": " forgave",
  "6629": " furt",
  "6630": " furthe",
  "6631": " further",
  "6632": " gatheri",
  "6633": " gatherin",
  "6634": " gathering",
  "6635": " glit",
  "6636": " glitt",
  "6637": " glitte",
  "6638": " glitter",
  "6639": " golf",
  "6640": " gran",
  "6641": " grant",
  "6642": " guns",
  "6643": " hande",
  "6644": " handed",
  "6645": " heade",
  "6646": " headed",
  "6647": " helm",
  "6648": " helme",
  "6649": " helmet",
  "6650": " hesitat",
  "6651": " homew",
  "6652": " homewo",
  "6653": " homewor",
  "6654": " homework",
  "6655": " ing",
  "6656": " increase",
  "6657": " ingr",
  "6658": " ingred",
  "6659": " ingredi",
  "6660": " ingredie",
  "6661": " ingredien",
  "6662": " ingredient",
  "6663": " intro",
  "6664": " introd",
  "6665": " introdu",
  "6666": " introduc",
  "6667": " keepin",
  "6668": " keeping",
  "6669": " lap",
  "6670": " lec",
  "6671": " leaned",
  "6672": " lect",
  "6673": " lectu",
  "6674": " lecture",
  "6675": " lets",
  "6676": " lid",
  "6677": " library",
  "6678": " lunchb",
  "6679": " lunchbo",
  "6680": " lunchbox",
  "6681": " mal",
  "6682": " mall",
  "6683": " mattre",
  "6684": " mattres",
  "6685": " mattress",
  "6686": " mem",
  "6687": " memo",
  "6688": " memor",
  "6689": " ment",
  "6690": " menti",
  "6691": " mentio",
  "6692": " mention",
  "6693": " mill",
  "6694": " missin",
  "6695": " missing",
  "6696": " model",
  "6697": " monsters",
  "6698": " names",
  "6699": " nur",
  "6700": " nurs",
  "6701": " nurse",
  "6702": " oil",
  "6703": " oak",
  "6704": " obj",
  "6705": " obje",
  "6706": " objec",
  "6707": " object",
  "6708": " offered",
  "6709": " pau",
  "6710": " paddle",
  "6711": " paid",
  "6712": " paints",
  "6713": " pandas",
  "6714": " parr",
  "6715": " parro",
  "6716": " parrot",
  "6717": " paus",
  "6718": " peppers",
  "6719": " phot",
  "6720": " photo",
  "6721": " pigeons",
  "6722": " pirates",
  "6723": " porc",
  "6724": " porch",
  "6725": " post",
  "6726": " pota",
  "6727": " potat",
  "6728": " potato",
  "6729": " prepar",
  "6730": " prepared",
  "6731": " pretendi",
  "6732": " pretendin",
  "6733": " pretending",
  "6734": " purr",
  "6735": " pushin",
  "6736": " pushing",
  "6737": " puttin",
  "6738": " putting",
  "6739": " puzzles",
  "6740": " quite",
  "6741": " ris",
  "6742": " rot",
  "6743": " rele",
  "6744": " relea",
  "6745": " releas",
  "6746": " remove",
  "6747": " root",
  "6748": " roared",
  "6749": " roots",
  "6750": " saile",
  "6751": " sailed",
  "6752": " savi",
  "6753": " savin",
  "6754": " saving",
  "6755": " scale",
  "6756": " seei",
  "6757": " seein",
  "6758": " seeing",
  "6759": " seri",
  "6760": " serio",
  "6761": " seriou",
  "6762": " serious",
  "6763": " shakes",
  "6764": " sip",
  "6765": " sinc",
  "6766": " since",
  "6767": " slowe",
  "6768": " snap",
  "6769": " snuggled",
  "6770": " sob",
  "6771": " sobb",
  "6772": " solved",
  "6773": " spok",
  "6774": " spor",
  "6775": " spoke",
  "6776": " sport",
  "6777": " sprayi",
  "6778": " sprayin",
  "6779": " spraying",
  "6780": " stab",
  "6781": " stabl",
  "6782": " stable",
  "6783": " stee",
  "6784": " steal",
  "6785": " stom",
  "6786": " stretch",
  "6787": " strips",
  "6788": " struggle",
  "6789": " sunse",
  "6790": " sunset",
  "6791": " surprises",
  "6792": " swingi",
  "6793": " swingin",
  "6794": " swinging",
  "6795": " tickle",
  "6796": " times",
  "6797": " tray",
  "6798": " twiste",
  "6799": " twisted",
  "6800": " ves",
  "6801": " vro",
  "6802": " vest",
  "6803": " vroom",
  "6804": " waggi",
  "6805": " waggin",
  "6806": " wagging",
  "6807": " wais",
  "6808": " waist",
  "6809": " washe",
  "6810": " washed",
  "6811": " weight",
  "6812": " whales",
  "6813": " whip",
  "6814": " wisd",
  "6815": " wisdo",
  "6816": " wisdom",
  "6817": " wort",
  "6818": " worse",
  "6819": " worth",
  "6820": " wris",
  "6821": " wrist",
  "6822": "!\",",
  "6823": "!\".",
  "6824": "\",",
  "6825": ",”",
  "6826": "An",
  "6827": "Bell",
  "6828": "Bella",
  "6829": "Everyo",
  "6830": "Everyon",
  "6831": "Everyone",
  "6832": "Grand",
  "6833": "Grandm",
  "6834": "Grandma",
  "6835": "Jen",
  "6836": "Jenn",
  "6837": "Jenny",
  "6838": "Not",
  "6839": "Or",
  "6840": "Rose",
  "6841": "To",
  "6842": "Thes",
  "6843": "These",
  "6844": "Welc",
  "6845": "Welcom",
  "6846": "Welcome",
  "6847": "Your",
  "6848": "ett",
  "6849": "look",
  "6850": "lw",
  "6851": "lookin",
  "6852": "looking",
  "6853": "nder",
  "6854": "reat",
  "6855": "way",
  "6856": " x",
  "6857": " Amb",
  "6858": " Amber",
  "6859": " Bee",
  "6860": " Beb",
  "6861": " Bebe",
  "6862": " Bigg",
  "6863": " Biggie",
  "6864": " Bub",
  "6865": " Bubb",
  "6866": " Bubble",
  "6867": " Bubbles",
  "6868": " Dino",
  "6869": " Ele",
  "6870": " Elep",
  "6871": " Eleph",
  "6872": " Elepha",
  "6873": " Elephan",
  "6874": " Elephant",
  "6875": " Event",
  "6876": " Eventu",
  "6877": " Eventua",
  "6878": " Eventuall",
  "6879": " Eventually",
  "6880": " Fing",
  "6881": " Flo",
  "6882": " Finge",
  "6883": " Finger",
  "6884": " Flop",
  "6885": " Flops",
  "6886": " Flopsy",
  "6887": " Ge",
  "6888": " Geor",
  "6889": " Georg",
  "6890": " George",
  "6891": " Hat",
  "6892": " Hatt",
  "6893": " Hatty",
  "6894": " Horse",
  "6895": " Its",
  "6896": " Ki",
  "6897": " King",
  "6898": " Kik",
  "6899": " Kiki",
  "6900": " Liz",
  "6901": " Luck",
  "6902": " Mitt",
  "6903": " Mitte",
  "6904": " Mitten",
  "6905": " Mittens",
  "6906": " Or",
  "6907": " Pap",
  "6908": " Ph",
  "6909": " Papa",
  "6910": " Phil",
  "6911": " Popp",
  "6912": " Poppy",
  "6913": " See",
  "6914": " Tod",
  "6915": " Toda",
  "6916": " Today",
  "6917": " Twi",
  "6918": " Twig",
  "6919": " acti",
  "6920": " advi",
  "6921": " advic",
  "6922": " advice",
  "6923": " apa",
  "6924": " apar",
  "6925": " apart",
  "6926": " appro",
  "6927": " approa",
  "6928": " approac",
  "6929": " babi",
  "6930": " babie",
  "6931": " babies",
  "6932": " bale",
  "6933": " barks",
  "6934": " bathe",
  "6935": " beat",
  "6936": " bears",
  "6937": " blueberry",
  "6938": " boot",
  "6939": " boots",
  "6940": " bravel",
  "6941": " bravely",
  "6942": " breathe",
  "6943": " buz",
  "6944": " buzz",
  "6945": " calf",
  "6946": " cared",
  "6947": " catche",
  "6948": " caus",
  "6949": " centi",
  "6950": " centim",
  "6951": " centime",
  "6952": " centimet",
  "6953": " centimeter",
  "6954": " centimeters",
  "6955": " chains",
  "6956": " challenge",
  "6957": " chasin",
  "6958": " chasing",
  "6959": " chir",
  "6960": " chirp",
  "6961": " claps",
  "6962": " collected",
  "6963": " collectin",
  "6964": " collecting",
  "6965": " compassiona",
  "6966": " compassionat",
  "6967": " compassionate",
  "6968": " confi",
  "6969": " confid",
  "6970": " confide",
  "6971": " confiden",
  "6972": " continue",
  "6973": " copp",
  "6974": " copper",
  "6975": " cows",
  "6976": " crun",
  "6977": " crunc",
  "6978": " cube",
  "6979": " curt",
  "6980": " curta",
  "6981": " curtain",
  "6982": " dem",
  "6983": " delighted",
  "6984": " dema",
  "6985": " demand",
  "6986": " destroyed",
  "6987": " disagree",
  "6988": " distu",
  "6989": " distur",
  "6990": " disturb",
  "6991": " doors",
  "6992": " downs",
  "6993": " downst",
  "6994": " downsta",
  "6995": " downstai",
  "6996": " downstair",
  "6997": " downstairs",
  "6998": " draws",
  "6999": " dried",
  "7000": " eagerl",
  "7001": " eagerly",
  "7002": " early",
  "7003": " enjoyin",
  "7004": " enjoying",
  "7005": " excite",
  "7006": " explored",
  "7007": " explorer",
  "7008": " explorers",
  "7009": " fed",
  "7010": " fathe",
  "7011": " father",
  "7012": " footb",
  "7013": " footba",
  "7014": " footbal",
  "7015": " football",
  "7016": " fork",
  "7017": " gifts",
  "7018": " grin",
  "7019": " grabs",
  "7020": " growl",
  "7021": " hardl",
  "7022": " hardly",
  "7023": " heads",
  "7024": " heale",
  "7025": " healed",
  "7026": " hesitate",
  "7027": " hesitated",
  "7028": " hiv",
  "7029": " highes",
  "7030": " highest",
  "7031": " hits",
  "7032": " hive",
  "7033": " hoc",
  "7034": " hock",
  "7035": " hocke",
  "7036": " hockey",
  "7037": " honk",
  "7038": " hopi",
  "7039": " hopin",
  "7040": " hoping",
  "7041": " hurti",
  "7042": " hurtin",
  "7043": " hurting",
  "7044": " ignored",
  "7045": " imagined",
  "7046": " imaginatio",
  "7047": " imagination",
  "7048": " impressed",
  "7049": " ink",
  "7050": " increased",
  "7051": " ingredients",
  "7052": " insisted",
  "7053": " introduce",
  "7054": " invite",
  "7055": " jogged",
  "7056": " jokes",
  "7057": " keys",
  "7058": " kisse",
  "7059": " kisses",
  "7060": " labe",
  "7061": " label",
  "7062": " lawn",
  "7063": " lemons",
  "7064": " lined",
  "7065": " measured",
  "7066": " memory",
  "7067": " mentioned",
  "7068": " netw",
  "7069": " netwo",
  "7070": " networ",
  "7071": " network",
  "7072": " non",
  "7073": " none",
  "7074": " obe",
  "7075": " obey",
  "7076": " onions",
  "7077": " pag",
  "7078": " page",
  "7079": " pani",
  "7080": " panic",
  "7081": " patt",
  "7082": " phoe",
  "7083": " phoen",
  "7084": " phoeni",
  "7085": " phoenix",
  "7086": " plann",
  "7087": " pockets",
  "7088": " poppy",
  "7089": " prints",
  "7090": " provided",
  "7091": " pumpkins",
  "7092": " pushes",
  "7093": " raf",
  "7094": " rais",
  "7095": " rare",
  "7096": " rabbits",
  "7097": " radishe",
  "7098": " radishes",
  "7099": " raft",
  "7100": " rained",
  "7101": " reaches",
  "7102": " recognize",
  "7103": " replaced",
  "7104": " resta",
  "7105": " rested",
  "7106": " restau",
  "7107": " restaur",
  "7108": " restaura",
  "7109": " restauran",
  "7110": " restaurant",
  "7111": " revea",
  "7112": " reveal",
  "7113": " ridin",
  "7114": " riding",
  "7115": " rule",
  "7116": " sandwiche",
  "7117": " sandwiches",
  "7118": " sayi",
  "7119": " sayin",
  "7120": " saying",
  "7121": " scol",
  "7122": " scold",
  "7123": " shed",
  "7124": " shouti",
  "7125": " shouts",
  "7126": " shoutin",
  "7127": " shouting",
  "7128": " shru",
  "7129": " shrug",
  "7130": " shrugg",
  "7131": " shrugge",
  "7132": " shrugged",
  "7133": " sile",
  "7134": " silen",
  "7135": " sink",
  "7136": " sizes",
  "7137": " slapp",
  "7138": " slower",
  "7139": " sneake",
  "7140": " sneaked",
  "7141": " snowb",
  "7142": " snowba",
  "7143": " snowbal",
  "7144": " snowball",
  "7145": " soak",
  "7146": " sobbe",
  "7147": " sobbed",
  "7148": " sorti",
  "7149": " sortin",
  "7150": " sorting",
  "7151": " spit",
  "7152": " stari",
  "7153": " starin",
  "7154": " staring",
  "7155": " steam",
  "7156": " stirr",
  "7157": " strai",
  "7158": " straig",
  "7159": " straigh",
  "7160": " straight",
  "7161": " strike",
  "7162": " struct",
  "7163": " structu",
  "7164": " structur",
  "7165": " structure",
  "7166": " stud",
  "7167": " suga",
  "7168": " sugar",
  "7169": " swea",
  "7170": " sweat",
  "7171": " ty",
  "7172": " tenta",
  "7173": " theirs",
  "7174": " toes",
  "7175": " tore",
  "7176": " trips",
  "7177": " twir",
  "7178": " twirl",
  "7179": " ur",
  "7180": " unh",
  "7181": " unha",
  "7182": " unhap",
  "7183": " unhapp",
  "7184": " unhappy",
  "7185": " universe",
  "7186": " urg",
  "7187": " vac",
  "7188": " vacat",
  "7189": " vacati",
  "7190": " vacation",
  "7191": " vehicles",
  "7192": " waits",
  "7193": " wandere",
  "7194": " wandered",
  "7195": " wanti",
  "7196": " wantin",
  "7197": " wanting",
  "7198": " watches",
  "7199": " weep",
  "7200": " wiggle",
  "7201": "Andy",
  "7202": "Boo",
  "7203": "Bobb",
  "7204": "Bobby",
  "7205": "Car",
  "7206": "Carp",
  "7207": "Carpe",
  "7208": "Carpet",
  "7209": "Did",
  "7210": "Great",
  "7211": "Goodb",
  "7212": "Goodby",
  "7213": "Goodbye",
  "7214": "Jazz",
  "7215": "Ma",
  "7216": "Mumm",
  "7217": "Mummy",
  "7218": "Nice",
  "7219": "Nina",
  "7220": "Reme",
  "7221": "Remy",
  "7222": "Remem",
  "7223": "Rememb",
  "7224": "Remember",
  "7225": "Sand",
  "7226": "Silly",
  "7227": "Yuck",
  "7228": "ache",
  "7229": "aco",
  "7230": "atch",
  "7231": "dam",
  "7232": "ert",
  "7233": "ich",
  "7234": "ray",
  "7235": "ucky",
  "7236": "urp",
  "7237": "urpr",
  "7238": "urpris",
  "7239": "urprise",
  "7240": "—",
  "7241": " Ba",
  "7242": " Bot",
  "7243": " Bec",
  "7244": " Being",
  "7245": " Beca",
  "7246": " Becau",
  "7247": " Because",
  "7248": " Both",
  "7249": " Bug",
  "7250": " Chr",
  "7251": " Chris",
  "7252": " Dare",
  "7253": " Els",
  "7254": " End",
  "7255": " Elsa",
  "7256": " Finn",
  "7257": " Finny",
  "7258": " Gr",
  "7259": " Grum",
  "7260": " Grandp",
  "7261": " Grandpa",
  "7262": " Grump",
  "7263": " Grumpy",
  "7264": " Har",
  "7265": " Harr",
  "7266": " Harry",
  "7267": " Iz",
  "7268": " Izz",
  "7269": " Izzy",
  "7270": " Jay",
  "7271": " Jame",
  "7272": " James",
  "7273": " Lor",
  "7274": " Lorr",
  "7275": " Lorry",
  "7276": " Lucky",
  "7277": " Mike",
  "7278": " Mikey",
  "7279": " Pat",
  "7280": " Pea",
  "7281": " Put",
  "7282": " Pete",
  "7283": " Peac",
  "7284": " Peace",
  "7285": " Pinky",
  "7286": " Roo",
  "7287": " Sandr",
  "7288": " Sandra",
  "7289": " Sho",
  "7290": " Shap",
  "7291": " Shape",
  "7292": " Shapey",
  "7293": " Sno",
  "7294": " Snow",
  "7295": " Snowy",
  "7296": " Sque",
  "7297": " Squea",
  "7298": " Squeak",
  "7299": " Squeaky",
  "7300": " Tr",
  "7301": " Tan",
  "7302": " Tank",
  "7303": " Ton",
  "7304": " Toni",
  "7305": " Unc",
  "7306": " Unde",
  "7307": " Uncle",
  "7308": " Under",
  "7309": " Watc",
  "7310": " Watch",
  "7311": " aftern",
  "7312": " afterno",
  "7313": " afternoo",
  "7314": " afternoon",
  "7315": " aliv",
  "7316": " alive",
  "7317": " anywa",
  "7318": " anyway",
  "7319": " approache",
  "7320": " approached",
  "7321": " argui",
  "7322": " arguin",
  "7323": " arguing",
  "7324": " ast",
  "7325": " barb",
  "7326": " barbe",
  "7327": " barber",
  "7328": " beam",
  "7329": " beep",
  "7330": " begi",
  "7331": " begin",
  "7332": " betw",
  "7333": " betwe",
  "7334": " betwee",
  "7335": " between",
  "7336": " bicycles",
  "7337": " blinked",
  "7338": " bothe",
  "7339": " bother",
  "7340": " bounci",
  "7341": " bouncin",
  "7342": " bouncing",
  "7343": " boxe",
  "7344": " boxes",
  "7345": " bracelets",
  "7346": " bricks",
  "7347": " brings",
  "7348": " bumped",
  "7349": " burned",
  "7350": " busi",
  "7351": " busin",
  "7352": " busine",
  "7353": " busines",
  "7354": " business",
  "7355": " bye",
  "7356": " cakes",
  "7357": " cale",
  "7358": " calend",
  "7359": " calenda",
  "7360": " calendar",
  "7361": " calls",
  "7362": " candi",
  "7363": " candie",
  "7364": " candies",
  "7365": " carryin",
  "7366": " carrying",
  "7367": " castles",
  "7368": " cats",
  "7369": " celebrate",
  "7370": " club",
  "7371": " coins",
  "7372": " compli",
  "7373": " crep",
  "7374": " crept",
  "7375": " crossed",
  "7376": " crum",
  "7377": " crumb",
  "7378": " crunch",
  "7379": " crunchy",
  "7380": " cuddled",
  "7381": " curio",
  "7382": " curios",
  "7383": " curiosit",
  "7384": " curiosity",
  "7385": " cutt",
  "7386": " den",
  "7387": " decoratin",
  "7388": " decorating",
  "7389": " deepe",
  "7390": " deeper",
  "7391": " digg",
  "7392": " dipp",
  "7393": " distanc",
  "7394": " distance",
  "7395": " dogg",
  "7396": " doggy",
  "7397": " dresse",
  "7398": " dresses",
  "7399": " drinkin",
  "7400": " drinking",
  "7401": " eagle",
  "7402": " elephants",
  "7403": " ener",
  "7404": " energ",
  "7405": " fau",
  "7406": " fart",
  "7407": " farthe",
  "7408": " fet",
  "7409": " fetc",
  "7410": " fetch",
  "7411": " fireworks",
  "7412": " fli",
  "7413": " flav",
  "7414": " flavo",
  "7415": " folded",
  "7416": " gaz",
  "7417": " giraffes",
  "7418": " growin",
  "7419": " growing",
  "7420": " gus",
  "7421": " gust",
  "7422": " hearts",
  "7423": " herb",
  "7424": " herbs",
  "7425": " hiss",
  "7426": " holi",
  "7427": " holid",
  "7428": " holida",
  "7429": " holiday",
  "7430": " hote",
  "7431": " hotel",
  "7432": " hunt",
  "7433": " hunte",
  "7434": " hunter",
  "7435": " ideas",
  "7436": " inch",
  "7437": " inter",
  "7438": " kayaks",
  "7439": " keeps",
  "7440": " lan",
  "7441": " lamb",
  "7442": " lang",
  "7443": " langu",
  "7444": " langua",
  "7445": " languag",
  "7446": " language",
  "7447": " lie",
  "7448": " livel",
  "7449": " lively",
  "7450": " loaded",
  "7451": " longes",
  "7452": " longest",
  "7453": " lum",
  "7454": " maz",
  "7455": " mars",
  "7456": " marbles",
  "7457": " married",
  "7458": " marsh",
  "7459": " mass",
  "7460": " masks",
  "7461": " massa",
  "7462": " massag",
  "7463": " massage",
  "7464": " maze",
  "7465": " meals",
  "7466": " mild",
  "7467": " moder",
  "7468": " modern",
  "7469": " mosq",
  "7470": " mosqu",
  "7471": " mosquit",
  "7472": " mosquito",
  "7473": " moves",
  "7474": " nati",
  "7475": " natio",
  "7476": " nation",
  "7477": " neighbors",
  "7478": " nicer",
  "7479": " nov",
  "7480": " noses",
  "7481": " nove",
  "7482": " novel",
  "7483": " oh",
  "7484": " oas",
  "7485": " oasis",
  "7486": " opin",
  "7487": " opens",
  "7488": " opini",
  "7489": " opinio",
  "7490": " opinion",
  "7491": " ordered",
  "7492": " owned",
  "7493": " packa",
  "7494": " packag",
  "7495": " package",
  "7496": " partie",
  "7497": " parties",
  "7498": " pasta",
  "7499": " paused",
  "7500": " peak",
  "7501": " penn",
  "7502": " penny",
  "7503": " perm",
  "7504": " plas",
  "7505": " plast",
  "7506": " plasti",
  "7507": " plastic",
  "7508": " plums",
  "7509": " pout",
  "7510": " prid",
  "7511": " pride",
  "7512": " provide",
  "7513": " pullin",
  "7514": " pulling",
  "7515": " quiz",
  "7516": " rei",
  "7517": " realis",
  "7518": " rece",
  "7519": " recei",
  "7520": " receiv",
  "7521": " regre",
  "7522": " regret",
  "7523": " reind",
  "7524": " reinde",
  "7525": " reindee",
  "7526": " reindeer",
  "7527": " released",
  "7528": " replace",
  "7529": " respectf",
  "7530": " respectfu",
  "7531": " respectful",
  "7532": " restor",
  "7533": " restored",
  "7534": " rhy",
  "7535": " rhyth",
  "7536": " rhythm",
  "7537": " rules",
  "7538": " scattere",
  "7539": " scattered",
  "7540": " scratch",
  "7541": " sew",
  "7542": " selli",
  "7543": " sellin",
  "7544": " selling",
  "7545": " signs",
  "7546": " silenc",
  "7547": " silence",
  "7548": " sire",
  "7549": " siren",
  "7550": " sits",
  "7551": " sneezes",
  "7552": " snip",
  "7553": " somed",
  "7554": " someda",
  "7555": " someday",
  "7556": " sorts",
  "7557": " spaces",
  "7558": " spacesh",
  "7559": " spaceshi",
  "7560": " spaceship",
  "7561": " sparkled",
  "7562": " spots",
  "7563": " spraye",
  "7564": " sprayed",
  "7565": " sty",
  "7566": " starti",
  "7567": " startin",
  "7568": " starting",
  "7569": " steel",
  "7570": " stol",
  "7571": " stole",
  "7572": " stranger",
  "7573": " stretche",
  "7574": " stretched",
  "7575": " styl",
  "7576": " style",
  "7577": " suggeste",
  "7578": " suggested",
  "7579": " sunl",
  "7580": " sunli",
  "7581": " sunlig",
  "7582": " sunligh",
  "7583": " sunlight",
  "7584": " surro",
  "7585": " surrou",
  "7586": " surroun",
  "7587": " surround",
  "7588": " sweethe",
  "7589": " sweethea",
  "7590": " sweethear",
  "7591": " sweetheart",
  "7592": " talles",
  "7593": " tallest",
  "7594": " teachi",
  "7595": " teachin",
  "7596": " teaching",
  "7597": " teasp",
  "7598": " teaspo",
  "7599": " teaspoo",
  "7600": " teaspoon",
  "7601": " tentac",
  "7602": " tentacl",
  "7603": " tentacle",
  "7604": " throws",
  "7605": " toad",
  "7606": " tomatoe",
  "7607": " tomatoes",
  "7608": " tracks",
  "7609": " tremble",
  "7610": " tube",
  "7611": " unic",
  "7612": " unicor",
  "7613": " unicorn",
  "7614": " upst",
  "7615": " upsta",
  "7616": " upstair",
  "7617": " upstairs",
  "7618": " urged",
  "7619": " vanis",
  "7620": " voic",
  "7621": " voices",
  "7622": " warmt",
  "7623": " warmth",
  "7624": " watere",
  "7625": " watered",
  "7626": " whate",
  "7627": " whatev",
  "7628": " whateve",
  "7629": " whatever",
  "7630": " wiz",
  "7631": " wint",
  "7632": " winni",
  "7633": " winnin",
  "7634": " winning",
  "7635": " winte",
  "7636": " winter",
  "7637": " wiza",
  "7638": " wizar",
  "7639": " wizard",
  "7640": " yawned",
  "7641": " younge",
  "7642": " yuc",
  "7643": " yuck",
  "7644": " yucky",
  "7645": " zi",
  "7646": " zipp",
  "7647": "Ah",
  "7648": "Bird",
  "7649": "Bl",
  "7650": "Budd",
  "7651": "Blue",
  "7652": "Buddy",
  "7653": "Chr",
  "7654": "Chris",
  "7655": "Dog",
  "7656": "Ducky",
  "7657": "Dolly",
  "7658": "Fin",
  "7659": "Geor",
  "7660": "Georg",
  "7661": "George",
  "7662": "Harry",
  "7663": "Happy",
  "7664": "Johnny",
  "7665": "Kate",
  "7666": "Larry",
  "7667": "Lo",
  "7668": "Mad",
  "7669": "Mich",
  "7670": "Mmm",
  "7671": "Mor",
  "7672": "Madd",
  "7673": "Maddy",
  "7674": "Micha",
  "7675": "Michael",
  "7676": "Mora",
  "7677": "Moral",
  "7678": "Pe",
  "7679": "Read",
  "7680": "Some",
  "7681": "Surprise",
  "7682": "Sus",
  "7683": "Sandr",
  "7684": "Sandra",
  "7685": "Stay",
  "7686": "Susie",
  "7687": "ake",
  "7688": "ang",
  "7689": "cey",
  "7690": "eel",
  "7691": "esis",
  "7692": "esp",
  "7693": "estro",
  "7694": "estroy",
  "7695": "free",
  "7696": "freez",
  "7697": "freeze",
  "7698": "iron",
  "7699": "lap",
  "7700": "llie",
  "7701": "mail",
  "7702": "ould",
  "7703": "ups",
  "7704": "uli",
  "7705": " 1",
  "7706": " eel",
  "7707": " iron",
  "7708": " Al",
  "7709": " Alw",
  "7710": " Alway",
  "7711": " Always",
  "7712": " Bet",
  "7713": " Bef",
  "7714": " Befo",
  "7715": " Before",
  "7716": " Bett",
  "7717": " Betty",
  "7718": " Christ",
  "7719": " Christm",
  "7720": " Christma",
  "7721": " Christmas",
  "7722": " Eat",
  "7723": " Everyt",
  "7724": " Everyth",
  "7725": " Everythin",
  "7726": " Everything",
  "7727": " For",
  "7728": " Hi",
  "7729": " Hav",
  "7730": " Have",
  "7731": " Hip",
  "7732": " Hipp",
  "7733": " Hippy",
  "7734": " Jul",
  "7735": " Joj",
  "7736": " Joy",
  "7737": " Jojo",
  "7738": " Kee",
  "7739": " Keep",
  "7740": " Lar",
  "7741": " Lee",
  "7742": " Larr",
  "7743": " Larry",
  "7744": " Like",
  "7745": " Lind",
  "7746": " Linda",
  "7747": " Mel",
  "7748": " Mou",
  "7749": " Melin",
  "7750": " Melina",
  "7751": " Mill",
  "7752": " Milli",
  "7753": " Millie",
  "7754": " Mous",
  "7755": " Mouse",
  "7756": " Out",
  "7757": " Reme",
  "7758": " Remem",
  "7759": " Rememb",
  "7760": " Remember",
  "7761": " Rog",
  "7762": " Roger",
  "7763": " Sandy",
  "7764": " Shar",
  "7765": " Show",
  "7766": " Spr",
  "7767": " Sprin",
  "7768": " Sto",
  "7769": " Stop",
  "7770": " Tho",
  "7771": " Tig",
  "7772": " Tige",
  "7773": " Tiger",
  "7774": " Toa",
  "7775": " Toad",
  "7776": " Wa",
  "7777": " Zara",
  "7778": " Zer",
  "7779": " Zero",
  "7780": " agreem",
  "7781": " agreeme",
  "7782": " agreemen",
  "7783": " agreement",
  "7784": " ann",
  "7785": " anno",
  "7786": " annoy",
  "7787": " annoyi",
  "7788": " annoyin",
  "7789": " annoying",
  "7790": " apo",
  "7791": " apol",
  "7792": " apolo",
  "7793": " apolog",
  "7794": " apologi",
  "7795": " area",
  "7796": " attach",
  "7797": " awes",
  "7798": " aweso",
  "7799": " awesom",
  "7800": " awesome",
  "7801": " bead",
  "7802": " beauty",
  "7803": " bees",
  "7804": " beginn",
  "7805": " beginni",
  "7806": " beginnin",
  "7807": " beginning",
  "7808": " belly",
  "7809": " below",
  "7810": " blood",
  "7811": " bulb",
  "7812": " bumpy",
  "7813": " buri",
  "7814": " buried",
  "7815": " caut",
  "7816": " cauti",
  "7817": " cautiou",
  "7818": " cautious",
  "7819": " celebrated",
  "7820": " chef",
  "7821": " cherry",
  "7822": " chewi",
  "7823": " chewin",
  "7824": " chewing",
  "7825": " chili",
  "7826": " claw",
  "7827": " claws",
  "7828": " clic",
  "7829": " click",
  "7830": " clowns",
  "7831": " competitio",
  "7832": " competition",
  "7833": " compla",
  "7834": " complain",
  "7835": " confident",
  "7836": " countr",
  "7837": " coura",
  "7838": " courag",
  "7839": " courage",
  "7840": " cracked",
  "7841": " curled",
  "7842": " curly",
  "7843": " cuttin",
  "7844": " cutting",
  "7845": " dared",
  "7846": " decorated",
  "7847": " designs",
  "7848": " died",
  "7849": " dire",
  "7850": " differenc",
  "7851": " difference",
  "7852": " diggin",
  "7853": " digging",
  "7854": " dipped",
  "7855": " direc",
  "7856": " direct",
  "7857": " directi",
  "7858": " directio",
  "7859": " direction",
  "7860": " discovery",
  "7861": " dragg",
  "7862": " dragged",
  "7863": " dreamt",
  "7864": " drives",
  "7865": " droppin",
  "7866": " dropping",
  "7867": " dug",
  "7868": " eats",
  "7869": " emer",
  "7870": " emerg",
  "7871": " ene",
  "7872": " encouraged",
  "7873": " enem",
  "7874": " energy",
  "7875": " entered",
  "7876": " escaped",
  "7877": " exit",
  "7878": " exper",
  "7879": " experi",
  "7880": " experie",
  "7881": " experien",
  "7882": " experienc",
  "7883": " farther",
  "7884": " fears",
  "7885": " fixin",
  "7886": " fixing",
  "7887": " flavor",
  "7888": " foal",
  "7889": " foam",
  "7890": " foods",
  "7891": " gy",
  "7892": " gazed",
  "7893": " gems",
  "7894": " goodn",
  "7895": " goodni",
  "7896": " goodnig",
  "7897": " goodnigh",
  "7898": " goodnight",
  "7899": " grabbin",
  "7900": " grabbing",
  "7901": " greed",
  "7902": " greedy",
  "7903": " grinn",
  "7904": " grinned",
  "7905": " guest",
  "7906": " gym",
  "7907": " hated",
  "7908": " hen",
  "7909": " heali",
  "7910": " healin",
  "7911": " healing",
  "7912": " honked",
  "7913": " huggi",
  "7914": " huggin",
  "7915": " hugging",
  "7916": " hurri",
  "7917": " image",
  "7918": " images",
  "7919": " improved",
  "7920": " inj",
  "7921": " inve",
  "7922": " inves",
  "7923": " invest",
  "7924": " investi",
  "7925": " investig",
  "7926": " investiga",
  "7927": " investigat",
  "7928": " investigate",
  "7929": " kickin",
  "7930": " kicking",
  "7931": " knel",
  "7932": " knelt",
  "7933": " lai",
  "7934": " ladyb",
  "7935": " ladybu",
  "7936": " ladybug",
  "7937": " laid",
  "7938": " leat",
  "7939": " leathe",
  "7940": " leather",
  "7941": " lied",
  "7942": " licks",
  "7943": " lips",
  "7944": " loadin",
  "7945": " loading",
  "7946": " lumb",
  "7947": " lumbe",
  "7948": " lumber",
  "7949": " manager",
  "7950": " marked",
  "7951": " math",
  "7952": " matched",
  "7953": " measurin",
  "7954": " measuring",
  "7955": " moti",
  "7956": " motio",
  "7957": " motion",
  "7958": " mudd",
  "7959": " muddy",
  "7960": " myse",
  "7961": " mysel",
  "7962": " myself",
  "7963": " neighborh",
  "7964": " neighborho",
  "7965": " neighborhoo",
  "7966": " neighborhood",
  "7967": " noo",
  "7968": " noon",
  "7969": " obs",
  "7970": " obser",
  "7971": " observ",
  "7972": " ornaments",
  "7973": " outf",
  "7974": " outfi",
  "7975": " outfit",
  "7976": " passin",
  "7977": " passing",
  "7978": " paste",
  "7979": " pastel",
  "7980": " pec",
  "7981": " peck",
  "7982": " peel",
  "7983": " penguins",
  "7984": " pett",
  "7985": " petted",
  "7986": " pigs",
  "7987": " placed",
  "7988": " planes",
  "7989": " planned",
  "7990": " planted",
  "7991": " plays",
  "7992": " poked",
  "7993": " politel",
  "7994": " politely",
  "7995": " poti",
  "7996": " potio",
  "7997": " potion",
  "7998": " pourin",
  "7999": " pouring",
  "8000": " pru",
  "8001": " pretends",
  "8002": " prun",
  "8003": " prune",
  "8004": " purred",
  "8005": " rai",
  "8006": " rak",
  "8007": " raining",
  "8008": " raise",
  "8009": " realised",
  "8010": " refre",
  "8011": " refu",
  "8012": " refres",
  "8013": " refus",
  "8014": " relaxed",
  "8015": " remained",
  "8016": " resu",
  "8017": " resisted",
  "8018": " resul",
  "8019": " result",
  "8020": " rip",
  "8021": " ribbons",
  "8022": " safa",
  "8023": " safar",
  "8024": " safari",
  "8025": " sailb",
  "8026": " sailbo",
  "8027": " sailboa",
  "8028": " sailboat",
  "8029": " scu",
  "8030": " scoop",
  "8031": " scoope",
  "8032": " scooped",
  "8033": " scratche",
  "8034": " sev",
  "8035": " seal",
  "8036": " seas",
  "8037": " seco",
  "8038": " secon",
  "8039": " second",
  "8040": " setti",
  "8041": " settin",
  "8042": " setting",
  "8043": " settled",
  "8044": " seve",
  "8045": " sever",
  "8046": " severa",
  "8047": " several",
  "8048": " shadows",
  "8049": " sheet",
  "8050": " shouldn",
  "8051": " sides",
  "8052": " skil",
  "8053": " skill",
  "8054": " slappe",
  "8055": " slapped",
  "8056": " snowballs",
  "8057": " snuc",
  "8058": " snuck",
  "8059": " socc",
  "8060": " socce",
  "8061": " soccer",
  "8062": " socks",
  "8063": " sprink",
  "8064": " sprinkl",
  "8065": " sprinkle",
  "8066": " squea",
  "8067": " squeak",
  "8068": " stared",
  "8069": " stem",
  "8070": " ster",
  "8071": " stern",
  "8072": " stoma",
  "8073": " stomac",
  "8074": " stomach",
  "8075": " stren",
  "8076": " streng",
  "8077": " strengt",
  "8078": " strength",
  "8079": " strol",
  "8080": " stroll",
  "8081": " study",
  "8082": " suffere",
  "8083": " suffered",
  "8084": " suitc",
  "8085": " suitca",
  "8086": " suitcas",
  "8087": " suitcase",
  "8088": " supe",
  "8089": " super",
  "8090": " sweate",
  "8091": " sweater",
  "8092": " swimme",
  "8093": " swimmer",
  "8094": " swoo",
  "8095": " swoop",
  "8096": " swoope",
  "8097": " swooped",
  "8098": " tan",
  "8099": " tails",
  "8100": " tale",
  "8101": " talen",
  "8102": " talent",
  "8103": " teaches",
  "8104": " teased",
  "8105": " tide",
  "8106": " tour",
  "8107": " towns",
  "8108": " townsp",
  "8109": " townspe",
  "8110": " townspeo",
  "8111": " townspeop",
  "8112": " townspeopl",
  "8113": " townspeople",
  "8114": " trad",
  "8115": " trade",
  "8116": " trail",
  "8117": " twirle",
  "8118": " twirled",
  "8119": " unpacked",
  "8120": " usu",
  "8121": " usua",
  "8122": " vel",
  "8123": " velv",
  "8124": " velvet",
  "8125": " veter",
  "8126": " veterin",
  "8127": " veterina",
  "8128": " veterinar",
  "8129": " veterinari",
  "8130": " veterinaria",
  "8131": " veterinarian",
  "8132": " waffles",
  "8133": " wags",
  "8134": " web",
  "8135": " wed",
  "8136": " weap",
  "8137": " weake",
  "8138": " weaker",
  "8139": " weapo",
  "8140": " weapon",
  "8141": " wedd",
  "8142": " weddi",
  "8143": " weddin",
  "8144": " wedding",
  "8145": " wherev",
  "8146": " whereve",
  "8147": " wherever",
  "8148": " winne",
  "8149": " winner",
  "8150": " wob",
  "8151": " wobb",
  "8152": " wobbl",
  "8153": " wonderi",
  "8154": " wonders",
  "8155": " wonderin",
  "8156": " wondering",
  "8157": " wool",
  "8158": " woode",
  "8159": " wooden",
  "8160": " writes",
  "8161": " younger",
  "8162": " zer",
  "8163": " zero",
  "8164": " zipper",
  "8165": " zoomin",
  "8166": " zooming",
  "8167": "'ve",
  "8168": "Abi",
  "8169": "Adam",
  "8170": "Amb",
  "8171": "Abiga",
  "8172": "Abigail",
  "8173": "Amber",
  "8174": "Beep",
  "8175": "Bess",
  "8176": "Befo",
  "8177": "Before",
  "8178": "Bessie",
  "8179": "Days",
  "8180": "Ella",
  "8181": "Ew",
  "8182": "Ex",
  "8183": "Excu",
  "8184": "Excuse",
  "8185": "Find",
  "8186": "Fo",
  "8187": "Follo",
  "8188": "Follow",
  "8189": "Gigi",
  "8190": "Hors",
  "8191": "Have",
  "8192": "Jing",
  "8193": "Jake",
  "8194": "Lola",
  "8195": "Mag",
  "8196": "Maya",
  "8197": "Melin",
  "8198": "Mi",
  "8199": "Mo",
  "8200": "Magg",
  "8201": "Magic",
  "8202": "Maggie",
  "8203": "Meow",
  "8204": "Melina",
  "8205": "Mikey",
  "8206": "Ok",
  "8207": "Ollie",
  "8208": "Peac",
  "8209": "Pipp",
  "8210": "Polly",
  "8211": "Peace",
  "8212": "Reall",
  "8213": "Ready",
  "8214": "Really",
  "8215": "Sop",
  "8216": "Soph",
  "8217": "Sophie",
  "8218": "Tot",
  "8219": "Thanks",
  "8220": "Toto",
  "8221": "Uh",
  "8222": "Vroom",
  "8223": "Watch",
  "8224": "Would",
  "8225": "Zip",
  "8226": "app",
  "8227": "andy",
  "8228": "apple",
  "8229": "destroy",
  "8230": "ear",
  "8231": "eav",
  "8232": "fort",
  "8233": "inc",
  "8234": "nj",
  "8235": "nap",
  "8236": "oh",
  "8237": "open",
  "8238": "ower",
  "8239": "ric",
  "8240": "ster",
  "8241": "umpy",
  "8242": "uring",
  "8243": "welc",
  "8244": "welcom",
  "8245": "welcome",
  "8246": "”.",
  "8247": " 2",
  "8248": " Nice",
  "8249": " X",
  "8250": " Ber",
  "8251": " Ball",
  "8252": " Bert",
  "8253": " Cars",
  "8254": " Del",
  "8255": " Des",
  "8256": " Did",
  "8257": " Desp",
  "8258": " Despit",
  "8259": " Despite",
  "8260": " Dina",
  "8261": " Dinah",
  "8262": " Ea",
  "8263": " Each",
  "8264": " Fi",
  "8265": " Fis",
  "8266": " Fla",
  "8267": " Fish",
  "8268": " Flap",
  "8269": " Gun",
  "8270": " Guns",
  "8271": " Is",
  "8272": " Jac",
  "8273": " Jum",
  "8274": " Jaco",
  "8275": " Jacob",
  "8276": " Juli",
  "8277": " Julia",
  "8278": " Jump",
  "8279": " Jumpy",
  "8280": " Lat",
  "8281": " Lie",
  "8282": " Later",
  "8283": " Log",
  "8284": " Logg",
  "8285": " Loggy",
  "8286": " Mari",
  "8287": " Maria",
  "8288": " Maya",
  "8289": " Mich",
  "8290": " Micha",
  "8291": " Michael",
  "8292": " Mumm",
  "8293": " Mummy",
  "8294": " Our",
  "8295": " Rac",
  "8296": " Ry",
  "8297": " Rache",
  "8298": " Rachel",
  "8299": " Ryan",
  "8300": " Sad",
  "8301": " Sadl",
  "8302": " Sadly",
  "8303": " Sharin",
  "8304": " Sharing",
  "8305": " Shel",
  "8306": " Shell",
  "8307": " Shelly",
  "8308": " Stay",
  "8309": " Thom",
  "8310": " Thoma",
  "8311": " Thomas",
  "8312": " Tri",
  "8313": " Tria",
  "8314": " Trian",
  "8315": " Triang",
  "8316": " Triangl",
  "8317": " Triangle",
  "8318": " Wel",
  "8319": " Woo",
  "8320": " Wait",
  "8321": " Welc",
  "8322": " Welcom",
  "8323": " Welcome",
  "8324": " Who",
  "8325": " Woof",
  "8326": " ach",
  "8327": " achi",
  "8328": " achie",
  "8329": " achiev",
  "8330": " achieve",
  "8331": " acte",
  "8332": " acted",
  "8333": " actio",
  "8334": " action",
  "8335": " admiri",
  "8336": " admirin",
  "8337": " admiring",
  "8338": " afterw",
  "8339": " afterwa",
  "8340": " afterwar",
  "8341": " afterward",
  "8342": " afterwards",
  "8343": " airp",
  "8344": " alie",
  "8345": " alien",
  "8346": " aliens",
  "8347": " alri",
  "8348": " alrig",
  "8349": " alrigh",
  "8350": " alright",
  "8351": " amb",
  "8352": " amo",
  "8353": " ambu",
  "8354": " ambul",
  "8355": " ambula",
  "8356": " ambulan",
  "8357": " ambulanc",
  "8358": " ambulance",
  "8359": " amou",
  "8360": " amoun",
  "8361": " amount",
  "8362": " anx",
  "8363": " anxi",
  "8364": " anxio",
  "8365": " anxiou",
  "8366": " anxious",
  "8367": " anyti",
  "8368": " anytim",
  "8369": " anytime",
  "8370": " apologiz",
  "8371": " apologize",
  "8372": " applaude",
  "8373": " applauded",
  "8374": " armc",
  "8375": " armch",
  "8376": " armcha",
  "8377": " armchai",
  "8378": " armchair",
  "8379": " astr",
  "8380": " astro",
  "8381": " astron",
  "8382": " astrona",
  "8383": " astronau",
  "8384": " astronaut",
  "8385": " attache",
  "8386": " attached",
  "8387": " baked",
  "8388": " bananas",
  "8389": " bangi",
  "8390": " bangin",
  "8391": " banging",
  "8392": " bars",
  "8393": " batteri",
  "8394": " batterie",
  "8395": " batteries",
  "8396": " beads",
  "8397": " behavi",
  "8398": " behavin",
  "8399": " behaving",
  "8400": " believed",
  "8401": " besi",
  "8402": " besid",
  "8403": " beside",
  "8404": " blam",
  "8405": " brand",
  "8406": " bride",
  "8407": " bridges",
  "8408": " brushe",
  "8409": " bud",
  "8410": " builde",
  "8411": " builder",
  "8412": " builders",
  "8413": " burs",
  "8414": " burst",
  "8415": " buse",
  "8416": " buses",
  "8417": " buyi",
  "8418": " buyin",
  "8419": " buying",
  "8420": " buzzi",
  "8421": " buzzin",
  "8422": " buzzing",
  "8423": " campin",
  "8424": " camping",
  "8425": " cares",
  "8426": " catcher",
  "8427": " catches",
  "8428": " caused",
  "8429": " cautiousl",
  "8430": " cautiously",
  "8431": " challenges",
  "8432": " cheeks",
  "8433": " chefs",
  "8434": " chickens",
  "8435": " chill",
  "8436": " chirped",
  "8437": " chirpin",
  "8438": " chirping",
  "8439": " chop",
  "8440": " chuc",
  "8441": " chuck",
  "8442": " chuckl",
  "8443": " chuckled",
  "8444": " classr",
  "8445": " classro",
  "8446": " classroo",
  "8447": " classroom",
  "8448": " clue",
  "8449": " colours",
  "8450": " compan",
  "8451": " company",
  "8452": " completed",
  "8453": " conv",
  "8454": " cones",
  "8455": " conta",
  "8456": " contain",
  "8457": " cora",
  "8458": " coral",
  "8459": " cosy",
  "8460": " costumes",
  "8461": " counte",
  "8462": " counter",
  "8463": " country",
  "8464": " covers",
  "8465": " cowb",
  "8466": " cowbo",
  "8467": " cowboy",
  "8468": " crashe",
  "8469": " crashed",
  "8470": " creativi",
  "8471": " creativit",
  "8472": " creativity",
  "8473": " cric",
  "8474": " crick",
  "8475": " cricke",
  "8476": " cricket",
  "8477": " cupb",
  "8478": " cupbo",
  "8479": " cupboa",
  "8480": " cupboar",
  "8481": " cupboard",
  "8482": " dam",
  "8483": " dads",
  "8484": " dances",
  "8485": " darl",
  "8486": " darlin",
  "8487": " darling",
  "8488": " dears",
  "8489": " decis",
  "8490": " decisi",
  "8491": " decisio",
  "8492": " decision",
  "8493": " delayed",
  "8494": " deta",
  "8495": " detai",
  "8496": " detail",
  "8497": " disagreed",
  "8498": " doves",
  "8499": " drawings",
  "8500": " drif",
  "8501": " drift",
  "8502": " ef",
  "8503": " earr",
  "8504": " earli",
  "8505": " earlier",
  "8506": " earrin",
  "8507": " earring",
  "8508": " earrings",
  "8509": " earthq",
  "8510": " earthqu",
  "8511": " earthqua",
  "8512": " earthquak",
  "8513": " earthquake",
  "8514": " ease",
  "8515": " eff",
  "8516": " effor",
  "8517": " effort",
  "8518": " emerge",
  "8519": " emergen",
  "8520": " emergenc",
  "8521": " emergency",
  "8522": " encouragem",
  "8523": " encourages",
  "8524": " encourageme",
  "8525": " encouragemen",
  "8526": " encouragement",
  "8527": " enemy",
  "8528": " exami",
  "8529": " examinin",
  "8530": " examining",
  "8531": " experience",
  "8532": " fad",
  "8533": " fain",
  "8534": " faint",
  "8535": " famili",
  "8536": " fant",
  "8537": " fanta",
  "8538": " fantas",
  "8539": " fantasy",
  "8540": " fauc",
  "8541": " fauce",
  "8542": " faucet",
  "8543": " feedi",
  "8544": " feedin",
  "8545": " feeding",
  "8546": " figured",
  "8547": " flie",
  "8548": " floated",
  "8549": " floatin",
  "8550": " floating",
  "8551": " flood",
  "8552": " flown",
  "8553": " folde",
  "8554": " folder",
  "8555": " foots",
  "8556": " footst",
  "8557": " footste",
  "8558": " footstep",
  "8559": " footsteps",
  "8560": " forgivin",
  "8561": " forgiven",
  "8562": " forgives",
  "8563": " forgivene",
  "8564": " forgivenes",
  "8565": " forgiveness",
  "8566": " forgiving",
  "8567": " freezer",
  "8568": " fue",
  "8569": " fuel",
  "8570": " ger",
  "8571": " gained",
  "8572": " gear",
  "8573": " germ",
  "8574": " germs",
  "8575": " giggles",
  "8576": " given",
  "8577": " glittery",
  "8578": " gor",
  "8579": " goals",
  "8580": " golde",
  "8581": " golden",
  "8582": " gori",
  "8583": " gorill",
  "8584": " gorilla",
  "8585": " gracefull",
  "8586": " gracefully",
  "8587": " grandp",
  "8588": " grandpa",
  "8589": " granted",
  "8590": " grey",
  "8591": " grip",
  "8592": " groa",
  "8593": " groom",
  "8594": " groan",
  "8595": " groups",
  "8596": " haird",
  "8597": " hairdr",
  "8598": " hairdre",
  "8599": " hairdres",
  "8600": " hairdress",
  "8601": " hairdresse",
  "8602": " hairdresser",
  "8603": " handi",
  "8604": " handin",
  "8605": " handing",
  "8606": " heat",
  "8607": " heavi",
  "8608": " heavie",
  "8609": " heavier",
  "8610": " hitt",
  "8611": " hitti",
  "8612": " hittin",
  "8613": " hitting",
  "8614": " holes",
  "8615": " hoov",
  "8616": " hoove",
  "8617": " hooves",
  "8618": " horses",
  "8619": " huma",
  "8620": " human",
  "8621": " hurric",
  "8622": " hurrica",
  "8623": " hurrican",
  "8624": " hurricane",
  "8625": " incl",
  "8626": " inclu",
  "8627": " includ",
  "8628": " invita",
  "8629": " invitat",
  "8630": " invitati",
  "8631": " invitatio",
  "8632": " invitation",
  "8633": " jok",
  "8634": " kitty",
  "8635": " knob",
  "8636": " knockin",
  "8637": " knocks",
  "8638": " knocking",
  "8639": " lands",
  "8640": " leaks",
  "8641": " lettu",
  "8642": " lettuc",
  "8643": " lettuce",
  "8644": " lia",
  "8645": " liar",
  "8646": " librari",
  "8647": " libraria",
  "8648": " librarian",
  "8649": " lighte",
  "8650": " lighter",
  "8651": " logs",
  "8652": " losin",
  "8653": " losing",
  "8654": " lovin",
  "8655": " loving",
  "8656": " magazines",
  "8657": " magici",
  "8658": " magicia",
  "8659": " magician",
  "8660": " mailm",
  "8661": " mann",
  "8662": " manage",
  "8663": " manner",
  "8664": " manners",
  "8665": " marks",
  "8666": " messages",
  "8667": " mindf",
  "8668": " mindfu",
  "8669": " mindful",
  "8670": " misc",
  "8671": " misch",
  "8672": " mischi",
  "8673": " mischie",
  "8674": " missio",
  "8675": " mission",
  "8676": " mouths",
  "8677": " muse",
  "8678": " museu",
  "8679": " museum",
  "8680": " mushrooms",
  "8681": " necklaces",
  "8682": " nowhe",
  "8683": " nowher",
  "8684": " nowhere",
  "8685": " ox",
  "8686": " observe",
  "8687": " onw",
  "8688": " onwar",
  "8689": " onward",
  "8690": " onwards",
  "8691": " oper",
  "8692": " opp",
  "8693": " opera",
  "8694": " operat",
  "8695": " operati",
  "8696": " operatio",
  "8697": " operation",
  "8698": " ourse",
  "8699": " oursel",
  "8700": " ourselv",
  "8701": " ourselve",
  "8702": " ourselves",
  "8703": " overj",
  "8704": " overjo",
  "8705": " overjoy",
  "8706": " overjoyed",
  "8707": " oxy",
  "8708": " oxyg",
  "8709": " oxygen",
  "8710": " papers",
  "8711": " parked",
  "8712": " patted",
  "8713": " patter",
  "8714": " pattern",
  "8715": " pears",
  "8716": " pecked",
  "8717": " perc",
  "8718": " perche",
  "8719": " perched",
  "8720": " perfectl",
  "8721": " perfectly",
  "8722": " permit",
  "8723": " pies",
  "8724": " pillows",
  "8725": " pipes",
  "8726": " plantin",
  "8727": " planting",
  "8728": " playh",
  "8729": " playhou",
  "8730": " playhous",
  "8731": " playhouse",
  "8732": " pokin",
  "8733": " poking",
  "8734": " port",
  "8735": " potatoe",
  "8736": " potatoes",
  "8737": " pouted",
  "8738": " powers",
  "8739": " prayer",
  "8740": " pretti",
  "8741": " prettie",
  "8742": " pretties",
  "8743": " prettiest",
  "8744": " punishe",
  "8745": " punished",
  "8746": " qua",
  "8747": " quack",
  "8748": " quietl",
  "8749": " quietly",
  "8750": " rin",
  "8751": " races",
  "8752": " ranc",
  "8753": " ranch",
  "8754": " reachin",
  "8755": " reaching",
  "8756": " realize",
  "8757": " reci",
  "8758": " received",
  "8759": " refresh",
  "8760": " refreshin",
  "8761": " refreshing",
  "8762": " refused",
  "8763": " reply",
  "8764": " rins",
  "8765": " risin",
  "8766": " risk",
  "8767": " rising",
  "8768": " rockin",
  "8769": " rocking",
  "8770": " safer",
  "8771": " sati",
  "8772": " satis",
  "8773": " satisf",
  "8774": " sausages",
  "8775": " scolde",
  "8776": " scolded",
  "8777": " scru",
  "8778": " seats",
  "8779": " secrets",
  "8780": " sewe",
  "8781": " sewed",
  "8782": " shaped",
  "8783": " shim",
  "8784": " shimm",
  "8785": " shirts",
  "8786": " shooti",
  "8787": " shootin",
  "8788": " shooting",
  "8789": " shoulders",
  "8790": " shra",
  "8791": " shran",
  "8792": " shrank",
  "8793": " sim",
  "8794": " sidew",
  "8795": " sidewa",
  "8796": " sidewal",
  "8797": " sidewalk",
  "8798": " sighs",
  "8799": " signe",
  "8800": " signed",
  "8801": " situ",
  "8802": " situa",
  "8803": " situat",
  "8804": " situati",
  "8805": " situatio",
  "8806": " situation",
  "8807": " ske",
  "8808": " skel",
  "8809": " skele",
  "8810": " skelet",
  "8811": " skeleto",
  "8812": " skeleton",
  "8813": " skills",
  "8814": " slam",
  "8815": " slamm",
  "8816": " slamme",
  "8817": " slammed",
  "8818": " smalles",
  "8819": " smallest",
  "8820": " smiley",
  "8821": " sneaky",
  "8822": " softe",
  "8823": " sparkli",
  "8824": " sparklin",
  "8825": " sparkling",
  "8826": " spon",
  "8827": " spong",
  "8828": " sponge",
  "8829": " starf",
  "8830": " starfi",
  "8831": " starfis",
  "8832": " starfish",
  "8833": " stayi",
  "8834": " stayin",
  "8835": " staying",
  "8836": " stirre",
  "8837": " stirri",
  "8838": " stirred",
  "8839": " stirrin",
  "8840": " stirring",
  "8841": " stolen",
  "8842": " stomp",
  "8843": " storek",
  "8844": " storeke",
  "8845": " storekee",
  "8846": " storekeep",
  "8847": " storekeepe",
  "8848": " storekeeper",
  "8849": " storms",
  "8850": " strawberri",
  "8851": " strawberrie",
  "8852": " strawberries",
  "8853": " strok",
  "8854": " stroke",
  "8855": " struck",
  "8856": " struggled",
  "8857": " stuffe",
  "8858": " stuffed",
  "8859": " succeede",
  "8860": " succeeded",
  "8861": " suggesti",
  "8862": " suggestio",
  "8863": " suggestion",
  "8864": " superhe",
  "8865": " superher",
  "8866": " superhero",
  "8867": " suppos",
  "8868": " suppose",
  "8869": " supposed",
  "8870": " surfb",
  "8871": " surfe",
  "8872": " surfbo",
  "8873": " surfboa",
  "8874": " surfboar",
  "8875": " surfboard",
  "8876": " surfer",
  "8877": " surprisi",
  "8878": " surprisin",
  "8879": " surprising",
  "8880": " surre",
  "8881": " surren",
  "8882": " surrend",
  "8883": " surrende",
  "8884": " surrender",
  "8885": " surroundi",
  "8886": " surroundin",
  "8887": " surrounding",
  "8888": " surroundings",
  "8889": " swans",
  "8890": " talente",
  "8891": " talented",
  "8892": " tasks",
  "8893": " tastes",
  "8894": " teams",
  "8895": " tents",
  "8896": " textures",
  "8897": " thea",
  "8898": " theat",
  "8899": " theate",
  "8900": " theater",
  "8901": " thri",
  "8902": " thud",
  "8903": " toi",
  "8904": " toil",
  "8905": " toile",
  "8906": " toilet",
  "8907": " traile",
  "8908": " trailer",
  "8909": " treasures",
  "8910": " trembli",
  "8911": " tremblin",
  "8912": " trembling",
  "8913": " tricky",
  "8914": " tuc",
  "8915": " tuck",
  "8916": " tugg",
  "8917": " tugge",
  "8918": " tugged",
  "8919": " turni",
  "8920": " turnin",
  "8921": " turning",
  "8922": " twink",
  "8923": " twinkl",
  "8924": " twinkle",
  "8925": " tyi",
  "8926": " typ",
  "8927": " tyin",
  "8928": " tying",
  "8929": " type",
  "8930": " umbrellas",
  "8931": " uns",
  "8932": " underg",
  "8933": " undergr",
  "8934": " undergrou",
  "8935": " underground",
  "8936": " understandi",
  "8937": " understandin",
  "8938": " understanding",
  "8939": " universit",
  "8940": " university",
  "8941": " unlocked",
  "8942": " unsu",
  "8943": " unsure",
  "8944": " usuall",
  "8945": " usually",
  "8946": " vanish",
  "8947": " videos",
  "8948": " waiter",
  "8949": " washi",
  "8950": " washin",
  "8951": " washing",
  "8952": " wateri",
  "8953": " waterin",
  "8954": " watering",
  "8955": " weapons",
  "8956": " weepi",
  "8957": " weepin",
  "8958": " weeping",
  "8959": " welcomed",
  "8960": " whin",
  "8961": " widen",
  "8962": " widene",
  "8963": " widened",
  "8964": " windy",
  "8965": " wires",
  "8966": " wow",
  "8967": " wobble",
  "8968": " works",
  "8969": " worker",
  "8970": " woun",
  "8971": " wound",
  "8972": " yawnin",
  "8973": " yawning",
  "8974": " yest",
  "8975": " yester",
  "8976": " yesterd",
  "8977": " yesterda",
  "8978": " yesterday",
  "8979": " yout",
  "8980": " youth",
  "8981": ".'",
  "8982": "?'",
  "8983": "Alex",
  "8984": "Alw",
  "8985": "Always",
  "8986": "Anot",
  "8987": "Annie",
  "8988": "Anothe",
  "8989": "Another",
  "8990": "Bad",
  "8991": "Bang",
  "8992": "Bee",
  "8993": "Bett",
  "8994": "Both",
  "8995": "Bumpy",
  "8996": "Behi",
  "8997": "Behind",
  "8998": "Benn",
  "8999": "Benny",
  "9000": "Betty",
  "9001": "Butt",
  "9002": "Butter",
  "9003": "Butterf",
  "9004": "Butterfl",
  "9005": "Butterfly",
  "9006": "Carl",
  "9007": "Cat",
  "9008": "Ch",
  "9009": "Dina",
  "9010": "During",
  "9011": "Dinah",
  "9012": "Does",
  "9013": "Donn",
  "9014": "Donny",
  "9015": "Eat",
  "9016": "Fine",
  "9017": "Flop",
  "9018": "Frog",
  "9019": "Flops",
  "9020": "Flopsy",
  "9021": "Frogg",
  "9022": "Froggy",
  "9023": "Get",
  "9024": "Hipp",
  "9025": "Hippy",
  "9026": "Horsy",
  "9027": "Jaco",
  "9028": "Jacob",
  "9029": "Jojo",
  "9030": "La",
  "9031": "Lena",
  "9032": "Lilly",
  "9033": "Lind",
  "9034": "Luna",
  "9035": "Lacey",
  "9036": "Linda",
  "9037": "Mandy",
  "9038": "Miss",
  "9039": "Mitte",
  "9040": "Mari",
  "9041": "Maria",
  "9042": "Mitten",
  "9043": "Mittens",
  "9044": "Move",
  "9045": "Near",
  "9046": "Out",
  "9047": "Over",
  "9048": "Put",
  "9049": "People",
  "9050": "Pete",
  "9051": "Pippin",
  "9052": "Qui",
  "9053": "Quick",
  "9054": "Rache",
  "9055": "Resis",
  "9056": "Rog",
  "9057": "Roo",
  "9058": "Rosie",
  "9059": "Run",
  "9060": "Rachel",
  "9061": "Rex",
  "9062": "Resist",
  "9063": "Roger",
  "9064": "Sh",
  "9065": "Simi",
  "9066": "Sl",
  "9067": "Snap",
  "9068": "Stea",
  "9069": "Slow",
  "9070": "Somet",
  "9071": "Someti",
  "9072": "Sometim",
  "9073": "Sometime",
  "9074": "Sometimes",
  "9075": "Stan",
  "9076": "Stanle",
  "9077": "Stanley",
  "9078": "Steak",
  "9079": "Tank",
  "9080": "Ted",
  "9081": "Tod",
  "9082": "Tw",
  "9083": "Twe",
  "9084": "Tedd",
  "9085": "Teddy",
  "9086": "Tho",
  "9087": "Those",
  "9088": "Today",
  "9089": "Twig",
  "9090": "Tweet",
  "9091": "Vinc",
  "9092": "Vince",
  "9093": "Wake",
  "9094": "Whe",
  "9095": "With",
  "9096": "Whee",
  "9097": "Yea",
  "9098": "Yeah",
  "9099": "Zoe",
  "9100": "ant",
  "9101": "but",
  "9102": "cat",
  "9103": "chug",
  "9104": "cum",
  "9105": "cumb",
  "9106": "cumber",
  "9107": "eek",
  "9108": "isp",
  "9109": "lose",
  "9110": "mell",
  "9111": "mellin",
  "9112": "melling",
  "9113": "out",
  "9114": "part",
  "9115": "rays",
  "9116": "seek",
  "9117": "smelling",
  "9118": "sha",
  "9119": "shap",
  "9120": "shaped",
  "9121": "vroom",
  "9122": "wine",
  "9123": "yes",
  "9124": " 5",
  "9125": " =",
  "9126": " ?",
  "9127": " Quick",
  "9128": " \n",
  "9129": "  ",
  "9130": " 10",
  "9131": " Ad",
  "9132": " Ag",
  "9133": " Abi",
  "9134": " Abig",
  "9135": " Abiga",
  "9136": " Abigail",
  "9137": " Adam",
  "9138": " Bir",
  "9139": " Bad",
  "9140": " Beh",
  "9141": " Behi",
  "9142": " Behind",
  "9143": " Bird",
  "9144": " Cel",
  "9145": " Cro",
  "9146": " Cats",
  "9147": " Celer",
  "9148": " Celery",
  "9149": " Croc",
  "9150": " Croco",
  "9151": " Crocod",
  "9152": " Crocodi",
  "9153": " Crocodile",
  "9154": " Dra",
  "9155": " Doing",
  "9156": " En",
  "9157": " Eatin",
  "9158": " Eating",
  "9159": " Enj",
  "9160": " Enjo",
  "9161": " Enjoy",
  "9162": " Everyd",
  "9163": " Everyda",
  "9164": " Everyday",
  "9165": " Fir",
  "9166": " Fri",
  "9167": " Figh",
  "9168": " Fight",
  "9169": " Fighting",
  "9170": " Firs",
  "9171": " First",
  "9172": " Frie",
  "9173": " Friend",
  "9174": " Friends",
  "9175": " Goo",
  "9176": " Good",
  "9177": " Goodb",
  "9178": " Goodby",
  "9179": " Goodbye",
  "9180": " Howe",
  "9181": " Howev",
  "9182": " However",
  "9183": " Isn",
  "9184": " Jing",
  "9185": " Lea",
  "9186": " Lace",
  "9187": " Lacey",
  "9188": " Leav",
  "9189": " Leave",
  "9190": " List",
  "9191": " Liste",
  "9192": " Listen",
  "9193": " Mand",
  "9194": " Mandy",
  "9195": " Ot",
  "9196": " Ow",
  "9197": " Other",
  "9198": " Pay",
  "9199": " Pr",
  "9200": " Ra",
  "9201": " Res",
  "9202": " Resis",
  "9203": " Resist",
  "9204": " Sit",
  "9205": " Shall",
  "9206": " Sop",
  "9207": " Soph",
  "9208": " Sophi",
  "9209": " Sophie",
  "9210": " Sparky",
  "9211": " Spring",
  "9212": " Sprink",
  "9213": " Sprinkl",
  "9214": " Sprinkle",
  "9215": " Sprinkles",
  "9216": " Squis",
  "9217": " Squish",
  "9218": " Squishy",
  "9219": " Te",
  "9220": " Tigers",
  "9221": " Toma",
  "9222": " Tomat",
  "9223": " Tomato",
  "9224": " Tru",
  "9225": " Un",
  "9226": " Unt",
  "9227": " Unfor",
  "9228": " Unfort",
  "9229": " Unfortu",
  "9230": " Unfortun",
  "9231": " Unfortunat",
  "9232": " Unfortunate",
  "9233": " Unfortunatel",
  "9234": " Unfortunately",
  "9235": " Until",
  "9236": " Way",
  "9237": " Wed",
  "9238": " Wet",
  "9239": " Water",
  "9240": " Wedn",
  "9241": " Wedne",
  "9242": " Wednes",
  "9243": " Wednesd",
  "9244": " Wednesda",
  "9245": " Wednesday",
  "9246": " Whoe",
  "9247": " Whoever",
  "9248": " achieved",
  "9249": " acrob",
  "9250": " acroba",
  "9251": " acrobat",
  "9252": " acrobats",
  "9253": " actin",
  "9254": " acting",
  "9255": " ago",
  "9256": " agrees",
  "9257": " ais",
  "9258": " airpo",
  "9259": " airpor",
  "9260": " airport",
  "9261": " aisl",
  "9262": " aisle",
  "9263": " aisles",
  "9264": " alle",
  "9265": " alley",
  "9266": " amazem",
  "9267": " amazeme",
  "9268": " amazemen",
  "9269": " amazement",
  "9270": " angri",
  "9271": " angril",
  "9272": " angrily",
  "9273": " ante",
  "9274": " anten",
  "9275": " antenn",
  "9276": " antenna",
  "9277": " antennae",
  "9278": " apologized",
  "9279": " appre",
  "9280": " apprec",
  "9281": " appreci",
  "9282": " apprecia",
  "9283": " appreciat",
  "9284": " appreciate",
  "9285": " argued",
  "9286": " arti",
  "9287": " artis",
  "9288": " artist",
  "9289": " asi",
  "9290": " asid",
  "9291": " aside",
  "9292": " astronauts",
  "9293": " awak",
  "9294": " awar",
  "9295": " awake",
  "9296": " aware",
  "9297": " backed",
  "9298": " backw",
  "9299": " backwa",
  "9300": " backwar",
  "9301": " backward",
  "9302": " backwards",
  "9303": " badg",
  "9304": " badge",
  "9305": " bakery",
  "9306": " balanced",
  "9307": " bales",
  "9308": " bare",
  "9309": " barel",
  "9310": " barely",
  "9311": " beamed",
  "9312": " bedt",
  "9313": " bedti",
  "9314": " bedtim",
  "9315": " bedtime",
  "9316": " belov",
  "9317": " beloved",
  "9318": " bino",
  "9319": " binoc",
  "9320": " binocu",
  "9321": " binocul",
  "9322": " binocula",
  "9323": " binocular",
  "9324": " binoculars",
  "9325": " blad",
  "9326": " blade",
  "9327": " blamed",
  "9328": " blankets",
  "9329": " bleed",
  "9330": " blend",
  "9331": " blinki",
  "9332": " blinkin",
  "9333": " blinking",
  "9334": " blows",
  "9335": " boats",
  "9336": " boom",
  "9337": " borrowed",
  "9338": " boul",
  "9339": " bould",
  "9340": " boulde",
  "9341": " boulder",
  "9342": " bowed",
  "9343": " brains",
  "9344": " braver",
  "9345": " bravery",
  "9346": " breadc",
  "9347": " breadcr",
  "9348": " breadcru",
  "9349": " breadcrum",
  "9350": " breadcrumb",
  "9351": " breadcrumbs",
  "9352": " broo",
  "9353": " broom",
  "9354": " brui",
  "9355": " bruis",
  "9356": " bruise",
  "9357": " brushi",
  "9358": " brushed",
  "9359": " brushin",
  "9360": " brushing",
  "9361": " bulle",
  "9362": " bullet",
  "9363": " bullets",
  "9364": " bumps",
  "9365": " burni",
  "9366": " burnin",
  "9367": " burning",
  "9368": " buryi",
  "9369": " buryin",
  "9370": " burying",
  "9371": " buys",
  "9372": " buzzed",
  "9373": " cin",
  "9374": " cac",
  "9375": " cact",
  "9376": " cactu",
  "9377": " cactus",
  "9378": " calmin",
  "9379": " calming",
  "9380": " candl",
  "9381": " candle",
  "9382": " candles",
  "9383": " cause",
  "9384": " changin",
  "9385": " changing",
  "9386": " cheat",
  "9387": " chewe",
  "9388": " chewed",
  "9389": " chip",
  "9390": " chopp",
  "9391": " chug",
  "9392": " cinn",
  "9393": " cinna",
  "9394": " cinnam",
  "9395": " cinnamo",
  "9396": " cinnamon",
  "9397": " cler",
  "9398": " cleaner",
  "9399": " clerk",
  "9400": " clicked",
  "9401": " closel",
  "9402": " closely",
  "9403": " clues",
  "9404": " coal",
  "9405": " colde",
  "9406": " coldes",
  "9407": " coldest",
  "9408": " colored",
  "9409": " colorin",
  "9410": " coloring",
  "9411": " comm",
  "9412": " combin",
  "9413": " combing",
  "9414": " comfy",
  "9415": " complic",
  "9416": " complim",
  "9417": " complica",
  "9418": " complicat",
  "9419": " complicated",
  "9420": " complime",
  "9421": " complimen",
  "9422": " compliment",
  "9423": " confl",
  "9424": " confidenc",
  "9425": " confidence",
  "9426": " confli",
  "9427": " conflic",
  "9428": " conflict",
  "9429": " conti",
  "9430": " continuin",
  "9431": " continuing",
  "9432": " conver",
  "9433": " convers",
  "9434": " conversa",
  "9435": " conversat",
  "9436": " conversati",
  "9437": " conversatio",
  "9438": " conversation",
  "9439": " coug",
  "9440": " cous",
  "9441": " cough",
  "9442": " cousin",
  "9443": " cowboys",
  "9444": " crabs",
  "9445": " crashin",
  "9446": " crashing",
  "9447": " created",
  "9448": " croa",
  "9449": " croak",
  "9450": " crossin",
  "9451": " crossing",
  "9452": " crumbs",
  "9453": " cucumber",
  "9454": " curiousl",
  "9455": " curiously",
  "9456": " cuts",
  "9457": " dare",
  "9458": " daisi",
  "9459": " daisie",
  "9460": " daisies",
  "9461": " dama",
  "9462": " damag",
  "9463": " damage",
  "9464": " dart",
  "9465": " darlings",
  "9466": " deat",
  "9467": " death",
  "9468": " decides",
  "9469": " delivered",
  "9470": " demande",
  "9471": " demanded",
  "9472": " dent",
  "9473": " denti",
  "9474": " dentis",
  "9475": " dentist",
  "9476": " dept",
  "9477": " depth",
  "9478": " depths",
  "9479": " dese",
  "9480": " dess",
  "9481": " deser",
  "9482": " desse",
  "9483": " desser",
  "9484": " dessert",
  "9485": " destin",
  "9486": " destina",
  "9487": " destinat",
  "9488": " destinati",
  "9489": " destinatio",
  "9490": " destination",
  "9491": " details",
  "9492": " dinosaurs",
  "9493": " dived",
  "9494": " dod",
  "9495": " dodg",
  "9496": " dolla",
  "9497": " dollar",
  "9498": " dollars",
  "9499": " drawn",
  "9500": " dressin",
  "9501": " dressing",
  "9502": " drivers",
  "9503": " dryin",
  "9504": " drying",
  "9505": " dur",
  "9506": " durin",
  "9507": " during",
  "9508": " dusty",
  "9509": " ec",
  "9510": " ech",
  "9511": " echo",
  "9512": " echoed",
  "9513": " elec",
  "9514": " elect",
  "9515": " electr",
  "9516": " electri",
  "9517": " electric",
  "9518": " electricit",
  "9519": " electricity",
  "9520": " encoun",
  "9521": " encount",
  "9522": " encounte",
  "9523": " encounter",
  "9524": " encountered",
  "9525": " entr",
  "9526": " entra",
  "9527": " entran",
  "9528": " entranc",
  "9529": " entrance",
  "9530": " envelopes",
  "9531": " envir",
  "9532": " environ",
  "9533": " environm",
  "9534": " environme",
  "9535": " environmen",
  "9536": " environment",
  "9537": " evenin",
  "9538": " evening",
  "9539": " events",
  "9540": " exa",
  "9541": " exac",
  "9542": " exact",
  "9543": " exactl",
  "9544": " exactly",
  "9545": " excitem",
  "9546": " exciteme",
  "9547": " excitemen",
  "9548": " excitement",
  "9549": " expected",
  "9550": " faced",
  "9551": " falle",
  "9552": " fallen",
  "9553": " familia",
  "9554": " familiar",
  "9555": " fasc",
  "9556": " faul",
  "9557": " fault",
  "9558": " feas",
  "9559": " feast",
  "9560": " feede",
  "9561": " feeder",
  "9562": " fields",
  "9563": " fights",
  "9564": " finishin",
  "9565": " finishing",
  "9566": " firm",
  "9567": " fist",
  "9568": " fishes",
  "9569": " fists",
  "9570": " flat",
  "9571": " flavors",
  "9572": " flip",
  "9573": " flies",
  "9574": " forgets",
  "9575": " forgett",
  "9576": " forgettin",
  "9577": " forgetting",
  "9578": " forgott",
  "9579": " forgotte",
  "9580": " forgotten",
  "9581": " freezin",
  "9582": " freezing",
  "9583": " fuz",
  "9584": " furn",
  "9585": " furni",
  "9586": " furnit",
  "9587": " furnitu",
  "9588": " furnitur",
  "9589": " furniture",
  "9590": " fuzz",
  "9591": " fuzzy",
  "9592": " gigglin",
  "9593": " giggling",
  "9594": " glim",
  "9595": " glimm",
  "9596": " glimmer",
  "9597": " glimmerin",
  "9598": " glimmering",
  "9599": " gloves",
  "9600": " glowed",
  "9601": " groc",
  "9602": " groaned",
  "9603": " grocer",
  "9604": " growlin",
  "9605": " growling",
  "9606": " gruf",
  "9607": " gruff",
  "9608": " grumb",
  "9609": " guy",
  "9610": " guesse",
  "9611": " guessin",
  "9612": " guesses",
  "9613": " guessing",
  "9614": " hadn",
  "9615": " handf",
  "9616": " handfu",
  "9617": " handful",
  "9618": " hee",
  "9619": " headi",
  "9620": " headin",
  "9621": " heading",
  "9622": " heel",
  "9623": " heroe",
  "9624": " heroes",
  "9625": " hippos",
  "9626": " honki",
  "9627": " honkin",
  "9628": " honking",
  "9629": " hopel",
  "9630": " hopele",
  "9631": " hopeles",
  "9632": " hopeless",
  "9633": " hott",
  "9634": " hotte",
  "9635": " hotter",
  "9636": " hurtf",
  "9637": " hurtfu",
  "9638": " hurtful",
  "9639": " imm",
  "9640": " imaginativ",
  "9641": " imaginative",
  "9642": " importanc",
  "9643": " importance",
  "9644": " inche",
  "9645": " inchw",
  "9646": " inchwo",
  "9647": " inchwor",
  "9648": " inchworm",
  "9649": " include",
  "9650": " inje",
  "9651": " inju",
  "9652": " injec",
  "9653": " inject",
  "9654": " injur",
  "9655": " insects",
  "9656": " inten",
  "9657": " intent",
  "9658": " intentl",
  "9659": " intently",
  "9660": " invitin",
  "9661": " inviting",
  "9662": " itchy",
  "9663": " joins",
  "9664": " joked",
  "9665": " kayaker",
  "9666": " kicks",
  "9667": " kings",
  "9668": " landi",
  "9669": " landin",
  "9670": " landing",
  "9671": " laught",
  "9672": " laughte",
  "9673": " laughter",
  "9674": " len",
  "9675": " lev",
  "9676": " least",
  "9677": " lessons",
  "9678": " leve",
  "9679": " lil",
  "9680": " lifts",
  "9681": " lily",
  "9682": " lines",
  "9683": " listens",
  "9684": " loosen",
  "9685": " lowe",
  "9686": " lower",
  "9687": " lux",
  "9688": " luxu",
  "9689": " luxur",
  "9690": " luxury",
  "9691": " mailma",
  "9692": " mailman",
  "9693": " marv",
  "9694": " marve",
  "9695": " marvel",
  "9696": " mec",
  "9697": " meanin",
  "9698": " meaning",
  "9699": " meatb",
  "9700": " meatba",
  "9701": " meatbal",
  "9702": " meatball",
  "9703": " meatballs",
  "9704": " mech",
  "9705": " mecha",
  "9706": " mechan",
  "9707": " mechani",
  "9708": " mechanic",
  "9709": " meetings",
  "9710": " minde",
  "9711": " minded",
  "9712": " mischiev",
  "9713": " mischievou",
  "9714": " mischievous",
  "9715": " mixe",
  "9716": " mixes",
  "9717": " moments",
  "9718": " mommi",
  "9719": " mommie",
  "9720": " mommies",
  "9721": " motorcycles",
  "9722": " mun",
  "9723": " muffins",
  "9724": " munc",
  "9725": " munch",
  "9726": " nailed",
  "9727": " nervousl",
  "9728": " nervously",
  "9729": " nets",
  "9730": " nightm",
  "9731": " nightma",
  "9732": " nightmare",
  "9733": " nuz",
  "9734": " nuzz",
  "9735": " nuzzl",
  "9736": " nuzzled",
  "9737": " os",
  "9738": " oct",
  "9739": " octo",
  "9740": " octop",
  "9741": " octopu",
  "9742": " octopus",
  "9743": " oppo",
  "9744": " oppos",
  "9745": " opposit",
  "9746": " opposite",
  "9747": " ost",
  "9748": " ostri",
  "9749": " ostric",
  "9750": " ostrich",
  "9751": " owe",
  "9752": " ped",
  "9753": " paj",
  "9754": " packin",
  "9755": " packing",
  "9756": " pads",
  "9757": " pages",
  "9758": " paja",
  "9759": " pajam",
  "9760": " pajama",
  "9761": " pajamas",
  "9762": " pala",
  "9763": " pals",
  "9764": " palac",
  "9765": " palace",
  "9766": " panick",
  "9767": " panicked",
  "9768": " partic",
  "9769": " particu",
  "9770": " particul",
  "9771": " particula",
  "9772": " particular",
  "9773": " patienc",
  "9774": " patience",
  "9775": " patientl",
  "9776": " patiently",
  "9777": " patterns",
  "9778": " pause",
  "9779": " peer",
  "9780": " peda",
  "9781": " pedal",
  "9782": " peekin",
  "9783": " peeking",
  "9784": " peels",
  "9785": " peered",
  "9786": " performin",
  "9787": " performing",
  "9788": " permi",
  "9789": " permis",
  "9790": " permiss",
  "9791": " permissi",
  "9792": " permissio",
  "9793": " permission",
  "9794": " permits",
  "9795": " pistols",
  "9796": " pitc",
  "9797": " pitch",
  "9798": " planeta",
  "9799": " planetar",
  "9800": " planetari",
  "9801": " planetariu",
  "9802": " planetarium",
  "9803": " plannin",
  "9804": " planning",
  "9805": " plates",
  "9806": " pleasu",
  "9807": " pleasure",
  "9808": " plug",
  "9809": " plugg",
  "9810": " plugged",
  "9811": " poems",
  "9812": " polishe",
  "9813": " polished",
  "9814": " poss",
  "9815": " possi",
  "9816": " possib",
  "9817": " possibl",
  "9818": " possible",
  "9819": " powd",
  "9820": " powder",
  "9821": " prai",
  "9822": " pran",
  "9823": " prais",
  "9824": " praised",
  "9825": " prank",
  "9826": " prayin",
  "9827": " praying",
  "9828": " prec",
  "9829": " preci",
  "9830": " precio",
  "9831": " preciou",
  "9832": " precious",
  "9833": " priv",
  "9834": " princesse",
  "9835": " princesses",
  "9836": " printed",
  "9837": " printin",
  "9838": " printing",
  "9839": " priva",
  "9840": " prop",
  "9841": " promises",
  "9842": " proper",
  "9843": " protected",
  "9844": " providin",
  "9845": " providing",
  "9846": " punishm",
  "9847": " punishme",
  "9848": " punishmen",
  "9849": " punishment",
  "9850": " pupi",
  "9851": " pupil",
  "9852": " puppi",
  "9853": " puppie",
  "9854": " puppies",
  "9855": " quarreled",
  "9856": " quarrelin",
  "9857": " quarreling",
  "9858": " queens",
  "9859": " rul",
  "9860": " rack",
  "9861": " racing",
  "9862": " rains",
  "9863": " raised",
  "9864": " raked",
  "9865": " raking",
  "9866": " rang",
  "9867": " req",
  "9868": " reas",
  "9869": " receive",
  "9870": " recit",
  "9871": " recita",
  "9872": " recital",
  "9873": " recom",
  "9874": " recognized",
  "9875": " recomm",
  "9876": " recomme",
  "9877": " recommend",
  "9878": " recorded",
  "9879": " refl",
  "9880": " refle",
  "9881": " reflec",
  "9882": " reflect",
  "9883": " reflecti",
  "9884": " reflectio",
  "9885": " reflection",
  "9886": " release",
  "9887": " remembers",
  "9888": " remindi",
  "9889": " reminder",
  "9890": " remindin",
  "9891": " reminding",
  "9892": " removed",
  "9893": " repeated",
  "9894": " requ",
  "9895": " reque",
  "9896": " reques",
  "9897": " request",
  "9898": " rescued",
  "9899": " respo",
  "9900": " respon",
  "9901": " respons",
  "9902": " revealed",
  "9903": " rewarded",
  "9904": " rings",
  "9905": " rinse",
  "9906": " ripe",
  "9907": " ripp",
  "9908": " risky",
  "9909": " roads",
  "9910": " robb",
  "9911": " robber",
  "9912": " ropes",
  "9913": " rott",
  "9914": " rowed",
  "9915": " rum",
  "9916": " rust",
  "9917": " rubbing",
  "9918": " ruler",
  "9919": " safet",
  "9920": " safety",
  "9921": " saili",
  "9922": " sailo",
  "9923": " sails",
  "9924": " sailin",
  "9925": " sailing",
  "9926": " sailor",
  "9927": " sailors",
  "9928": " salo",
  "9929": " salon",
  "9930": " salty",
  "9931": " sandc",
  "9932": " sandca",
  "9933": " sandcas",
  "9934": " sandcast",
  "9935": " sandcastl",
  "9936": " sandcastle",
  "9937": " satisfi",
  "9938": " satisfie",
  "9939": " satisfied",
  "9940": " sce",
  "9941": " scam",
  "9942": " scamp",
  "9943": " scampe",
  "9944": " scamper",
  "9945": " scampere",
  "9946": " scampered",
  "9947": " scen",
  "9948": " scow",
  "9949": " scowl",
  "9950": " scowle",
  "9951": " scowled",
  "9952": " scrap",
  "9953": " scrape",
  "9954": " scraped",
  "9955": " scratched",
  "9956": " scratches",
  "9957": " scur",
  "9958": " scut",
  "9959": " scurr",
  "9960": " scurri",
  "9961": " scurrie",
  "9962": " scurried",
  "9963": " scutt",
  "9964": " scuttl",
  "9965": " scuttle",
  "9966": " seaw",
  "9967": " seaso",
  "9968": " season",
  "9969": " seawe",
  "9970": " seawee",
  "9971": " seaweed",
  "9972": " seconds",
  "9973": " seems",
  "9974": " seesa",
  "9975": " seesaw",
  "9976": " served",
  "9977": " shimme",
  "9978": " shimmer",
  "9979": " shimmeri",
  "9980": " shimmerin",
  "9981": " shimmering",
  "9982": " shined",
  "9983": " shiney",
  "9984": " shivere",
  "9985": " shivered",
  "9986": " shot",
  "9987": " shooe",
  "9988": " shooed",
  "9989": " shyl",
  "9990": " shyly",
  "9991": " simp",
  "9992": " simpl",
  "9993": " singe",
  "9994": " singl",
  "9995": " sings",
  "9996": " singer",
  "9997": " singers",
  "9998": " single",
  "9999": " sinks"
}