{
  "0": "\u0000",
  "1": "\u0001",
  "2": "\u0002",
  "3": "\u0003",
  "4": "\u0004",
  "5": "\u0005",
  "6": "\u0006",
  "7": "\u0007",
  "8": "\b",
  "9": "\t",
  "10": "\n",
  "11": "\u000b",
  "12": "\f",
  "13": "\r",
  "14": "\u000e",
  "15": "\u000f",
  "16": "\u0010",
  "17": "\u0011",
  "18": "\u0012",
  "19": "\u0013",
  "20": "\u0014",
  "21": "\u0015",
  "22": "\u0016",
  "23": "\u0017",
  "24": "\u0018",
  "25": "\u0019",
  "26": "\u001a",
  "27": "\u001b",
  "28": "\u001c",
  "29": "\u001d",
  "30": "\u001e",
  "31": "\u001f",
  "32": " ",
  "33": "!",
  "34": "\"",
  "35": "#",
  "36": "$",
  "37": "%",
  "38": "&",
  "39": "'",
  "40": "(",
  "41": ")",
  "42": "*",
  "43": "+",
  "44": ",",
  "45": "-",
  "46": ".",
  "47": "/",
  "48": "0",
  "49": "1",
  "50": "2",
  "51": "3",
  "52": "4",
  "53": "5",
  "54": "6",
  "55": "7",
  "56": "8",
  "57": "9",
  "58": ":",
  "59": ";",
  "60": "<",
  "61": "=",
  "62": ">",
  "63": "?",
  "64": "@",
  "65": "A",
  "66": "B",
  "67": "C",
  "68": "D",
  "69": "E",
  "70": "F",
  "71": "G",
  "72": "H",
  "73": "I",
  "74": "J",
  "75": "K",
  "76": "L",
  "77": "M",
  "78": "N",
  "79": "O",
  "80": "P",
  "81": "Q",
  "82": "R",
  "83": "S",
  "84": "T",
  "85": "U",
  "86": "V",
  "87": "W",
  "88": "X",
  "89": "Y",
  "90": "Z",
  "91": "[",
  "92": "\\",
  "93": "]",
  "94": "^",
  "95": "_",
  "96": "`",
  "97": "a",
  "98": "b",
  "99": "c",
  "100": "d",
  "101": "e",
  "102": "f",
  "103": "g",
  "104": "h",
  "105": "i",
  "106": "j",
  "107": "k",
  "108": "l",
  "109": "m",
  "110": "n",
  "111": "o",
  "112": "p",
  "113": "q",
  "114": "r",
  "115": "s",
  "116": "t",
  "117": "u",
  "118": "v",
  "119": "w",
  "120": "x",
  "121": "y",
  "122": "z",
  "123": "{",
  "124": "|",
  "125": "}",
  "126": "~",
  "127": "",
  "128": "�",
  "129": "�",
  "130": "�",
  "131": "�",
  "132": "�",
  "133": "�",
  "134": "�",
  "135": "�",
  "136": "�",
  "137": "�",
  "138": "�",
  "139": "�",
  "140": "�",
  "141": "�",
  "142": "�",
  "143": "�",
  "144": "�",
  "145": "�",
  "146": "�",
  "147": "�",
  "148": "�",
  "149": "�",
  "150": "�",
  "151": "�",
  "152": "�",
  "153": "�",
  "154": "�",
  "155": "�",
  "156": "�",
  "157": "�",
  "158": "�",
  "159": "�",
  "160": "�",
  "161": "�",
  "162": "�",
  "163": "�",
  "164": "�",
  "165": "�",
  "166": "�",
  "167": "�",
  "168": "�",
  "169": "�",
  "170": "�",
  "171": "�",
  "172": "�",
  "173": "�",
  "174": "�",
  "175": "�",
  "176": "�",
  "177": "�",
  "178": "�",
  "179": "�",
  "180": "�",
  "181": "�",
  "182": "�",
  "183": "�",
  "184": "�",
  "185": "�",
  "186": "�",
  "187": "�",
  "188": "�",
  "189": "�",
  "190": "�",
  "191": "�",
  "192": "�",
  "193": "�",
  "194": "�",
  "195": "�",
  "196": "�",
  "197": "�",
  "198": "�",
  "199": "�",
  "200": "�",
  "201": "�",
  "202": "�",
  "203": "�",
  "204": "�",
  "205": "�",
  "206": "�",
  "207": "�",
  "208": "�",
  "209": "�",
  "210": "�",
  "211": "�",
  "212": "�",
  "213": "�",
  "214": "�",
  "215": "�",
  "216": "�",
  "217": "�",
  "218": "�",
  "219": "�",
  "220": "�",
  "221": "�",
  "222": "�",
  "223": "�",
  "224": "�",
  "225": "�",
  "226": "�",
  "227": "�",
  "228": "�",
  "229": "�",
  "230": "�",
  "231": "�",
  "232": "�",
  "233": "�",
  "234": "�",
  "235": "�",
  "236": "�",
  "237": "�",
  "238": "�",
  "239": "�",
  "240": "�",
  "241": "�",
  "242": "�",
  "243": "�",
  "244": "�",
  "245": "�",
  "246": "�",
  "247": "�",
  "248": "�",
  "249": "�",
  "250": "�",
  "251": "�",
  "252": "�",
  "253": "�",
  "254": "�",
  "255": "�",
  "256": "<|endoftext|>",
  "257": "<pad>",
  "258": "<unk>",
  "259": " t",
  "260": "he",
  "261": " a",
  "262": " th",
  "263": " s",
  "264": " w",
  "265": "nd",
  "266": " the",
  "267": "ed",
  "268": " b",
  "269": " an",
  "270": " to",
  "271": " and",
  "272": " h",
  "273": " f",
  "274": "in",
  "275": " T",
  "276": "re",
  "277": " wa",
  "278": "it",
  "279": "ou",
  "280": "er",
  "281": " l",
  "282": " d",
  "283": " c",
  "284": " p",
  "285": "ay",
  "286": " m",
  "287": " was",
  "288": "om",
  "289": " The",
  "290": " he",
  "291": " sa",
  "292": "is",
  "293": "ar",
  "294": " n",
  "295": "on",
  "296": "im",
  "297": "id",
  "298": "ll",
  "299": " ha",
  "300": "le",
  "301": "at",
  "302": " g",
  "303": " S",
  "304": "th",
  "305": "or",
  "306": "me",
  "307": "ot",
  "308": "en",
  "309": "an",
  "310": "il",
  "311": "nt",
  "312": "te",
  "313": "ri",
  "314": "ng",
  "315": "ir",
  "316": "la",
  "317": " ca",
  "318": " wi",
  "319": "ke",
  "320": " hi",
  "321": " bi",
  "322": "et",
  "323": " it",
  "324": " H",
  "325": " They",
  "326": "oo",
  "327": " da",
  "328": "ut",
  "329": " pl",
  "330": " pla",
  "331": " He",
  "332": " in",
  "333": "ne",
  "334": " be",
  "335": "ie",
  "336": "am",
  "337": "ro",
  "338": " we",
  "339": " \"",
  "340": "ow",
  "341": " so",
  "342": "ver",
  "343": " fo",
  "344": " u",
  "345": "al",
  "346": " sai",
  "347": " lo",
  "348": " play",
  "349": " said",
  "350": "es",
  "351": " fr",
  "352": " wit",
  "353": " day",
  "354": " with",
  "355": " o",
  "356": " y",
  "357": "pp",
  "358": " her",
  "359": "ld",
  "360": "un",
  "361": "st",
  "362": " no",
  "363": "ce",
  "364": "ee",
  "365": " I",
  "366": " She",
  "367": "ck",
  "368": "ea",
  "369": " mo",
  "370": "ve",
  "371": " his",
  "372": " Ti",
  "373": " Tim",
  "374": " st",
  "375": " do",
  "376": " big",
  "377": " ma",
  "378": " you",
  "379": "end",
  "380": "very",
  "381": "se",
  "382": " li",
  "383": " ba",
  "384": " on",
  "385": " hap",
  "386": " happ",
  "387": "ok",
  "388": " bo",
  "389": " fri",
  "390": "ing",
  "391": "el",
  "392": " frie",
  "393": " friend",
  "394": " bu",
  "395": " tha",
  "396": " L",
  "397": " they",
  "398": "de",
  "399": " tr",
  "400": " had",
  "401": " not",
  "402": " wan",
  "403": "rd",
  "404": " e",
  "405": " up",
  "406": " want",
  "407": " of",
  "408": " r",
  "409": "tl",
  "410": " ti",
  "411": " for",
  "412": "itt",
  "413": " B",
  "414": "gh",
  "415": " ho",
  "416": "ul",
  "417": "ily",
  "418": " go",
  "419": " that",
  "420": " happy",
  "421": " al",
  "422": " M",
  "423": " saw",
  "424": " very",
  "425": "ge",
  "426": "One",
  "427": " mom",
  "428": "'s",
  "429": "ug",
  "430": " lit",
  "431": "ked",
  "432": "ic",
  "433": " sh",
  "434": " litt",
  "435": " littl",
  "436": " little",
  "437": " na",
  "438": "ch",
  "439": " she",
  "440": "ly",
  "441": " ne",
  "442": "lo",
  "443": " tim",
  "444": " time",
  "445": " fi",
  "446": " nam",
  "447": "rt",
  "448": ".\"",
  "449": " di",
  "450": " k",
  "451": " ther",
  "452": " there",
  "453": " wo",
  "454": " Lil",
  "455": " named",
  "456": " sm",
  "457": " Lily",
  "458": " pa",
  "459": "ra",
  "460": " To",
  "461": " wer",
  "462": " were",
  "463": " wante",
  "464": " wanted",
  "465": " but",
  "466": " ar",
  "467": " friends",
  "468": "The",
  "469": "ur",
  "470": "us",
  "471": "ht",
  "472": "ca",
  "473": " Tom",
  "474": " co",
  "475": "!\"",
  "476": "hi",
  "477": " hel",
  "478": " bir",
  "479": " lik",
  "480": "ry",
  "481": " too",
  "482": " bird",
  "483": "pe",
  "484": "On",
  "485": "ys",
  "486": " It",
  "487": " wh",
  "488": " wen",
  "489": " went",
  "490": "ved",
  "491": " is",
  "492": " fu",
  "493": "Once",
  "494": "her",
  "495": " help",
  "496": "ue",
  "497": " loo",
  "498": "uc",
  "499": " all",
  "500": " fe",
  "501": " look",
  "502": " A",
  "503": " gi",
  "504": " upon",
  "505": " le",
  "506": "as",
  "507": " se",
  "508": " fa",
  "509": " fun",
  "510": " as",
  "511": "ny",
  "512": " toy",
  "513": " at",
  "514": " did",
  "515": " j",
  "516": " cou",
  "517": "li",
  "518": " sta",
  "519": " som",
  "520": " some",
  "521": " re",
  "522": " cl",
  "523": "wa",
  "524": " thi",
  "525": "au",
  "526": " cat",
  "527": " tog",
  "528": " toge",
  "529": " toget",
  "530": " togeth",
  "531": " togethe",
  "532": " together",
  "533": "od",
  "534": "ec",
  "535": " su",
  "536": " tre",
  "537": " ou",
  "538": "rs",
  "539": " pu",
  "540": " ta",
  "541": " me",
  "542": " lov",
  "543": " coul",
  "544": " could",
  "545": " dog",
  "546": " thei",
  "547": " their",
  "548": "ad",
  "549": " can",
  "550": " gir",
  "551": " la",
  "552": " hav",
  "553": " girl",
  "554": " bal",
  "555": "ss",
  "556": "my",
  "557": "?\"",
  "558": " fl",
  "559": " him",
  "560": " played",
  "561": "tt",
  "562": " tree",
  "563": " are",
  "564": " out",
  "565": " Su",
  "566": " ball",
  "567": "si",
  "568": " them",
  "569": " br",
  "570": "hen",
  "571": " ro",
  "572": "'t",
  "573": "rr",
  "574": " par",
  "575": "po",
  "576": " sad",
  "577": "ia",
  "578": " fou",
  "579": " boy",
  "580": "um",
  "581": " see",
  "582": "ax",
  "583": " man",
  "584": " have",
  "585": " sho",
  "586": " found",
  "587": " looked",
  "588": " sc",
  "589": " fel",
  "590": " loved",
  "591": " star",
  "592": " Sa",
  "593": "wn",
  "594": " Sue",
  "595": " ask",
  "596": " smi",
  "597": " smil",
  "598": " mak",
  "599": "gs",
  "600": " sp",
  "601": " pi",
  "602": " smile",
  "603": " bac",
  "604": " back",
  "605": " fro",
  "606": "ti",
  "607": "op",
  "608": " car",
  "609": " Ma",
  "610": "ai",
  "611": "sh",
  "612": " lea",
  "613": " like",
  "614": "ac",
  "615": "we",
  "616": " Max",
  "617": " bec",
  "618": " thin",
  "619": " hu",
  "620": " start",
  "621": "ga",
  "622": " beca",
  "623": " gr",
  "624": "ct",
  "625": " park",
  "626": " One",
  "627": " sto",
  "628": " wou",
  "629": "ft",
  "630": " woul",
  "631": " would",
  "632": " felt",
  "633": "bo",
  "634": "ty",
  "635": " sma",
  "636": " liked",
  "637": " make",
  "638": " de",
  "639": " W",
  "640": "You",
  "641": "to",
  "642": " new",
  "643": " aske",
  "644": " asked",
  "645": "ma",
  "646": " But",
  "647": " starte",
  "648": " started",
  "649": " Sam",
  "650": " cam",
  "651": " ot",
  "652": " whe",
  "653": "pl",
  "654": " ju",
  "655": " sca",
  "656": "dd",
  "657": " othe",
  "658": " other",
  "659": " Ben",
  "660": " smal",
  "661": " small",
  "662": " goo",
  "663": "nn",
  "664": " came",
  "665": " somet",
  "666": " good",
  "667": " say",
  "668": "mp",
  "669": " scar",
  "670": " ag",
  "671": "ig",
  "672": " mu",
  "673": " wat",
  "674": " wor",
  "675": " smiled",
  "676": " tho",
  "677": " wal",
  "678": " hea",
  "679": " thou",
  "680": " thoug",
  "681": " though",
  "682": " wha",
  "683": " si",
  "684": " find",
  "685": "nc",
  "686": " sha",
  "687": " cr",
  "688": " mad",
  "689": " ex",
  "690": " po",
  "691": " aw",
  "692": " from",
  "693": " thought",
  "694": " thing",
  "695": " what",
  "696": " someth",
  "697": " somethi",
  "698": " somethin",
  "699": " something",
  "700": " hom",
  "701": " home",
  "702": " awa",
  "703": " Sp",
  "704": " put",
  "705": " away",
  "706": "ep",
  "707": "nk",
  "708": " pr",
  "709": " playin",
  "710": " playing",
  "711": " liv",
  "712": " tri",
  "713": " bea",
  "714": " made",
  "715": " ra",
  "716": " bl",
  "717": "ob",
  "718": " every",
  "719": " ge",
  "720": " ran",
  "721": " Spo",
  "722": " Spot",
  "723": "ns",
  "724": " ga",
  "725": " walk",
  "726": " F",
  "727": " scare",
  "728": " kn",
  "729": "mb",
  "730": " hou",
  "731": " J",
  "732": " wil",
  "733": "ls",
  "734": " lau",
  "735": " hous",
  "736": " house",
  "737": " rea",
  "738": " scared",
  "739": " aga",
  "740": " agai",
  "741": " again",
  "742": " dow",
  "743": " down",
  "744": " took",
  "745": " laug",
  "746": "bl",
  "747": " lear",
  "748": " learn",
  "749": " box",
  "750": " dr",
  "751": "oud",
  "752": " aro",
  "753": " arou",
  "754": " aroun",
  "755": " around",
  "756": " You",
  "757": " will",
  "758": " pic",
  "759": "fe",
  "760": " toys",
  "761": " my",
  "762": "na",
  "763": "dy",
  "764": " your",
  "765": "if",
  "766": "ha",
  "767": " when",
  "768": "cy",
  "769": " sun",
  "770": " things",
  "771": " lived",
  "772": ",\"",
  "773": " Mi",
  "774": " then",
  "775": "ta",
  "776": " te",
  "777": "ous",
  "778": " pe",
  "779": " sw",
  "780": "tu",
  "781": " ab",
  "782": " com",
  "783": " trie",
  "784": "qu",
  "785": " shar",
  "786": " Mia",
  "787": " pre",
  "788": "che",
  "789": " know",
  "790": "os",
  "791": " says",
  "792": " lot",
  "793": " ch",
  "794": " tried",
  "795": "Tim",
  "796": " get",
  "797": "Th",
  "798": " ni",
  "799": " got",
  "800": "ind",
  "801": " who",
  "802": " bot",
  "803": " kne",
  "804": " abo",
  "805": "gg",
  "806": " sl",
  "807": "Lily",
  "808": " mi",
  "809": " sur",
  "810": " abou",
  "811": " about",
  "812": " many",
  "813": " red",
  "814": "rea",
  "815": " clo",
  "816": "ide",
  "817": " any",
  "818": "lly",
  "819": " Lu",
  "820": " pret",
  "821": " str",
  "822": "the",
  "823": " D",
  "824": "ff",
  "825": " us",
  "826": " dec",
  "827": " knew",
  "828": " flo",
  "829": "ter",
  "830": " v",
  "831": " more",
  "832": "pen",
  "833": " sti",
  "834": "mo",
  "835": " op",
  "836": " hear",
  "837": " Luc",
  "838": " int",
  "839": " care",
  "840": " Lucy",
  "841": " ins",
  "842": "�",
  "843": " learned",
  "844": " alw",
  "845": " alwa",
  "846": " alway",
  "847": " always",
  "848": " wate",
  "849": " water",
  "850": " bes",
  "851": " than",
  "852": "be",
  "853": " becam",
  "854": " became",
  "855": " exc",
  "856": " deci",
  "857": " best",
  "858": " outs",
  "859": " outsi",
  "860": " outsid",
  "861": " outside",
  "862": " So",
  "863": " hug",
  "864": " lon",
  "865": " decid",
  "866": " win",
  "867": " shi",
  "868": "bb",
  "869": "rm",
  "870": " excit",
  "871": " gre",
  "872": " becau",
  "873": " becaus",
  "874": " because",
  "875": " stor",
  "876": " ea",
  "877": " open",
  "878": "ni",
  "879": " cu",
  "880": " laughe",
  "881": " laughed",
  "882": "mi",
  "883": " col",
  "884": " Mom",
  "885": " ke",
  "886": " Bo",
  "887": " show",
  "888": " room",
  "889": " into",
  "890": " decided",
  "891": "pr",
  "892": " one",
  "893": " fee",
  "894": " both",
  "895": "she",
  "896": " jum",
  "897": " jump",
  "898": "They",
  "899": " share",
  "900": " And",
  "901": " eat",
  "902": " bro",
  "903": " this",
  "904": " dad",
  "905": " Bob",
  "906": " tak",
  "907": "nde",
  "908": "led",
  "909": "Tom",
  "910": " E",
  "911": " excited",
  "912": " fas",
  "913": "ap",
  "914": "ag",
  "915": " tu",
  "916": " run",
  "917": " insi",
  "918": " fast",
  "919": "gi",
  "920": " long",
  "921": " tal",
  "922": " feel",
  "923": "ell",
  "924": "Yes",
  "925": " nic",
  "926": " sk",
  "927": " whi",
  "928": " insid",
  "929": " inside",
  "930": " nice",
  "931": "ard",
  "932": " tol",
  "933": " told",
  "934": " prett",
  "935": " pretty",
  "936": "ven",
  "937": " spe",
  "938": " am",
  "939": " foo",
  "940": " surp",
  "941": " surpr",
  "942": " surpri",
  "943": " surpris",
  "944": " pick",
  "945": " surprise",
  "946": " take",
  "947": "ara",
  "948": " happe",
  "949": " happen",
  "950": " sor",
  "951": " fis",
  "952": " ki",
  "953": " ani",
  "954": " anim",
  "955": " anima",
  "956": " animal",
  "957": "ab",
  "958": " how",
  "959": " don",
  "960": " eac",
  "961": " each",
  "962": " muc",
  "963": " much",
  "964": " gra",
  "965": "But",
  "966": " fish",
  "967": " tow",
  "968": " cle",
  "969": " or",
  "970": " gav",
  "971": " gave",
  "972": " caref",
  "973": " carefu",
  "974": " careful",
  "975": " ol",
  "976": " shou",
  "977": "ound",
  "978": " shin",
  "979": " C",
  "980": " sorr",
  "981": " sorry",
  "982": " let",
  "983": " old",
  "984": "ol",
  "985": " thank",
  "986": " thr",
  "987": " roc",
  "988": "so",
  "989": "iv",
  "990": " We",
  "991": " food",
  "992": " its",
  "993": " hand",
  "994": "res",
  "995": " jo",
  "996": " walke",
  "997": " flow",
  "998": " walked",
  "999": " stop",
  "1000": " Am",
  "1001": " near",
  "1002": " flowe",
  "1003": " flower",
  "1004": " kind",
  "1005": " bear",
  "1006": " clea",
  "1007": " Amy",
  "1008": " har",
  "1009": " lis",
  "1010": " list",
  "1011": "rom",
  "1012": "ice",
  "1013": " just",
  "1014": " His",
  "1015": "Wh",
  "1016": "ure",
  "1017": " liste",
  "1018": " listen",
  "1019": " animals",
  "1020": "by",
  "1021": " rock",
  "1022": " work",
  "1023": "co",
  "1024": " didn",
  "1025": " en",
  "1026": " bet",
  "1027": " clos",
  "1028": " happened",
  "1029": " bug",
  "1030": " ide",
  "1031": " idea",
  "1032": " try",
  "1033": " fle",
  "1034": " watc",
  "1035": " heard",
  "1036": " tur",
  "1037": " come",
  "1038": " bett",
  "1039": " bette",
  "1040": " better",
  "1041": " An",
  "1042": " Fr",
  "1043": "ak",
  "1044": "io",
  "1045": " if",
  "1046": " hig",
  "1047": " ev",
  "1048": " bra",
  "1049": " even",
  "1050": "mm",
  "1051": " sky",
  "1052": " sn",
  "1053": " fir",
  "1054": " anym",
  "1055": " anymo",
  "1056": " anymor",
  "1057": " anymore",
  "1058": " Ann",
  "1059": "ui",
  "1060": " swi",
  "1061": " clean",
  "1062": " Th",
  "1063": " hol",
  "1064": " tru",
  "1065": "ank",
  "1066": " ri",
  "1067": " cal",
  "1068": "Mom",
  "1069": " tw",
  "1070": "ey",
  "1071": " saf",
  "1072": " af",
  "1073": "Than",
  "1074": "Thank",
  "1075": " cha",
  "1076": " und",
  "1077": " coo",
  "1078": " mou",
  "1079": " unde",
  "1080": " under",
  "1081": " wis",
  "1082": " mag",
  "1083": " over",
  "1084": " flew",
  "1085": " boo",
  "1086": " by",
  "1087": " safe",
  "1088": " lots",
  "1089": " spec",
  "1090": " Then",
  "1091": " cli",
  "1092": " speci",
  "1093": " specia",
  "1094": " special",
  "1095": "hin",
  "1096": " dre",
  "1097": " nev",
  "1098": " never",
  "1099": " grou",
  "1100": " fly",
  "1101": " hur",
  "1102": " end",
  "1103": " gar",
  "1104": " wind",
  "1105": " hard",
  "1106": " dan",
  "1107": " bad",
  "1108": "em",
  "1109": " talk",
  "1110": " bri",
  "1111": " prou",
  "1112": " proud",
  "1113": "lu",
  "1114": " love",
  "1115": "di",
  "1116": " un",
  "1117": "fo",
  "1118": " giv",
  "1119": " Every",
  "1120": " clim",
  "1121": " climb",
  "1122": " gam",
  "1123": " game",
  "1124": " shiny",
  "1125": " sli",
  "1126": " cak",
  "1127": " cake",
  "1128": " fam",
  "1129": " fore",
  "1130": "Let",
  "1131": " lou",
  "1132": " loud",
  "1133": " peo",
  "1134": " peop",
  "1135": " peopl",
  "1136": " people",
  "1137": " doo",
  "1138": " door",
  "1139": "ine",
  "1140": " qu",
  "1141": " Anna",
  "1142": " che",
  "1143": " mea",
  "1144": " une",
  "1145": "'m",
  "1146": " unex",
  "1147": " unexp",
  "1148": " unexpe",
  "1149": " unexpec",
  "1150": " unexpect",
  "1151": " unexpected",
  "1152": " picked",
  "1153": " opened",
  "1154": " gard",
  "1155": " garde",
  "1156": " garden",
  "1157": " aft",
  "1158": " afte",
  "1159": " after",
  "1160": " surprised",
  "1161": " From",
  "1162": " ground",
  "1163": " hurt",
  "1164": " need",
  "1165": "ers",
  "1166": " turn",
  "1167": "ise",
  "1168": " book",
  "1169": "oc",
  "1170": " way",
  "1171": " plan",
  "1172": " im",
  "1173": " nois",
  "1174": " thanke",
  "1175": " thanked",
  "1176": " hop",
  "1177": " cra",
  "1178": " give",
  "1179": " magi",
  "1180": " magic",
  "1181": " ye",
  "1182": "int",
  "1183": " plac",
  "1184": " Her",
  "1185": " ever",
  "1186": " off",
  "1187": "ill",
  "1188": "As",
  "1189": " call",
  "1190": "No",
  "1191": " hid",
  "1192": "ye",
  "1193": " hugg",
  "1194": " blu",
  "1195": " Sar",
  "1196": " Sara",
  "1197": " blue",
  "1198": " far",
  "1199": " hugged",
  "1200": " dra",
  "1201": " sou",
  "1202": " stil",
  "1203": " still",
  "1204": " high",
  "1205": " K",
  "1206": " colo",
  "1207": " color",
  "1208": " tra",
  "1209": " gl",
  "1210": " wai",
  "1211": "ze",
  "1212": " place",
  "1213": " fami",
  "1214": " famil",
  "1215": " sq",
  "1216": " squ",
  "1217": " When",
  "1218": " ap",
  "1219": " happi",
  "1220": " helpe",
  "1221": "xt",
  "1222": "kay",
  "1223": " ow",
  "1224": " wait",
  "1225": " family",
  "1226": " ad",
  "1227": " shoul",
  "1228": " should",
  "1229": " los",
  "1230": " jumped",
  "1231": " tea",
  "1232": " read",
  "1233": " bee",
  "1234": " In",
  "1235": " war",
  "1236": " now",
  "1237": " mov",
  "1238": " grea",
  "1239": " great",
  "1240": " kid",
  "1241": " san",
  "1242": " noise",
  "1243": "red",
  "1244": " stay",
  "1245": " stu",
  "1246": "ho",
  "1247": " fin",
  "1248": "itty",
  "1249": " dis",
  "1250": " showe",
  "1251": " boa",
  "1252": " ang",
  "1253": " helped",
  "1254": " unt",
  "1255": " beau",
  "1256": " beaut",
  "1257": " du",
  "1258": " fores",
  "1259": " mus",
  "1260": " forest",
  "1261": " real",
  "1262": " pro",
  "1263": " stro",
  "1264": " P",
  "1265": " slid",
  "1266": " until",
  "1267": " beauti",
  "1268": " beautif",
  "1269": " beautifu",
  "1270": " beautiful",
  "1271": " exp",
  "1272": " nex",
  "1273": " next",
  "1274": " story",
  "1275": "ack",
  "1276": " stron",
  "1277": " strong",
  "1278": "It",
  "1279": " showed",
  "1280": "fl",
  "1281": " whil",
  "1282": " pict",
  "1283": " pictu",
  "1284": " picture",
  "1285": " while",
  "1286": " sof",
  "1287": " rem",
  "1288": " imp",
  "1289": " danc",
  "1290": " hat",
  "1291": " butt",
  "1292": " stopp",
  "1293": " reac",
  "1294": " stoppe",
  "1295": " stopped",
  "1296": " frog",
  "1297": " app",
  "1298": "ere",
  "1299": " town",
  "1300": " bei",
  "1301": " bein",
  "1302": " being",
  "1303": " kids",
  "1304": " rain",
  "1305": " blo",
  "1306": " happil",
  "1307": " happily",
  "1308": " lost",
  "1309": " kit",
  "1310": " met",
  "1311": " part",
  "1312": " R",
  "1313": " dol",
  "1314": " nod",
  "1315": " wr",
  "1316": " worr",
  "1317": " angr",
  "1318": " stic",
  "1319": " stick",
  "1320": " everyo",
  "1321": " everyon",
  "1322": " everyone",
  "1323": " bed",
  "1324": "per",
  "1325": " angry",
  "1326": " sea",
  "1327": " soft",
  "1328": " fac",
  "1329": " mor",
  "1330": " called",
  "1331": " cry",
  "1332": " yu",
  "1333": " kee",
  "1334": " keep",
  "1335": " res",
  "1336": "Now",
  "1337": "When",
  "1338": " laugh",
  "1339": " boat",
  "1340": " brok",
  "1341": " broke",
  "1342": " mon",
  "1343": " sin",
  "1344": " slide",
  "1345": " thre",
  "1346": " leav",
  "1347": " truc",
  "1348": " truck",
  "1349": " spo",
  "1350": " yum",
  "1351": " yumm",
  "1352": " Kitt",
  "1353": " yummy",
  "1354": " Kitty",
  "1355": " couldn",
  "1356": "Can",
  "1357": "ki",
  "1358": "iz",
  "1359": " brav",
  "1360": " brave",
  "1361": " con",
  "1362": " tir",
  "1363": " think",
  "1364": " bel",
  "1365": " tire",
  "1366": " qui",
  "1367": " watch",
  "1368": " hole",
  "1369": " tou",
  "1370": " ate",
  "1371": " fol",
  "1372": "ook",
  "1373": "cr",
  "1374": " als",
  "1375": " also",
  "1376": " warm",
  "1377": " face",
  "1378": "What",
  "1379": " won",
  "1380": "go",
  "1381": " cook",
  "1382": " flowers",
  "1383": " leave",
  "1384": " wher",
  "1385": " where",
  "1386": " gree",
  "1387": "da",
  "1388": " bit",
  "1389": " wea",
  "1390": " cri",
  "1391": " use",
  "1392": " bun",
  "1393": "ink",
  "1394": " doll",
  "1395": " soo",
  "1396": "wl",
  "1397": " pus",
  "1398": " ru",
  "1399": " bef",
  "1400": " befo",
  "1401": " befor",
  "1402": " before",
  "1403": " soon",
  "1404": " Sall",
  "1405": " Sally",
  "1406": "ina",
  "1407": " Let",
  "1408": " green",
  "1409": " mous",
  "1410": " cre",
  "1411": " mouse",
  "1412": " Ja",
  "1413": "“",
  "1414": "”",
  "1415": " fell",
  "1416": " pond",
  "1417": " bunn",
  "1418": "That",
  "1419": " bus",
  "1420": " cur",
  "1421": " catc",
  "1422": " bunny",
  "1423": " rab",
  "1424": " rabb",
  "1425": " rabbit",
  "1426": "oy",
  "1427": " bar",
  "1428": " per",
  "1429": " kep",
  "1430": " kept",
  "1431": " sat",
  "1432": " mean",
  "1433": " catch",
  "1434": " sing",
  "1435": "Then",
  "1436": " two",
  "1437": "zz",
  "1438": "ip",
  "1439": " yell",
  "1440": " Do",
  "1441": " tel",
  "1442": " cla",
  "1443": " havi",
  "1444": " havin",
  "1445": " having",
  "1446": " hands",
  "1447": " funn",
  "1448": " tired",
  "1449": " Wh",
  "1450": " goin",
  "1451": " going",
  "1452": " funny",
  "1453": " ey",
  "1454": " nodd",
  "1455": " store",
  "1456": " spi",
  "1457": "ayb",
  "1458": " birds",
  "1459": " nodded",
  "1460": " swin",
  "1461": " swing",
  "1462": " crea",
  "1463": " forg",
  "1464": " squi",
  "1465": "We",
  "1466": " bre",
  "1467": " has",
  "1468": " used",
  "1469": " appl",
  "1470": " Can",
  "1471": " beh",
  "1472": " pul",
  "1473": " thro",
  "1474": " pull",
  "1475": "Look",
  "1476": " ok",
  "1477": " Jo",
  "1478": " others",
  "1479": " dif",
  "1480": " diff",
  "1481": " our",
  "1482": " remem",
  "1483": " rememb",
  "1484": " remembe",
  "1485": " remember",
  "1486": " lookin",
  "1487": " looking",
  "1488": "Hi",
  "1489": " Fl",
  "1490": " sle",
  "1491": " mis",
  "1492": " squir",
  "1493": "der",
  "1494": " kitc",
  "1495": " kitche",
  "1496": " kitchen",
  "1497": " fix",
  "1498": " yar",
  "1499": " Tha",
  "1500": " head",
  "1501": " ac",
  "1502": " vo",
  "1503": " lad",
  "1504": " momm",
  "1505": " sunn",
  "1506": " brea",
  "1507": " sand",
  "1508": " squirr",
  "1509": " squirre",
  "1510": " squirrel",
  "1511": " wav",
  "1512": " sunny",
  "1513": " adv",
  "1514": " touc",
  "1515": " touch",
  "1516": " Flu",
  "1517": " Fluf",
  "1518": " Fluff",
  "1519": "ello",
  "1520": " fire",
  "1521": " Fluffy",
  "1522": "Hello",
  "1523": " Now",
  "1524": " mommy",
  "1525": "Ben",
  "1526": " dres",
  "1527": " dress",
  "1528": " hil",
  "1529": " hill",
  "1530": " impo",
  "1531": " Jack",
  "1532": " chi",
  "1533": " eyes",
  "1534": " soun",
  "1535": " sound",
  "1536": " G",
  "1537": " z",
  "1538": " cold",
  "1539": " ste",
  "1540": " firs",
  "1541": " first",
  "1542": " here",
  "1543": " party",
  "1544": "hn",
  "1545": " apple",
  "1546": " trea",
  "1547": " ice",
  "1548": " sit",
  "1549": " pie",
  "1550": "zy",
  "1551": " curi",
  "1552": " hun",
  "1553": " impor",
  "1554": " import",
  "1555": " importa",
  "1556": " importan",
  "1557": " son",
  "1558": " worke",
  "1559": "At",
  "1560": " rig",
  "1561": " righ",
  "1562": " right",
  "1563": " agr",
  "1564": " agre",
  "1565": " agree",
  "1566": " duc",
  "1567": " duck",
  "1568": " wave",
  "1569": "ev",
  "1570": " fav",
  "1571": " favo",
  "1572": " curiou",
  "1573": " curious",
  "1574": " important",
  "1575": " brig",
  "1576": " brigh",
  "1577": " bright",
  "1578": "jo",
  "1579": "pi",
  "1580": " “",
  "1581": " mora",
  "1582": " moral",
  "1583": "So",
  "1584": " beg",
  "1585": " rep",
  "1586": " okay",
  "1587": " mes",
  "1588": " bla",
  "1589": " draw",
  "1590": " foll",
  "1591": " follo",
  "1592": " follow",
  "1593": " lu",
  "1594": " makin",
  "1595": " making",
  "1596": " dir",
  "1597": " dirt",
  "1598": " ple",
  "1599": " worked",
  "1600": " mess",
  "1601": "Don",
  "1602": " adve",
  "1603": "ome",
  "1604": " adven",
  "1605": " advent",
  "1606": " adventu",
  "1607": " adventur",
  "1608": " clot",
  "1609": " close",
  "1610": " woo",
  "1611": " shared",
  "1612": " plea",
  "1613": " pleas",
  "1614": "gl",
  "1615": " cut",
  "1616": " sna",
  "1617": "Wow",
  "1618": "He",
  "1619": " fil",
  "1620": " swe",
  "1621": " butte",
  "1622": " butter",
  "1623": " tall",
  "1624": " favor",
  "1625": " enj",
  "1626": " enjo",
  "1627": " enjoy",
  "1628": " pain",
  "1629": " slee",
  "1630": " bag",
  "1631": " favori",
  "1632": " favorit",
  "1633": " favorite",
  "1634": " Fin",
  "1635": " wel",
  "1636": "ore",
  "1637": " sleep",
  "1638": " own",
  "1639": " song",
  "1640": " expl",
  "1641": " watche",
  "1642": " bloc",
  "1643": " block",
  "1644": " diffe",
  "1645": " differe",
  "1646": " differen",
  "1647": " bega",
  "1648": " began",
  "1649": " chee",
  "1650": " tell",
  "1651": " tas",
  "1652": " gu",
  "1653": " yard",
  "1654": " dar",
  "1655": " Thi",
  "1656": " nig",
  "1657": " nigh",
  "1658": " night",
  "1659": " This",
  "1660": " gro",
  "1661": " tab",
  "1662": " worry",
  "1663": " rest",
  "1664": " tabl",
  "1665": " table",
  "1666": " watched",
  "1667": " tai",
  "1668": " tail",
  "1669": " Mr",
  "1670": " trai",
  "1671": " hai",
  "1672": " hair",
  "1673": " hung",
  "1674": " nee",
  "1675": " needed",
  "1676": " walki",
  "1677": " walkin",
  "1678": " walking",
  "1679": " voi",
  "1680": " voice",
  "1681": " behi",
  "1682": " behind",
  "1683": " race",
  "1684": "Aft",
  "1685": "After",
  "1686": "Max",
  "1687": " agreed",
  "1688": " different",
  "1689": " feeli",
  "1690": " feelin",
  "1691": " feeling",
  "1692": " yello",
  "1693": " yellow",
  "1694": " cars",
  "1695": " grab",
  "1696": " pin",
  "1697": "tr",
  "1698": " fig",
  "1699": "our",
  "1700": " top",
  "1701": "az",
  "1702": "pa",
  "1703": " gras",
  "1704": " hot",
  "1705": " dark",
  "1706": " grass",
  "1707": " please",
  "1708": "Sam",
  "1709": " Bu",
  "1710": " mar",
  "1711": " leaves",
  "1712": " Dad",
  "1713": " pap",
  "1714": " paper",
  "1715": " lio",
  "1716": " lion",
  "1717": " shout",
  "1718": "’",
  "1719": " closer",
  "1720": " gla",
  "1721": " floo",
  "1722": " fru",
  "1723": "lla",
  "1724": " cried",
  "1725": " colors",
  "1726": "Why",
  "1727": " twi",
  "1728": " As",
  "1729": " wood",
  "1730": " pat",
  "1731": " grow",
  "1732": " tast",
  "1733": " farm",
  "1734": " lady",
  "1735": "udd",
  "1736": " move",
  "1737": " towe",
  "1738": " trees",
  "1739": " swee",
  "1740": "and",
  "1741": " wet",
  "1742": " wishe",
  "1743": " sweet",
  "1744": " hungr",
  "1745": " hungry",
  "1746": " been",
  "1747": " adventure",
  "1748": " alo",
  "1749": " swim",
  "1750": " floor",
  "1751": "hy",
  "1752": " swa",
  "1753": " friendl",
  "1754": " train",
  "1755": " Sud",
  "1756": " Sudd",
  "1757": " Sudde",
  "1758": " Sudden",
  "1759": " Suddenl",
  "1760": " Suddenly",
  "1761": " friendly",
  "1762": "Sue",
  "1763": " alon",
  "1764": " paint",
  "1765": "Ann",
  "1766": " clap",
  "1767": " mat",
  "1768": " carr",
  "1769": " butterf",
  "1770": " butterfl",
  "1771": " ready",
  "1772": " climbed",
  "1773": " doe",
  "1774": " does",
  "1775": "ane",
  "1776": " piec",
  "1777": " reache",
  "1778": " roll",
  "1779": "ger",
  "1780": " piece",
  "1781": " turne",
  "1782": " turned",
  "1783": " listened",
  "1784": " dro",
  "1785": " del",
  "1786": " pushe",
  "1787": "oug",
  "1788": " bat",
  "1789": " repl",
  "1790": " bui",
  "1791": " buil",
  "1792": " onl",
  "1793": " only",
  "1794": "one",
  "1795": " sme",
  "1796": " smel",
  "1797": " wall",
  "1798": "Anna",
  "1799": " runn",
  "1800": " tig",
  "1801": " smell",
  "1802": " Bobo",
  "1803": " hide",
  "1804": " wag",
  "1805": " gen",
  "1806": " prom",
  "1807": " promi",
  "1808": " promis",
  "1809": " That",
  "1810": " rou",
  "1811": "isy",
  "1812": " broken",
  "1813": " ano",
  "1814": " anot",
  "1815": " anothe",
  "1816": " another",
  "1817": " runnin",
  "1818": " running",
  "1819": " figh",
  "1820": " fight",
  "1821": " ful",
  "1822": " prin",
  "1823": " reached",
  "1824": " full",
  "1825": " O",
  "1826": " cool",
  "1827": "vi",
  "1828": " bow",
  "1829": "Sara",
  "1830": "ub",
  "1831": " helpi",
  "1832": " helpin",
  "1833": " helping",
  "1834": " dri",
  "1835": " wished",
  "1836": "She",
  "1837": " blocks",
  "1838": " hopp",
  "1839": "Sudd",
  "1840": "Sudden",
  "1841": "Suddenl",
  "1842": "Suddenly",
  "1843": " cooki",
  "1844": " cookie",
  "1845": " plant",
  "1846": " cream",
  "1847": " gon",
  "1848": " sig",
  "1849": " Da",
  "1850": " Everyo",
  "1851": " Everyon",
  "1852": " Everyone",
  "1853": " butterfly",
  "1854": " name",
  "1855": " pushed",
  "1856": " goodb",
  "1857": " goodby",
  "1858": " goodbye",
  "1859": " pas",
  "1860": " chil",
  "1861": "sp",
  "1862": " scr",
  "1863": " stuc",
  "1864": " stuck",
  "1865": " gone",
  "1866": " wond",
  "1867": "ps",
  "1868": " All",
  "1869": " doin",
  "1870": " doing",
  "1871": " wonde",
  "1872": " wonder",
  "1873": "Mia",
  "1874": " hold",
  "1875": " wear",
  "1876": " din",
  "1877": " lig",
  "1878": " ligh",
  "1879": " light",
  "1880": " les",
  "1881": " less",
  "1882": " sno",
  "1883": "ust",
  "1884": " nu",
  "1885": " stre",
  "1886": " child",
  "1887": " glad",
  "1888": " mome",
  "1889": " momen",
  "1890": " moment",
  "1891": " quick",
  "1892": " noti",
  "1893": " notic",
  "1894": " prete",
  "1895": " pretend",
  "1896": " bab",
  "1897": " perf",
  "1898": " explo",
  "1899": " deli",
  "1900": " fini",
  "1901": " finis",
  "1902": " bigg",
  "1903": " bigge",
  "1904": " snow",
  "1905": " min",
  "1906": " pol",
  "1907": " explore",
  "1908": " ama",
  "1909": " amaz",
  "1910": " mig",
  "1911": " must",
  "1912": " migh",
  "1913": " might",
  "1914": " fai",
  "1915": " dirty",
  "1916": " done",
  "1917": " teac",
  "1918": " teach",
  "1919": " ai",
  "1920": " fla",
  "1921": " tryi",
  "1922": " tryin",
  "1923": " trying",
  "1924": " dance",
  "1925": " stra",
  "1926": " Jan",
  "1927": " slo",
  "1928": " baby",
  "1929": "vy",
  "1930": " comp",
  "1931": " pil",
  "1932": " spa",
  "1933": " wise",
  "1934": "cl",
  "1935": " slow",
  "1936": " sees",
  "1937": " looks",
  "1938": " Ins",
  "1939": " Timm",
  "1940": " Timmy",
  "1941": " fair",
  "1942": "gu",
  "1943": " windo",
  "1944": " window",
  "1945": " rid",
  "1946": " tower",
  "1947": " scary",
  "1948": " Jane",
  "1949": " comin",
  "1950": " coming",
  "1951": " clou",
  "1952": " cloud",
  "1953": " fie",
  "1954": " build",
  "1955": " fal",
  "1956": " fall",
  "1957": " pea",
  "1958": " wro",
  "1959": " cup",
  "1960": " bark",
  "1961": " spl",
  "1962": " shel",
  "1963": "do",
  "1964": " Dais",
  "1965": " Daisy",
  "1966": " lef",
  "1967": " left",
  "1968": " shoute",
  "1969": " shouted",
  "1970": " frui",
  "1971": " fruit",
  "1972": " air",
  "1973": " repli",
  "1974": " throu",
  "1975": " throug",
  "1976": " through",
  "1977": " replied",
  "1978": " sure",
  "1979": " job",
  "1980": " brot",
  "1981": " brothe",
  "1982": " brother",
  "1983": " woods",
  "1984": " remembered",
  "1985": " clapp",
  "1986": " tin",
  "1987": " why",
  "1988": " cro",
  "1989": " pulled",
  "1990": " drea",
  "1991": " land",
  "1992": " dream",
  "1993": " sil",
  "1994": " buy",
  "1995": " cont",
  "1996": " swam",
  "1997": "oom",
  "1998": " ballo",
  "1999": " balloo",
  "2000": " balloon",
  "2001": " join",
  "2002": " tiny",
  "2003": " books",
  "2004": " driv",
  "2005": "Okay",
  "2006": " ant",
  "2007": " bott",
  "2008": " reach",
  "2009": " pen",
  "2010": "ndy",
  "2011": " games",
  "2012": " grabb",
  "2013": " lif",
  "2014": " held",
  "2015": " bran",
  "2016": " branc",
  "2017": " word",
  "2018": "hile",
  "2019": " three",
  "2020": " treat",
  "2021": "no",
  "2022": " mum",
  "2023": "'re",
  "2024": " Ther",
  "2025": " There",
  "2026": " mot",
  "2027": " anyt",
  "2028": " clothe",
  "2029": " clothes",
  "2030": " lesso",
  "2031": " lesson",
  "2032": " cand",
  "2033": " key",
  "2034": " set",
  "2035": " wing",
  "2036": " seen",
  "2037": " Be",
  "2038": " noticed",
  "2039": " quickl",
  "2040": " quickly",
  "2041": " grabbed",
  "2042": " coun",
  "2043": " heav",
  "2044": " staye",
  "2045": " stayed",
  "2046": " count",
  "2047": " worl",
  "2048": " world",
  "2049": " fill",
  "2050": " owl",
  "2051": " tigh",
  "2052": " tight",
  "2053": " Mar",
  "2054": " mout",
  "2055": " mouth",
  "2056": "cu",
  "2057": " miss",
  "2058": " bigger",
  "2059": " cau",
  "2060": " ble",
  "2061": " whis",
  "2062": "Her",
  "2063": " Af",
  "2064": " hopped",
  "2065": " pictures",
  "2066": " nos",
  "2067": " colorf",
  "2068": " colorfu",
  "2069": " colorful",
  "2070": " reali",
  "2071": "lea",
  "2072": " Aft",
  "2073": " After",
  "2074": " je",
  "2075": "Luc",
  "2076": "Lucy",
  "2077": " waved",
  "2078": "Oh",
  "2079": " pur",
  "2080": " spr",
  "2081": " everyw",
  "2082": " everywhe",
  "2083": " everywher",
  "2084": " everywhere",
  "2085": " waite",
  "2086": " spla",
  "2087": " sav",
  "2088": " someti",
  "2089": " sometim",
  "2090": " sometime",
  "2091": " clapped",
  "2092": " heavy",
  "2093": " anyth",
  "2094": " anythi",
  "2095": " anythin",
  "2096": " anything",
  "2097": "Jo",
  "2098": " pink",
  "2099": " rel",
  "2100": " cas",
  "2101": " splas",
  "2102": " sometimes",
  "2103": " spot",
  "2104": "ain",
  "2105": " bik",
  "2106": " alone",
  "2107": " bou",
  "2108": " bike",
  "2109": " Bud",
  "2110": " Budd",
  "2111": " Buddy",
  "2112": " mons",
  "2113": "eb",
  "2114": " glo",
  "2115": " monst",
  "2116": " monster",
  "2117": "Sp",
  "2118": " nes",
  "2119": " nest",
  "2120": " year",
  "2121": "This",
  "2122": " nap",
  "2123": " scre",
  "2124": " Joh",
  "2125": " cheer",
  "2126": " enjoyed",
  "2127": " waited",
  "2128": " fre",
  "2129": " hims",
  "2130": " himse",
  "2131": " himsel",
  "2132": " himself",
  "2133": " ride",
  "2134": "ky",
  "2135": " gent",
  "2136": " followed",
  "2137": " likes",
  "2138": " des",
  "2139": " threw",
  "2140": "edi",
  "2141": " blew",
  "2142": " musi",
  "2143": " music",
  "2144": "Spot",
  "2145": " Momm",
  "2146": " pot",
  "2147": " faste",
  "2148": " lat",
  "2149": " sec",
  "2150": " mil",
  "2151": " shoe",
  "2152": " John",
  "2153": " suc",
  "2154": " turns",
  "2155": " Mommy",
  "2156": " hor",
  "2157": " mix",
  "2158": " makes",
  "2159": " ce",
  "2160": " forgo",
  "2161": " forgot",
  "2162": " gif",
  "2163": " gift",
  "2164": " ski",
  "2165": " Bi",
  "2166": " hon",
  "2167": " round",
  "2168": " beac",
  "2169": " beach",
  "2170": " step",
  "2171": "og",
  "2172": " stran",
  "2173": " strang",
  "2174": " strange",
  "2175": " Re",
  "2176": " danced",
  "2177": " arm",
  "2178": " dee",
  "2179": " deep",
  "2180": "\".",
  "2181": " break",
  "2182": " pare",
  "2183": " paren",
  "2184": " parent",
  "2185": " sid",
  "2186": " side",
  "2187": " cho",
  "2188": " vi",
  "2189": " save",
  "2190": "ate",
  "2191": " Insid",
  "2192": " Inside",
  "2193": " chai",
  "2194": " chair",
  "2195": " fiel",
  "2196": " field",
  "2197": " Em",
  "2198": " bottl",
  "2199": " bottle",
  "2200": " leaf",
  "2201": " well",
  "2202": " whit",
  "2203": " white",
  "2204": "fi",
  "2205": " wants",
  "2206": "In",
  "2207": " What",
  "2208": " dinn",
  "2209": " dinne",
  "2210": " dinner",
  "2211": " quiet",
  "2212": " chas",
  "2213": "Do",
  "2214": " bath",
  "2215": " coa",
  "2216": " tro",
  "2217": " rocks",
  "2218": "From",
  "2219": " grand",
  "2220": " sill",
  "2221": " wron",
  "2222": " wrong",
  "2223": " fur",
  "2224": " taste",
  "2225": " drop",
  "2226": " hone",
  "2227": " contin",
  "2228": " continu",
  "2229": " silly",
  "2230": " May",
  "2231": " blan",
  "2232": " blank",
  "2233": " chan",
  "2234": " flyi",
  "2235": " flyin",
  "2236": " flying",
  "2237": " tod",
  "2238": " realiz",
  "2239": " butto",
  "2240": " button",
  "2241": " em",
  "2242": " hit",
  "2243": " secr",
  "2244": " secre",
  "2245": " secret",
  "2246": " free",
  "2247": " unders",
  "2248": " underst",
  "2249": " blanke",
  "2250": " blanket",
  "2251": " poo",
  "2252": " brou",
  "2253": " broug",
  "2254": " brough",
  "2255": " brought",
  "2256": " shoo",
  "2257": " dang",
  "2258": "John",
  "2259": " el",
  "2260": " danger",
  "2261": " sang",
  "2262": " someo",
  "2263": " someon",
  "2264": " someone",
  "2265": " fea",
  "2266": " riv",
  "2267": " river",
  "2268": " delic",
  "2269": " toda",
  "2270": " today",
  "2271": " blac",
  "2272": " black",
  "2273": " worri",
  "2274": " worrie",
  "2275": " bas",
  "2276": " sis",
  "2277": " vis",
  "2278": " Tomm",
  "2279": " Tommy",
  "2280": " leg",
  "2281": " sist",
  "2282": " siste",
  "2283": " sister",
  "2284": "While",
  "2285": " continued",
  "2286": " smar",
  "2287": " smart",
  "2288": "lv",
  "2289": " cookies",
  "2290": " stri",
  "2291": " talke",
  "2292": " talked",
  "2293": " visit",
  "2294": "His",
  "2295": " arr",
  "2296": " mothe",
  "2297": " mother",
  "2298": " shari",
  "2299": " sharin",
  "2300": " sharing",
  "2301": " Sarah",
  "2302": " lun",
  "2303": " perfe",
  "2304": " perfec",
  "2305": " perfect",
  "2306": " cast",
  "2307": " wagg",
  "2308": "iss",
  "2309": "wi",
  "2310": " carefull",
  "2311": " carefully",
  "2312": " dry",
  "2313": " ston",
  "2314": " stone",
  "2315": "Amy",
  "2316": " reall",
  "2317": " really",
  "2318": " worried",
  "2319": " bor",
  "2320": " bowl",
  "2321": " sail",
  "2322": "era",
  "2323": " drag",
  "2324": " finishe",
  "2325": " mud",
  "2326": " ben",
  "2327": " plane",
  "2328": " else",
  "2329": " wish",
  "2330": " castl",
  "2331": " castle",
  "2332": " ele",
  "2333": " shop",
  "2334": " Bill",
  "2335": " finished",
  "2336": " pud",
  "2337": " pudd",
  "2338": " cow",
  "2339": " promised",
  "2340": " Mayb",
  "2341": " Maybe",
  "2342": " highe",
  "2343": " yes",
  "2344": " sign",
  "2345": " faster",
  "2346": " mine",
  "2347": " bite",
  "2348": " branch",
  "2349": " puddl",
  "2350": " puddle",
  "2351": " push",
  "2352": "oa",
  "2353": " Soon",
  "2354": " ora",
  "2355": " oran",
  "2356": " orang",
  "2357": " orange",
  "2358": " drin",
  "2359": " drink",
  "2360": " everyt",
  "2361": " realized",
  "2362": " At",
  "2363": " fox",
  "2364": " princ",
  "2365": " enou",
  "2366": " enoug",
  "2367": " enough",
  "2368": " everyth",
  "2369": " everythin",
  "2370": " everything",
  "2371": " Lila",
  "2372": " pig",
  "2373": " prince",
  "2374": " gett",
  "2375": " gettin",
  "2376": " getting",
  "2377": " mos",
  "2378": " shap",
  "2379": " shape",
  "2380": " smiles",
  "2381": " Joe",
  "2382": " childre",
  "2383": " children",
  "2384": " purp",
  "2385": " asks",
  "2386": " dangerou",
  "2387": " dangerous",
  "2388": " purpl",
  "2389": " purple",
  "2390": "aybe",
  "2391": "ba",
  "2392": " doc",
  "2393": " ear",
  "2394": " crab",
  "2395": " fit",
  "2396": " parents",
  "2397": " understa",
  "2398": " understand",
  "2399": "Maybe",
  "2400": " doct",
  "2401": " docto",
  "2402": " doctor",
  "2403": " higher",
  "2404": " drago",
  "2405": " dragon",
  "2406": " words",
  "2407": " cryin",
  "2408": " crying",
  "2409": "Just",
  "2410": "ion",
  "2411": " lunc",
  "2412": " pet",
  "2413": " welc",
  "2414": " welco",
  "2415": " welcom",
  "2416": " coin",
  "2417": " chang",
  "2418": " lunch",
  "2419": " paw",
  "2420": " filled",
  "2421": " shini",
  "2422": " wagge",
  "2423": " wagged",
  "2424": " pra",
  "2425": " tie",
  "2426": " welcome",
  "2427": " att",
  "2428": " livin",
  "2429": " living",
  "2430": " lett",
  "2431": " ash",
  "2432": " throw",
  "2433": "ser",
  "2434": " sol",
  "2435": " shee",
  "2436": " shinin",
  "2437": " shining",
  "2438": " smo",
  "2439": " eatin",
  "2440": " eating",
  "2441": " shoes",
  "2442": " sel",
  "2443": " cray",
  "2444": " crayo",
  "2445": " crayon",
  "2446": " rolled",
  "2447": " treas",
  "2448": " treasu",
  "2449": " treasur",
  "2450": " treasure",
  "2451": " pieces",
  "2452": "leas",
  "2453": "lease",
  "2454": " closed",
  "2455": " sch",
  "2456": " scho",
  "2457": " schoo",
  "2458": " school",
  "2459": " belo",
  "2460": " whist",
  "2461": " whistl",
  "2462": " -",
  "2463": "eo",
  "2464": " pup",
  "2465": " beli",
  "2466": " belie",
  "2467": " fan",
  "2468": " wings",
  "2469": "!”",
  "2470": "all",
  "2471": " ve",
  "2472": " believ",
  "2473": " pow",
  "2474": " witho",
  "2475": " withou",
  "2476": " without",
  "2477": ".”",
  "2478": " brin",
  "2479": " bring",
  "2480": " cor",
  "2481": " snac",
  "2482": " snack",
  "2483": "rand",
  "2484": " loc",
  "2485": " brow",
  "2486": " brown",
  "2487": " coat",
  "2488": " soa",
  "2489": " monk",
  "2490": " roa",
  "2491": " barked",
  "2492": " monke",
  "2493": " monkey",
  "2494": "sa",
  "2495": " bur",
  "2496": "lli",
  "2497": " hers",
  "2498": " lock",
  "2499": " jar",
  "2500": " nose",
  "2501": " owner",
  "2502": " road",
  "2503": " Ho",
  "2504": " moved",
  "2505": " rec",
  "2506": " sitt",
  "2507": " sitti",
  "2508": " sittin",
  "2509": " sitting",
  "2510": " fina",
  "2511": " Billy",
  "2512": " final",
  "2513": " peac",
  "2514": "les",
  "2515": " disa",
  "2516": " plat",
  "2517": " thinks",
  "2518": "br",
  "2519": " laughin",
  "2520": " laughing",
  "2521": " plate",
  "2522": " soup",
  "2523": " caug",
  "2524": " caugh",
  "2525": " caught",
  "2526": " lone",
  "2527": " lonel",
  "2528": " cour",
  "2529": " hoped",
  "2530": " years",
  "2531": " candy",
  "2532": " finall",
  "2533": " finally",
  "2534": " pop",
  "2535": " talki",
  "2536": " talkin",
  "2537": " talking",
  "2538": " twin",
  "2539": " lak",
  "2540": " lake",
  "2541": " shak",
  "2542": "Please",
  "2543": " hors",
  "2544": " horse",
  "2545": " rob",
  "2546": "ite",
  "2547": " lonely",
  "2548": " runs",
  "2549": "Bob",
  "2550": "ood",
  "2551": " fairy",
  "2552": " past",
  "2553": " wei",
  "2554": " wri",
  "2555": " poin",
  "2556": " point",
  "2557": " Z",
  "2558": "imi",
  "2559": " sam",
  "2560": " squa",
  "2561": " stea",
  "2562": " tom",
  "2563": "ru",
  "2564": " Jen",
  "2565": " apples",
  "2566": "ox",
  "2567": " same",
  "2568": "Momm",
  "2569": " Bl",
  "2570": " Som",
  "2571": " creat",
  "2572": " dea",
  "2573": " youn",
  "2574": " young",
  "2575": " Some",
  "2576": " amazi",
  "2577": " amazin",
  "2578": " amazing",
  "2579": " rainb",
  "2580": " rainbo",
  "2581": " rainbow",
  "2582": " snak",
  "2583": " elep",
  "2584": " eleph",
  "2585": " elepha",
  "2586": " elephan",
  "2587": " elephant",
  "2588": " snake",
  "2589": " hidi",
  "2590": " hidin",
  "2591": " hiding",
  "2592": " live",
  "2593": " trip",
  "2594": " heal",
  "2595": " las",
  "2596": " pan",
  "2597": " benc",
  "2598": "est",
  "2599": " days",
  "2600": " ted",
  "2601": " tedd",
  "2602": " teddy",
  "2603": " bush",
  "2604": " gentle",
  "2605": " gat",
  "2606": " morn",
  "2607": " mornin",
  "2608": " morning",
  "2609": " lift",
  "2610": " cel",
  "2611": " trou",
  "2612": " troub",
  "2613": " troubl",
  "2614": " trouble",
  "2615": " whistle",
  "2616": " cloth",
  "2617": " robot",
  "2618": " Fred",
  "2619": " herse",
  "2620": " hersel",
  "2621": " herself",
  "2622": " inc",
  "2623": " spin",
  "2624": " Gra",
  "2625": " seem",
  "2626": " vill",
  "2627": " villa",
  "2628": "Mommy",
  "2629": " grandm",
  "2630": " kis",
  "2631": " kiss",
  "2632": "ater",
  "2633": " bench",
  "2634": " sear",
  "2635": " searc",
  "2636": " delici",
  "2637": " deliciou",
  "2638": " delicious",
  "2639": " pass",
  "2640": " ph",
  "2641": " pho",
  "2642": " king",
  "2643": " mod",
  "2644": " belon",
  "2645": " belong",
  "2646": " villag",
  "2647": "av",
  "2648": " spoo",
  "2649": " believe",
  "2650": " mone",
  "2651": " money",
  "2652": " rub",
  "2653": " tric",
  "2654": "ek",
  "2655": " Emma",
  "2656": " gru",
  "2657": " shr",
  "2658": " spoon",
  "2659": " ci",
  "2660": " mys",
  "2661": " seed",
  "2662": " grew",
  "2663": " screa",
  "2664": " scream",
  "2665": " kick",
  "2666": "OK",
  "2667": " cov",
  "2668": " grum",
  "2669": " nau",
  "2670": " naug",
  "2671": " naugh",
  "2672": " naught",
  "2673": " Whis",
  "2674": " cover",
  "2675": " cute",
  "2676": " naughty",
  "2677": " singi",
  "2678": " singin",
  "2679": " singing",
  "2680": " act",
  "2681": " dolls",
  "2682": " sheep",
  "2683": " whee",
  "2684": " wheel",
  "2685": " writ",
  "2686": "erv",
  "2687": " pers",
  "2688": " trick",
  "2689": " wok",
  "2690": " woke",
  "2691": " bon",
  "2692": " cir",
  "2693": " circ",
  "2694": " grandma",
  "2695": " sud",
  "2696": " sudd",
  "2697": " sudde",
  "2698": " sudden",
  "2699": " ups",
  "2700": " buc",
  "2701": " buck",
  "2702": " grump",
  "2703": " pati",
  "2704": " patie",
  "2705": " patien",
  "2706": " wore",
  "2707": " Mim",
  "2708": " Mimi",
  "2709": " bone",
  "2710": " power",
  "2711": " conf",
  "2712": " letter",
  "2713": " pupp",
  "2714": " cheere",
  "2715": " cheered",
  "2716": " shook",
  "2717": " boun",
  "2718": " bounc",
  "2719": " nec",
  "2720": " grumpy",
  "2721": " mist",
  "2722": " storm",
  "2723": " Blu",
  "2724": " ans",
  "2725": " answ",
  "2726": " answe",
  "2727": " answer",
  "2728": " mai",
  "2729": " mail",
  "2730": " Blue",
  "2731": " heart",
  "2732": " poli",
  "2733": " prob",
  "2734": " sac",
  "2735": " sack",
  "2736": " splash",
  "2737": " arri",
  "2738": " arriv",
  "2739": " cours",
  "2740": " course",
  "2741": " farme",
  "2742": " farmer",
  "2743": " ob",
  "2744": " arrive",
  "2745": " busy",
  "2746": " feels",
  "2747": " kite",
  "2748": " tasty",
  "2749": " carry",
  "2750": " reli",
  "2751": " bask",
  "2752": " baske",
  "2753": " basket",
  "2754": " inst",
  "2755": " milk",
  "2756": " swings",
  "2757": " uni",
  "2758": " Whisk",
  "2759": " Whisker",
  "2760": " Whiskers",
  "2761": " abl",
  "2762": " able",
  "2763": " amaze",
  "2764": " bread",
  "2765": " clu",
  "2766": " dropp",
  "2767": " forev",
  "2768": " foreve",
  "2769": " forever",
  "2770": " gray",
  "2771": " kno",
  "2772": " teache",
  "2773": " org",
  "2774": " orga",
  "2775": " organ",
  "2776": " matc",
  "2777": " probl",
  "2778": " proble",
  "2779": " problem",
  "2780": " puppy",
  "2781": " touche",
  "2782": " wand",
  "2783": " eas",
  "2784": " mac",
  "2785": " Than",
  "2786": " Thank",
  "2787": " chees",
  "2788": " mark",
  "2789": " organi",
  "2790": " organiz",
  "2791": " cheese",
  "2792": " fat",
  "2793": " mach",
  "2794": " machin",
  "2795": " machine",
  "2796": " pai",
  "2797": " fighti",
  "2798": " fightin",
  "2799": " fighting",
  "2800": " lin",
  "2801": " patient",
  "2802": " stan",
  "2803": " stand",
  "2804": " village",
  "2805": "Good",
  "2806": "cky",
  "2807": " bell",
  "2808": " helpf",
  "2809": " helpfu",
  "2810": " helpful",
  "2811": " shy",
  "2812": " shapes",
  "2813": " treats",
  "2814": " Grand",
  "2815": " neck",
  "2816": " twins",
  "2817": "'ll",
  "2818": "rel",
  "2819": "va",
  "2820": " joy",
  "2821": "err",
  "2822": " disap",
  "2823": " disapp",
  "2824": " may",
  "2825": " spar",
  "2826": " card",
  "2827": " dropped",
  "2828": "Fina",
  "2829": "Final",
  "2830": "Finall",
  "2831": "Finally",
  "2832": "ama",
  "2833": " circl",
  "2834": " circle",
  "2835": " eg",
  "2836": " egg",
  "2837": " few",
  "2838": " han",
  "2839": "Jack",
  "2840": " bak",
  "2841": " hang",
  "2842": " pac",
  "2843": " pile",
  "2844": "eri",
  "2845": " Ch",
  "2846": " bugs",
  "2847": " hope",
  "2848": " most",
  "2849": " stree",
  "2850": " street",
  "2851": " towa",
  "2852": " towar",
  "2853": " toward",
  "2854": " rop",
  "2855": " rope",
  "2856": "ipp",
  "2857": " nut",
  "2858": " shad",
  "2859": " songs",
  "2860": " teacher",
  "2861": " seek",
  "2862": " touched",
  "2863": " yours",
  "2864": " magica",
  "2865": " magical",
  "2866": " pres",
  "2867": " wonderf",
  "2868": " wonderfu",
  "2869": " wonderful",
  "2870": "arr",
  "2871": " carro",
  "2872": " carrot",
  "2873": " sounds",
  "2874": " Tin",
  "2875": " dadd",
  "2876": " pack",
  "2877": " print",
  "2878": " shake",
  "2879": " matt",
  "2880": " lic",
  "2881": " spark",
  "2882": " ric",
  "2883": "ery",
  "2884": " ig",
  "2885": " cab",
  "2886": " coll",
  "2887": " fen",
  "2888": " fenc",
  "2889": " fence",
  "2890": " arrived",
  "2891": " daddy",
  "2892": "Later",
  "2893": " band",
  "2894": " noises",
  "2895": " promise",
  "2896": " spen",
  "2897": " amazed",
  "2898": " comf",
  "2899": " dist",
  "2900": " succ",
  "2901": " succe",
  "2902": " towards",
  "2903": " inv",
  "2904": " luc",
  "2905": " luck",
  "2906": " sal",
  "2907": " ug",
  "2908": " ugl",
  "2909": " ugly",
  "2910": " birt",
  "2911": " birth",
  "2912": " birthd",
  "2913": " birthda",
  "2914": " birthday",
  "2915": " jou",
  "2916": " jour",
  "2917": " journ",
  "2918": " late",
  "2919": " seat",
  "2920": " shir",
  "2921": " shirt",
  "2922": "Be",
  "2923": " sco",
  "2924": " tap",
  "2925": " wol",
  "2926": " poc",
  "2927": " pock",
  "2928": " pocke",
  "2929": " pocket",
  "2930": "Sure",
  "2931": " inste",
  "2932": " instea",
  "2933": " instead",
  "2934": " reco",
  "2935": " slowl",
  "2936": " slowly",
  "2937": " stat",
  "2938": "wo",
  "2939": " joke",
  "2940": " stori",
  "2941": " zo",
  "2942": " zoom",
  "2943": " rude",
  "2944": " snowm",
  "2945": " dru",
  "2946": " net",
  "2947": " note",
  "2948": " sup",
  "2949": " Mark",
  "2950": " cav",
  "2951": " ja",
  "2952": " Remy",
  "2953": " cave",
  "2954": " drum",
  "2955": "isa",
  "2956": " Fina",
  "2957": " Final",
  "2958": " Finall",
  "2959": " Finally",
  "2960": " confu",
  "2961": " confus",
  "2962": " disc",
  "2963": " wolf",
  "2964": " craw",
  "2965": " crawl",
  "2966": " huge",
  "2967": " jui",
  "2968": " juice",
  "2969": " kni",
  "2970": " shell",
  "2971": " strin",
  "2972": " string",
  "2973": " Mo",
  "2974": " drov",
  "2975": " drove",
  "2976": " ima",
  "2977": " imag",
  "2978": " myst",
  "2979": " myster",
  "2980": " storie",
  "2981": " stories",
  "2982": " wra",
  "2983": " wrap",
  "2984": " drawin",
  "2985": " drawing",
  "2986": " slip",
  "2987": " wip",
  "2988": " anc",
  "2989": " line",
  "2990": "ith",
  "2991": " cann",
  "2992": " canno",
  "2993": " confused",
  "2994": " hos",
  "2995": " last",
  "2996": " roar",
  "2997": " fold",
  "2998": " holdi",
  "2999": " holdin",
  "3000": " holding",
  "3001": " path",
  "3002": " comfo",
  "3003": " comfor",
  "3004": " comfort",
  "3005": " missed",
  "3006": " num",
  "3007": " numb",
  "3008": " number",
  "3009": " pill",
  "3010": "olly",
  "3011": " taki",
  "3012": " takin",
  "3013": " taking",
  "3014": " zoo",
  "3015": " brid",
  "3016": " sic",
  "3017": " sick",
  "3018": " Cat",
  "3019": " driver",
  "3020": " honey",
  "3021": " sne",
  "3022": " snowma",
  "3023": " snowman",
  "3024": " acc",
  "3025": " balls",
  "3026": " cannot",
  "3027": " chu",
  "3028": " pou",
  "3029": " upset",
  "3030": " forge",
  "3031": " forget",
  "3032": " glow",
  "3033": " princes",
  "3034": " princess",
  "3035": " bridg",
  "3036": " bridge",
  "3037": " clouds",
  "3038": " drew",
  "3039": " kitt",
  "3040": " mee",
  "3041": " meet",
  "3042": " ten",
  "3043": " tid",
  "3044": " i",
  "3045": " bos",
  "3046": " boss",
  "3047": " change",
  "3048": " moo",
  "3049": "alu",
  "3050": " dig",
  "3051": " ov",
  "3052": " wild",
  "3053": " Com",
  "3054": " Ju",
  "3055": " comes",
  "3056": " marc",
  "3057": " pri",
  "3058": " stepp",
  "3059": "uck",
  "3060": " corn",
  "3061": " fra",
  "3062": " hugs",
  "3063": " oven",
  "3064": "ess",
  "3065": " drive",
  "3066": " ord",
  "3067": " puz",
  "3068": " puzz",
  "3069": " puzzl",
  "3070": " val",
  "3071": " Ro",
  "3072": " knock",
  "3073": " wid",
  "3074": " write",
  "3075": " acr",
  "3076": " acro",
  "3077": " ban",
  "3078": " dogs",
  "3079": " sau",
  "3080": " turt",
  "3081": " turtl",
  "3082": " turtle",
  "3083": " valu",
  "3084": " wide",
  "3085": " unc",
  "3086": "ish",
  "3087": " Come",
  "3088": " sug",
  "3089": " Ji",
  "3090": " Jill",
  "3091": " bathr",
  "3092": " bathro",
  "3093": " gol",
  "3094": " grat",
  "3095": "unn",
  "3096": " acros",
  "3097": " across",
  "3098": " invi",
  "3099": " legs",
  "3100": " life",
  "3101": " spic",
  "3102": " wipe",
  "3103": " Jim",
  "3104": " adventures",
  "3105": " hidd",
  "3106": " hidde",
  "3107": " hidden",
  "3108": " sour",
  "3109": " stars",
  "3110": "?”",
  "3111": " seeme",
  "3112": " seemed",
  "3113": "Of",
  "3114": "icy",
  "3115": " Momo",
  "3116": " cart",
  "3117": " grate",
  "3118": " gratef",
  "3119": " gratefu",
  "3120": " wasn",
  "3121": " worm",
  "3122": " Oll",
  "3123": " Olli",
  "3124": " Ollie",
  "3125": " clev",
  "3126": " fixed",
  "3127": " incr",
  "3128": " mic",
  "3129": " sandw",
  "3130": " sandwi",
  "3131": " sandwic",
  "3132": " skip",
  "3133": " Grandm",
  "3134": " messy",
  "3135": " phon",
  "3136": " phone",
  "3137": " shelf",
  "3138": " suddenl",
  "3139": " suddenly",
  "3140": " clever",
  "3141": " fruits",
  "3142": " grateful",
  "3143": " ring",
  "3144": " steppe",
  "3145": " stepped",
  "3146": "Hey",
  "3147": " sharp",
  "3148": "Mum",
  "3149": " Grandma",
  "3150": " shri",
  "3151": " mel",
  "3152": " puzzle",
  "3153": " sleepy",
  "3154": " wash",
  "3155": " ducks",
  "3156": " feat",
  "3157": " twis",
  "3158": " twist",
  "3159": " St",
  "3160": " buildi",
  "3161": " buildin",
  "3162": " building",
  "3163": " dish",
  "3164": " invit",
  "3165": " later",
  "3166": " spicy",
  "3167": " whol",
  "3168": " whole",
  "3169": " ches",
  "3170": " feathe",
  "3171": " feather",
  "3172": " saved",
  "3173": " smoo",
  "3174": " splashe",
  "3175": " crayons",
  "3176": " smoot",
  "3177": " jell",
  "3178": " jelly",
  "3179": " lucky",
  "3180": " self",
  "3181": " smooth",
  "3182": " soc",
  "3183": " Jer",
  "3184": " appe",
  "3185": " jog",
  "3186": " selfi",
  "3187": " stir",
  "3188": "ila",
  "3189": " appea",
  "3190": " selfis",
  "3191": " selfish",
  "3192": "Lila",
  "3193": " appear",
  "3194": " calm",
  "3195": " lande",
  "3196": " landed",
  "3197": " longer",
  "3198": " pour",
  "3199": " prot",
  "3200": " prote",
  "3201": " Lis",
  "3202": " prac",
  "3203": " pract",
  "3204": " practi",
  "3205": " protec",
  "3206": " protect",
  "3207": "here",
  "3208": " moon",
  "3209": " On",
  "3210": " Jerr",
  "3211": " Jerry",
  "3212": " Just",
  "3213": " bucke",
  "3214": " bucket",
  "3215": " ship",
  "3216": " takes",
  "3217": "eep",
  "3218": " es",
  "3219": " hoo",
  "3220": " meas",
  "3221": " measu",
  "3222": " watchi",
  "3223": " watchin",
  "3224": " watching",
  "3225": " av",
  "3226": " fing",
  "3227": " finge",
  "3228": " finger",
  "3229": " healt",
  "3230": " health",
  "3231": " mind",
  "3232": " cros",
  "3233": " cross",
  "3234": " smelly",
  "3235": " spra",
  "3236": " chased",
  "3237": " finish",
  "3238": " polit",
  "3239": " polite",
  "3240": " along",
  "3241": " cone",
  "3242": " easy",
  "3243": " peace",
  "3244": "Soon",
  "3245": " bub",
  "3246": " bubb",
  "3247": " bubbl",
  "3248": " practic",
  "3249": " shor",
  "3250": " such",
  "3251": " Tr",
  "3252": " bossy",
  "3253": " laz",
  "3254": " lazy",
  "3255": " eag",
  "3256": " knee",
  "3257": " law",
  "3258": " mayb",
  "3259": " maybe",
  "3260": " Bell",
  "3261": " clear",
  "3262": " flu",
  "3263": " ladd",
  "3264": " ladder",
  "3265": " mode",
  "3266": " boug",
  "3267": " bough",
  "3268": " bought",
  "3269": " explor",
  "3270": " faces",
  "3271": " Bella",
  "3272": " Dadd",
  "3273": " Daddy",
  "3274": " Pe",
  "3275": "St",
  "3276": " clow",
  "3277": " clown",
  "3278": " fron",
  "3279": " front",
  "3280": " ign",
  "3281": " plants",
  "3282": " pool",
  "3283": " tear",
  "3284": " tub",
  "3285": " ya",
  "3286": " arms",
  "3287": " places",
  "3288": " sticks",
  "3289": " stud",
  "3290": " waiti",
  "3291": " waitin",
  "3292": " waiting",
  "3293": "irp",
  "3294": " Bun",
  "3295": " Bunn",
  "3296": " Bunny",
  "3297": " Lisa",
  "3298": " Why",
  "3299": " beak",
  "3300": " bubble",
  "3301": " cleaned",
  "3302": " forgi",
  "3303": " forgiv",
  "3304": " spray",
  "3305": " closet",
  "3306": " crow",
  "3307": " healthy",
  "3308": " resp",
  "3309": " teas",
  "3310": " Mary",
  "3311": " coz",
  "3312": " cozy",
  "3313": " spoi",
  "3314": " spoil",
  "3315": " va",
  "3316": " wee",
  "3317": "Come",
  "3318": " poor",
  "3319": " tidy",
  "3320": " tun",
  "3321": " My",
  "3322": " comb",
  "3323": " fak",
  "3324": " fake",
  "3325": " solv",
  "3326": "up",
  "3327": " Po",
  "3328": " bald",
  "3329": " bloo",
  "3330": " breat",
  "3331": " bul",
  "3332": " compl",
  "3333": " kitte",
  "3334": " kitten",
  "3335": " micr",
  "3336": " micro",
  "3337": " weak",
  "3338": " adm",
  "3339": " admi",
  "3340": " ber",
  "3341": " berr",
  "3342": " oc",
  "3343": " spea",
  "3344": " tele",
  "3345": " inte",
  "3346": " rod",
  "3347": " scarf",
  "3348": " stret",
  "3349": " stretc",
  "3350": " trus",
  "3351": " trust",
  "3352": " add",
  "3353": " admir",
  "3354": " emb",
  "3355": " foot",
  "3356": " backy",
  "3357": " backya",
  "3358": " backyar",
  "3359": " backyard",
  "3360": " intere",
  "3361": " interes",
  "3362": " interest",
  "3363": " interestin",
  "3364": " interesting",
  "3365": " lay",
  "3366": " ret",
  "3367": " retu",
  "3368": " retur",
  "3369": " return",
  "3370": " rubb",
  "3371": " ser",
  "3372": " gia",
  "3373": " gian",
  "3374": " giant",
  "3375": " match",
  "3376": " pillo",
  "3377": " pillow",
  "3378": " splashed",
  "3379": " Le",
  "3380": " Wit",
  "3381": " nei",
  "3382": " neig",
  "3383": " penc",
  "3384": " penci",
  "3385": " pencil",
  "3386": " roug",
  "3387": " sock",
  "3388": " solve",
  "3389": " sparkl",
  "3390": " wondere",
  "3391": " wondered",
  "3392": " With",
  "3393": " embar",
  "3394": " embarr",
  "3395": " embarra",
  "3396": " embarras",
  "3397": " embarrass",
  "3398": " fear",
  "3399": " mista",
  "3400": " mistak",
  "3401": " mistake",
  "3402": " ner",
  "3403": " nerv",
  "3404": " nervou",
  "3405": " nervous",
  "3406": " rough",
  "3407": " thu",
  "3408": " TV",
  "3409": " Thei",
  "3410": " Their",
  "3411": " forgive",
  "3412": " hones",
  "3413": " honest",
  "3414": " lovel",
  "3415": "eter",
  "3416": " emp",
  "3417": " lem",
  "3418": " lemo",
  "3419": " lemon",
  "3420": " wago",
  "3421": " wagon",
  "3422": " bru",
  "3423": " empt",
  "3424": " empty",
  "3425": " neigh",
  "3426": " pal",
  "3427": " worki",
  "3428": " workin",
  "3429": " working",
  "3430": "My",
  "3431": " Tog",
  "3432": " Toge",
  "3433": " Toget",
  "3434": " Togethe",
  "3435": " Together",
  "3436": " afr",
  "3437": " afra",
  "3438": " afrai",
  "3439": " afraid",
  "3440": " fanc",
  "3441": " lovely",
  "3442": " Don",
  "3443": " bake",
  "3444": " colle",
  "3445": " collec",
  "3446": " collect",
  "3447": " creati",
  "3448": " dino",
  "3449": " dinos",
  "3450": " dinosa",
  "3451": " dinosau",
  "3452": " dinosaur",
  "3453": " fancy",
  "3454": " flag",
  "3455": " jumping",
  "3456": " mir",
  "3457": " mol",
  "3458": " Li",
  "3459": " asha",
  "3460": " asham",
  "3461": " ashame",
  "3462": " ashamed",
  "3463": " ques",
  "3464": " quest",
  "3465": " dia",
  "3466": " disco",
  "3467": " neighb",
  "3468": " noth",
  "3469": " nothin",
  "3470": " nothing",
  "3471": " smelle",
  "3472": " smelled",
  "3473": " supp",
  "3474": " gives",
  "3475": " mole",
  "3476": " questi",
  "3477": " question",
  "3478": " suns",
  "3479": "ins",
  "3480": " discov",
  "3481": " discover",
  "3482": " powerf",
  "3483": " powerfu",
  "3484": " powerful",
  "3485": "una",
  "3486": " Chir",
  "3487": " Chirp",
  "3488": " boar",
  "3489": " brus",
  "3490": " imagin",
  "3491": " movi",
  "3492": " movie",
  "3493": " shark",
  "3494": " goe",
  "3495": " goes",
  "3496": " nearb",
  "3497": " nearby",
  "3498": " slipp",
  "3499": "Tomm",
  "3500": "Tommy",
  "3501": " Rex",
  "3502": " board",
  "3503": " expen",
  "3504": " expla",
  "3505": " expens",
  "3506": " expensi",
  "3507": " expensiv",
  "3508": " expensive",
  "3509": " gathe",
  "3510": " gather",
  "3511": " perso",
  "3512": " person",
  "3513": " spac",
  "3514": " space",
  "3515": " swimm",
  "3516": " Du",
  "3517": " Tiny",
  "3518": " appeare",
  "3519": " appeared",
  "3520": " bean",
  "3521": " eager",
  "3522": " feet",
  "3523": " piz",
  "3524": " pizz",
  "3525": " pizza",
  "3526": " rad",
  "3527": " tee",
  "3528": " barb",
  "3529": " barbe",
  "3530": " cap",
  "3531": " teet",
  "3532": " teeth",
  "3533": " Leo",
  "3534": " dau",
  "3535": " daug",
  "3536": " daugh",
  "3537": " daught",
  "3538": " daughter",
  "3539": " explain",
  "3540": " mirr",
  "3541": " mirro",
  "3542": " mirror",
  "3543": " pointed",
  "3544": " barber",
  "3545": " dista",
  "3546": " distan",
  "3547": " ont",
  "3548": " onto",
  "3549": " pretende",
  "3550": " pretended",
  "3551": " stoo",
  "3552": " toa",
  "3553": " toas",
  "3554": " toast",
  "3555": " cele",
  "3556": " celeb",
  "3557": " celebr",
  "3558": " celebra",
  "3559": " celebrat",
  "3560": " gun",
  "3561": " lar",
  "3562": " larg",
  "3563": " wom",
  "3564": " woma",
  "3565": " woman",
  "3566": " bana",
  "3567": " banana",
  "3568": " fine",
  "3569": " gentl",
  "3570": " gently",
  "3571": " hum",
  "3572": " shine",
  "3573": "Kitty",
  "3574": " frus",
  "3575": " frust",
  "3576": " frustr",
  "3577": " frustra",
  "3578": " frustrat",
  "3579": " log",
  "3580": " puts",
  "3581": " If",
  "3582": " chal",
  "3583": " couc",
  "3584": " couch",
  "3585": " large",
  "3586": " mysteri",
  "3587": " shado",
  "3588": " shadow",
  "3589": " whal",
  "3590": " whale",
  "3591": " frustrated",
  "3592": " smalle",
  "3593": " spid",
  "3594": " spide",
  "3595": " spider",
  "3596": " squar",
  "3597": " square",
  "3598": "eta",
  "3599": " Samm",
  "3600": " Sammy",
  "3601": " beha",
  "3602": " behav",
  "3603": " rac",
  "3604": " tasted",
  "3605": " How",
  "3606": " Somet",
  "3607": " disappe",
  "3608": " disappea",
  "3609": " disappear",
  "3610": " loves",
  "3611": " nosy",
  "3612": " ros",
  "3613": " corner",
  "3614": " lam",
  "3615": " mysteriou",
  "3616": " mysterious",
  "3617": " rich",
  "3618": " sala",
  "3619": " salad",
  "3620": " tes",
  "3621": " test",
  "3622": " weari",
  "3623": " wearin",
  "3624": " N",
  "3625": " Chirpy",
  "3626": " Lun",
  "3627": " balloons",
  "3628": " lick",
  "3629": " lose",
  "3630": " wearing",
  "3631": " Moll",
  "3632": " Molly",
  "3633": " news",
  "3634": " rose",
  "3635": " Wi",
  "3636": " polic",
  "3637": " pum",
  "3638": " pump",
  "3639": " stood",
  "3640": " sunf",
  "3641": " sunfl",
  "3642": " sunflo",
  "3643": " sunflow",
  "3644": " sunflowe",
  "3645": " sunflower",
  "3646": " swimmi",
  "3647": " swimmin",
  "3648": " swimming",
  "3649": "ean",
  "3650": "orm",
  "3651": " Benn",
  "3652": " Benny",
  "3653": " Duck",
  "3654": " anyo",
  "3655": " anyon",
  "3656": " anyone",
  "3657": " bori",
  "3658": " borin",
  "3659": " boring",
  "3660": " glu",
  "3661": " noisy",
  "3662": " police",
  "3663": " search",
  "3664": " Luna",
  "3665": " beco",
  "3666": " becom",
  "3667": " chew",
  "3668": " craz",
  "3669": " event",
  "3670": " gue",
  "3671": " gues",
  "3672": " lead",
  "3673": " veg",
  "3674": " creativ",
  "3675": " slippe",
  "3676": " tomo",
  "3677": " tomor",
  "3678": " tomorr",
  "3679": " tomorro",
  "3680": " tomorrow",
  "3681": " tries",
  "3682": "Stop",
  "3683": "fa",
  "3684": "pper",
  "3685": " icy",
  "3686": " crazy",
  "3687": " esc",
  "3688": " esca",
  "3689": " escap",
  "3690": " furr",
  "3691": " furry",
  "3692": " true",
  "3693": "wel",
  "3694": " impre",
  "3695": " impres",
  "3696": " impress",
  "3697": " succes",
  "3698": " success",
  "3699": " veget",
  "3700": " vegeta",
  "3701": " vegetab",
  "3702": " vegetable",
  "3703": " weig",
  "3704": " yo",
  "3705": " yog",
  "3706": "sc",
  "3707": " Go",
  "3708": " Mam",
  "3709": " lamp",
  "3710": " moun",
  "3711": " mount",
  "3712": " pumpk",
  "3713": " pumpkin",
  "3714": " weir",
  "3715": " weird",
  "3716": " zip",
  "3717": " comforta",
  "3718": " comfortab",
  "3719": " comfortabl",
  "3720": " deer",
  "3721": " hero",
  "3722": " marr",
  "3723": " march",
  "3724": " matter",
  "3725": " mounta",
  "3726": " mountain",
  "3727": " painted",
  "3728": " Tru",
  "3729": " chase",
  "3730": " crown",
  "3731": " gas",
  "3732": " paintin",
  "3733": " painting",
  "3734": " bala",
  "3735": " balan",
  "3736": " balanc",
  "3737": " floa",
  "3738": " float",
  "3739": " incred",
  "3740": " incredi",
  "3741": " incredib",
  "3742": " incredibl",
  "3743": " joll",
  "3744": " jolly",
  "3745": " trac",
  "3746": "ive",
  "3747": " admire",
  "3748": " batt",
  "3749": " bloom",
  "3750": " comfortable",
  "3751": " goat",
  "3752": " gold",
  "3753": " sen",
  "3754": " waves",
  "3755": " zi",
  "3756": " zipp",
  "3757": "And",
  "3758": "ally",
  "3759": " Mama",
  "3760": " ants",
  "3761": " jew",
  "3762": " screame",
  "3763": " screamed",
  "3764": " spri",
  "3765": " sprin",
  "3766": " Ev",
  "3767": " famo",
  "3768": " famou",
  "3769": " famous",
  "3770": " glue",
  "3771": " jewel",
  "3772": " journe",
  "3773": " journey",
  "3774": " nor",
  "3775": " pok",
  "3776": " ref",
  "3777": " respe",
  "3778": " respec",
  "3779": " respect",
  "3780": " snee",
  "3781": " sneez",
  "3782": " tor",
  "3783": "now",
  "3784": " burn",
  "3785": " creative",
  "3786": " diz",
  "3787": " dizz",
  "3788": " dizzy",
  "3789": " meal",
  "3790": " measure",
  "3791": " mighty",
  "3792": " moms",
  "3793": " norm",
  "3794": " norma",
  "3795": " normal",
  "3796": " pay",
  "3797": " sci",
  "3798": " toma",
  "3799": " tomat",
  "3800": " tomato",
  "3801": " U",
  "3802": " exam",
  "3803": " hal",
  "3804": " incredible",
  "3805": " med",
  "3806": " mop",
  "3807": " pee",
  "3808": " sandwich",
  "3809": " tic",
  "3810": " tick",
  "3811": " embarrassed",
  "3812": " mas",
  "3813": " suga",
  "3814": " sugar",
  "3815": " ter",
  "3816": " Mu",
  "3817": " bounce",
  "3818": " cag",
  "3819": " cage",
  "3820": " carri",
  "3821": " cop",
  "3822": " fork",
  "3823": " gig",
  "3824": " jam",
  "3825": " smaller",
  "3826": " terr",
  "3827": " candl",
  "3828": " candle",
  "3829": " frag",
  "3830": " guess",
  "3831": " jac",
  "3832": " jacke",
  "3833": " jacket",
  "3834": " peacef",
  "3835": " peacefu",
  "3836": " peaceful",
  "3837": " tent",
  "3838": "ert",
  "3839": " batte",
  "3840": " batter",
  "3841": " fragi",
  "3842": " fragil",
  "3843": " fragile",
  "3844": " frow",
  "3845": " frown",
  "3846": " gigg",
  "3847": " rare",
  "3848": " scal",
  "3849": " smili",
  "3850": " smilin",
  "3851": " smiling",
  "3852": " sque",
  "3853": " env",
  "3854": " swo",
  "3855": " whisp",
  "3856": " whispe",
  "3857": " whisper",
  "3858": "Sally",
  "3859": "own",
  "3860": " freez",
  "3861": " gener",
  "3862": " thankf",
  "3863": " thankfu",
  "3864": " thankful",
  "3865": " crac",
  "3866": " crack",
  "3867": " dul",
  "3868": " dull",
  "3869": " hairy",
  "3870": " knocked",
  "3871": " paws",
  "3872": " soap",
  "3873": " stuf",
  "3874": " stuff",
  "3875": " terri",
  "3876": "ud",
  "3877": " creatu",
  "3878": " creature",
  "3879": " explorin",
  "3880": " exploring",
  "3881": " organized",
  "3882": " sort",
  "3883": "bu",
  "3884": "hel",
  "3885": " hell",
  "3886": " hello",
  "3887": " knowin",
  "3888": " knowing",
  "3889": " map",
  "3890": " pep",
  "3891": " pepp",
  "3892": " pepper",
  "3893": " rocke",
  "3894": " rocket",
  "3895": " sold",
  "3896": " spent",
  "3897": " tool",
  "3898": " waf",
  "3899": " wouldn",
  "3900": " become",
  "3901": " dancin",
  "3902": " dancing",
  "3903": " generou",
  "3904": " generous",
  "3905": " nat",
  "3906": " spoile",
  "3907": " squas",
  "3908": " track",
  "3909": " waff",
  "3910": " waffl",
  "3911": " waffle",
  "3912": " washe",
  "3913": "kn",
  "3914": "oof",
  "3915": " 3",
  "3916": " True",
  "3917": " au",
  "3918": " carried",
  "3919": " freeze",
  "3920": " scis",
  "3921": " sciss",
  "3922": " scisso",
  "3923": " scissor",
  "3924": " scissors",
  "3925": " spoiled",
  "3926": " Bes",
  "3927": " picn",
  "3928": " picni",
  "3929": " picnic",
  "3930": " relie",
  "3931": " scale",
  "3932": " tape",
  "3933": " Even",
  "3934": " cub",
  "3935": " hurr",
  "3936": " stru",
  "3937": " thes",
  "3938": " these",
  "3939": " unk",
  "3940": " yelled",
  "3941": " Dogg",
  "3942": " Doggy",
  "3943": " berri",
  "3944": " berrie",
  "3945": " berries",
  "3946": " hears",
  "3947": "ueen",
  "3948": " Bess",
  "3949": " Ple",
  "3950": " Plea",
  "3951": " Pleas",
  "3952": " Please",
  "3953": " Someti",
  "3954": " Sometim",
  "3955": " Sometime",
  "3956": " Sometimes",
  "3957": " compa",
  "3958": " fool",
  "3959": " gloom",
  "3960": " prese",
  "3961": " presen",
  "3962": " stones",
  "3963": " study",
  "3964": " towel",
  "3965": " washed",
  "3966": "Hel",
  "3967": "Help",
  "3968": "orr",
  "3969": "ppy",
  "3970": " Bear",
  "3971": " Ell",
  "3972": " breath",
  "3973": " dran",
  "3974": " drank",
  "3975": " endi",
  "3976": " endin",
  "3977": " ending",
  "3978": " flas",
  "3979": " gloomy",
  "3980": " thic",
  "3981": " thick",
  "3982": " weal",
  "3983": " wealt",
  "3984": " wealth",
  "3985": " Bessie",
  "3986": " Emily",
  "3987": " branche",
  "3988": " branches",
  "3989": " cos",
  "3990": " present",
  "3991": " squash",
  "3992": " um",
  "3993": " umb",
  "3994": " umbre",
  "3995": " umbrel",
  "3996": " umbrell",
  "3997": " umbrella",
  "3998": " unkn",
  "3999": " unknow",
  "4000": " vase",
  "4001": "ird",
  "4002": "rin",
  "4003": " Ducky",
  "4004": " loy",
  "4005": " loya",
  "4006": " loyal",
  "4007": " unknown",
  "4008": "oun",
  "4009": " cats",
  "4010": " chalk",
  "4011": " covered",
  "4012": " dug",
  "4013": " group",
  "4014": " smok",
  "4015": " tige",
  "4016": " tiger",
  "4017": " van",
  "4018": " wrot",
  "4019": " wrote",
  "4020": "Where",
  "4021": " Bobb",
  "4022": " Hop",
  "4023": " Will",
  "4024": " brush",
  "4025": " chea",
  "4026": " cloc",
  "4027": " clock",
  "4028": " cost",
  "4029": " dov",
  "4030": " dove",
  "4031": " fooli",
  "4032": " mixed",
  "4033": " sell",
  "4034": "gre",
  "4035": " Mum",
  "4036": " broc",
  "4037": " brocc",
  "4038": " brocco",
  "4039": " broccol",
  "4040": " broccoli",
  "4041": " foolis",
  "4042": " foolish",
  "4043": " harm",
  "4044": " jug",
  "4045": " offi",
  "4046": " offic",
  "4047": " sneeze",
  "4048": " warn",
  "4049": " wealthy",
  "4050": "tea",
  "4051": " Whi",
  "4052": " anyw",
  "4053": " blow",
  "4054": " boys",
  "4055": " decide",
  "4056": " mana",
  "4057": " manag",
  "4058": " rev",
  "4059": " reve",
  "4060": " tau",
  "4061": " vin",
  "4062": " vine",
  "4063": " aski",
  "4064": " askin",
  "4065": " asking",
  "4066": " oper",
  "4067": " opera",
  "4068": " pasta",
  "4069": " stup",
  "4070": " stupi",
  "4071": " stupid",
  "4072": " taug",
  "4073": " taugh",
  "4074": " taught",
  "4075": " understo",
  "4076": " understoo",
  "4077": " understood",
  "4078": " uniq",
  "4079": " uniqu",
  "4080": " whic",
  "4081": " which",
  "4082": "Are",
  "4083": "ora",
  "4084": " No",
  "4085": " Bobby",
  "4086": " asl",
  "4087": " asle",
  "4088": " aslee",
  "4089": " asleep",
  "4090": " cabin",
  "4091": " chest",
  "4092": " deco",
  "4093": " decor",
  "4094": " decora",
  "4095": " decorat",
  "4096": " diffi",
  "4097": " diffic",
  "4098": " difficu",
  "4099": " difficul",
  "4100": " difficult",
  "4101": " hose",
  "4102": " searche",
  "4103": " searched",
  "4104": " terrib",
  "4105": " terribl",
  "4106": " unu",
  "4107": " unique",
  "4108": " unus",
  "4109": " value",
  "4110": " barn",
  "4111": " bli",
  "4112": " boot",
  "4113": " cran",
  "4114": " croc",
  "4115": " disg",
  "4116": " disgu",
  "4117": " rela",
  "4118": " terrible",
  "4119": " unusu",
  "4120": " unusua",
  "4121": " unusual",
  "4122": " caul",
  "4123": " cauli",
  "4124": " caulif",
  "4125": " caulifl",
  "4126": " cauliflo",
  "4127": " cauliflow",
  "4128": " cauliflower",
  "4129": " chic",
  "4130": " chick",
  "4131": " excitin",
  "4132": " exciting",
  "4133": " feed",
  "4134": " oy",
  "4135": " oys",
  "4136": " oyst",
  "4137": " oyster",
  "4138": " relax",
  "4139": " sauc",
  "4140": " sauce",
  "4141": "ream",
  "4142": " '",
  "4143": " Tw",
  "4144": " bod",
  "4145": " fort",
  "4146": " ignor",
  "4147": " rh",
  "4148": " recor",
  "4149": " record",
  "4150": " reliev",
  "4151": " relieved",
  "4152": " smoke",
  "4153": " spre",
  "4154": " sprea",
  "4155": " spread",
  "4156": " steal",
  "4157": "alou",
  "4158": "ang",
  "4159": "queen",
  "4160": " queen",
  "4161": " Jenn",
  "4162": " cric",
  "4163": " crick",
  "4164": " cricke",
  "4165": " cricket",
  "4166": " cube",
  "4167": " desi",
  "4168": " disgus",
  "4169": " disgust",
  "4170": " rat",
  "4171": "Tog",
  "4172": "Toget",
  "4173": "Togethe",
  "4174": "Together",
  "4175": "ree",
  "4176": " ange",
  "4177": " avo",
  "4178": " croco",
  "4179": " crocod",
  "4180": " crocodi",
  "4181": " crocodil",
  "4182": " crocodile",
  "4183": " desig",
  "4184": " design",
  "4185": " flash",
  "4186": " neckl",
  "4187": " neckla",
  "4188": " necklac",
  "4189": " necklace",
  "4190": " scoo",
  "4191": " surf",
  "4192": " tria",
  "4193": " trian",
  "4194": " triang",
  "4195": " triangl",
  "4196": " triangle",
  "4197": " yarn",
  "4198": "cream",
  "4199": " crane",
  "4200": " escape",
  "4201": " joined",
  "4202": " thoughtf",
  "4203": " thoughtfu",
  "4204": " thoughtful",
  "4205": " tube",
  "4206": " wak",
  "4207": " adventuro",
  "4208": " adventurou",
  "4209": " adventurous",
  "4210": " blin",
  "4211": " blink",
  "4212": " frid",
  "4213": " fridg",
  "4214": " fridge",
  "4215": " gate",
  "4216": " jeal",
  "4217": " jealou",
  "4218": " jealous",
  "4219": " priz",
  "4220": " relia",
  "4221": " reliab",
  "4222": " reliabl",
  "4223": " reliable",
  "4224": " sigh",
  "4225": " snacks",
  "4226": "Here",
  "4227": " Inste",
  "4228": " Instea",
  "4229": " Instead",
  "4230": " Pa",
  "4231": " dead",
  "4232": " foun",
  "4233": " fount",
  "4234": " founta",
  "4235": " fountai",
  "4236": " fountain",
  "4237": " knif",
  "4238": " knife",
  "4239": " prize",
  "4240": " swor",
  "4241": " sword",
  "4242": " weigh",
  "4243": " bathroo",
  "4244": " bathroom",
  "4245": " clas",
  "4246": " disgustin",
  "4247": " disgusting",
  "4248": " hats",
  "4249": " loop",
  "4250": " nods",
  "4251": " usef",
  "4252": " usefu",
  "4253": " useful",
  "4254": " yourse",
  "4255": " yoursel",
  "4256": "hea",
  "4257": " ae",
  "4258": " aer",
  "4259": " aero",
  "4260": " aerop",
  "4261": " aeropl",
  "4262": " aeropla",
  "4263": " aeroplan",
  "4264": " aeroplane",
  "4265": " class",
  "4266": " dolp",
  "4267": " dolph",
  "4268": " dolphin",
  "4269": " grac",
  "4270": " picks",
  "4271": " stub",
  "4272": " stubb",
  "4273": " vio",
  "4274": "enn",
  "4275": "iti",
  "4276": "row",
  "4277": " grace",
  "4278": " melt",
  "4279": " stubbo",
  "4280": " stubbor",
  "4281": " stubborn",
  "4282": "are",
  "4283": "orry",
  "4284": " Bir",
  "4285": " Buz",
  "4286": " Buzz",
  "4287": " belt",
  "4288": " blueb",
  "4289": " bluebe",
  "4290": " blueber",
  "4291": " blueberr",
  "4292": " fier",
  "4293": " fierc",
  "4294": " fierce",
  "4295": " findi",
  "4296": " findin",
  "4297": " finding",
  "4298": " statu",
  "4299": " statue",
  "4300": " sui",
  "4301": " suit",
  "4302": " turk",
  "4303": " turke",
  "4304": " turkey",
  "4305": " viol",
  "4306": " violin",
  "4307": "Ins",
  "4308": " base",
  "4309": " boats",
  "4310": " colou",
  "4311": " colour",
  "4312": " eggs",
  "4313": " jet",
  "4314": " liz",
  "4315": " liza",
  "4316": " lizar",
  "4317": " lizard",
  "4318": " loude",
  "4319": " oce",
  "4320": " ocean",
  "4321": " shrim",
  "4322": " shrimp",
  "4323": " thir",
  "4324": " threa",
  "4325": "ght",
  "4326": " anci",
  "4327": " ancie",
  "4328": " ancien",
  "4329": " ancient",
  "4330": " angel",
  "4331": " bic",
  "4332": " bicy",
  "4333": " bicyc",
  "4334": " bicycl",
  "4335": " bicycle",
  "4336": " costu",
  "4337": " costum",
  "4338": " costume",
  "4339": " trap",
  "4340": " tricks",
  "4341": "illy",
  "4342": " aco",
  "4343": " acor",
  "4344": " acorn",
  "4345": " gui",
  "4346": " guil",
  "4347": " guilt",
  "4348": " hay",
  "4349": " houses",
  "4350": " oa",
  "4351": " pit",
  "4352": " swan",
  "4353": " wake",
  "4354": "Dad",
  "4355": "Mar",
  "4356": " Bou",
  "4357": " Boun",
  "4358": " Bounc",
  "4359": " lab",
  "4360": " ordin",
  "4361": " ordina",
  "4362": " ordinar",
  "4363": " ordinary",
  "4364": " peek",
  "4365": " team",
  "4366": " times",
  "4367": "bi",
  "4368": "can",
  "4369": " bitt",
  "4370": " bitte",
  "4371": " char",
  "4372": " cheap",
  "4373": " clum",
  "4374": " clums",
  "4375": " clumsy",
  "4376": " compu",
  "4377": " comput",
  "4378": " computer",
  "4379": " wiped",
  "4380": " While",
  "4381": " body",
  "4382": " changed",
  "4383": " gracef",
  "4384": " gracefu",
  "4385": " hairc",
  "4386": " haircu",
  "4387": " haircut",
  "4388": " hoppi",
  "4389": " hoppin",
  "4390": " hopping",
  "4391": " low",
  "4392": " louder",
  "4393": " mailb",
  "4394": " neighbo",
  "4395": " neighbor",
  "4396": " nuts",
  "4397": " offer",
  "4398": " pir",
  "4399": " pira",
  "4400": " pirat",
  "4401": " pirate",
  "4402": " skipp",
  "4403": " trun",
  "4404": " trunk",
  "4405": " wir",
  "4406": " wire",
  "4407": "Bo",
  "4408": "Thei",
  "4409": "Their",
  "4410": "ano",
  "4411": " Bro",
  "4412": " club",
  "4413": " flam",
  "4414": " guilty",
  "4415": " horn",
  "4416": " mailbo",
  "4417": " mailbox",
  "4418": " shore",
  "4419": " spott",
  "4420": " spotte",
  "4421": " spotted",
  "4422": " stranger",
  "4423": " toug",
  "4424": " tough",
  "4425": "Insid",
  "4426": "Inside",
  "4427": "hr",
  "4428": " Al",
  "4429": " ham",
  "4430": " meta",
  "4431": " metal",
  "4432": " miser",
  "4433": " remi",
  "4434": " remind",
  "4435": " soar",
  "4436": " sung",
  "4437": "Sorry",
  "4438": " alm",
  "4439": " almo",
  "4440": " almos",
  "4441": " almost",
  "4442": " baseb",
  "4443": " baseba",
  "4444": " basebal",
  "4445": " baseball",
  "4446": " compe",
  "4447": " firew",
  "4448": " firewo",
  "4449": " harml",
  "4450": " harmle",
  "4451": " harmles",
  "4452": " harmless",
  "4453": " impressi",
  "4454": " impressiv",
  "4455": " impressive",
  "4456": " misera",
  "4457": " miserab",
  "4458": " miserabl",
  "4459": " miserable",
  "4460": " napk",
  "4461": " napkin",
  "4462": " ott",
  "4463": " otter",
  "4464": " unl",
  "4465": " vol",
  "4466": "Jim",
  "4467": "rou",
  "4468": " bum",
  "4469": " chec",
  "4470": " check",
  "4471": " chicke",
  "4472": " chicken",
  "4473": " compet",
  "4474": " magn",
  "4475": " rug",
  "4476": " spring",
  "4477": " squee",
  "4478": " squeez",
  "4479": " stati",
  "4480": " statio",
  "4481": " station",
  "4482": " sungl",
  "4483": " sungla",
  "4484": " sunglas",
  "4485": " sunglass",
  "4486": " sunglasse",
  "4487": " sunglasses",
  "4488": " vegetables",
  "4489": " volc",
  "4490": " volcan",
  "4491": " volcano",
  "4492": " firewor",
  "4493": " firework",
  "4494": " flashl",
  "4495": " flashli",
  "4496": " flashlig",
  "4497": " flashligh",
  "4498": " flashlight",
  "4499": " mit",
  "4500": " minu",
  "4501": " minut",
  "4502": " minute",
  "4503": " mitt",
  "4504": " movin",
  "4505": " moving",
  "4506": " quit",
  "4507": " shoot",
  "4508": " Jenny",
  "4509": " balance",
  "4510": " brac",
  "4511": " brace",
  "4512": " cheerf",
  "4513": " cheerfu",
  "4514": " cheerful",
  "4515": " explained",
  "4516": " fearf",
  "4517": " fearfu",
  "4518": " fearful",
  "4519": " grap",
  "4520": " grape",
  "4521": " helm",
  "4522": " helme",
  "4523": " helmet",
  "4524": " marke",
  "4525": " market",
  "4526": " para",
  "4527": " suppo",
  "4528": " telep",
  "4529": " teleph",
  "4530": " telepho",
  "4531": " telephon",
  "4532": " telephone",
  "4533": "ik",
  "4534": " Bird",
  "4535": " Zoom",
  "4536": " bracel",
  "4537": " bracele",
  "4538": " bracelet",
  "4539": " bump",
  "4540": " choc",
  "4541": " choco",
  "4542": " chocol",
  "4543": " chocola",
  "4544": " chocolat",
  "4545": " counted",
  "4546": " gh",
  "4547": " gho",
  "4548": " ghos",
  "4549": " ghost",
  "4550": " mitte",
  "4551": " mitten",
  "4552": " poi",
  "4553": " slipped",
  "4554": " standi",
  "4555": " standin",
  "4556": " standing",
  "4557": " tunn",
  "4558": " tunne",
  "4559": " tunnel",
  "4560": " whispere",
  "4561": " whispered",
  "4562": "lder",
  "4563": " boxe",
  "4564": " boxes",
  "4565": " bubbles",
  "4566": " choo",
  "4567": " chocolate",
  "4568": " crie",
  "4569": " cries",
  "4570": " locked",
  "4571": " mask",
  "4572": " needs",
  "4573": " newsp",
  "4574": " newspa",
  "4575": " newspap",
  "4576": " newspaper",
  "4577": " pige",
  "4578": " pigeo",
  "4579": " pigeon",
  "4580": " pray",
  "4581": " siz",
  "4582": " tan",
  "4583": " taken",
  "4584": " unlo",
  "4585": " witc",
  "4586": " yourself",
  "4587": "Every",
  "4588": " Brow",
  "4589": " Brown",
  "4590": " anch",
  "4591": " ancho",
  "4592": " anchor",
  "4593": " arro",
  "4594": " arrow",
  "4595": " atta",
  "4596": " attac",
  "4597": " cabl",
  "4598": " cable",
  "4599": " competit",
  "4600": " competiti",
  "4601": " eld",
  "4602": " kicked",
  "4603": " rav",
  "4604": " raven",
  "4605": " successf",
  "4606": " successfu",
  "4607": " successful",
  "4608": " tells",
  "4609": " thie",
  "4610": "Me",
  "4611": "Ther",
  "4612": "There",
  "4613": " Pi",
  "4614": " cater",
  "4615": " caterp",
  "4616": " caterpi",
  "4617": " caterpil",
  "4618": " caterpill",
  "4619": " caterpilla",
  "4620": " caterpillar",
  "4621": " elder",
  "4622": " hars",
  "4623": " rib",
  "4624": " tem",
  "4625": " temp",
  "4626": " tied",
  "4627": " troubled",
  "4628": "Who",
  "4629": "mou",
  "4630": " borr",
  "4631": " borro",
  "4632": " borrow",
  "4633": " carel",
  "4634": " carele",
  "4635": " careles",
  "4636": " careless",
  "4637": " compas",
  "4638": " compass",
  "4639": " compassi",
  "4640": " compassio",
  "4641": " compassion",
  "4642": " graceful",
  "4643": " harsh",
  "4644": " mosq",
  "4645": " mosqu",
  "4646": " mosquit",
  "4647": " mosquito",
  "4648": " pand",
  "4649": " panda",
  "4650": " parad",
  "4651": " polis",
  "4652": " popu",
  "4653": " popul",
  "4654": " popula",
  "4655": " popular",
  "4656": " ribb",
  "4657": " strip",
  "4658": " thirs",
  "4659": " thirst",
  "4660": " thirsty",
  "4661": " toot",
  "4662": " whea",
  "4663": " wheat",
  "4664": " wheels",
  "4665": " acce",
  "4666": " avoc",
  "4667": " avoca",
  "4668": " avocad",
  "4669": " avocado",
  "4670": " belonged",
  "4671": " enor",
  "4672": " enorm",
  "4673": " enormou",
  "4674": " enormous",
  "4675": " gara",
  "4676": " garag",
  "4677": " garage",
  "4678": " pag",
  "4679": " page",
  "4680": " pos",
  "4681": " press",
  "4682": " ruin",
  "4683": " size",
  "4684": " snap",
  "4685": " talle",
  "4686": " usin",
  "4687": " using",
  "4688": " witch",
  "4689": " accep",
  "4690": " accept",
  "4691": " flame",
  "4692": " glas",
  "4693": " glass",
  "4694": " modes",
  "4695": " modest",
  "4696": " mug",
  "4697": " parade",
  "4698": " rus",
  "4699": " shows",
  "4700": " spee",
  "4701": " stai",
  "4702": " swit",
  "4703": " switc",
  "4704": "any",
  "4705": "for",
  "4706": " ale",
  "4707": " aler",
  "4708": " alert",
  "4709": " bored",
  "4710": " intel",
  "4711": " intell",
  "4712": " intelli",
  "4713": " intellig",
  "4714": " intellige",
  "4715": " intelligen",
  "4716": " men",
  "4717": " pon",
  "4718": " soldi",
  "4719": " soldie",
  "4720": " soldier",
  "4721": " spel",
  "4722": " speed",
  "4723": " spell",
  "4724": " strea",
  "4725": " tooth",
  "4726": " trop",
  "4727": " uncom",
  "4728": " uncomf",
  "4729": " uncomfo",
  "4730": " uncomfor",
  "4731": " uncomfort",
  "4732": " uncomforta",
  "4733": " uncomfortab",
  "4734": " uncomfortabl",
  "4735": " uncomfortable",
  "4736": " elderl",
  "4737": " elderly",
  "4738": " forw",
  "4739": " forwa",
  "4740": " forwar",
  "4741": " forward",
  "4742": " thems",
  "4743": " themse",
  "4744": " themsel",
  "4745": " themselv",
  "4746": " themselve",
  "4747": " themselves",
  "4748": " troph",
  "4749": " trophy",
  "4750": "If",
  "4751": " Man",
  "4752": " Your",
  "4753": " deaf",
  "4754": " dest",
  "4755": " harde",
  "4756": " intelligent",
  "4757": " jee",
  "4758": " jeep",
  "4759": " magne",
  "4760": " magnet",
  "4761": " mead",
  "4762": " meado",
  "4763": " meadow",
  "4764": " muf",
  "4765": " muff",
  "4766": " muffin",
  "4767": " pota",
  "4768": " potat",
  "4769": " potato",
  "4770": " spil",
  "4771": " spill",
  "4772": " stag",
  "4773": " stage",
  "4774": " sticke",
  "4775": " sticker",
  "4776": " stream",
  "4777": " twig",
  "4778": "ret",
  "4779": " anx",
  "4780": " anxi",
  "4781": " atti",
  "4782": " camer",
  "4783": " camera",
  "4784": " file",
  "4785": " guit",
  "4786": " guita",
  "4787": " guitar",
  "4788": " scree",
  "4789": " seri",
  "4790": " serio",
  "4791": " seriou",
  "4792": " serious",
  "4793": " sunsh",
  "4794": " sunshi",
  "4795": " sunshin",
  "4796": " sunshine",
  "4797": " unloc",
  "4798": " unlock",
  "4799": "ext",
  "4800": "vers",
  "4801": " allo",
  "4802": " allow",
  "4803": " anxio",
  "4804": " anxiou",
  "4805": " anxious",
  "4806": " choos",
  "4807": " ent",
  "4808": " frig",
  "4809": " frigh",
  "4810": " fright",
  "4811": " glov",
  "4812": " glove",
  "4813": " hamm",
  "4814": " hamme",
  "4815": " hammer",
  "4816": " lean",
  "4817": " persi",
  "4818": " persis",
  "4819": " persist",
  "4820": " stov",
  "4821": " stove",
  "4822": " thief",
  "4823": "Mama",
  "4824": " charm",
  "4825": " clay",
  "4826": " cob",
  "4827": " goos",
  "4828": " goose",
  "4829": " sett",
  "4830": " shoc",
  "4831": " shock",
  "4832": " tears",
  "4833": "How",
  "4834": " Many",
  "4835": " buttons",
  "4836": " choose",
  "4837": " chub",
  "4838": " chubb",
  "4839": " chubby",
  "4840": " delica",
  "4841": " frighte",
  "4842": " frighten",
  "4843": " hunt",
  "4844": " mixer",
  "4845": " moto",
  "4846": " motor",
  "4847": " nai",
  "4848": " nail",
  "4849": " pean",
  "4850": " peanu",
  "4851": " peanut",
  "4852": " playf",
  "4853": " playfu",
  "4854": " playful",
  "4855": " por",
  "4856": " poured",
  "4857": " scra",
  "4858": " shiv",
  "4859": " shive",
  "4860": " shiver",
  "4861": " wif",
  "4862": " wife",
  "4863": " wrapp",
  "4864": "Jane",
  "4865": "ino",
  "4866": " cobw",
  "4867": " cobwe",
  "4868": " cobweb",
  "4869": " delicat",
  "4870": " delicate",
  "4871": " eventu",
  "4872": " eventua",
  "4873": " eventuall",
  "4874": " eventually",
  "4875": " figu",
  "4876": " figur",
  "4877": " filt",
  "4878": " filth",
  "4879": " patt",
  "4880": " persiste",
  "4881": " persisten",
  "4882": " ribbon",
  "4883": " rubbed",
  "4884": " screen",
  "4885": " sighe",
  "4886": " sighed",
  "4887": " sku",
  "4888": " speak",
  "4889": " spend",
  "4890": " squeeze",
  "4891": " stronge",
  "4892": " trav",
  "4893": " trave",
  "4894": " travel",
  "4895": " uncle",
  "4896": " Ted",
  "4897": " bedr",
  "4898": " bedro",
  "4899": " bedroo",
  "4900": " bedroom",
  "4901": " bitter",
  "4902": " chur",
  "4903": " churc",
  "4904": " church",
  "4905": " filthy",
  "4906": " lib",
  "4907": " libr",
  "4908": " libra",
  "4909": " librar",
  "4910": " medi",
  "4911": " raced",
  "4912": " reg",
  "4913": " stretch",
  "4914": " torn",
  "4915": " answere",
  "4916": " answered",
  "4917": " cleanin",
  "4918": " cleaning",
  "4919": " coco",
  "4920": " compassiona",
  "4921": " compassionat",
  "4922": " compassionate",
  "4923": " harder",
  "4924": " lifted",
  "4925": " rot",
  "4926": " seeds",
  "4927": " skin",
  "4928": " yac",
  "4929": " yach",
  "4930": " yacht",
  "4931": " Ella",
  "4932": " attic",
  "4933": " bin",
  "4934": " frightened",
  "4935": " hange",
  "4936": " hanger",
  "4937": " happin",
  "4938": " happine",
  "4939": " happines",
  "4940": " happiness",
  "4941": " medic",
  "4942": " medici",
  "4943": " medicin",
  "4944": " medicine",
  "4945": " mid",
  "4946": " midd",
  "4947": " middl",
  "4948": " middle",
  "4949": " nov",
  "4950": " nove",
  "4951": " novel",
  "4952": " parr",
  "4953": " parro",
  "4954": " parrot",
  "4955": " perfo",
  "4956": " perfor",
  "4957": " perform",
  "4958": " raf",
  "4959": " raft",
  "4960": " regu",
  "4961": " regul",
  "4962": " regula",
  "4963": " regular",
  "4964": " stac",
  "4965": " stack",
  "4966": " bags",
  "4967": " bril",
  "4968": " brill",
  "4969": " brilli",
  "4970": " brillia",
  "4971": " brillian",
  "4972": " brilliant",
  "4973": " coins",
  "4974": " crawled",
  "4975": " drawings",
  "4976": " er",
  "4977": " era",
  "4978": " eras",
  "4979": " eraser",
  "4980": " homes",
  "4981": " jud",
  "4982": " makeu",
  "4983": " makeup",
  "4984": " math",
  "4985": " microp",
  "4986": " microph",
  "4987": " micropho",
  "4988": " microphon",
  "4989": " microphone",
  "4990": " mill",
  "4991": " mush",
  "4992": " order",
  "4993": " organize",
  "4994": " pear",
  "4995": " persistent",
  "4996": " quar",
  "4997": " quarre",
  "4998": " quarrel",
  "4999": " sink",
  "5000": " Co",
  "5001": " behave",
  "5002": " div",
  "5003": " feathers",
  "5004": " flut",
  "5005": " humb",
  "5006": " humbl",
  "5007": " knigh",
  "5008": " knight",
  "5009": " rode",
  "5010": " shu",
  "5011": " stirr",
  "5012": " Tod",
  "5013": " alr",
  "5014": " competitiv",
  "5015": " competitive",
  "5016": " crys",
  "5017": " cryst",
  "5018": " crysta",
  "5019": " crystal",
  "5020": " dep",
  "5021": " depe",
  "5022": " depend",
  "5023": " excite",
  "5024": " giggl",
  "5025": " hoop",
  "5026": " humble",
  "5027": " loa",
  "5028": " pony",
  "5029": " shells",
  "5030": "Timm",
  "5031": "Timmy",
  "5032": "ithe",
  "5033": " charmin",
  "5034": " charming",
  "5035": " cord",
  "5036": " cupb",
  "5037": " cupbo",
  "5038": " cupboa",
  "5039": " cupboar",
  "5040": " cupboard",
  "5041": " distant",
  "5042": " earl",
  "5043": " firem",
  "5044": " friendsh",
  "5045": " friendshi",
  "5046": " friendship",
  "5047": " gets",
  "5048": " hosp",
  "5049": " hospi",
  "5050": " hospit",
  "5051": " hospita",
  "5052": " hospital",
  "5053": " ind",
  "5054": " inde",
  "5055": " indep",
  "5056": " indepe",
  "5057": " independ",
  "5058": " independe",
  "5059": " independen",
  "5060": " mushr",
  "5061": " mushro",
  "5062": " mushroo",
  "5063": " mushroom",
  "5064": " shut",
  "5065": " stam",
  "5066": " tease",
  "5067": " ticke",
  "5068": " ticket",
  "5069": " week",
  "5070": " Ba",
  "5071": " Jimm",
  "5072": " Jimmy",
  "5073": " Lul",
  "5074": " Lulu",
  "5075": " bull",
  "5076": " bushe",
  "5077": " bushes",
  "5078": " cac",
  "5079": " carrots",
  "5080": " diam",
  "5081": " diamo",
  "5082": " diamond",
  "5083": " givin",
  "5084": " giving",
  "5085": " gri",
  "5086": " helps",
  "5087": " hurts",
  "5088": " itc",
  "5089": " judge",
  "5090": " ones",
  "5091": " sandb",
  "5092": " stronger",
  "5093": " wande",
  "5094": " wander",
  "5095": "Molly",
  "5096": "bra",
  "5097": " eng",
  "5098": " flex",
  "5099": " load",
  "5100": " moder",
  "5101": " modern",
  "5102": " nicel",
  "5103": " nicely",
  "5104": " practiced",
  "5105": " sandbo",
  "5106": " sandbox",
  "5107": " stamp",
  "5108": " templ",
  "5109": " temple",
  "5110": "Bobo",
  "5111": " Fo",
  "5112": " acci",
  "5113": " accid",
  "5114": " accide",
  "5115": " acciden",
  "5116": " accident",
  "5117": " battery",
  "5118": " cact",
  "5119": " celebrate",
  "5120": " cocoa",
  "5121": " figure",
  "5122": " helpl",
  "5123": " helple",
  "5124": " helples",
  "5125": " helpless",
  "5126": " independent",
  "5127": " jung",
  "5128": " jungle",
  "5129": " peb",
  "5130": " pebb",
  "5131": " pebbl",
  "5132": " pebble",
  "5133": " pole",
  "5134": " returned",
  "5135": " skippe",
  "5136": " skipped",
  "5137": " sleepi",
  "5138": " wrappe",
  "5139": " yoga",
  "5140": "arl",
  "5141": "zeb",
  "5142": "zebra",
  "5143": " zebra",
  "5144": " Lo",
  "5145": " Polly",
  "5146": " asht",
  "5147": " ashtr",
  "5148": " ashtra",
  "5149": " ashtray",
  "5150": " callin",
  "5151": " calling",
  "5152": " cus",
  "5153": " disappo",
  "5154": " disappoin",
  "5155": " disappoint",
  "5156": " enc",
  "5157": " engin",
  "5158": " engine",
  "5159": " flexi",
  "5160": " flexib",
  "5161": " flexibl",
  "5162": " flexible",
  "5163": " happeni",
  "5164": " happenin",
  "5165": " happening",
  "5166": " invited",
  "5167": " itch",
  "5168": " lim",
  "5169": " mattre",
  "5170": " mattres",
  "5171": " mattress",
  "5172": " needl",
  "5173": " needle",
  "5174": " office",
  "5175": " polish",
  "5176": " repa",
  "5177": " repai",
  "5178": " thinki",
  "5179": " thinkin",
  "5180": " thinking",
  "5181": " thread",
  "5182": " wrapped",
  "5183": "Sarah",
  "5184": "ati",
  "5185": " arg",
  "5186": " argu",
  "5187": " barr",
  "5188": " barre",
  "5189": " barrel",
  "5190": " built",
  "5191": " cooked",
  "5192": " dependa",
  "5193": " dependab",
  "5194": " dreams",
  "5195": " happie",
  "5196": " inse",
  "5197": " nur",
  "5198": " numbers",
  "5199": " pant",
  "5200": " pun",
  "5201": " repair",
  "5202": " restl",
  "5203": " restle",
  "5204": " restles",
  "5205": " restless",
  "5206": " ruined",
  "5207": " scrat",
  "5208": " scratc",
  "5209": " slep",
  "5210": " sleepin",
  "5211": " sleeping",
  "5212": " slept",
  "5213": " spu",
  "5214": " spun",
  "5215": " switch",
  "5216": "irs",
  "5217": " cher",
  "5218": " compla",
  "5219": " countin",
  "5220": " counting",
  "5221": " delig",
  "5222": " deligh",
  "5223": " delight",
  "5224": " dependabl",
  "5225": " dependable",
  "5226": " firep",
  "5227": " gear",
  "5228": " hiv",
  "5229": " hive",
  "5230": " maga",
  "5231": " magaz",
  "5232": " magazin",
  "5233": " magazine",
  "5234": " nurs",
  "5235": " roo",
  "5236": " roof",
  "5237": " safel",
  "5238": " safely",
  "5239": " shie",
  "5240": " shiel",
  "5241": " shield",
  "5242": "je",
  "5243": " Toda",
  "5244": " Today",
  "5245": " cactu",
  "5246": " cactus",
  "5247": " disappointed",
  "5248": " dus",
  "5249": " dust",
  "5250": " firepl",
  "5251": " firepla",
  "5252": " fireplac",
  "5253": " fireplace",
  "5254": " hed",
  "5255": " hedg",
  "5256": " hedge",
  "5257": " nurse",
  "5258": " pants",
  "5259": " rais",
  "5260": " Spi",
  "5261": " amb",
  "5262": " botto",
  "5263": " bottom",
  "5264": " deliv",
  "5265": " deliver",
  "5266": " encou",
  "5267": " four",
  "5268": " handl",
  "5269": " handle",
  "5270": " journa",
  "5271": " journal",
  "5272": " perfu",
  "5273": " perfum",
  "5274": " perfume",
  "5275": " pru",
  "5276": " prun",
  "5277": " puni",
  "5278": " punis",
  "5279": " vide",
  "5280": " video",
  "5281": "ait",
  "5282": " ambu",
  "5283": " ambul",
  "5284": " ambula",
  "5285": " ambulan",
  "5286": " ambulanc",
  "5287": " ambulance",
  "5288": " bathrob",
  "5289": " bathrobe",
  "5290": " dou",
  "5291": " destr",
  "5292": " fluf",
  "5293": " fluff",
  "5294": " laughs",
  "5295": " obed",
  "5296": " obedi",
  "5297": " obedie",
  "5298": " obedien",
  "5299": " pia",
  "5300": " pian",
  "5301": " prune",
  "5302": " remo",
  "5303": " showi",
  "5304": " showin",
  "5305": " showing",
  "5306": " steak",
  "5307": " tank",
  "5308": " unp",
  "5309": "ann",
  "5310": " Loo",
  "5311": " OK",
  "5312": " bury",
  "5313": " cherr",
  "5314": " destro",
  "5315": " destroy",
  "5316": " obedient",
  "5317": " radi",
  "5318": " Andy",
  "5319": " Pet",
  "5320": " knot",
  "5321": " licked",
  "5322": " mul",
  "5323": " patter",
  "5324": " pattern",
  "5325": " piano",
  "5326": " ris",
  "5327": " rag",
  "5328": " raz",
  "5329": " radio",
  "5330": " razor",
  "5331": " sni",
  "5332": " stair",
  "5333": "edg",
  "5334": " Peter",
  "5335": " alli",
  "5336": " allig",
  "5337": " alliga",
  "5338": " alligat",
  "5339": " alligato",
  "5340": " alligator",
  "5341": " det",
  "5342": " fathe",
  "5343": " father",
  "5344": " ly",
  "5345": " library",
  "5346": " lime",
  "5347": " lug",
  "5348": " lugg",
  "5349": " lugga",
  "5350": " luggag",
  "5351": " luggage",
  "5352": " lyin",
  "5353": " lying",
  "5354": " mule",
  "5355": " succee",
  "5356": " succeed",
  "5357": " unpa",
  "5358": " unpac",
  "5359": " unpack",
  "5360": ",”",
  "5361": " cere",
  "5362": " cerea",
  "5363": " cereal",
  "5364": " desk",
  "5365": " disappeared",
  "5366": " fli",
  "5367": " hour",
  "5368": " impa",
  "5369": " impat",
  "5370": " impati",
  "5371": " impatie",
  "5372": " impatien",
  "5373": " impatient",
  "5374": " insec",
  "5375": " insect",
  "5376": " jellyf",
  "5377": " jellyfis",
  "5378": " jellyfish",
  "5379": " kissed",
  "5380": " lawy",
  "5381": " lawyer",
  "5382": " passed",
  "5383": " saus",
  "5384": " sausa",
  "5385": " sausag",
  "5386": " sausage",
  "5387": " scat",
  "5388": " scatt",
  "5389": " scatte",
  "5390": " scatter",
  "5391": " skul",
  "5392": " skull",
  "5393": " straw",
  "5394": " Pand",
  "5395": " cups",
  "5396": " dishw",
  "5397": " dishwa",
  "5398": " dishwas",
  "5399": " dishwashe",
  "5400": " dishwasher",
  "5401": " doug",
  "5402": " dough",
  "5403": " fluffy",
  "5404": " heli",
  "5405": " helic",
  "5406": " helico",
  "5407": " helicop",
  "5408": " helicopt",
  "5409": " helicopte",
  "5410": " helicopter",
  "5411": " lice",
  "5412": " licen",
  "5413": " licens",
  "5414": " license",
  "5415": " meant",
  "5416": " purs",
  "5417": " repla",
  "5418": " root",
  "5419": " scoot",
  "5420": " towers",
  "5421": " whene",
  "5422": " whenev",
  "5423": " wheneve",
  "5424": " whenever",
  "5425": " yaw",
  "5426": " yawn",
  "5427": "?\".",
  "5428": " Pandy",
  "5429": " bulb",
  "5430": " drawer",
  "5431": " led",
  "5432": " learnin",
  "5433": " learning",
  "5434": " means",
  "5435": " missi",
  "5436": " musici",
  "5437": " musicia",
  "5438": " musician",
  "5439": " ori",
  "5440": " orig",
  "5441": " origin",
  "5442": " origina",
  "5443": " original",
  "5444": " pip",
  "5445": " pipe",
  "5446": " purse",
  "5447": " replac",
  "5448": " resc",
  "5449": " rescu",
  "5450": " shrin",
  "5451": " shrink",
  "5452": " spinn",
  "5453": " spinni",
  "5454": " spinnin",
  "5455": " spinning",
  "5456": " suppor",
  "5457": " support",
  "5458": "org",
  "5459": " attr",
  "5460": " attra",
  "5461": " attrac",
  "5462": " attract",
  "5463": " brothers",
  "5464": " cookin",
  "5465": " cooking",
  "5466": " encour",
  "5467": " encoura",
  "5468": " encourag",
  "5469": " envi",
  "5470": " falls",
  "5471": " gifted",
  "5472": " gira",
  "5473": " giraf",
  "5474": " giraff",
  "5475": " giraffe",
  "5476": " helper",
  "5477": " messa",
  "5478": " messag",
  "5479": " message",
  "5480": " obs",
  "5481": " scoote",
  "5482": " scooter",
  "5483": " taller",
  "5484": " thun",
  "5485": " thund",
  "5486": " thunde",
  "5487": " thunder",
  "5488": " tut",
  "5489": " walks",
  "5490": " Look",
  "5491": " Twe",
  "5492": " Twee",
  "5493": " Tweet",
  "5494": " ado",
  "5495": " apr",
  "5496": " apro",
  "5497": " apron",
  "5498": " bees",
  "5499": " comple",
  "5500": " complet",
  "5501": " enter",
  "5502": " freezer",
  "5503": " gor",
  "5504": " hook",
  "5505": " ink",
  "5506": " marry",
  "5507": " snif",
  "5508": " sniff",
  "5509": " sparkle",
  "5510": " spir",
  "5511": " spiri",
  "5512": " spirit",
  "5513": " sub",
  "5514": " tag",
  "5515": " univer",
  "5516": " univers",
  "5517": " zipper",
  "5518": "Da",
  "5519": " Tu",
  "5520": " dess",
  "5521": " desser",
  "5522": " dessert",
  "5523": " hunte",
  "5524": " hunter",
  "5525": " lights",
  "5526": " melo",
  "5527": " perm",
  "5528": " planet",
  "5529": " popp",
  "5530": " questions",
  "5531": " realis",
  "5532": " rema",
  "5533": " sayi",
  "5534": " sayin",
  "5535": " saying",
  "5536": " swea",
  "5537": " tray",
  "5538": "Re",
  "5539": "oul",
  "5540": " ador",
  "5541": " blinked",
  "5542": " celer",
  "5543": " celery",
  "5544": " curt",
  "5545": " curta",
  "5546": " curtain",
  "5547": " ears",
  "5548": " flute",
  "5549": " gori",
  "5550": " gorill",
  "5551": " gorilla",
  "5552": " meo",
  "5553": " meow",
  "5554": " micros",
  "5555": " microsc",
  "5556": " microsco",
  "5557": " microscop",
  "5558": " sweat",
  "5559": " vet",
  "5560": " whip",
  "5561": " wool",
  "5562": "Go",
  "5563": "See",
  "5564": "aya",
  "5565": " Ne",
  "5566": " adora",
  "5567": " adorab",
  "5568": " adorabl",
  "5569": " attracti",
  "5570": " aun",
  "5571": " aunt",
  "5572": " bigges",
  "5573": " biggest",
  "5574": " blueberri",
  "5575": " blueberrie",
  "5576": " blueberries",
  "5577": " climbin",
  "5578": " climbing",
  "5579": " cush",
  "5580": " cushi",
  "5581": " cushio",
  "5582": " cushion",
  "5583": " matche",
  "5584": " microscope",
  "5585": " Gi",
  "5586": " adorable",
  "5587": " attractiv",
  "5588": " attractive",
  "5589": " gathere",
  "5590": " gathered",
  "5591": " grill",
  "5592": " impr",
  "5593": " impro",
  "5594": " improv",
  "5595": " managed",
  "5596": " model",
  "5597": " packa",
  "5598": " packag",
  "5599": " package",
  "5600": " penn",
  "5601": " strawb",
  "5602": " strawbe",
  "5603": " strawber",
  "5604": " strawberr",
  "5605": " subw",
  "5606": " subwa",
  "5607": " subway",
  "5608": "Wait",
  "5609": "thu",
  "5610": " folde",
  "5611": " folder",
  "5612": " gem",
  "5613": " gum",
  "5614": " herb",
  "5615": " melon",
  "5616": " mumm",
  "5617": " penny",
  "5618": " rhin",
  "5619": " rhino",
  "5620": " rice",
  "5621": " sight",
  "5622": "ople",
  "5623": " Sn",
  "5624": " bil",
  "5625": " bill",
  "5626": " bric",
  "5627": " brick",
  "5628": " eit",
  "5629": " eithe",
  "5630": " either",
  "5631": " enth",
  "5632": " enthu",
  "5633": " enthus",
  "5634": " giggled",
  "5635": " goa",
  "5636": " goal",
  "5637": " ignora",
  "5638": " ignoran",
  "5639": " mummy",
  "5640": " popc",
  "5641": " popco",
  "5642": " popcor",
  "5643": " popcorn",
  "5644": " remain",
  "5645": " remov",
  "5646": " ways",
  "5647": " camp",
  "5648": " carp",
  "5649": " carpe",
  "5650": " carpet",
  "5651": " case",
  "5652": " complain",
  "5653": " enthusi",
  "5654": " enthusia",
  "5655": " enthusias",
  "5656": " excitem",
  "5657": " exciteme",
  "5658": " excitemen",
  "5659": " excitement",
  "5660": " flea",
  "5661": " gasp",
  "5662": " leas",
  "5663": " livel",
  "5664": " loudl",
  "5665": " loudly",
  "5666": " mint",
  "5667": " onc",
  "5668": " once",
  "5669": " peach",
  "5670": " saile",
  "5671": " sailed",
  "5672": " stretche",
  "5673": " walls",
  "5674": "Jimm",
  "5675": "Jimmy",
  "5676": "ten",
  "5677": " Pipp",
  "5678": " Rose",
  "5679": " Sun",
  "5680": " armc",
  "5681": " armch",
  "5682": " armcha",
  "5683": " armchai",
  "5684": " armchair",
  "5685": " circles",
  "5686": " comet",
  "5687": " create",
  "5688": " enviou",
  "5689": " envious",
  "5690": " fue",
  "5691": " fuel",
  "5692": " grown",
  "5693": " hate",
  "5694": " hours",
  "5695": " ignorant",
  "5696": " leo",
  "5697": " leop",
  "5698": " leopa",
  "5699": " leopar",
  "5700": " leopard",
  "5701": " lively",
  "5702": " sailo",
  "5703": " sailor",
  "5704": " screw",
  "5705": " socks",
  "5706": " spear",
  "5707": " ur",
  "5708": " urg",
  "5709": " weep",
  "5710": "Well",
  "5711": "ray",
  "5712": " Dan",
  "5713": " Pete",
  "5714": " Sh",
  "5715": " banda",
  "5716": " barki",
  "5717": " barkin",
  "5718": " barking",
  "5719": " beet",
  "5720": " beetl",
  "5721": " beetle",
  "5722": " film",
  "5723": " holes",
  "5724": " isl",
  "5725": " isla",
  "5726": " island",
  "5727": " kay",
  "5728": " kaya",
  "5729": " kayak",
  "5730": " lend",
  "5731": " oni",
  "5732": " onion",
  "5733": " radis",
  "5734": " realised",
  "5735": " refu",
  "5736": " refus",
  "5737": " repe",
  "5738": " repea",
  "5739": " repeat",
  "5740": " send",
  "5741": " shade",
  "5742": " sla",
  "5743": " smells",
  "5744": " struc",
  "5745": " telli",
  "5746": " tellin",
  "5747": " telling",
  "5748": " thum",
  "5749": " tuto",
  "5750": " tutor",
  "5751": "edge",
  "5752": " Tina",
  "5753": " bandag",
  "5754": " bandage",
  "5755": " carto",
  "5756": " cartoo",
  "5757": " cartoon",
  "5758": " doesn",
  "5759": " forth",
  "5760": " growl",
  "5761": " hut",
  "5762": " jokes",
  "5763": " muse",
  "5764": " museu",
  "5765": " museum",
  "5766": " poe",
  "5767": " poem",
  "5768": " ranc",
  "5769": " ranch",
  "5770": " steam",
  "5771": " sweeti",
  "5772": " sweetie",
  "5773": " tax",
  "5774": " taxi",
  "5775": " tum",
  "5776": " Spik",
  "5777": " Spike",
  "5778": " billb",
  "5779": " billbo",
  "5780": " billboa",
  "5781": " billboar",
  "5782": " billboard",
  "5783": " mem",
  "5784": " meat",
  "5785": " noteb",
  "5786": " notebo",
  "5787": " noteboo",
  "5788": " notebook",
  "5789": " ped",
  "5790": " packed",
  "5791": " peda",
  "5792": " pedal",
  "5793": " pinc",
  "5794": " practice",
  "5795": " sham",
  "5796": " spille",
  "5797": " spilled",
  "5798": " thos",
  "5799": " those",
  "5800": " walle",
  "5801": " wallet",
  "5802": "Em",
  "5803": "ris",
  "5804": " edge",
  "5805": " Bounce",
  "5806": " Give",
  "5807": " Pat",
  "5808": " Peop",
  "5809": " People",
  "5810": " Zoomy",
  "5811": " deter",
  "5812": " fau",
  "5813": " glowin",
  "5814": " glowing",
  "5815": " notice",
  "5816": " obser",
  "5817": " observ",
  "5818": " oft",
  "5819": " often",
  "5820": " phot",
  "5821": " photo",
  "5822": " sep",
  "5823": " sepa",
  "5824": " separ",
  "5825": " separa",
  "5826": " separat",
  "5827": " short",
  "5828": " snea",
  "5829": " sneak",
  "5830": " thumb",
  "5831": "!\".",
  "5832": " Fro",
  "5833": " fastes",
  "5834": " fastest",
  "5835": " hip",
  "5836": " nea",
  "5837": " separate",
  "5838": " sparkly",
  "5839": " stum",
  "5840": "Is",
  "5841": " acti",
  "5842": " bananas",
  "5843": " buckl",
  "5844": " chess",
  "5845": " crib",
  "5846": " determ",
  "5847": " determin",
  "5848": " dive",
  "5849": " eart",
  "5850": " earth",
  "5851": " enthusiast",
  "5852": " enthusiasti",
  "5853": " enthusiastic",
  "5854": " eye",
  "5855": " firema",
  "5856": " fireman",
  "5857": " pala",
  "5858": " palac",
  "5859": " palace",
  "5860": " poke",
  "5861": " prov",
  "5862": " serv",
  "5863": " settl",
  "5864": " shamp",
  "5865": " shampo",
  "5866": " shampoo",
  "5867": " shelt",
  "5868": " shelte",
  "5869": " shelter",
  "5870": " skir",
  "5871": " skirt",
  "5872": " stee",
  "5873": " stretched",
  "5874": " stumb",
  "5875": " stumbl",
  "5876": " trains",
  "5877": " wint",
  "5878": " winte",
  "5879": " winter",
  "5880": "Daisy",
  "5881": "Mr",
  "5882": "Mummy",
  "5883": "ei",
  "5884": "ric",
  "5885": " Dolly",
  "5886": " Everyw",
  "5887": " Everywhe",
  "5888": " Everywher",
  "5889": " Everywhere",
  "5890": " Hopp",
  "5891": " airp",
  "5892": " coal",
  "5893": " early",
  "5894": " hall",
  "5895": " holds",
  "5896": " horses",
  "5897": " mild",
  "5898": " oak",
  "5899": " obj",
  "5900": " obje",
  "5901": " objec",
  "5902": " object",
  "5903": " shocke",
  "5904": " shocked",
  "5905": " spag",
  "5906": " spaghe",
  "5907": " spaghet",
  "5908": " spaghett",
  "5909": " spaghetti",
  "5910": " trad",
  "5911": " Car",
  "5912": " distu",
  "5913": " distur",
  "5914": " disturb",
  "5915": " flap",
  "5916": " flou",
  "5917": " flour",
  "5918": " itse",
  "5919": " itsel",
  "5920": " itself",
  "5921": " kindn",
  "5922": " kindne",
  "5923": " kindnes",
  "5924": " kindness",
  "5925": " knows",
  "5926": " lie",
  "5927": " memo",
  "5928": " memor",
  "5929": " natu",
  "5930": " pani",
  "5931": " panic",
  "5932": " salt",
  "5933": " shoulde",
  "5934": " shoulder",
  "5935": " stirre",
  "5936": " stirred",
  "5937": " swamp",
  "5938": " trem",
  "5939": " tremb",
  "5940": " trembl",
  "5941": " tumm",
  "5942": " yet",
  "5943": "Fin",
  "5944": "Jill",
  "5945": "tha",
  "5946": "xy",
  "5947": " Sus",
  "5948": " admired",
  "5949": " happier",
  "5950": " hipp",
  "5951": " hippo",
  "5952": " jogg",
  "5953": " names",
  "5954": " patc",
  "5955": " rever",
  "5956": " revers",
  "5957": " rule",
  "5958": " seal",
  "5959": " settle",
  "5960": " stare",
  "5961": "iel",
  "5962": " Lee",
  "5963": " Ra",
  "5964": " adde",
  "5965": " added",
  "5966": " cit",
  "5967": " elev",
  "5968": " fishe",
  "5969": " fram",
  "5970": " frowned",
  "5971": " grapes",
  "5972": " intr",
  "5973": " missil",
  "5974": " missile",
  "5975": " stumble",
  "5976": " surr",
  "5977": " trade",
  "5978": " tripp",
  "5979": "ffy",
  "5980": " Ha",
  "5981": " advi",
  "5982": " argue",
  "5983": " bikes",
  "5984": " buckle",
  "5985": " chos",
  "5986": " chose",
  "5987": " decorate",
  "5988": " discovered",
  "5989": " ext",
  "5990": " frame",
  "5991": " minutes",
  "5992": " pilo",
  "5993": " pilot",
  "5994": " rhinoc",
  "5995": " rhinoce",
  "5996": " rhinocer",
  "5997": " rhinocero",
  "5998": " rhinoceros",
  "5999": " silv",
  "6000": " silve",
  "6001": " silver",
  "6002": " trail",
  "6003": "'d",
  "6004": "Give",
  "6005": " advic",
  "6006": " advice",
  "6007": " alre",
  "6008": " alrea",
  "6009": " alread",
  "6010": " already",
  "6011": " colla",
  "6012": " diar",
  "6013": " diary",
  "6014": " drivin",
  "6015": " driving",
  "6016": " eleva",
  "6017": " elevat",
  "6018": " elevato",
  "6019": " elevator",
  "6020": " fingers",
  "6021": " frogs",
  "6022": " gasped",
  "6023": " half",
  "6024": " hurry",
  "6025": " porc",
  "6026": " porch",
  "6027": " rei",
  "6028": " reind",
  "6029": " reinde",
  "6030": " reindee",
  "6031": " reindeer",
  "6032": " trippe",
  "6033": " tripped",
  "6034": " tummy",
  "6035": " unit",
  "6036": " Finn",
  "6037": " Mis",
  "6038": " basketb",
  "6039": " basketba",
  "6040": " basketbal",
  "6041": " basketball",
  "6042": " chim",
  "6043": " city",
  "6044": " dic",
  "6045": " dict",
  "6046": " dicti",
  "6047": " dictio",
  "6048": " diction",
  "6049": " dictiona",
  "6050": " dictionar",
  "6051": " dictionary",
  "6052": " examin",
  "6053": " gain",
  "6054": " growin",
  "6055": " growing",
  "6056": " mystery",
  "6057": " patch",
  "6058": " peng",
  "6059": " pengu",
  "6060": " penguin",
  "6061": " pleased",
  "6062": " post",
  "6063": " shru",
  "6064": " task",
  "6065": " x",
  "6066": " Miss",
  "6067": " ahe",
  "6068": " ahea",
  "6069": " ahead",
  "6070": " attach",
  "6071": " ava",
  "6072": " blou",
  "6073": " blous",
  "6074": " blouse",
  "6075": " bookc",
  "6076": " bookca",
  "6077": " bookcas",
  "6078": " bookcase",
  "6079": " distanc",
  "6080": " distance",
  "6081": " hangi",
  "6082": " hangin",
  "6083": " hanging",
  "6084": " hoc",
  "6085": " hock",
  "6086": " hocke",
  "6087": " hockey",
  "6088": " imagine",
  "6089": " lands",
  "6090": " leak",
  "6091": " neat",
  "6092": " rece",
  "6093": " slides",
  "6094": " soi",
  "6095": " soil",
  "6096": " valua",
  "6097": " valuab",
  "6098": " valuable",
  "6099": " wishes",
  "6100": "Grand",
  "6101": "Ha",
  "6102": " Bee",
  "6103": " Bub",
  "6104": " Red",
  "6105": " allowe",
  "6106": " allowed",
  "6107": " bathe",
  "6108": " belongs",
  "6109": " chimn",
  "6110": " chimne",
  "6111": " chimney",
  "6112": " dela",
  "6113": " delay",
  "6114": " dreamin",
  "6115": " dreaming",
  "6116": " fact",
  "6117": " hurri",
  "6118": " kan",
  "6119": " kang",
  "6120": " kangar",
  "6121": " kangaro",
  "6122": " kangaroo",
  "6123": " marri",
  "6124": " pointin",
  "6125": " pointing",
  "6126": " radish",
  "6127": " reminde",
  "6128": " rip",
  "6129": " rise",
  "6130": " sugg",
  "6131": " sugge",
  "6132": " sugges",
  "6133": " suggest",
  "6134": "Billy",
  "6135": " Are",
  "6136": " Tedd",
  "6137": " Teddy",
  "6138": " ala",
  "6139": " alar",
  "6140": " alarm",
  "6141": " cardb",
  "6142": " cardbo",
  "6143": " cardboa",
  "6144": " cardboar",
  "6145": " cardboard",
  "6146": " cras",
  "6147": " extr",
  "6148": " extra",
  "6149": " fes",
  "6150": " fest",
  "6151": " festi",
  "6152": " festiv",
  "6153": " festiva",
  "6154": " festival",
  "6155": " listenin",
  "6156": " listening",
  "6157": " lol",
  "6158": " loll",
  "6159": " lolli",
  "6160": " lollip",
  "6161": " lollipo",
  "6162": " lollipop",
  "6163": " maz",
  "6164": " maze",
  "6165": " nati",
  "6166": " natio",
  "6167": " nation",
  "6168": " nature",
  "6169": " playg",
  "6170": " playgr",
  "6171": " playgrou",
  "6172": " playground",
  "6173": " proudl",
  "6174": " proudly",
  "6175": " shower",
  "6176": " sir",
  "6177": " soak",
  "6178": " stab",
  "6179": "aid",
  "6180": " Coc",
  "6181": " Coco",
  "6182": " ax",
  "6183": " avai",
  "6184": " avail",
  "6185": " axe",
  "6186": " carryin",
  "6187": " carrying",
  "6188": " collar",
  "6189": " cows",
  "6190": " leash",
  "6191": " marche",
  "6192": " opens",
  "6193": " pale",
  "6194": " sounde",
  "6195": " sounded",
  "6196": " torna",
  "6197": " tornad",
  "6198": " tornado",
  "6199": " trucks",
  "6200": "Ow",
  "6201": " anywa",
  "6202": " anywhe",
  "6203": " anyway",
  "6204": " anywher",
  "6205": " anywhere",
  "6206": " cooler",
  "6207": " disp",
  "6208": " invite",
  "6209": " laser",
  "6210": " monkeys",
  "6211": " musta",
  "6212": " offered",
  "6213": " points",
  "6214": " ridin",
  "6215": " riding",
  "6216": " stabl",
  "6217": " stable",
  "6218": " steps",
  "6219": " telev",
  "6220": " televi",
  "6221": " televis",
  "6222": " televisi",
  "6223": " televisio",
  "6224": " television",
  "6225": " trut",
  "6226": " truth",
  "6227": " weat",
  "6228": " weathe",
  "6229": " weather",
  "6230": " yie",
  "6231": " yiel",
  "6232": " yield",
  "6233": "uch",
  "6234": " Bubb",
  "6235": " Rob",
  "6236": " Zara",
  "6237": " availa",
  "6238": " availab",
  "6239": " availabl",
  "6240": " available",
  "6241": " chain",
  "6242": " chasin",
  "6243": " chasing",
  "6244": " complete",
  "6245": " cree",
  "6246": " determined",
  "6247": " displ",
  "6248": " displa",
  "6249": " display",
  "6250": " ener",
  "6251": " energ",
  "6252": " enjoyin",
  "6253": " enjoying",
  "6254": " fisher",
  "6255": " fog",
  "6256": " mal",
  "6257": " mustac",
  "6258": " mustache",
  "6259": " nav",
  "6260": " navy",
  "6261": " prev",
  "6262": " regre",
  "6263": " regret",
  "6264": " roared",
  "6265": " rollin",
  "6266": " rolling",
  "6267": " sheet",
  "6268": " shrug",
  "6269": " toe",
  "6270": " Lit",
  "6271": " Litt",
  "6272": " Littl",
  "6273": " Little",
  "6274": " Wher",
  "6275": " Where",
  "6276": " fisherm",
  "6277": " grandp",
  "6278": " grandpa",
  "6279": " jumps",
  "6280": " loti",
  "6281": " lotio",
  "6282": " lotion",
  "6283": " miner",
  "6284": " minera",
  "6285": " mineral",
  "6286": " preve",
  "6287": " preven",
  "6288": " prevent",
  "6289": " readin",
  "6290": " reading",
  "6291": " recei",
  "6292": " receiv",
  "6293": " serve",
  "6294": " sweate",
  "6295": " sweater",
  "6296": " tracks",
  "6297": "Bye",
  "6298": "Rea",
  "6299": " Jake",
  "6300": " Ta",
  "6301": " agains",
  "6302": " against",
  "6303": " bounced",
  "6304": " brighte",
  "6305": " conte",
  "6306": " creek",
  "6307": " golf",
  "6308": " marched",
  "6309": " punish",
  "6310": " rescue",
  "6311": " resta",
  "6312": " restau",
  "6313": " restaur",
  "6314": " restaura",
  "6315": " restauran",
  "6316": " restaurant",
  "6317": " sofa",
  "6318": " softl",
  "6319": " softly",
  "6320": " suf",
  "6321": " suff",
  "6322": " suffe",
  "6323": " suffer",
  "6324": " supe",
  "6325": " super",
  "6326": " ton",
  "6327": " ves",
  "6328": " ward",
  "6329": " wardr",
  "6330": " wardro",
  "6331": " wardrob",
  "6332": " wardrobe",
  "6333": " wast",
  "6334": " Fi",
  "6335": " Ru",
  "6336": " airpo",
  "6337": " airpor",
  "6338": " airport",
  "6339": " bent",
  "6340": " drain",
  "6341": " oil",
  "6342": " plates",
  "6343": " replace",
  "6344": " reverse",
  "6345": " sandwiche",
  "6346": " sandwiches",
  "6347": " shaki",
  "6348": " shakin",
  "6349": " shaking",
  "6350": " shouts",
  "6351": " stad",
  "6352": " stadi",
  "6353": " stadiu",
  "6354": " stadium",
  "6355": " stops",
  "6356": " vie",
  "6357": " vest",
  "6358": " view",
  "6359": "room",
  "6360": "than",
  "6361": "thank",
  "6362": " Liz",
  "6363": " Susi",
  "6364": " Susie",
  "6365": " abov",
  "6366": " above",
  "6367": " beep",
  "6368": " cale",
  "6369": " calend",
  "6370": " calenda",
  "6371": " calendar",
  "6372": " cards",
  "6373": " fisherma",
  "6374": " fisherman",
  "6375": " footb",
  "6376": " footba",
  "6377": " footbal",
  "6378": " football",
  "6379": " guar",
  "6380": " guard",
  "6381": " mall",
  "6382": " pair",
  "6383": " peeked",
  "6384": " pressed",
  "6385": " problems",
  "6386": " rake",
  "6387": " shov",
  "6388": " slap",
  "6389": " sunr",
  "6390": " swingi",
  "6391": " swingin",
  "6392": " swinging",
  "6393": " therm",
  "6394": " thermo",
  "6395": " thermom",
  "6396": " thermome",
  "6397": " thermomet",
  "6398": " thermomete",
  "6399": " thermometer",
  "6400": " tools",
  "6401": " wine",
  "6402": "Did",
  "6403": "Ouch",
  "6404": "Will",
  "6405": " Bow",
  "6406": " Pippin",
  "6407": " appr",
  "6408": " hande",
  "6409": " handed",
  "6410": " os",
  "6411": " ost",
  "6412": " ostri",
  "6413": " ostric",
  "6414": " pretendi",
  "6415": " pretendin",
  "6416": " pretending",
  "6417": " ree",
  "6418": " reef",
  "6419": " shove",
  "6420": " sunri",
  "6421": " sunris",
  "6422": "Joe",
  "6423": "llo",
  "6424": " Here",
  "6425": " Hoppy",
  "6426": " Popp",
  "6427": " Poppy",
  "6428": " colourf",
  "6429": " colourfu",
  "6430": " colourful",
  "6431": " cru",
  "6432": " fiv",
  "6433": " laund",
  "6434": " laundr",
  "6435": " laundry",
  "6436": " provi",
  "6437": " provid",
  "6438": " raise",
  "6439": " refr",
  "6440": " refri",
  "6441": " refrig",
  "6442": " refrige",
  "6443": " refriger",
  "6444": " refrigera",
  "6445": " refrigerat",
  "6446": " refrigerato",
  "6447": " refrigerator",
  "6448": " spli",
  "6449": " sunrise",
  "6450": " trum",
  "6451": " trump",
  "6452": " trumpe",
  "6453": " trumpet",
  "6454": "Flu",
  "6455": "Fluff",
  "6456": "unk",
  "6457": " Mike",
  "6458": " apo",
  "6459": " apol",
  "6460": " apolo",
  "6461": " apolog",
  "6462": " bookshe",
  "6463": " bookshel",
  "6464": " bookshelf",
  "6465": " brightl",
  "6466": " brightly",
  "6467": " butterfli",
  "6468": " butterflie",
  "6469": " butterflies",
  "6470": " cared",
  "6471": " cud",
  "6472": " cudd",
  "6473": " cuddl",
  "6474": " disag",
  "6475": " disagre",
  "6476": " expe",
  "6477": " expec",
  "6478": " expect",
  "6479": " five",
  "6480": " inf",
  "6481": " kinds",
  "6482": " putt",
  "6483": " rubber",
  "6484": " shovel",
  "6485": " struct",
  "6486": " structu",
  "6487": " structur",
  "6488": " structure",
  "6489": " waste",
  "6490": " winn",
  "6491": "Fluffy",
  "6492": "nder",
  "6493": "ort",
  "6494": " Bet",
  "6495": " Ge",
  "6496": " beef",
  "6497": " dear",
  "6498": " igno",
  "6499": " ignore",
  "6500": " incre",
  "6501": " increa",
  "6502": " increas",
  "6503": " motorc",
  "6504": " motorcy",
  "6505": " motorcyc",
  "6506": " motorcycl",
  "6507": " motorcycle",
  "6508": " pastr",
  "6509": " puttin",
  "6510": " putting",
  "6511": " split",
  "6512": " starts",
  "6513": " stumbled",
  "6514": " tras",
  "6515": " trash",
  "6516": " tug",
  "6517": " yogu",
  "6518": " yogur",
  "6519": " yogurt",
  "6520": "cle",
  "6521": "ittl",
  "6522": "ittle",
  "6523": "live",
  "6524": " Kat",
  "6525": " Sno",
  "6526": " Spe",
  "6527": " beans",
  "6528": " blackb",
  "6529": " breakf",
  "6530": " breakfa",
  "6531": " breakfas",
  "6532": " breakfast",
  "6533": " clif",
  "6534": " cliff",
  "6535": " forga",
  "6536": " forgav",
  "6537": " forgave",
  "6538": " juic",
  "6539": " leavin",
  "6540": " leaving",
  "6541": " matches",
  "6542": " powd",
  "6543": " powder",
  "6544": " revea",
  "6545": " reveal",
  "6546": " rules",
  "6547": " rushe",
  "6548": " sandc",
  "6549": " sandca",
  "6550": " sandcas",
  "6551": " sandcast",
  "6552": " sandcastl",
  "6553": " sandcastle",
  "6554": " ske",
  "6555": " squirrels",
  "6556": " stickers",
  "6557": " suppl",
  "6558": " tightl",
  "6559": " tightly",
  "6560": "Little",
  "6561": " Kim",
  "6562": " Oli",
  "6563": " Se",
  "6564": " blackbo",
  "6565": " blackboa",
  "6566": " blackboar",
  "6567": " blackboard",
  "6568": " cof",
  "6569": " coff",
  "6570": " coffe",
  "6571": " coffee",
  "6572": " discu",
  "6573": " discus",
  "6574": " discuss",
  "6575": " falli",
  "6576": " fallin",
  "6577": " falling",
  "6578": " gy",
  "6579": " gaz",
  "6580": " gym",
  "6581": " improve",
  "6582": " lions",
  "6583": " oct",
  "6584": " octo",
  "6585": " octop",
  "6586": " octopu",
  "6587": " octopus",
  "6588": " passp",
  "6589": " passpo",
  "6590": " passpor",
  "6591": " passport",
  "6592": " player",
  "6593": " remove",
  "6594": " sent",
  "6595": " strawberry",
  "6596": " teasp",
  "6597": " teaspo",
  "6598": " teaspoo",
  "6599": " teaspoon",
  "6600": "Budd",
  "6601": "Buddy",
  "6602": " Snow",
  "6603": " Sunn",
  "6604": " Sunny",
  "6605": " brighter",
  "6606": " choi",
  "6607": " choic",
  "6608": " choice",
  "6609": " drops",
  "6610": " facto",
  "6611": " factor",
  "6612": " factory",
  "6613": " fauc",
  "6614": " fauce",
  "6615": " faucet",
  "6616": " happens",
  "6617": " igl",
  "6618": " igloo",
  "6619": " leaned",
  "6620": " letters",
  "6621": " mec",
  "6622": " mech",
  "6623": " mecha",
  "6624": " mechan",
  "6625": " mechani",
  "6626": " mechanic",
  "6627": " mistakes",
  "6628": " pau",
  "6629": " paus",
  "6630": " popped",
  "6631": " recog",
  "6632": " recogn",
  "6633": " recogni",
  "6634": " recogniz",
  "6635": " rushed",
  "6636": " spok",
  "6637": " spoke",
  "6638": " staf",
  "6639": " staff",
  "6640": " ali",
  "6641": " batht",
  "6642": " bathtu",
  "6643": " bathtub",
  "6644": " cham",
  "6645": " cherri",
  "6646": " cherrie",
  "6647": " cherries",
  "6648": " exer",
  "6649": " exerc",
  "6650": " exerci",
  "6651": " exercis",
  "6652": " intro",
  "6653": " introd",
  "6654": " introdu",
  "6655": " introduc",
  "6656": " jun",
  "6657": " junk",
  "6658": " lives",
  "6659": " marb",
  "6660": " marbl",
  "6661": " marble",
  "6662": " puddles",
  "6663": " rew",
  "6664": " refused",
  "6665": " rewa",
  "6666": " rewar",
  "6667": " reward",
  "6668": " scor",
  "6669": " skel",
  "6670": " skele",
  "6671": " skelet",
  "6672": " skeleto",
  "6673": " skeleton",
  "6674": " stairs",
  "6675": " stared",
  "6676": " swu",
  "6677": " warne",
  "6678": " warned",
  "6679": " zipped",
  "6680": " ir",
  "6681": " Fox",
  "6682": " Fredd",
  "6683": " Frog",
  "6684": " Jaz",
  "6685": " Jazz",
  "6686": " Next",
  "6687": " Speed",
  "6688": " birdc",
  "6689": " birdca",
  "6690": " birdcag",
  "6691": " birdcage",
  "6692": " finds",
  "6693": " harb",
  "6694": " harbo",
  "6695": " ostrich",
  "6696": " pickin",
  "6697": " picking",
  "6698": " resi",
  "6699": " resis",
  "6700": " resist",
  "6701": " shon",
  "6702": " shone",
  "6703": " stom",
  "6704": " sunse",
  "6705": " sunset",
  "6706": " swun",
  "6707": " swung",
  "6708": "igz",
  "6709": " Or",
  "6710": " Tob",
  "6711": " Toby",
  "6712": " apologi",
  "6713": " breaks",
  "6714": " dem",
  "6715": " fixi",
  "6716": " fixin",
  "6717": " fixing",
  "6718": " harbor",
  "6719": " juicy",
  "6720": " lettin",
  "6721": " letting",
  "6722": " neighbou",
  "6723": " neighbour",
  "6724": " paste",
  "6725": " pushin",
  "6726": " pushing",
  "6727": " score",
  "6728": " toi",
  "6729": " toil",
  "6730": " toile",
  "6731": " toilet",
  "6732": " veter",
  "6733": " veterin",
  "6734": " veterina",
  "6735": " veterinar",
  "6736": " veterinari",
  "6737": " veterinaria",
  "6738": " veterinarian",
  "6739": "Mark",
  "6740": " Big",
  "6741": " Bubble",
  "6742": " Geor",
  "6743": " Georg",
  "6744": " Mrs",
  "6745": " chamb",
  "6746": " chamber",
  "6747": " enve",
  "6748": " envel",
  "6749": " envelo",
  "6750": " envelop",
  "6751": " envelope",
  "6752": " image",
  "6753": " imagined",
  "6754": " iron",
  "6755": " poked",
  "6756": " windows",
  "6757": " zoomed",
  "6758": " accidenta",
  "6759": " accidental",
  "6760": " accidentall",
  "6761": " accidentally",
  "6762": " cane",
  "6763": " dai",
  "6764": " dema",
  "6765": " demand",
  "6766": " dreamed",
  "6767": " energy",
  "6768": " exercise",
  "6769": " foug",
  "6770": " fough",
  "6771": " fought",
  "6772": " infa",
  "6773": " infan",
  "6774": " infant",
  "6775": " pages",
  "6776": " rele",
  "6777": " relea",
  "6778": " releas",
  "6779": " shakes",
  "6780": " sniffe",
  "6781": " sniffed",
  "6782": " strug",
  "6783": " strugg",
  "6784": " struggl",
  "6785": "Grandm",
  "6786": "yl",
  "6787": " Ste",
  "6788": " aut",
  "6789": " buri",
  "6790": " carin",
  "6791": " caring",
  "6792": " feelings",
  "6793": " fres",
  "6794": " hills",
  "6795": " hote",
  "6796": " hotel",
  "6797": " observe",
  "6798": " orn",
  "6799": " orna",
  "6800": " ornam",
  "6801": " orname",
  "6802": " ornamen",
  "6803": " ornament",
  "6804": " reminded",
  "6805": " scol",
  "6806": " scold",
  "6807": " tip",
  "6808": " tour",
  "6809": "Grandma",
  "6810": "Your",
  "6811": "ark",
  "6812": "enny",
  "6813": "old",
  "6814": " Bubbles",
  "6815": " Speedy",
  "6816": " Wou",
  "6817": " Woul",
  "6818": " Would",
  "6819": " appla",
  "6820": " applau",
  "6821": " dais",
  "6822": " dishe",
  "6823": " dishes",
  "6824": " fresh",
  "6825": " grabs",
  "6826": " missin",
  "6827": " missing",
  "6828": " pastel",
  "6829": " plas",
  "6830": " plast",
  "6831": " plasti",
  "6832": " plastic",
  "6833": " scratch",
  "6834": " truste",
  "6835": " trusted",
  "6836": "ays",
  "6837": "ist",
  "6838": " George",
  "6839": " Lola",
  "6840": " auto",
  "6841": " autom",
  "6842": " automo",
  "6843": " automob",
  "6844": " automobi",
  "6845": " automobil",
  "6846": " automobile",
  "6847": " buried",
  "6848": " cabine",
  "6849": " cabinet",
  "6850": " delighted",
  "6851": " doors",
  "6852": " evenin",
  "6853": " evening",
  "6854": " excitedl",
  "6855": " excitedly",
  "6856": " hopi",
  "6857": " hopin",
  "6858": " hoping",
  "6859": " meowed",
  "6860": " ours",
  "6861": " painte",
  "6862": " painter",
  "6863": " qua",
  "6864": " rai",
  "6865": " snapp",
  "6866": " splashi",
  "6867": " splashin",
  "6868": " splashing",
  "6869": " spor",
  "6870": " sport",
  "6871": " thanks",
  "6872": " tuna",
  "6873": " unite",
  "6874": " vanis",
  "6875": " whistled",
  "6876": " wig",
  "6877": "Emma",
  "6878": "elc",
  "6879": " Ali",
  "6880": " Alice",
  "6881": " Olive",
  "6882": " chairs",
  "6883": " dancer",
  "6884": " insis",
  "6885": " insist",
  "6886": " lid",
  "6887": " quack",
  "6888": " resto",
  "6889": " restore",
  "6890": " suggeste",
  "6891": " suggested",
  "6892": " throwi",
  "6893": " throwin",
  "6894": " throwing",
  "6895": " tremble",
  "6896": " twir",
  "6897": " twirl",
  "6898": " wre",
  "6899": " Buzzy",
  "6900": " Sk",
  "6901": " Unde",
  "6902": " Under",
  "6903": " acorns",
  "6904": " boots",
  "6905": " castles",
  "6906": " conten",
  "6907": " content",
  "6908": " dare",
  "6909": " jewelr",
  "6910": " jewelry",
  "6911": " lightn",
  "6912": " lightnin",
  "6913": " lightning",
  "6914": " menu",
  "6915": " older",
  "6916": " operat",
  "6917": " operati",
  "6918": " operatio",
  "6919": " operation",
  "6920": " parts",
  "6921": " pies",
  "6922": " pulls",
  "6923": " rained",
  "6924": " recom",
  "6925": " recomm",
  "6926": " recomme",
  "6927": " recommend",
  "6928": " sum",
  "6929": " summ",
  "6930": " Elly",
  "6931": " Zip",
  "6932": " applaud",
  "6933": " bumped",
  "6934": " eate",
  "6935": " eaten",
  "6936": " examine",
  "6937": " jail",
  "6938": " keepin",
  "6939": " keeping",
  "6940": " lip",
  "6941": " netw",
  "6942": " netwo",
  "6943": " networ",
  "6944": " network",
  "6945": " quiz",
  "6946": " rush",
  "6947": " sneezed",
  "6948": " superhe",
  "6949": " superher",
  "6950": " superhero",
  "6951": " surre",
  "6952": " surren",
  "6953": " surrend",
  "6954": " surrende",
  "6955": " surrender",
  "6956": " unh",
  "6957": " writi",
  "6958": " writin",
  "6959": " writing",
  "6960": "Next",
  "6961": "Yay",
  "6962": "Yum",
  "6963": "acat",
  "6964": "igi",
  "6965": " Jes",
  "6966": " Lill",
  "6967": " Lilly",
  "6968": " given",
  "6969": " measur",
  "6970": " ment",
  "6971": " menti",
  "6972": " mentio",
  "6973": " mention",
  "6974": " pinch",
  "6975": " sadl",
  "6976": " sadly",
  "6977": " savi",
  "6978": " savin",
  "6979": " saving",
  "6980": " shopk",
  "6981": " shopke",
  "6982": " shopkee",
  "6983": " shopkeep",
  "6984": " shopkeepe",
  "6985": " shopkeeper",
  "6986": " snu",
  "6987": " universe",
  "6988": " vac",
  "6989": " vend",
  "6990": " vendo",
  "6991": " vendor",
  "6992": " wigg",
  "6993": " wiggl",
  "6994": "Ali",
  "6995": "Alice",
  "6996": "att",
  "6997": "erd",
  "6998": "ero",
  "6999": " Bett",
  "7000": " Betty",
  "7001": " End",
  "7002": " chore",
  "7003": " clappin",
  "7004": " clapping",
  "7005": " coats",
  "7006": " digg",
  "7007": " diggin",
  "7008": " digging",
  "7009": " ende",
  "7010": " ended",
  "7011": " favou",
  "7012": " favour",
  "7013": " huma",
  "7014": " human",
  "7015": " increase",
  "7016": " kneel",
  "7017": " myse",
  "7018": " mysel",
  "7019": " myself",
  "7020": " oat",
  "7021": " peta",
  "7022": " petal",
  "7023": " pine",
  "7024": " squeezed",
  "7025": " stit",
  "7026": " sticky",
  "7027": " stitc",
  "7028": " summe",
  "7029": " summer",
  "7030": " vacat",
  "7031": " vacati",
  "7032": " vacation",
  "7033": "atc",
  "7034": " Carl",
  "7035": " Tue",
  "7036": " Tues",
  "7037": " Tuesd",
  "7038": " Tuesda",
  "7039": " Tuesday",
  "7040": " apologiz",
  "7041": " apologize",
  "7042": " barks",
  "7043": " buz",
  "7044": " burned",
  "7045": " buzz",
  "7046": " chores",
  "7047": " giggle",
  "7048": " imagina",
  "7049": " incl",
  "7050": " inclu",
  "7051": " includ",
  "7052": " permit",
  "7053": " placed",
  "7054": " rhy",
  "7055": " snappe",
  "7056": " snapped",
  "7057": " upst",
  "7058": " upsta",
  "7059": " upstair",
  "7060": " upstairs",
  "7061": " urge",
  "7062": " veh",
  "7063": " vehi",
  "7064": " vehic",
  "7065": " vehicle",
  "7066": " wavi",
  "7067": " wavin",
  "7068": " waving",
  "7069": "Fred",
  "7070": " Freddy",
  "7071": " Mumm",
  "7072": " Mummy",
  "7073": " breathe",
  "7074": " chanc",
  "7075": " chance",
  "7076": " checke",
  "7077": " checked",
  "7078": " flapp",
  "7079": " followi",
  "7080": " followin",
  "7081": " following",
  "7082": " froz",
  "7083": " froze",
  "7084": " holi",
  "7085": " holid",
  "7086": " holida",
  "7087": " holiday",
  "7088": " meda",
  "7089": " medal",
  "7090": " prep",
  "7091": " prepa",
  "7092": " searchi",
  "7093": " searchin",
  "7094": " searching",
  "7095": " seats",
  "7096": " thea",
  "7097": " theat",
  "7098": " vall",
  "7099": " valle",
  "7100": " valley",
  "7101": "ah",
  "7102": " �",
  "7103": " Mand",
  "7104": " Mandy",
  "7105": " Sund",
  "7106": " Sunda",
  "7107": " Sunday",
  "7108": " aliv",
  "7109": " alive",
  "7110": " calls",
  "7111": " countr",
  "7112": " explored",
  "7113": " invita",
  "7114": " invitat",
  "7115": " invitati",
  "7116": " invitatio",
  "7117": " invitation",
  "7118": " knob",
  "7119": " oas",
  "7120": " oasis",
  "7121": " pastry",
  "7122": " pric",
  "7123": " rail",
  "7124": " rang",
  "7125": " rhyth",
  "7126": " rhythm",
  "7127": " spraye",
  "7128": " sprayed",
  "7129": " unha",
  "7130": " unhap",
  "7131": " unhapp",
  "7132": "look",
  "7133": " Goo",
  "7134": " Gre",
  "7135": " Good",
  "7136": " La",
  "7137": " Pen",
  "7138": " beam",
  "7139": " believed",
  "7140": " brai",
  "7141": " chickens",
  "7142": " crash",
  "7143": " crossed",
  "7144": " favouri",
  "7145": " favourit",
  "7146": " favourite",
  "7147": " flie",
  "7148": " flies",
  "7149": " leat",
  "7150": " leathe",
  "7151": " leather",
  "7152": " paid",
  "7153": " respectf",
  "7154": " respectfu",
  "7155": " respectful",
  "7156": " shrugg",
  "7157": " shrugge",
  "7158": " shrugged",
  "7159": " skil",
  "7160": " skill",
  "7161": " unhappy",
  "7162": " unif",
  "7163": " unifor",
  "7164": " uniform",
  "7165": "Ch",
  "7166": "Lisa",
  "7167": "lookin",
  "7168": "looking",
  "7169": "urp",
  "7170": " Hel",
  "7171": " Help",
  "7172": " Jess",
  "7173": " Luck",
  "7174": " Penn",
  "7175": " Penny",
  "7176": " baki",
  "7177": " bakin",
  "7178": " baking",
  "7179": " berry",
  "7180": " betw",
  "7181": " betwe",
  "7182": " betwee",
  "7183": " between",
  "7184": " cell",
  "7185": " coura",
  "7186": " courag",
  "7187": " courage",
  "7188": " exper",
  "7189": " falle",
  "7190": " fallen",
  "7191": " heat",
  "7192": " imaginat",
  "7193": " imaginati",
  "7194": " jogged",
  "7195": " lum",
  "7196": " nob",
  "7197": " petals",
  "7198": " pis",
  "7199": " pist",
  "7200": " pisto",
  "7201": " pistol",
  "7202": " pois",
  "7203": " prepare",
  "7204": " row",
  "7205": " spad",
  "7206": " spade",
  "7207": " wrec",
  "7208": " wreck",
  "7209": "Mary",
  "7210": "andy",
  "7211": "pack",
  "7212": " Bab",
  "7213": " Baby",
  "7214": " Birdy",
  "7215": " Sq",
  "7216": " Shar",
  "7217": " Squ",
  "7218": " atte",
  "7219": " backpack",
  "7220": " cei",
  "7221": " ceil",
  "7222": " ceilin",
  "7223": " ceiling",
  "7224": " country",
  "7225": " curl",
  "7226": " encourage",
  "7227": " floated",
  "7228": " gran",
  "7229": " introduce",
  "7230": " provide",
  "7231": " pushes",
  "7232": " slipper",
  "7233": " solved",
  "7234": " spoons",
  "7235": " spots",
  "7236": " surprises",
  "7237": " veil",
  "7238": "..",
  "7239": "Welc",
  "7240": "Welcom",
  "7241": "Welcome",
  "7242": "ache",
  "7243": " Bin",
  "7244": " Bouncy",
  "7245": " Stev",
  "7246": " Wed",
  "7247": " Wedn",
  "7248": " Wedne",
  "7249": " Wednes",
  "7250": " Wednesd",
  "7251": " Wednesda",
  "7252": " Wednesday",
  "7253": " awe",
  "7254": " brain",
  "7255": " bridges",
  "7256": " claw",
  "7257": " classr",
  "7258": " classro",
  "7259": " classroo",
  "7260": " classroom",
  "7261": " destroyed",
  "7262": " greed",
  "7263": " growled",
  "7264": " heads",
  "7265": " hist",
  "7266": " histo",
  "7267": " histor",
  "7268": " history",
  "7269": " nightm",
  "7270": " nightma",
  "7271": " nightmare",
  "7272": " nobo",
  "7273": " nobod",
  "7274": " nobody",
  "7275": " planes",
  "7276": " poiso",
  "7277": " poison",
  "7278": " sy",
  "7279": " shiveri",
  "7280": " shiverin",
  "7281": " shivering",
  "7282": " stren",
  "7283": " streng",
  "7284": " strengt",
  "7285": " strength",
  "7286": " theate",
  "7287": " theater",
  "7288": " tickl",
  "7289": " whistli",
  "7290": " whistlin",
  "7291": " whistling",
  "7292": " yawned",
  "7293": " Is",
  "7294": " blowi",
  "7295": " blowin",
  "7296": " blowing",
  "7297": " dresse",
  "7298": " elephants",
  "7299": " esp",
  "7300": " espe",
  "7301": " espec",
  "7302": " especi",
  "7303": " especia",
  "7304": " especiall",
  "7305": " especially",
  "7306": " forgott",
  "7307": " forgotte",
  "7308": " forgotten",
  "7309": " furn",
  "7310": " furt",
  "7311": " furni",
  "7312": " furnit",
  "7313": " furnitu",
  "7314": " furnitur",
  "7315": " furniture",
  "7316": " furthe",
  "7317": " grant",
  "7318": " imaginatio",
  "7319": " imagination",
  "7320": " insisted",
  "7321": " learnt",
  "7322": " lumb",
  "7323": " lumber",
  "7324": " meetin",
  "7325": " meeting",
  "7326": " pad",
  "7327": " prunes",
  "7328": " slippery",
  "7329": " snug",
  "7330": " stitch",
  "7331": " supply",
  "7332": " tore",
  "7333": " traf",
  "7334": " traff",
  "7335": " traffi",
  "7336": " traffic",
  "7337": " weight",
  "7338": " wink",
  "7339": "All",
  "7340": "With",
  "7341": "bbit",
  "7342": "lex",
  "7343": " Q",
  "7344": " Grandp",
  "7345": " Grandpa",
  "7346": " Hav",
  "7347": " badl",
  "7348": " badly",
  "7349": " bend",
  "7350": " below",
  "7351": " candi",
  "7352": " candie",
  "7353": " candies",
  "7354": " earthq",
  "7355": " earthqu",
  "7356": " earthqua",
  "7357": " earthquak",
  "7358": " earthquake",
  "7359": " further",
  "7360": " golde",
  "7361": " golden",
  "7362": " ing",
  "7363": " ingr",
  "7364": " ingred",
  "7365": " ingredi",
  "7366": " ingredie",
  "7367": " ingredien",
  "7368": " ingredient",
  "7369": " lawn",
  "7370": " pitc",
  "7371": " scratche",
  "7372": " steel",
  "7373": " strik",
  "7374": " twiste",
  "7375": " twisted",
  "7376": " waffles",
  "7377": " wags",
  "7378": " warni",
  "7379": " warnin",
  "7380": " warning",
  "7381": "Yuck",
  "7382": "ant",
  "7383": " Dave",
  "7384": " Gig",
  "7385": " Gigi",
  "7386": " Steve",
  "7387": " Who",
  "7388": " closel",
  "7389": " closely",
  "7390": " dresses",
  "7391": " excla",
  "7392": " exclaim",
  "7393": " greedy",
  "7394": " groc",
  "7395": " grocer",
  "7396": " plann",
  "7397": " recognize",
  "7398": " sew",
  "7399": " signs",
  "7400": " slidi",
  "7401": " slidin",
  "7402": " sliding",
  "7403": " starti",
  "7404": " startin",
  "7405": " starting",
  "7406": " sym",
  "7407": " underg",
  "7408": " undergr",
  "7409": " undergrou",
  "7410": " underground",
  "7411": "Even",
  "7412": "Ro",
  "7413": "Read",
  "7414": "Ready",
  "7415": "aw",
  "7416": "ncle",
  "7417": " Ab",
  "7418": " Have",
  "7419": " Lucky",
  "7420": " See",
  "7421": " art",
  "7422": " atten",
  "7423": " copp",
  "7424": " copper",
  "7425": " creatures",
  "7426": " cutt",
  "7427": " cuttin",
  "7428": " cutting",
  "7429": " exclaimed",
  "7430": " hurric",
  "7431": " hurrica",
  "7432": " hurrican",
  "7433": " hurricane",
  "7434": " ideas",
  "7435": " labe",
  "7436": " label",
  "7437": " memori",
  "7438": " memorie",
  "7439": " memories",
  "7440": " pitch",
  "7441": " quite",
  "7442": " rabbits",
  "7443": " racing",
  "7444": " scoop",
  "7445": " seei",
  "7446": " seein",
  "7447": " seeing",
  "7448": " snowb",
  "7449": " snowba",
  "7450": " snowbal",
  "7451": " snowball",
  "7452": " struggle",
  "7453": " symb",
  "7454": " symbo",
  "7455": " symbol",
  "7456": " weap",
  "7457": " weapo",
  "7458": " weapon",
  "7459": "Jenny",
  "7460": "year",
  "7461": " Johnny",
  "7462": " Pin",
  "7463": " apa",
  "7464": " apar",
  "7465": " apart",
  "7466": " blueberry",
  "7467": " collecti",
  "7468": " collectio",
  "7469": " collection",
  "7470": " created",
  "7471": " eagerl",
  "7472": " eagerly",
  "7473": " experi",
  "7474": " fishi",
  "7475": " fishin",
  "7476": " fishing",
  "7477": " follows",
  "7478": " ingredients",
  "7479": " kitty",
  "7480": " ladyb",
  "7481": " landsc",
  "7482": " landsca",
  "7483": " landscap",
  "7484": " landscape",
  "7485": " lux",
  "7486": " luxu",
  "7487": " luxur",
  "7488": " marria",
  "7489": " marriag",
  "7490": " marriage",
  "7491": " musc",
  "7492": " muscl",
  "7493": " muscle",
  "7494": " papers",
  "7495": " pigs",
  "7496": " pullin",
  "7497": " pulling",
  "7498": " release",
  "7499": " stoma",
  "7500": " stomac",
  "7501": " stomach",
  "7502": " wiggle",
  "7503": "Samm",
  "7504": "Sammy",
  "7505": "ona",
  "7506": " Ale",
  "7507": " Alex",
  "7508": " Fif",
  "7509": " Fifi",
  "7510": " Owl",
  "7511": " Pink",
  "7512": " Ruby",
  "7513": " Whene",
  "7514": " Whenev",
  "7515": " Wheneve",
  "7516": " Whenever",
  "7517": " ago",
  "7518": " attent",
  "7519": " attenti",
  "7520": " beds",
  "7521": " bones",
  "7522": " brings",
  "7523": " celebrated",
  "7524": " chir",
  "7525": " chirp",
  "7526": " counte",
  "7527": " counter",
  "7528": " eq",
  "7529": " equ",
  "7530": " fireworks",
  "7531": " flapped",
  "7532": " laught",
  "7533": " luxury",
  "7534": " manage",
  "7535": " officer",
  "7536": " oli",
  "7537": " oliv",
  "7538": " plays",
  "7539": " req",
  "7540": " requ",
  "7541": " reque",
  "7542": " reques",
  "7543": " request",
  "7544": " scolde",
  "7545": " scolded",
  "7546": " snugg",
  "7547": " snuggl",
  "7548": " strike",
  "7549": " stuffe",
  "7550": " stuffed",
  "7551": " vro",
  "7552": " vroom",
  "7553": " wob",
  "7554": " wobb",
  "7555": " wobbl",
  "7556": " worker",
  "7557": "To",
  "7558": " Har",
  "7559": " Hu",
  "7560": " Mat",
  "7561": " Rock",
  "7562": " accepte",
  "7563": " accepted",
  "7564": " attentio",
  "7565": " attention",
  "7566": " badg",
  "7567": " badge",
  "7568": " bothe",
  "7569": " bother",
  "7570": " gloves",
  "7571": " impressed",
  "7572": " known",
  "7573": " laughter",
  "7574": " paused",
  "7575": " peache",
  "7576": " peaches",
  "7577": " pirates",
  "7578": " puzzles",
  "7579": " reaches",
  "7580": " receive",
  "7581": " rul",
  "7582": " safa",
  "7583": " safar",
  "7584": " safari",
  "7585": " sip",
  "7586": "Remy",
  "7587": "urpr",
  "7588": "urpris",
  "7589": " By",
  "7590": " Everyt",
  "7591": " Gree",
  "7592": " Green",
  "7593": " Mill",
  "7594": " Pinky",
  "7595": " baker",
  "7596": " brushe",
  "7597": " cakes",
  "7598": " dressed",
  "7599": " hearts",
  "7600": " mama",
  "7601": " pearl",
  "7602": " pretti",
  "7603": " prettie",
  "7604": " saili",
  "7605": " sailin",
  "7606": " sailing",
  "7607": " shined",
  "7608": " somew",
  "7609": " somewhe",
  "7610": " somewher",
  "7611": " somewhere",
  "7612": " spaces",
  "7613": " teachi",
  "7614": " teachin",
  "7615": " teaching",
  "7616": " waggi",
  "7617": " waggin",
  "7618": " wagging",
  "7619": " zig",
  "7620": " zigz",
  "7621": " zigza",
  "7622": "Dadd",
  "7623": "Daddy",
  "7624": "Mora",
  "7625": "Moral",
  "7626": "Surpris",
  "7627": " Bink",
  "7628": " Binky",
  "7629": " Dann",
  "7630": " Danny",
  "7631": " Elli",
  "7632": " Ellie",
  "7633": " Everyth",
  "7634": " Everythin",
  "7635": " Everything",
  "7636": " Lou",
  "7637": " Star",
  "7638": " claws",
  "7639": " flat",
  "7640": " hee",
  "7641": " ignored",
  "7642": " isn",
  "7643": " licks",
  "7644": " oh",
  "7645": " permi",
  "7646": " permis",
  "7647": " permiss",
  "7648": " permissi",
  "7649": " permissio",
  "7650": " permission",
  "7651": " planted",
  "7652": " price",
  "7653": " respo",
  "7654": " seas",
  "7655": " seco",
  "7656": " secon",
  "7657": " second",
  "7658": " sparkled",
  "7659": " tong",
  "7660": " tongu",
  "7661": " tongue",
  "7662": " universit",
  "7663": " university",
  "7664": " zer",
  "7665": " zero",
  "7666": "Ja",
  "7667": "Tod",
  "7668": "amie",
  "7669": "ire",
  "7670": " Bluey",
  "7671": " Did",
  "7672": " Din",
  "7673": " Ea",
  "7674": " King",
  "7675": " Rac",
  "7676": " Rache",
  "7677": " Rachel",
  "7678": " bang",
  "7679": " daisy",
  "7680": " dip",
  "7681": " dried",
  "7682": " emer",
  "7683": " emerg",
  "7684": " equi",
  "7685": " equip",
  "7686": " equipme",
  "7687": " equipmen",
  "7688": " equipment",
  "7689": " fart",
  "7690": " folded",
  "7691": " mailm",
  "7692": " mailma",
  "7693": " mailman",
  "7694": " oats",
  "7695": " patterns",
  "7696": " pedals",
  "7697": " ribbons",
  "7698": " rooms",
  "7699": " selli",
  "7700": " sellin",
  "7701": " selling",
  "7702": " sile",
  "7703": " silen",
  "7704": " sizes",
  "7705": " snuggle",
  "7706": " sprink",
  "7707": " sprinkl",
  "7708": " vel",
  "7709": " velv",
  "7710": " velvet",
  "7711": " weepi",
  "7712": " weepin",
  "7713": " weeping",
  "7714": " welcomed",
  "7715": " works",
  "7716": " –",
  "7717": "\",",
  "7718": "'ve",
  "7719": "Today",
  "7720": "Woof",
  "7721": " Char",
  "7722": " Je",
  "7723": " Wis",
  "7724": " appro",
  "7725": " baked",
  "7726": " beauty",
  "7727": " east",
  "7728": " easil",
  "7729": " easily",
  "7730": " entered",
  "7731": " experie",
  "7732": " experien",
  "7733": " experienc",
  "7734": " farthe",
  "7735": " floati",
  "7736": " floatin",
  "7737": " floating",
  "7738": " grocery",
  "7739": " jaz",
  "7740": " jazz",
  "7741": " lung",
  "7742": " raining",
  "7743": " skills",
  "7744": " sorts",
  "7745": " sprinkle",
  "7746": " studi",
  "7747": " throws",
  "7748": " worms",
  "7749": "Surprise",
  "7750": "rie",
  "7751": " Beep",
  "7752": " Ki",
  "7753": " bye",
  "7754": " chewi",
  "7755": " chewin",
  "7756": " chewing",
  "7757": " deeper",
  "7758": " guessed",
  "7759": " heel",
  "7760": " lan",
  "7761": " moves",
  "7762": " padd",
  "7763": " paddl",
  "7764": " printed",
  "7765": " relaxed",
  "7766": " ruler",
  "7767": " shirts",
  "7768": " spacesh",
  "7769": " spaceshi",
  "7770": " spaceship",
  "7771": " studie",
  "7772": " wais",
  "7773": " waist",
  "7774": " yuc",
  "7775": " yuck",
  "7776": " zigzag",
  "7777": "Befo",
  "7778": "Before",
  "7779": "Mimi",
  "7780": "Some",
  "7781": "Thes",
  "7782": "These",
  "7783": "apa",
  "7784": "lue",
  "7785": "llie",
  "7786": " V",
  "7787": " Abi",
  "7788": " Unc",
  "7789": " Uncle",
  "7790": " bears",
  "7791": " bounci",
  "7792": " bouncin",
  "7793": " bouncing",
  "7794": " cherry",
  "7795": " colours",
  "7796": " disagree",
  "7797": " grin",
  "7798": " loos",
  "7799": " marchin",
  "7800": " marching",
  "7801": " nails",
  "7802": " peppers",
  "7803": " quietl",
  "7804": " quietly",
  "7805": " scattere",
  "7806": " scattered",
  "7807": " screams",
  "7808": " spik",
  "7809": " studied",
  "7810": " studyi",
  "7811": " studyin",
  "7812": " studying",
  "7813": " twisty",
  "7814": "Goodb",
  "7815": "Goodby",
  "7816": "Goodbye",
  "7817": " Pepp",
  "7818": " Pepper",
  "7819": " Ton",
  "7820": " attache",
  "7821": " behaved",
  "7822": " bites",
  "7823": " costumes",
  "7824": " differenc",
  "7825": " difference",
  "7826": " lemons",
  "7827": " memory",
  "7828": " port",
  "7829": " purr",
  "7830": " stol",
  "7831": " stole",
  "7832": " sweethe",
  "7833": " sweethea",
  "7834": " sweethear",
  "7835": " sweetheart",
  "7836": " tickle",
  "7837": " yucky",
  "7838": "Not",
  "7839": "Ok",
  "7840": "Peter",
  "7841": "ile",
  "7842": " Each",
  "7843": " Lizz",
  "7844": " Sl",
  "7845": " aftern",
  "7846": " afterno",
  "7847": " afternoo",
  "7848": " afternoon",
  "7849": " approa",
  "7850": " approac",
  "7851": " attached",
  "7852": " beamed",
  "7853": " blood",
  "7854": " discovery",
  "7855": " exit",
  "7856": " fet",
  "7857": " fetc",
  "7858": " hadn",
  "7859": " hopes",
  "7860": " lang",
  "7861": " langu",
  "7862": " langua",
  "7863": " languag",
  "7864": " language",
  "7865": " lemona",
  "7866": " lemonad",
  "7867": " lemonade",
  "7868": " loose",
  "7869": " mouths",
  "7870": " palm",
  "7871": " prayed",
  "7872": " restin",
  "7873": " resting",
  "7874": " secrets",
  "7875": " sidew",
  "7876": " sidewa",
  "7877": " sidewal",
  "7878": " sidewalk",
  "7879": " spike",
  "7880": " tomatoe",
  "7881": " tomatoes",
  "7882": " wors",
  "7883": "Blue",
  "7884": "choo",
  "7885": "inc",
  "7886": "rec",
  "7887": "ups",
  "7888": " Sand",
  "7889": " Sharin",
  "7890": " Sharing",
  "7891": " Spr",
  "7892": " Sprin",
  "7893": " Spring",
  "7894": " Wat",
  "7895": " blankets",
  "7896": " deser",
  "7897": " encouraged",
  "7898": " experience",
  "7899": " flip",
  "7900": " fros",
  "7901": " frost",
  "7902": " hiss",
  "7903": " include",
  "7904": " keys",
  "7905": " lets",
  "7906": " perfectl",
  "7907": " perfectly",
  "7908": " snuggled",
  "7909": " strai",
  "7910": " washi",
  "7911": " washin",
  "7912": " washing",
  "7913": " winne",
  "7914": " winner",
  "7915": "Beca",
  "7916": "Becau",
  "7917": "Because",
  "7918": "Pe",
  "7919": "enr",
  "7920": "uack",
  "7921": "ump",
  "7922": " Annie",
  "7923": " Bon",
  "7924": " Ball",
  "7925": " Cl",
  "7926": " Jessie",
  "7927": " Pap",
  "7928": " Pr",
  "7929": " Paul",
  "7930": " Sc",
  "7931": " ach",
  "7932": " behavi",
  "7933": " cheek",
  "7934": " dur",
  "7935": " durin",
  "7936": " during",
  "7937": " easi",
  "7938": " easier",
  "7939": " emerge",
  "7940": " emergen",
  "7941": " emergenc",
  "7942": " flood",
  "7943": " frozen",
  "7944": " gazed",
  "7945": " hits",
  "7946": " kickin",
  "7947": " kicking",
  "7948": " ladybu",
  "7949": " ladybug",
  "7950": " ox",
  "7951": " oxy",
  "7952": " oxyg",
  "7953": " oxygen",
  "7954": " pillows",
  "7955": " resu",
  "7956": " sinc",
  "7957": " since",
  "7958": " sits",
  "7959": " squea",
  "7960": " tide",
  "7961": " usu",
  "7962": " usua",
  "7963": " watere",
  "7964": " watered",
  "7965": " wisd",
  "7966": " wisdo",
  "7967": " wisdom",
  "7968": " wonders",
  "7969": "Boo",
  "7970": "Ge",
  "7971": " Both",
  "7972": " Event",
  "7973": " Eventu",
  "7974": " Eventua",
  "7975": " Eventuall",
  "7976": " Eventually",
  "7977": " Mag",
  "7978": " Papa",
  "7979": " Ros",
  "7980": " Slo",
  "7981": " Slow",
  "7982": " Suz",
  "7983": " achi",
  "7984": " acte",
  "7985": " acted",
  "7986": " actin",
  "7987": " acting",
  "7988": " begg",
  "7989": " bloomed",
  "7990": " broo",
  "7991": " broom",
  "7992": " capt",
  "7993": " collected",
  "7994": " dogg",
  "7995": " doggy",
  "7996": " frosti",
  "7997": " frostin",
  "7998": " frosting",
  "7999": " heade",
  "8000": " headed",
  "8001": " marks",
  "8002": " mittens",
  "8003": " mudd",
  "8004": " muddy",
  "8005": " nowhe",
  "8006": " nowher",
  "8007": " nowhere",
  "8008": " pots",
  "8009": " roads",
  "8010": " sim",
  "8011": " sty",
  "8012": " styl",
  "8013": " teasi",
  "8014": " teasin",
  "8015": " teasing",
  "8016": " trapp",
  "8017": " urged",
  "8018": " weighe",
  "8019": " weighed",
  "8020": " worse",
  "8021": "'.",
  "8022": "Al",
  "8023": "Everyo",
  "8024": "Everyon",
  "8025": "Everyone",
  "8026": "Sh",
  "8027": " Bef",
  "8028": " Befo",
  "8029": " Before",
  "8030": " Cu",
  "8031": " Robb",
  "8032": " Slowl",
  "8033": " Slowly",
  "8034": " Sto",
  "8035": " Til",
  "8036": " Till",
  "8037": " Tilly",
  "8038": " Tony",
  "8039": " Wa",
  "8040": " Wisd",
  "8041": " Wisdom",
  "8042": " achie",
  "8043": " achiev",
  "8044": " approache",
  "8045": " approached",
  "8046": " begged",
  "8047": " chall",
  "8048": " challe",
  "8049": " challen",
  "8050": " challeng",
  "8051": " chewe",
  "8052": " chewed",
  "8053": " contr",
  "8054": " fetch",
  "8055": " flags",
  "8056": " honk",
  "8057": " married",
  "8058": " mentioned",
  "8059": " pett",
  "8060": " prid",
  "8061": " pride",
  "8062": " recorded",
  "8063": " setti",
  "8064": " settin",
  "8065": " setting",
  "8066": " six",
  "8067": " sneake",
  "8068": " succeede",
  "8069": " succeeded",
  "8070": " trappe",
  "8071": " trapped",
  "8072": " unlocked",
  "8073": " wandere",
  "8074": " wandered",
  "8075": " winni",
  "8076": " winnin",
  "8077": " winning",
  "8078": " wobble",
  "8079": " wort",
  "8080": " worth",
  "8081": "Event",
  "8082": "Eventu",
  "8083": "Eventua",
  "8084": "Eventuall",
  "8085": "Eventually",
  "8086": "Ollie",
  "8087": "hick",
  "8088": "itte",
  "8089": "ould",
  "8090": "uick",
  "8091": " Cla",
  "8092": " Dog",
  "8093": " Hi",
  "8094": " Kik",
  "8095": " Kiki",
  "8096": " Pip",
  "8097": " Sandy",
  "8098": " Snowy",
  "8099": " Thes",
  "8100": " These",
  "8101": " apologized",
  "8102": " boom",
  "8103": " catchin",
  "8104": " catching",
  "8105": " caus",
  "8106": " decorati",
  "8107": " decoratio",
  "8108": " decoration",
  "8109": " emergency",
  "8110": " hurried",
  "8111": " hurti",
  "8112": " hurtin",
  "8113": " hurting",
  "8114": " kisse",
  "8115": " kisses",
  "8116": " kneeled",
  "8117": " leader",
  "8118": " mice",
  "8119": " non",
  "8120": " oranges",
  "8121": " peanuts",
  "8122": " pinche",
  "8123": " prai",
  "8124": " prais",
  "8125": " printe",
  "8126": " printer",
  "8127": " resul",
  "8128": " result",
  "8129": " ripp",
  "8130": " seaso",
  "8131": " season",
  "8132": " shot",
  "8133": " slapp",
  "8134": " sneaked",
  "8135": " style",
  "8136": " twink",
  "8137": " twinkl",
  "8138": " wes",
  "8139": " west",
  "8140": " yout",
  "8141": " youth",
  "8142": "Andy",
  "8143": "Georg",
  "8144": "ella",
  "8145": "hell",
  "8146": "oe",
  "8147": "uz",
  "8148": "war",
  "8149": " Blin",
  "8150": " Blink",
  "8151": " Charl",
  "8152": " Gogo",
  "8153": " Hen",
  "8154": " Harr",
  "8155": " Harry",
  "8156": " Ke",
  "8157": " Kee",
  "8158": " Keep",
  "8159": " Robby",
  "8160": " Stit",
  "8161": " Stitc",
  "8162": " Stitch",
  "8163": " achieve",
  "8164": " alri",
  "8165": " alrig",
  "8166": " alrigh",
  "8167": " alright",
  "8168": " anyti",
  "8169": " anytim",
  "8170": " anytime",
  "8171": " contro",
  "8172": " control",
  "8173": " decis",
  "8174": " decisi",
  "8175": " decisio",
  "8176": " decision",
  "8177": " drinkin",
  "8178": " drinks",
  "8179": " drinking",
  "8180": " gifts",
  "8181": " giraffes",
  "8182": " jogging",
  "8183": " measured",
  "8184": " melted",
  "8185": " none",
  "8186": " pencils",
  "8187": " policem",
  "8188": " punishe",
  "8189": " punished",
  "8190": " rested",
  "8191": " rocked",
  "8192": " snai",
  "8193": " snail",
  "8194": " straig",
  "8195": " straigh",
  "8196": " straight",
  "8197": " strangers",
  "8198": " toni",
  "8199": " tonig",
  "8200": " tonigh",
  "8201": " tonight",
  "8202": "ail",
  "8203": "iny",
  "8204": "unny",
  "8205": " Fu",
  "8206": " Jam",
  "8207": " Jon",
  "8208": " Love",
  "8209": " Robo",
  "8210": " Sky",
  "8211": " appre",
  "8212": " apprec",
  "8213": " appreci",
  "8214": " apprecia",
  "8215": " appreciat",
  "8216": " crabs",
  "8217": " crawlin",
  "8218": " crawling",
  "8219": " crun",
  "8220": " crunc",
  "8221": " decides",
  "8222": " disagreed",
  "8223": " ef",
  "8224": " eff",
  "8225": " escaped",
  "8226": " goodn",
  "8227": " hes",
  "8228": " hesi",
  "8229": " hesit",
  "8230": " hesita",
  "8231": " inve",
  "8232": " jok",
  "8233": " powers",
  "8234": " prints",
  "8235": " received",
  "8236": " remained",
  "8237": " respon",
  "8238": " respons",
  "8239": " shouti",
  "8240": " shoutin",
  "8241": " shouting",
  "8242": " simp",
  "8243": " simpl",
  "8244": " soldiers",
  "8245": " suppos",
  "8246": " suppose",
  "8247": " supposed",
  "8248": " threat",
  "8249": " toes",
  "8250": " treasures",
  "8251": " tubes",
  "8252": " turni",
  "8253": " turnin",
  "8254": " turning",
  "8255": " vanishe",
  "8256": " vanished",
  "8257": " voic",
  "8258": " voices",
  "8259": "!\",",
  "8260": "Ex",
  "8261": "George",
  "8262": "Mmm",
  "8263": "\n ",
  "8264": " Bop",
  "8265": " Chi",
  "8266": " Fri",
  "8267": " Frie",
  "8268": " Friend",
  "8269": " Friends",
  "8270": " Fuz",
  "8271": " Fuzz",
  "8272": " Sop",
  "8273": " Soph",
  "8274": " Sophi",
  "8275": " bleed",
  "8276": " bouncy",
  "8277": " burni",
  "8278": " burnin",
  "8279": " burning",
  "8280": " candles",
  "8281": " downs",
  "8282": " downst",
  "8283": " downsta",
  "8284": " downstai",
  "8285": " downstair",
  "8286": " downstairs",
  "8287": " lined",
  "8288": " parti",
  "8289": " plu",
  "8290": " planned",
  "8291": " presents",
  "8292": " prop",
  "8293": " pupi",
  "8294": " pupil",
  "8295": " realize",
  "8296": " scratched",
  "8297": " shed",
  "8298": " soake",
  "8299": " soaked",
  "8300": " splashes",
  "8301": " tricke",
  "8302": " tricked",
  "8303": " villager",
  "8304": " waits",
  "8305": "Bella",
  "8306": "Bobb",
  "8307": "Meow",
  "8308": "Tr",
  "8309": "ayl",
  "8310": "othe",
  "8311": " Beth",
  "8312": " Frogg",
  "8313": " Froggy",
  "8314": " Han",
  "8315": " Jul",
  "8316": " Kate",
  "8317": " Lat",
  "8318": " Later",
  "8319": " Lizzy",
  "8320": " Sad",
  "8321": " Someo",
  "8322": " Someon",
  "8323": " Someone",
  "8324": " Spar",
  "8325": " Spark",
  "8326": " admiri",
  "8327": " admirin",
  "8328": " admiring",
  "8329": " buzzi",
  "8330": " buzzin",
  "8331": " buzzing",
  "8332": " capta",
  "8333": " captain",
  "8334": " crunch",
  "8335": " cuddle",
  "8336": " disturbed",
  "8337": " dolphins",
  "8338": " famili",
  "8339": " farther",
  "8340": " knel",
  "8341": " knelt",
  "8342": " petted",
  "8343": " piles",
  "8344": " playt",
  "8345": " playti",
  "8346": " playtim",
  "8347": " playtime",
  "8348": " policema",
  "8349": " policeman",
  "8350": " revealed",
  "8351": " safet",
  "8352": " safety",
  "8353": " shouldn",
  "8354": " sisters",
  "8355": " slappe",
  "8356": " slim",
  "8357": " spendi",
  "8358": " spendin",
  "8359": " spending",
  "8360": " sticki",
  "8361": " stickin",
  "8362": " sticking",
  "8363": " stirri",
  "8364": " stirrin",
  "8365": " stretchi",
  "8366": " stretchin",
  "8367": " stretching",
  "8368": " swims",
  "8369": " theirs",
  "8370": " trips",
  "8371": " tuc",
  "8372": " tuck",
  "8373": " uses",
  "8374": " villagers",
  "8375": " whate",
  "8376": " whatev",
  "8377": " whateve",
  "8378": " whatever",
  "8379": " yest",
  "8380": " yester",
  "8381": " yesterd",
  "8382": " yesterda",
  "8383": " yesterday",
  "8384": "Bu",
  "8385": "Bobby",
  "8386": "Somet",
  "8387": "hello",
  "8388": "ira",
  "8389": "oh",
  "8390": " Foll",
  "8391": " Follo",
  "8392": " Follow",
  "8393": " Jamie",
  "8394": " Like",
  "8395": " Mitt",
  "8396": " Mitte",
  "8397": " Mitten",
  "8398": " Mittens",
  "8399": " Roo",
  "8400": " actio",
  "8401": " action",
  "8402": " bree",
  "8403": " breaki",
  "8404": " breakin",
  "8405": " breaking",
  "8406": " breez",
  "8407": " breeze",
  "8408": " clearin",
  "8409": " clearing",
  "8410": " climbs",
  "8411": " cons",
  "8412": " crum",
  "8413": " crunchy",
  "8414": " dared",
  "8415": " den",
  "8416": " dot",
  "8417": " fasc",
  "8418": " fasci",
  "8419": " fascin",
  "8420": " fascina",
  "8421": " fascinat",
  "8422": " glowed",
  "8423": " grinn",
  "8424": " grinned",
  "8425": " keeps",
  "8426": " meltin",
  "8427": " melting",
  "8428": " naps",
  "8429": " noo",
  "8430": " ourse",
  "8431": " oursel",
  "8432": " ourselv",
  "8433": " ourselve",
  "8434": " ourselves",
  "8435": " pec",
  "8436": " pets",
  "8437": " pinched",
  "8438": " prepar",
  "8439": " raised",
  "8440": " roots",
  "8441": " rott",
  "8442": " sides",
  "8443": " singe",
  "8444": " singer",
  "8445": " slapped",
  "8446": " socc",
  "8447": " socce",
  "8448": " soccer",
  "8449": " steali",
  "8450": " stealin",
  "8451": " stealing",
  "8452": " stirring",
  "8453": " tickets",
  "8454": " timer",
  "8455": " twirle",
  "8456": " twirled",
  "8457": " understandi",
  "8458": " understandin",
  "8459": " understanding",
  "8460": " vanish",
  "8461": " videos",
  "8462": " visited",
  "8463": " watches",
  "8464": " wiz",
  "8465": " wiza",
  "8466": " wizar",
  "8467": " wizard",
  "8468": "Emily",
  "8469": "Leo",
  "8470": "Mandy",
  "8471": "Reall",
  "8472": "Really",
  "8473": "eek",
  "8474": "please",
  "8475": " X",
  "8476": " Bug",
  "8477": " Catt",
  "8478": " Chick",
  "8479": " Hope",
  "8480": " Hug",
  "8481": " Joey",
  "8482": " Moo",
  "8483": " Milli",
  "8484": " Out",
  "8485": " Someth",
  "8486": " Somethin",
  "8487": " Something",
  "8488": " Wor",
  "8489": " area",
  "8490": " beat",
  "8491": " bravel",
  "8492": " bravely",
  "8493": " bringi",
  "8494": " bringin",
  "8495": " bringing",
  "8496": " cartoons",
  "8497": " chef",
  "8498": " compan",
  "8499": " decorations",
  "8500": " effor",
  "8501": " effort",
  "8502": " fed",
  "8503": " gears",
  "8504": " herbs",
  "8505": " inves",
  "8506": " invest",
  "8507": " investi",
  "8508": " investig",
  "8509": " investiga",
  "8510": " investigat",
  "8511": " investigate",
  "8512": " lap",
  "8513": " lines",
  "8514": " matched",
  "8515": " muffins",
  "8516": " nicer",
  "8517": " rin",
  "8518": " ringin",
  "8519": " ringing",
  "8520": " ripped",
  "8521": " shooti",
  "8522": " shootin",
  "8523": " shooting",
  "8524": " slimy",
  "8525": " sneaky",
  "8526": " somed",
  "8527": " someda",
  "8528": " someday",
  "8529": " stayi",
  "8530": " stayin",
  "8531": " staying",
  "8532": " strawberri",
  "8533": " strawberrie",
  "8534": " strawberries",
  "8535": " ty",
  "8536": " wherev",
  "8537": " whereve",
  "8538": " wherever",
  "8539": "Momo",
  "8540": " Abig",
  "8541": " Abiga",
  "8542": " Abigail",
  "8543": " Catty",
  "8544": " Charli",
  "8545": " Charlie",
  "8546": " Cudd",
  "8547": " Cuddle",
  "8548": " Di",
  "8549": " Hip",
  "8550": " Hipp",
  "8551": " Hippy",
  "8552": " Kati",
  "8553": " Katie",
  "8554": " Millie",
  "8555": " Our",
  "8556": " Sque",
  "8557": " Squea",
  "8558": " Squeak",
  "8559": " Squeaky",
  "8560": " cracked",
  "8561": " curled",
  "8562": " demande",
  "8563": " demanded",
  "8564": " dipp",
  "8565": " dipped",
  "8566": " earli",
  "8567": " earlier",
  "8568": " eats",
  "8569": " fash",
  "8570": " fashi",
  "8571": " fashio",
  "8572": " fashion",
  "8573": " glit",
  "8574": " glitt",
  "8575": " glitte",
  "8576": " glitter",
  "8577": " guns",
  "8578": " hated",
  "8579": " hider",
  "8580": " imm",
  "8581": " immed",
  "8582": " immedi",
  "8583": " immedia",
  "8584": " immediat",
  "8585": " immediate",
  "8586": " immediatel",
  "8587": " immediately",
  "8588": " matchin",
  "8589": " matching",
  "8590": " mister",
  "8591": " mixin",
  "8592": " mixing",
  "8593": " napp",
  "8594": " owned",
  "8595": " passe",
  "8596": " peel",
  "8597": " responsi",
  "8598": " responsib",
  "8599": " rust",
  "8600": " scales",
  "8601": " simple",
  "8602": " sings",
  "8603": " sorti",
  "8604": " sortin",
  "8605": " sorting",
  "8606": " spit",
  "8607": " steep",
  "8608": " stin",
  "8609": " strings",
  "8610": " talles",
  "8611": " tallest",
  "8612": " touchi",
  "8613": " touchin",
  "8614": " touching",
  "8615": " tugg",
  "8616": " vic",
  "8617": " vict",
  "8618": " victor",
  "8619": "Lo",
  "8620": "Ma",
  "8621": "Rex",
  "8622": "Sus",
  "8623": "Would",
  "8624": " Boo",
  "8625": " Bally",
  "8626": " Grace",
  "8627": " Its",
  "8628": " Mari",
  "8629": " Maria",
  "8630": " Ow",
  "8631": " Tho",
  "8632": " Wig",
  "8633": " Wigg",
  "8634": " Wiggly",
  "8635": " actu",
  "8636": " actua",
  "8637": " actual",
  "8638": " actuall",
  "8639": " actually",
  "8640": " appreciate",
  "8641": " awak",
  "8642": " awake",
  "8643": " batteri",
  "8644": " batterie",
  "8645": " batteries",
  "8646": " bunc",
  "8647": " bunch",
  "8648": " chop",
  "8649": " clue",
  "8650": " cones",
  "8651": " crashe",
  "8652": " cubes",
  "8653": " eagle",
  "8654": " familie",
  "8655": " families",
  "8656": " fireme",
  "8657": " firemen",
  "8658": " fut",
  "8659": " futu",
  "8660": " futur",
  "8661": " future",
  "8662": " girls",
  "8663": " goodni",
  "8664": " goodnig",
  "8665": " goodnigh",
  "8666": " goodnight",
  "8667": " hen",
  "8668": " improved",
  "8669": " kingd",
  "8670": " kingdo",
  "8671": " kingdom",
  "8672": " mer",
  "8673": " moments",
  "8674": " muscles",
  "8675": " onw",
  "8676": " onwar",
  "8677": " onward",
  "8678": " praised",
  "8679": " prec",
  "8680": " preci",
  "8681": " precio",
  "8682": " preciou",
  "8683": " precious",
  "8684": " scru",
  "8685": " sev",
  "8686": " seve",
  "8687": " skippi",
  "8688": " skippin",
  "8689": " skipping",
  "8690": " soare",
  "8691": " soared",
  "8692": " sore",
  "8693": " sorte",
  "8694": " sorted",
  "8695": " spon",
  "8696": " spong",
  "8697": " sponge",
  "8698": " surro",
  "8699": " surrou",
  "8700": " surroun",
  "8701": " surround",
  "8702": " tails",
  "8703": " toaste",
  "8704": " trembli",
  "8705": " tremblin",
  "8706": " trembling",
  "8707": " twigs",
  "8708": " warmt",
  "8709": " warmth",
  "8710": "Firs",
  "8711": "First",
  "8712": "Uh",
  "8713": "boo",
  "8714": "eav",
  "8715": "ucky",
  "8716": " Yes",
  "8717": " Bone",
  "8718": " Bones",
  "8719": " Fa",
  "8720": " Me",
  "8721": " Matt",
  "8722": " Rosie",
  "8723": " Sha",
  "8724": " Sof",
  "8725": " babi",
  "8726": " babie",
  "8727": " babies",
  "8728": " bowed",
  "8729": " braver",
  "8730": " cape",
  "8731": " crumb",
  "8732": " dinosaurs",
  "8733": " gus",
  "8734": " gust",
  "8735": " lai",
  "8736": " laid",
  "8737": " lips",
  "8738": " loaded",
  "8739": " playr",
  "8740": " playro",
  "8741": " playroo",
  "8742": " playroom",
  "8743": " repeated",
  "8744": " rides",
  "8745": " rings",
  "8746": " seeke",
  "8747": " seeker",
  "8748": " shoulders",
  "8749": " silenc",
  "8750": " silence",
  "8751": " tale",
  "8752": " thri",
  "8753": " toaster",
  "8754": " unf",
  "8755": "!'",
  "8756": "Cat",
  "8757": "Have",
  "8758": "Ru",
  "8759": "Someti",
  "8760": "Sometim",
  "8761": "Sometime",
  "8762": "Sometimes",
  "8763": "atch",
  "8764": "hee",
  "8765": "ong",
  "8766": "ony",
  "8767": " Ally",
  "8768": " Bec",
  "8769": " Beca",
  "8770": " Becau",
  "8771": " Because",
  "8772": " Everyd",
  "8773": " Everyda",
  "8774": " Everyday",
  "8775": " Len",
  "8776": " Rocky",
  "8777": " acco",
  "8778": " accom",
  "8779": " accomp",
  "8780": " accompl",
  "8781": " accompli",
  "8782": " accomplis",
  "8783": " agreem",
  "8784": " agreeme",
  "8785": " agreemen",
  "8786": " agreement",
  "8787": " besi",
  "8788": " besid",
  "8789": " beside",
  "8790": " brushes",
  "8791": " buckets",
  "8792": " catche",
  "8793": " challenge",
  "8794": " chip",
  "8795": " circu",
  "8796": " circus",
  "8797": " conta",
  "8798": " crashed",
  "8799": " deserv",
  "8800": " fields",
  "8801": " flav",
  "8802": " flavo",
  "8803": " foods",
  "8804": " goals",
  "8805": " guy",
  "8806": " happies",
  "8807": " happiest",
  "8808": " horns",
  "8809": " inch",
  "8810": " knights",
  "8811": " lied",
  "8812": " mane",
  "8813": " measurin",
  "8814": " measuring",
  "8815": " olive",
  "8816": " paintings",
  "8817": " partie",
  "8818": " parties",
  "8819": " planets",
  "8820": " poss",
  "8821": " rockin",
  "8822": " rocking",
  "8823": " scari",
  "8824": " scoope",
  "8825": " scooped",
  "8826": " shopp",
  "8827": " sprinkles",
  "8828": " starf",
  "8829": " starfi",
  "8830": " starfis",
  "8831": " starfish",
  "8832": " sting",
  "8833": " stripe",
  "8834": " teased",
  "8835": " thril",
  "8836": " thrill",
  "8837": " tugge",
  "8838": " tugged",
  "8839": " unti",
  "8840": " yellin",
  "8841": " yelling",
  "8842": " zoomin",
  "8843": " zooming",
  "8844": "Our",
  "8845": "Rob",
  "8846": "Whis",
  "8847": "sl",
  "8848": "uring",
  "8849": " Ad",
  "8850": " Chlo",
  "8851": " Chloe",
  "8852": " Diz",
  "8853": " Dizz",
  "8854": " Dizzy",
  "8855": " Hann",
  "8856": " Hanna",
  "8857": " Mic",
  "8858": " Raz",
  "8859": " Razor",
  "8860": " Ske",
  "8861": " Zig",
  "8862": " activ",
  "8863": " amazem",
  "8864": " amazeme",
  "8865": " amazemen",
  "8866": " amazement",
  "8867": " ann",
  "8868": " belly",
  "8869": " bloomi",
  "8870": " bloomin",
  "8871": " blooming",
  "8872": " bud",
  "8873": " bunni",
  "8874": " bunnie",
  "8875": " bunnies",
  "8876": " catches",
  "8877": " company",
  "8878": " confi",
  "8879": " contain",
  "8880": " decorated",
  "8881": " dragons",
  "8882": " helmets",
  "8883": " hesitat",
  "8884": " instr",
  "8885": " instru",
  "8886": " lec",
  "8887": " lect",
  "8888": " lectu",
  "8889": " lecture",
  "8890": " monsters",
  "8891": " neighbors",
  "8892": " outd",
  "8893": " outdo",
  "8894": " outdoo",
  "8895": " outdoor",
  "8896": " passen",
  "8897": " passeng",
  "8898": " passenger",
  "8899": " peck",
  "8900": " pokin",
  "8901": " poking",
  "8902": " rainbows",
  "8903": " remembers",
  "8904": " replaced",
  "8905": " sati",
  "8906": " satis",
  "8907": " satisf",
  "8908": " scu",
  "8909": " scrub",
  "8910": " settled",
  "8911": " snowballs",
  "8912": " sprayi",
  "8913": " sprayin",
  "8914": " spraying",
  "8915": " strok",
  "8916": " talen",
  "8917": " talent",
  "8918": " tex",
  "8919": " text",
  "8920": " textu",
  "8921": " textur",
  "8922": " texture",
  "8923": " tune",
  "8924": " victory",
  "8925": " web",
  "8926": " woode",
  "8927": " wooden",
  "8928": "Ah",
  "8929": "Bad",
  "8930": "Happy",
  "8931": "Johnny",
  "8932": "Mi",
  "8933": "Susie",
  "8934": "ent",
  "8935": "erry",
  "8936": " Bre",
  "8937": " Bree",
  "8938": " Chicky",
  "8939": " Fros",
  "8940": " Frost",
  "8941": " Frosty",
  "8942": " Mart",
  "8943": " Rabb",
  "8944": " Rabbit",
  "8945": " Rover",
  "8946": " Steven",
  "8947": " Te",
  "8948": " Tak",
  "8949": " Tot",
  "8950": " Toto",
  "8951": " bam",
  "8952": " balanci",
  "8953": " balancin",
  "8954": " balancing",
  "8955": " bamb",
  "8956": " bambo",
  "8957": " bamboo",
  "8958": " begi",
  "8959": " begin",
  "8960": " behavin",
  "8961": " behaving",
  "8962": " buildings",
  "8963": " celebrati",
  "8964": " celebratio",
  "8965": " celebration",
  "8966": " confid",
  "8967": " confide",
  "8968": " confiden",
  "8969": " dads",
  "8970": " dragg",
  "8971": " dragged",
  "8972": " examined",
  "8973": " gaze",
  "8974": " gott",
  "8975": " gotte",
  "8976": " gotten",
  "8977": " helpers",
  "8978": " importanc",
  "8979": " importance",
  "8980": " ite",
  "8981": " item",
  "8982": " logs",
  "8983": " mater",
  "8984": " materi",
  "8985": " materia",
  "8986": " material",
  "8987": " neighborh",
  "8988": " neighborho",
  "8989": " neighborhoo",
  "8990": " neighborhood",
  "8991": " observed",
  "8992": " outdoors",
  "8993": " polishin",
  "8994": " polishing",
  "8995": " poppy",
  "8996": " prepared",
  "8997": " pretties",
  "8998": " prettiest",
  "8999": " protectin",
  "9000": " protecting",
  "9001": " ripe",
  "9002": " seaw",
  "9003": " slowe",
  "9004": " sparkles",
  "9005": " squeak",
  "9006": " sufferi",
  "9007": " sufferin",
  "9008": " suffering",
  "9009": " sweeties",
  "9010": " wonderi",
  "9011": " wonderin",
  "9012": " wondering",
  "9013": " wris",
  "9014": " wrist",
  "9015": "Bird",
  "9016": "Polly",
  "9017": "Pete",
  "9018": "Ri",
  "9019": "Tiny",
  "9020": "anc",
  "9021": "eli",
  "9022": "ich",
  "9023": "low",
  "9024": "reat",
  "9025": " Cuddles",
  "9026": " Dino",
  "9027": " Fir",
  "9028": " Firs",
  "9029": " First",
  "9030": " God",
  "9031": " Howe",
  "9032": " Howev",
  "9033": " However",
  "9034": " Lau",
  "9035": " Put",
  "9036": " Skell",
  "9037": " Skelly",
  "9038": " Stop",
  "9039": " Un",
  "9040": " applaude",
  "9041": " applauded",
  "9042": " argued",
  "9043": " balanced",
  "9044": " cheeri",
  "9045": " cheerin",
  "9046": " cheering",
  "9047": " claps",
  "9048": " confident",
  "9049": " crep",
  "9050": " crept",
  "9051": " darker",
  "9052": " faul",
  "9053": " fault",
  "9054": " fears",
  "9055": " gained",
  "9056": " grey",
  "9057": " highes",
  "9058": " highest",
  "9059": " homew",
  "9060": " homewo",
  "9061": " homewor",
  "9062": " homework",
  "9063": " keeper",
  "9064": " lac",
  "9065": " liq",
  "9066": " liqu",
  "9067": " liqui",
  "9068": " liquid",
  "9069": " lovin",
  "9070": " loving",
  "9071": " mass",
  "9072": " masks",
  "9073": " movies",
  "9074": " nappin",
  "9075": " napping",
  "9076": " pause",
  "9077": " poems",
  "9078": " pointy",
  "9079": " quacked",
  "9080": " reas",
  "9081": " refuse",
  "9082": " removed",
  "9083": " responsibl",
  "9084": " responsible",
  "9085": " sadn",
  "9086": " sadne",
  "9087": " sadnes",
  "9088": " sadness",
  "9089": " screws",
  "9090": " shoppi",
  "9091": " shoppin",
  "9092": " shopping",
  "9093": " sighs",
  "9094": " slic",
  "9095": " slice",
  "9096": " smarte",
  "9097": " stain",
  "9098": " stamps",
  "9099": " stroke",
  "9100": " thrille",
  "9101": " thrilled",
  "9102": " tunnels",
  "9103": " wanti",
  "9104": " wantin",
  "9105": " wanting",
  "9106": " woof",
  "9107": "During",
  "9108": "Silly",
  "9109": "Tina",
  "9110": "Whisk",
  "9111": "Whisker",
  "9112": "Whiskers",
  "9113": "seek",
  "9114": " Copp",
  "9115": " Copper",
  "9116": " Didi",
  "9117": " Henr",
  "9118": " Henry",
  "9119": " Kay",
  "9120": " Lea",
  "9121": " Leav",
  "9122": " Mel",
  "9123": " Mou",
  "9124": " Magg",
  "9125": " Maggie",
  "9126": " Mous",
  "9127": " Ray",
  "9128": " Sophia",
  "9129": " Uni",
  "9130": " Zee",
  "9131": " actions",
  "9132": " anno",
  "9133": " avoi",
  "9134": " avoid",
  "9135": " bene",
  "9136": " completed",
  "9137": " copy",
  "9138": " creatio",
  "9139": " creation",
  "9140": " curio",
  "9141": " curios",
  "9142": " curiosit",
  "9143": " curiosity",
  "9144": " curtains",
  "9145": " darl",
  "9146": " darlin",
  "9147": " darling",
  "9148": " draws",
  "9149": " everyd",
  "9150": " everyda",
  "9151": " everyday",
  "9152": " exa",
  "9153": " exac",
  "9154": " exact",
  "9155": " geni",
  "9156": " genie",
  "9157": " inter",
  "9158": " kindl",
  "9159": " kindly",
  "9160": " loadin",
  "9161": " loading",
  "9162": " lower",
  "9163": " machines",
  "9164": " organizin",
  "9165": " organizing",
  "9166": " pebbles",
  "9167": " perc",
  "9168": " possi",
  "9169": " possib",
  "9170": " possibl",
  "9171": " possible",
  "9172": " potatoe",
  "9173": " potatoes",
  "9174": " practicin",
  "9175": " practicing",
  "9176": " recordin",
  "9177": " recording",
  "9178": " refre",
  "9179": " refres",
  "9180": " reply",
  "9181": " rivers",
  "9182": " rum",
  "9183": " sausages",
  "9184": " scarin",
  "9185": " scaring",
  "9186": " seawe",
  "9187": " seawee",
  "9188": " seaweed",
  "9189": " seems",
  "9190": " seesa",
  "9191": " seesaw",
  "9192": " shelv",
  "9193": " shelve",
  "9194": " shelves",
  "9195": " sled",
  "9196": " sparkli",
  "9197": " sparklin",
  "9198": " sparkling",
  "9199": " struck",
  "9200": " tang",
  "9201": " united",
  "9202": " wipi",
  "9203": " wipin",
  "9204": " wiping",
  "9205": "?\",",
  "9206": "Buzz",
  "9207": "Ella",
  "9208": "Jerry",
  "9209": "Jake",
  "9210": "Ruby",
  "9211": "Time",
  "9212": "True",
  "9213": "anna",
  "9214": "ear",
  "9215": "inde",
  "9216": "occo",
  "9217": "”.",
  "9218": " Br",
  "9219": " Birdi",
  "9220": " Birdie",
  "9221": " Bye",
  "9222": " Clara",
  "9223": " Fran",
  "9224": " Jean",
  "9225": " Jona",
  "9226": " Marc",
  "9227": " Qui",
  "9228": " Quick",
  "9229": " Reme",
  "9230": " Remem",
  "9231": " Rememb",
  "9232": " Remember",
  "9233": " Woo",
  "9234": " Wall",
  "9235": " answers",
  "9236": " biti",
  "9237": " bitin",
  "9238": " biting",
  "9239": " bleedi",
  "9240": " bleedin",
  "9241": " bleeding",
  "9242": " covers",
  "9243": " dam",
  "9244": " deserve",
  "9245": " gigglin",
  "9246": " giggling",
  "9247": " grandc",
  "9248": " grandch",
  "9249": " grandchi",
  "9250": " grandchil",
  "9251": " grandchild",
  "9252": " hardl",
  "9253": " hardly",
  "9254": " insects",
  "9255": " jokin",
  "9256": " joking",
  "9257": " lace",
  "9258": " limes",
  "9259": " massa",
  "9260": " massag",
  "9261": " massage",
  "9262": " napkins",
  "9263": " olives",
  "9264": " prettier",
  "9265": " proper",
  "9266": " rainy",
  "9267": " repaired",
  "9268": " scarec",
  "9269": " scarecr",
  "9270": " scarecro",
  "9271": " scarecrow",
  "9272": " shadows",
  "9273": " shivere",
  "9274": " shivered",
  "9275": " sights",
  "9276": " sire",
  "9277": " siren",
  "9278": " snowf",
  "9279": " snowfl",
  "9280": " snowfla",
  "9281": " snowflak",
  "9282": " snowflake",
  "9283": " sunl",
  "9284": " sunli",
  "9285": " sunlig",
  "9286": " sunligh",
  "9287": " sunlight",
  "9288": " tastes",
  "9289": " tucke",
  "9290": " tucked",
  "9291": "An",
  "9292": "Ribbit",
  "9293": "Ted",
  "9294": "ids",
  "9295": "ros",
  "9296": "weet",
  "9297": " Alw",
  "9298": " Alway",
  "9299": " Always",
  "9300": " Che",
  "9301": " Dare",
  "9302": " Hap",
  "9303": " Happ",
  "9304": " Jame",
  "9305": " James",
  "9306": " Johns",
  "9307": " Johnson",
  "9308": " Leave",
  "9309": " Pu",
  "9310": " San",
  "9311": " Sant",
  "9312": " Santa",
  "9313": " Stre",
  "9314": " Stret",
  "9315": " Stretc",
  "9316": " Stretch",
  "9317": " Thu",
  "9318": " Wally",
  "9319": " Zigz",
  "9320": " Zigza",
  "9321": " Zigzag",
  "9322": " aim",
  "9323": " annoy",
  "9324": " argui",
  "9325": " arguin",
  "9326": " arguing",
  "9327": " bitten",
  "9328": " bricks",
  "9329": " bumpy",
  "9330": " chuc",
  "9331": " chuck",
  "9332": " clic",
  "9333": " click",
  "9334": " collectin",
  "9335": " collecting",
  "9336": " crumbs",
  "9337": " cuddled",
  "9338": " daisi",
  "9339": " daisie",
  "9340": " daisies",
  "9341": " dire",
  "9342": " direc",
  "9343": " direct",
  "9344": " exh",
  "9345": " exactl",
  "9346": " exactly",
  "9347": " firef",
  "9348": " firefl",
  "9349": " flavor",
  "9350": " forks",
  "9351": " gob",
  "9352": " groups",
  "9353": " hides",
  "9354": " impos",
  "9355": " imposs",
  "9356": " impossi",
  "9357": " impossib",
  "9358": " impossibl",
  "9359": " impossible",
  "9360": " jewels",
  "9361": " knees",
  "9362": " lettu",
  "9363": " lettuc",
  "9364": " lettuce",
  "9365": " neighbourh",
  "9366": " neighbourho",
  "9367": " neighbourhoo",
  "9368": " neighbourhood",
  "9369": " obe",
  "9370": " obey",
  "9371": " panick",
  "9372": " prayer",
  "9373": " raind",
  "9374": " raindr",
  "9375": " raindro",
  "9376": " raindrop",
  "9377": " recognized",
  "9378": " relu",
  "9379": " reluc",
  "9380": " reluct",
  "9381": " relucta",
  "9382": " reluctan",
  "9383": " reluctant",
  "9384": " robb",
  "9385": " rottin",
  "9386": " rotting",
  "9387": " sneezi",
  "9388": " sneezin",
  "9389": " sneezing",
  "9390": " squis",
  "9391": " stem",
  "9392": " stomp",
  "9393": " suppli",
  "9394": " supplie",
  "9395": " surrounde",
  "9396": " surrounded",
  "9397": " thor",
  "9398": " thorn",
  "9399": " warme",
  "9400": " whos",
  "9401": " whose",
  "9402": " wiggled",
  "9403": ".'",
  "9404": "Benn",
  "9405": "Benny",
  "9406": "Fine",
  "9407": "Great",
  "9408": "Hanna",
  "9409": "Or",
  "9410": "Run",
  "9411": "ani",
  "9412": "essie",
  "9413": "las",
  "9414": "ops",
  "9415": " Au",
  "9416": " For",
  "9417": " Fuzzy",
  "9418": " Joy",
  "9419": " Micro",
  "9420": " Mouse",
  "9421": " Qu",
  "9422": " Quack",
  "9423": " Rolly",
  "9424": " Spl",
  "9425": " Univer",
  "9426": " Univers",
  "9427": " Universit",
  "9428": " University",
  "9429": " Water",
  "9430": " Zo",
  "9431": " activi",
  "9432": " activit",
  "9433": " awes",
  "9434": " becomi",
  "9435": " becomin",
  "9436": " becoming",
  "9437": " benea",
  "9438": " beneat",
  "9439": " beneath",
  "9440": " bowls",
  "9441": " bracelets",
  "9442": " brushed",
  "9443": " caut",
  "9444": " cauti",
  "9445": " chirped",
  "9446": " chuckl",
  "9447": " clues",
  "9448": " completel",
  "9449": " completely",
  "9450": " conc",
  "9451": " confl",
  "9452": " confli",
  "9453": " conflic",
  "9454": " conflict",
  "9455": " cuddly",
  "9456": " desp",
  "9457": " died",
  "9458": " exha",
  "9459": " exhau",
  "9460": " exhaust",
  "9461": " fascinated",
  "9462": " gatheri",
  "9463": " gatherin",
  "9464": " gathering",
  "9465": " greet",
  "9466": " grows",
  "9467": " included",
  "9468": " kites",
  "9469": " knocks",
  "9470": " listens",
  "9471": " magazines",
  "9472": " mountains",
  "9473": " noon",
  "9474": " opin",
  "9475": " opini",
  "9476": " opinio",
  "9477": " opinion",
  "9478": " outf",
  "9479": " outfit",
  "9480": " paddle",
  "9481": " panc",
  "9482": " panca",
  "9483": " pancak",
  "9484": " pancake",
  "9485": " perche",
  "9486": " perched",
  "9487": " quarrelin",
  "9488": " quarreling",
  "9489": " reluctantl",
  "9490": " reluctantly",
  "9491": " roarin",
  "9492": " roaring",
  "9493": " robber",
  "9494": " rubs",
  "9495": " rubbing",
  "9496": " sailors",
  "9497": " situ",
  "9498": " situa",
  "9499": " situat",
  "9500": " situati",
  "9501": " situatio",
  "9502": " situation",
  "9503": " smalles",
  "9504": " smallest",
  "9505": " soari",
  "9506": " soarin",
  "9507": " soaring",
  "9508": " stun",
  "9509": " tangl",
  "9510": " tangle",
  "9511": " tangled",
  "9512": " tasti",
  "9513": " travele",
  "9514": " trul",
  "9515": " truly",
  "9516": " valued",
  "9517": " wins",
  "9518": "Bill",
  "9519": "Jen",
  "9520": "Mike",
  "9521": "Thanks",
  "9522": "Watch",
  "9523": "art",
  "9524": "arry",
  "9525": " Y",
  "9526": " Bugg",
  "9527": " Buggy",
  "9528": " Cra",
  "9529": " Cath",
  "9530": " Cathy",
  "9531": " Clai",
  "9532": " Claire",
  "9533": " Fre",
  "9534": " Happy",
  "9535": " Mop",
  "9536": " Pam",
  "9537": " Ri",
  "9538": " Si",
  "9539": " Squi",
  "9540": " Suzi",
  "9541": " Too",
  "9542": " Twi",
  "9543": " Twis",
  "9544": " Twist",
  "9545": " Watc",
  "9546": " Watch",
  "9547": " agrees",
  "9548": " aweso",
  "9549": " awesom",
  "9550": " awesome",
  "9551": " backed",
  "9552": " bank",
  "9553": " bead",
  "9554": " brand",
  "9555": " bully",
  "9556": " bumps",
  "9557": " calmed",
  "9558": " cheat",
  "9559": " chuckled",
  "9560": " crowd",
  "9561": " destin",
  "9562": " destina",
  "9563": " destinat",
  "9564": " destinati",
  "9565": " destinatio",
  "9566": " destination",
  "9567": " dolla",
  "9568": " dollar",
  "9569": " dots",
  "9570": " drives",
  "9571": " exhausted",
  "9572": " expected",
  "9573": " firm",
  "9574": " flutt",
  "9575": " flutte",
  "9576": " flutter",
  "9577": " foldi",
  "9578": " foldin",
  "9579": " folding",
  "9580": " hangers",
  "9581": " heavi",
  "9582": " hissed",
  "9583": " leap",
  "9584": " marker",
  "9585": " notes",
  "9586": " onwards",
  "9587": " pastels",
  "9588": " peas",
  "9589": " polishe",
  "9590": " pood",
  "9591": " poodl",
  "9592": " poodle",
  "9593": " prayin",
  "9594": " praying",
  "9595": " princesse",
  "9596": " princesses",
  "9597": " pumpkins",
  "9598": " raindrops",
  "9599": " refreshe",
  "9600": " refreshed",
  "9601": " reminder",
  "9602": " scratches",
  "9603": " scur",
  "9604": " scurr",
  "9605": " softe",
  "9606": " stude",
  "9607": " studen",
  "9608": " student",
  "9609": " surfe",
  "9610": " ties",
  "9611": " traveled",
  "9612": " uns",
  "9613": " usual",
  "9614": " usuall",
  "9615": " usually",
  "9616": " ven",
  "9617": " vent",
  "9618": " ventu",
  "9619": " waiter",
  "9620": " weeks",
  "9621": " weren",
  "9622": " wobbled",
  "9623": " zooke",
  "9624": " zookee",
  "9625": " zookeep",
  "9626": " zookeeper",
  "9627": " zooms",
  "9628": "...\"",
  "9629": "Days",
  "9630": "Ducky",
  "9631": "Lola",
  "9632": "Quack",
  "9633": "Ra",
  "9634": "Reme",
  "9635": "Remem",
  "9636": "Rememb",
  "9637": "Remember",
  "9638": "Un",
  "9639": "Zoom",
  "9640": "ilo",
  "9641": "irat",
  "9642": "lee",
  "9643": "ngr",
  "9644": "yes",
  "9645": "you",
  "9646": " Chr",
  "9647": " Chris",
  "9648": " Finny",
  "9649": " Gina",
  "9650": " Juli",
  "9651": " Julia",
  "9652": " Lar",
  "9653": " Laur",
  "9654": " Laura",
  "9655": " Mon",
  "9656": " Ot",
  "9657": " Other",
  "9658": " Rober",
  "9659": " Robert",
  "9660": " Sadi",
  "9661": " Sadie",
  "9662": " Shel",
  "9663": " Shell",
  "9664": " Shelly",
  "9665": " Sofi",
  "9666": " Sofia",
  "9667": " Suzy",
  "9668": " Tar",
  "9669": " Tara",
  "9670": " Tes",
  "9671": " Tess",
  "9672": " Tre",
  "9673": " Twin",
  "9674": " Twink",
  "9675": " Twinkl",
  "9676": " Twinkle",
  "9677": " Whipp",
  "9678": " Whippy",
  "9679": " Whist",
  "9680": " Whistl",
  "9681": " Worr",
  "9682": " accomplish",
  "9683": " ast",
  "9684": " bedt",
  "9685": " bedti",
  "9686": " bedtim",
  "9687": " bedtime",
  "9688": " choices",
  "9689": " continue",
  "9690": " cracker",
  "9691": " dressin",
  "9692": " dressing",
  "9693": " faced",
  "9694": " fara",
  "9695": " faraw",
  "9696": " farawa",
  "9697": " faraway",
  "9698": " grandmo",
  "9699": " grandmot",
  "9700": " grandmothe",
  "9701": " grandmother",
  "9702": " hesitate",
  "9703": " hesitated",
  "9704": " hopef",
  "9705": " hopefu",
  "9706": " hopeful",
  "9707": " humm",
  "9708": " len",
  "9709": " lighter",
  "9710": " missio",
  "9711": " mission",
  "9712": " neit",
  "9713": " neithe",
  "9714": " neither",
  "9715": " ordered",
  "9716": " parked",
  "9717": " patienc",
  "9718": " patience",
  "9719": " plug",
  "9720": " pockets",
  "9721": " pourin",
  "9722": " pouring",
  "9723": " pretends",
  "9724": " purred",
  "9725": " released",
  "9726": " rememberin",
  "9727": " remembering",
  "9728": " rescued",
  "9729": " ropes",
  "9730": " rumb",
  "9731": " safer",
  "9732": " satisfi",
  "9733": " satisfie",
  "9734": " satisfied",
  "9735": " sens",
  "9736": " skun",
  "9737": " skunk",
  "9738": " slam",
  "9739": " squares",
  "9740": " squish",
  "9741": " stari",
  "9742": " starin",
  "9743": " staring",
  "9744": " stripes",
  "9745": " surfi",
  "9746": " surfin",
  "9747": " surfing",
  "9748": " switche",
  "9749": " tighte",
  "9750": " tos",
  "9751": " toss",
  "9752": " traded",
  "9753": " twe",
  "9754": " twinkli",
  "9755": " twinklin",
  "9756": " twinkling",
  "9757": " windy",
  "9758": " winke",
  "9759": " winked",
  "9760": "...",
  "9761": "Excu",
  "9762": "Excuse",
  "9763": "Gra",
  "9764": "May",
  "9765": "Oops",
  "9766": "Spi",
  "9767": "Sunny",
  "9768": "Spike",
  "9769": "Whee",
  "9770": "anny",
  "9771": "elv",
  "9772": "imon",
  "9773": "inky",
  "9774": "odo",
  "9775": "sey",
  "9776": "vroom",
  "9777": "  ",
  "9778": " Dina",
  "9779": " Goodb",
  "9780": " Goodby",
  "9781": " Goodbye",
  "9782": " Jani",
  "9783": " Jef",
  "9784": " Jeff",
  "9785": " Jonat",
  "9786": " Jonath",
  "9787": " Jonatha",
  "9788": " Jonathan",
  "9789": " List",
  "9790": " Liste",
  "9791": " Listen",
  "9792": " Luke",
  "9793": " Mil",
  "9794": " Pir",
  "9795": " Pirat",
  "9796": " Pirate",
  "9797": " Rav",
  "9798": " Ravi",
  "9799": " Sm",
  "9800": " Spin",
  "9801": " Spir",
  "9802": " Spirit",
  "9803": " Toot",
  "9804": " Two",
  "9805": " bare",
  "9806": " beads",
  "9807": " bravery",
  "9808": " caused",
  "9809": " cautiou",
  "9810": " cautious",
  "9811": " cen",
  "9812": " cent",
  "9813": " comfy",
  "9814": " comforted",
  "9815": " conn",
  "9816": " conne",
  "9817": " connec",
  "9818": " connect",
  "9819": " contes",
  "9820": " contest",
  "9821": " cowb",
  "9822": " cowbo",
  "9823": " cowboy",
  "9824": " crossin",
  "9825": " crossing",
  "9826": " directi",
  "9827": " directio",
  "9828": " direction",
  "9829": " divin",
  "9830": " diving",
  "9831": " dollh",
  "9832": " dollhou",
  "9833": " dollhous",
  "9834": " dollhouse",
  "9835": " fad",
  "9836": " fev",
  "9837": " feve",
  "9838": " fever",
  "9839": " firefly",
  "9840": " floats",
  "9841": " foc",
  "9842": " focu",
  "9843": " focus",
  "9844": " forgets",
  "9845": " fuz",
  "9846": " fuzz",
  "9847": " fuzzy",
  "9848": " glasse",
  "9849": " glasses",
  "9850": " granted",
  "9851": " growls",
  "9852": " guid",
  "9853": " heale",
  "9854": " healed",
  "9855": " heroe",
  "9856": " heroes",
  "9857": " indee",
  "9858": " indeed",
  "9859": " intri",
  "9860": " intrig",
  "9861": " intrigu",
  "9862": " intrigued",
  "9863": " lil",
  "9864": " lily",
  "9865": " openin",
  "9866": " opening",
  "9867": " pans",
  "9868": " pastri",
  "9869": " pastrie",
  "9870": " pastries",
  "9871": " peer",
  "9872": " penguins",
  "9873": " plannin",
  "9874": " planning",
  "9875": " polished",
  "9876": " pout",
  "9877": " printin",
  "9878": " printing",
  "9879": " restor",
  "9880": " rockets",
  "9881": " screami",
  "9882": " screamin",
  "9883": " screaming",
  "9884": " scrubb",
  "9885": " sewe",
  "9886": " sewed",
  "9887": " silent",
  "9888": " slippi",
  "9889": " slippin",
  "9890": " slipping",
  "9891": " sob",
  "9892": " storek",
  "9893": " storeke",
  "9894": " storekee",
  "9895": " storekeep",
  "9896": " storekeepe",
  "9897": " storekeeper",
  "9898": " struggli",
  "9899": " strugglin",
  "9900": " struggling",
  "9901": " surfa",
  "9902": " surfac",
  "9903": " surface",
  "9904": " til",
  "9905": " towels",
  "9906": " twinkle",
  "9907": " unpacked",
  "9908": " visitin",
  "9909": " visiting",
  "9910": " wasted",
  "9911": " wed",
  "9912": " workers",
  "9913": "Big",
  "9914": "Bunny",
  "9915": "Chirp",
  "9916": "Dan",
  "9917": "Danny",
  "9918": "Dog",
  "9919": "Dogg",
  "9920": "Doggy",
  "9921": "Magg",
  "9922": "Maggie",
  "9923": "Pat",
  "9924": "Sad",
  "9925": "Shh",
  "9926": "Tweet",
  "9927": "aco",
  "9928": "anie",
  "9929": "beep",
  "9930": "rrr",
  "9931": " Cam",
  "9932": " Dod",
  "9933": " Dot",
  "9934": " Dodo",
  "9935": " Get",
  "9936": " Hannah",
  "9937": " Herb",
  "9938": " Hoo",
  "9939": " Im",
  "9940": " Jessi",
  "9941": " Jessic",
  "9942": " Jessica",
  "9943": " Josh",
  "9944": " Kelly",
  "9945": " Las",
  "9946": " Laser",
  "9947": " Patc",
  "9948": " Patch",
  "9949": " Prin",
  "9950": " Princ",
  "9951": " Prince",
  "9952": " Roc",
  "9953": " Rocco",
  "9954": " Rudy",
  "9955": " Squir",
  "9956": " Squirre",
  "9957": " Squirrel",
  "9958": " Tia",
  "9959": " Try",
  "9960": " Tree",
  "9961": " Unf",
  "9962": " Unfor",
  "9963": " Unfort",
  "9964": " Unfortu",
  "9965": " Unfortun",
  "9966": " Unfortunat",
  "9967": " Unfortunate",
  "9968": " Unfortunatel",
  "9969": " Unfortunately",
  "9970": " Worry",
  "9971": " addi",
  "9972": " age",
  "9973": " beard",
  "9974": " blocki",
  "9975": " blockin",
  "9976": " blocking",
  "9977": " bottles",
  "9978": " buyi",
  "9979": " buyin",
  "9980": " buying",
  "9981": " chases",
  "9982": " clowns",
  "9983": " competitio",
  "9984": " competition",
  "9985": " complai",
  "9986": " complained",
  "9987": " complainin",
  "9988": " complaining",
  "9989": " concer",
  "9990": " dama",
  "9991": " damag",
  "9992": " diamonds",
  "9993": " drip",
  "9994": " ec",
  "9995": " fab",
  "9996": " fabr",
  "9997": " fabri",
  "9998": " fabric",
  "9999": " gems"
}