{
  "0": "\u0000",
  "1": "\u0001",
  "2": "\u0002",
  "3": "\u0003",
  "4": "\u0004",
  "5": "\u0005",
  "6": "\u0006",
  "7": "\u0007",
  "8": "\b",
  "9": "\t",
  "10": "\n",
  "11": "\u000b",
  "12": "\f",
  "13": "\r",
  "14": "\u000e",
  "15": "\u000f",
  "16": "\u0010",
  "17": "\u0011",
  "18": "\u0012",
  "19": "\u0013",
  "20": "\u0014",
  "21": "\u0015",
  "22": "\u0016",
  "23": "\u0017",
  "24": "\u0018",
  "25": "\u0019",
  "26": "\u001a",
  "27": "\u001b",
  "28": "\u001c",
  "29": "\u001d",
  "30": "\u001e",
  "31": "\u001f",
  "32": " ",
  "33": "!",
  "34": "\"",
  "35": "#",
  "36": "$",
  "37": "%",
  "38": "&",
  "39": "'",
  "40": "(",
  "41": ")",
  "42": "*",
  "43": "+",
  "44": ",",
  "45": "-",
  "46": ".",
  "47": "/",
  "48": "0",
  "49": "1",
  "50": "2",
  "51": "3",
  "52": "4",
  "53": "5",
  "54": "6",
  "55": "7",
  "56": "8",
  "57": "9",
  "58": ":",
  "59": ";",
  "60": "<",
  "61": "=",
  "62": ">",
  "63": "?",
  "64": "@",
  "65": "A",
  "66": "B",
  "67": "C",
  "68": "D",
  "69": "E",
  "70": "F",
  "71": "G",
  "72": "H",
  "73": "I",
  "74": "J",
  "75": "K",
  "76": "L",
  "77": "M",
  "78": "N",
  "79": "O",
  "80": "P",
  "81": "Q",
  "82": "R",
  "83": "S",
  "84": "T",
  "85": "U",
  "86": "V",
  "87": "W",
  "88": "X",
  "89": "Y",
  "90": "Z",
  "91": "[",
  "92": "\\",
  "93": "]",
  "94": "^",
  "95": "_",
  "96": "`",
  "97": "a",
  "98": "b",
  "99": "c",
  "100": "d",
  "101": "e",
  "102": "f",
  "103": "g",
  "104": "h",
  "105": "i",
  "106": "j",
  "107": "k",
  "108": "l",
  "109": "m",
  "110": "n",
  "111": "o",
  "112": "p",
  "113": "q",
  "114": "r",
  "115": "s",
  "116": "t",
  "117": "u",
  "118": "v",
  "119": "w",
  "120": "x",
  "121": "y",
  "122": "z",
  "123": "{",
  "124": "|",
  "125": "}",
  "126": "~",
  "127": "",
  "128": "�",
  "129": "�",
  "130": "�",
  "131": "�",
  "132": "�",
  "133": "�",
  "134": "�",
  "135": "�",
  "136": "�",
  "137": "�",
  "138": "�",
  "139": "�",
  "140": "�",
  "141": "�",
  "142": "�",
  "143": "�",
  "144": "�",
  "145": "�",
  "146": "�",
  "147": "�",
  "148": "�",
  "149": "�",
  "150": "�",
  "151": "�",
  "152": "�",
  "153": "�",
  "154": "�",
  "155": "�",
  "156": "�",
  "157": "�",
  "158": "�",
  "159": "�",
  "160": "�",
  "161": "�",
  "162": "�",
  "163": "�",
  "164": "�",
  "165": "�",
  "166": "�",
  "167": "�",
  "168": "�",
  "169": "�",
  "170": "�",
  "171": "�",
  "172": "�",
  "173": "�",
  "174": "�",
  "175": "�",
  "176": "�",
  "177": "�",
  "178": "�",
  "179": "�",
  "180": "�",
  "181": "�",
  "182": "�",
  "183": "�",
  "184": "�",
  "185": "�",
  "186": "�",
  "187": "�",
  "188": "�",
  "189": "�",
  "190": "�",
  "191": "�",
  "192": "�",
  "193": "�",
  "194": "�",
  "195": "�",
  "196": "�",
  "197": "�",
  "198": "�",
  "199": "�",
  "200": "�",
  "201": "�",
  "202": "�",
  "203": "�",
  "204": "�",
  "205": "�",
  "206": "�",
  "207": "�",
  "208": "�",
  "209": "�",
  "210": "�",
  "211": "�",
  "212": "�",
  "213": "�",
  "214": "�",
  "215": "�",
  "216": "�",
  "217": "�",
  "218": "�",
  "219": "�",
  "220": "�",
  "221": "�",
  "222": "�",
  "223": "�",
  "224": "�",
  "225": "�",
  "226": "�",
  "227": "�",
  "228": "�",
  "229": "�",
  "230": "�",
  "231": "�",
  "232": "�",
  "233": "�",
  "234": "�",
  "235": "�",
  "236": "�",
  "237": "�",
  "238": "�",
  "239": "�",
  "240": "�",
  "241": "�",
  "242": "�",
  "243": "�",
  "244": "�",
  "245": "�",
  "246": "�",
  "247": "�",
  "248": "�",
  "249": "�",
  "250": "�",
  "251": "�",
  "252": "�",
  "253": "�",
  "254": "�",
  "255": "�",
  "256": "<|endoftext|>",
  "257": "<pad>",
  "258": "<unk>",
  "259": " t",
  "260": "he",
  "261": " a",
  "262": "th",
  "263": " s",
  "264": "an",
  "265": " w",
  "266": "nd",
  "267": " h",
  "268": "ed",
  "269": "to",
  "270": "er",
  "271": " b",
  "272": "in",
  "273": "wa",
  "274": "re",
  "275": " f",
  "276": " T",
  "277": "it",
  "278": "ou",
  "279": "as",
  "280": "ha",
  "281": " l",
  "282": " i",
  "283": "Th",
  "284": " d",
  "285": "en",
  "286": " c",
  "287": "ar",
  "288": " p",
  "289": "ay",
  "290": " m",
  "291": "me",
  "292": "ve",
  "293": "om",
  "294": "at",
  "295": " o",
  "296": "hi",
  "297": "le",
  "298": "sa",
  "299": "ne",
  "300": "is",
  "301": "ng",
  "302": "on",
  "303": " n",
  "304": "ey",
  "305": "im",
  "306": "te",
  "307": "ll",
  "308": "id",
  "309": "al",
  "310": "ke",
  "311": "or",
  "312": "ca",
  "313": "st",
  "314": " g",
  "315": "ea",
  "316": "oo",
  "317": " S",
  "318": "la",
  "319": "nt",
  "320": "lo",
  "321": "li",
  "322": "ot",
  "323": "il",
  "324": "ad",
  "325": "ai",
  "326": "un",
  "327": "ri",
  "328": "ut",
  "329": "wi",
  "330": "et",
  "331": "am",
  "332": "sh",
  "333": "ir",
  "334": "pl",
  "335": "el",
  "336": "bi",
  "337": "se",
  "338": "we",
  "339": "ro",
  "340": "de",
  "341": "be",
  "342": "es",
  "343": " r",
  "344": "ry",
  "345": "He",
  "346": " H",
  "347": "da",
  "348": "ma",
  "349": "ho",
  "350": "ly",
  "351": "ig",
  "352": "ee",
  "353": "ie",
  "354": "ow",
  "355": "no",
  "356": "ti",
  "357": "so",
  "358": " \"",
  "359": "mo",
  "360": "fo",
  "361": "Ti",
  "362": " u",
  "363": "fr",
  "364": "ce",
  "365": "pp",
  "366": "ra",
  "367": "On",
  "368": "ap",
  "369": " y",
  "370": "pe",
  "371": "tt",
  "372": "ld",
  "373": "bo",
  "374": " e",
  "375": "Sh",
  "376": "ul",
  "377": "ck",
  "378": "do",
  "379": "yo",
  "380": " I",
  "381": "co",
  "382": "ge",
  "383": "ch",
  "384": "tr",
  "385": "po",
  "386": "us",
  "387": "aw",
  "388": "ok",
  "389": "ta",
  "390": "ac",
  "391": "rd",
  "392": "na",
  "393": "ba",
  "394": "ur",
  "395": "gh",
  "396": "og",
  "397": "up",
  "398": " v",
  "399": "of",
  "400": "ic",
  "401": "bu",
  "402": " L",
  "403": "oy",
  "404": "ug",
  "405": "fu",
  "406": "go",
  "407": "ol",
  "408": "py",
  "409": "nc",
  "410": "Li",
  "411": "wh",
  "412": "di",
  "413": " B",
  "414": "av",
  "415": " k",
  "416": "ec",
  "417": " M",
  "418": "'s",
  "419": "To",
  "420": "mi",
  "421": "wo",
  "422": "ak",
  "423": "fe",
  "424": "pa",
  "425": "fi",
  "426": "rt",
  "427": "si",
  "428": ".\"",
  "429": "gi",
  "430": "ov",
  "431": "ny",
  "432": "ew",
  "433": "sm",
  "434": "ye",
  "435": "op",
  "436": "ik",
  "437": "It",
  "438": "ht",
  "439": "pi",
  "440": "ga",
  "441": "!\"",
  "442": "ki",
  "443": "em",
  "444": "gr",
  "445": "ts",
  "446": "ag",
  "447": "uc",
  "448": "ue",
  "449": "my",
  "450": "pr",
  "451": "ys",
  "452": "od",
  "453": "ev",
  "454": "rs",
  "455": "ni",
  "456": "rk",
  "457": "ei",
  "458": " A",
  "459": "au",
  "460": "fa",
  "461": "sk",
  "462": "Sa",
  "463": "cl",
  "464": "iv",
  "465": "su",
  "466": " j",
  "467": "Su",
  "468": "fl",
  "469": "Ma",
  "470": "ab",
  "471": "rr",
  "472": "Bu",
  "473": "pu",
  "474": "bl",
  "475": "ss",
  "476": "nk",
  "477": "nn",
  "478": "rn",
  "479": "ns",
  "480": "br",
  "481": "ex",
  "482": "ru",
  "483": "?\"",
  "484": "tu",
  "485": "ud",
  "486": "wn",
  "487": "um",
  "488": "kn",
  "489": "ia",
  "490": "Be",
  "491": "sp",
  "492": "sc",
  "493": "cr",
  "494": "'t",
  "495": "ty",
  "496": "ax",
  "497": "os",
  "498": "ep",
  "499": "lt",
  "500": "gs",
  "501": " O",
  "502": "hu",
  "503": "Wh",
  "504": "mp",
  "505": "yi",
  "506": "oc",
  "507": "oi",
  "508": "ls",
  "509": "mm",
  "510": "ft",
  "511": "if",
  "512": "ct",
  "513": "An",
  "514": "dd",
  "515": "ju",
  "516": " W",
  "517": "Yo",
  "518": "ob",
  "519": "ef",
  "520": "Mo",
  "521": "Sp",
  "522": "lu",
  "523": "ui",
  "524": "Mi",
  "525": "mu",
  "526": "af",
  "527": "io",
  "528": "ff",
  "529": "ox",
  "530": "cy",
  "531": "oa",
  "532": "So",
  "533": "gg",
  "534": " J",
  "535": "rm",
  "536": " F",
  "537": "mb",
  "538": "vi",
  "539": "sw",
  "540": " Y",
  "541": "Lu",
  "542": "by",
  "543": "qu",
  "544": "sl",
  "545": ",\"",
  "546": "Bo",
  "547": "Hi",
  "548": "cu",
  "549": "ky",
  "550": "We",
  "551": "Le",
  "552": "jo",
  "553": " D",
  "554": "bb",
  "555": "xc",
  "556": "xp",
  "557": "rf",
  "558": "ip",
  "559": "�",
  "560": "No",
  "561": "gl",
  "562": "hr",
  "563": "Ye",
  "564": "Do",
  "565": "Ca",
  "566": " E",
  "567": "hy",
  "568": "Fr",
  "569": "Am",
  "570": "oe",
  "571": "sn",
  "572": "Ja",
  "573": "As",
  "574": " C",
  "575": "sy",
  "576": "ze",
  "577": "eg",
  "578": "In",
  "579": "tw",
  "580": "ym",
  "581": "lf",
  "582": "Ev",
  "583": "rg",
  "584": "ub",
  "585": " q",
  "586": "iz",
  "587": "Da",
  "588": "gu",
  "589": "wl",
  "590": "ka",
  "591": "ya",
  "592": "Ki",
  "593": "xt",
  "594": "uf",
  "595": "ix",
  "596": "'m",
  "597": "Jo",
  "598": "rc",
  "599": " K",
  "600": "az",
  "601": "du",
  "602": "Fi",
  "603": "ps",
  "604": " P",
  "605": "Af",
  "606": "wr",
  "607": " N",
  "608": "At",
  "609": "yu",
  "610": "Lo",
  "611": "Fl",
  "612": "ua",
  "613": "zz",
  "614": " R",
  "615": "ph",
  "616": "Wo",
  "617": "Al",
  "618": "va",
  "619": "gn",
  "620": "dv",
  "621": " G",
  "622": "oh",
  "623": "nj",
  "624": "Bi",
  "625": "zy",
  "626": " z",
  "627": "zi",
  "628": "eb",
  "629": "ib",
  "630": "Mr",
  "631": "ja",
  "632": "��",
  "633": "Ju",
  "634": "Ji",
  "635": "Re",
  "636": "Je",
  "637": "ek",
  "638": "cc",
  "639": "ah",
  "640": "\".",
  "641": "Go",
  "642": "vy",
  "643": "Ok",
  "644": "Co",
  "645": "zo",
  "646": "Wi",
  "647": "nf",
  "648": "Oh",
  "649": "Gr",
  "650": "Ho",
  "651": "Pl",
  "652": "lv",
  "653": "Ch",
  "654": "Em",
  "655": "Pe",
  "656": "OK",
  "657": "St",
  "658": " Z",
  "659": "Ro",
  "660": "My",
  "661": "Mu",
  "662": " -",
  "663": "Bl",
  "664": "lb",
  "665": "La",
  "666": "El",
  "667": "Pa",
  "668": "If",
  "669": "Gi",
  "670": "Of",
  "671": "Ha",
  "672": "Pi",
  "673": "Po",
  "674": "Du",
  "675": "Wa",
  "676": "Tr",
  "677": "Ar",
  "678": "Br",
  "679": "Zo",
  "680": "Te",
  "681": "Me",
  "682": "TV",
  "683": "Di",
  "684": " 3",
  "685": "Se",
  "686": "Ne",
  "687": "Un",
  "688": "Ba",
  "689": "Ra",
  "690": "Fo",
  "691": "Zi",
  "692": " U",
  "693": "Tw",
  "694": " '",
  "695": "Ou",
  "696": "yg",
  "697": "Ow",
  "698": "By",
  "699": "Yu",
  "700": "ae",
  "701": "Ge",
  "702": "Ru",
  "703": "Is",
  "704": "Cl",
  "705": "eq",
  "706": "Ka",
  "707": "Sn",
  "708": "ku",
  "709": "Tu",
  "710": "np",
  "711": "yl",
  "712": "'d",
  "713": "En",
  "714": "xy",
  "715": "Ri",
  "716": "\",",
  "717": "Si",
  "718": "Ta",
  "719": "Pu",
  "720": "Ea",
  "721": "Or",
  "722": "Ab",
  "723": "..",
  "724": "Ni",
  "725": "De",
  "726": "Ya",
  "727": "Pr",
  "728": "Qu",
  "729": "Sk",
  "730": " x",
  "731": "Ke",
  "732": "Za",
  "733": " V",
  "734": "Sl",
  "735": "Sm",
  "736": "yd",
  "737": "Dr",
  "738": "\n ",
  "739": "Fa",
  "740": "Na",
  "741": "Cr",
  "742": "Cu",
  "743": " Q",
  "744": "Ze",
  "745": "'.",
  "746": "Au",
  "747": "Gu",
  "748": "Ad",
  "749": "Ga",
  "750": "Ac",
  "751": "Av",
  "752": "Hu",
  "753": "!'",
  "754": "Ex",
  "755": "hh",
  "756": "Ci",
  "757": "Mm",
  "758": "yr",
  "759": "Vi",
  "760": ".'",
  "761": "Ah",
  "762": "aa",
  "763": "Fe",
  "764": "Sc",
  "765": "Fu",
  "766": " X",
  "767": "Nu",
  "768": "Uh",
  "769": "Sw",
  "770": " \n",
  "771": "Ot",
  "772": "Ed",
  "773": "Op",
  "774": "Ew",
  "775": " 1",
  "776": "?'",
  "777": "  ",
  "778": "Up",
  "779": "?!",
  "780": "yn",
  "781": "--",
  "782": "Ce",
  "783": "Im",
  "784": "Ry",
  "785": "Gl",
  "786": "'\"",
  "787": "Er",
  "788": "Us",
  "789": "Ly",
  "790": "',",
  "791": "''",
  "792": " 2",
  "793": "Ox",
  "794": "Kn",
  "795": "Ag",
  "796": "10",
  "797": "ww",
  "798": "Hm",
  "799": ",'",
  "800": " 5",
  "801": "Wr",
  "802": "Ov",
  "803": "��",
  "804": "Ug",
  "805": "Ky",
  "806": "Ms",
  "807": "Gw",
  "808": "Ig",
  "809": "Rh",
  "810": "Os",
  "811": " 4",
  "812": "'?",
  "813": "00",
  "814": "Aw",
  "815": "Ir",
  "816": "\"!",
  "817": "Oc",
  "818": "Et",
  "819": "OP",
  "820": "TH",
  "821": "Yi",
  "822": "Um",
  "823": "'!",
  "824": "NG",
  "825": "OO",
  "826": "?,",
  "827": "12",
  "828": "uh",
  "829": "Sy",
  "830": ":\"",
  "831": "SH",
  "832": "CR",
  "833": "RA",
  "834": "Es",
  "835": "20",
  "836": "ON",
  "837": "Eg",
  "838": "AR",
  "839": " $",
  "840": "RO",
  "841": "NO",
  "842": " 9",
  "843": "!?",
  "844": "uu",
  "845": "ST",
  "846": " `",
  "847": " 8",
  "848": "Rr",
  "849": "Oy",
  "850": "IN",
  "851": "!,",
  "852": "OM",
  "853": "LA",
  "854": "Cy",
  "855": "AN",
  "856": "AB",
  "857": " 7",
  "858": " .",
  "859": "SN",
  "860": "CK",
  "861": "BA",
  "862": "50",
  "863": "SP",
  "864": "RE",
  "865": "ER",
  "866": "AC",
  "867": "!!",
  "868": " (",
  "869": "__",
  "870": "30",
  "871": " !",
  "872": "ii",
  "873": "ES",
  "874": "SE",
  "875": "WO",
  "876": "VE",
  "877": "!.",
  "878": " 6",
  "879": "OW",
  "880": "OU",
  "881": "HI",
  "882": "Ee",
  "883": "yy",
  "884": "`.",
  "885": "NE",
  "886": "LO",
  "887": "IT",
  "888": "EE",
  "889": "99",
  "890": ".`",
  "891": "!`",
  "892": "\\\"",
  "893": "ME",
  "894": "EX",
  "895": "AY",
  "896": "AT",
  "897": "AM",
  "898": "AA",
  "899": " ,",
  "900": "`,",
  "901": "TI",
  "902": "SI",
  "903": "SA",
  "904": "RR",
  "905": "Ps",
  "906": "GO",
  "907": "Ec",
  "908": "EN",
  "909": "Bz",
  "910": "AL",
  "911": "55",
  "912": "í",
  "913": "Ss",
  "914": "RI",
  "915": "Kr",
  "916": "ET",
  "917": " _",
  "918": " :",
  "919": " *",
  "920": "UR",
  "921": "LI",
  "922": "IP",
  "923": "?`",
  "924": "���",
  "925": "��’",
  "926": "���",
  "927": "��”",
  "928": "  \n ",
  "929": " zzz",
  "930": " zuc",
  "931": " zucch",
  "932": " zucchin",
  "933": " zucchini",
  "934": " zoo",
  "935": " zoos",
  "936": " zooke",
  "937": " zookee",
  "938": " zookeep",
  "939": " zookeeper",
  "940": " zookeepers",
  "941": " zo",
  "942": " zoom",
  "943": " zooms",
  "944": " zoomin",
  "945": " zooming",
  "946": " zoomer",
  "947": " zoomed",
  "948": " zone",
  "949": " zip",
  "950": " zips",
  "951": " zin",
  "952": " zing",
  "953": " zig",
  "954": " zigz",
  "955": " zigza",
  "956": " zigzag",
  "957": " zigzags",
  "958": " zigzagg",
  "959": " zigzaggy",
  "960": " zigzaggin",
  "961": " zigzagging",
  "962": " zigzagged",
  "963": " zi",
  "964": " zipp",
  "965": " zippin",
  "966": " zipping",
  "967": " zipper",
  "968": " zippers",
  "969": " zipped",
  "970": " zer",
  "971": " zero",
  "972": " zeros",
  "973": " zap",
  "974": " zag",
  "975": " zags",
  "976": " zagg",
  "977": " zaggin",
  "978": " zagging",
  "979": " za",
  "980": " zapp",
  "981": " zapped",
  "982": " yu",
  "983": " yum",
  "984": " yumm",
  "985": " yummy",
  "986": " yummie",
  "987": " yummiest",
  "988": " yummi",
  "989": " yummier",
  "990": " yuc",
  "991": " yuck",
  "992": " yucky",
  "993": " yow",
  "994": " yowl",
  "995": " yowled",
  "996": " you",
  "997": " youth",
  "998": " youths",
  "999": " youthf",
  "1000": " youthfu",
  "1001": " youthful",
  "1002": " yous",
  "1003": " your",
  "1004": " yours",
  "1005": " yourse",
  "1006": " yoursel",
  "1007": " yourselv",
  "1008": " yourselve",
  "1009": " yourselves",
  "1010": " yourself",
  "1011": " youn",
  "1012": " young",
  "1013": " youngs",
  "1014": " youngst",
  "1015": " youngster",
  "1016": " younger",
  "1017": " younge",
  "1018": " younges",
  "1019": " youngest",
  "1020": " yo",
  "1021": " yol",
  "1022": " yolk",
  "1023": " yog",
  "1024": " yogu",
  "1025": " yogur",
  "1026": " yogurt",
  "1027": " yogurts",
  "1028": " yogh",
  "1029": " yoghu",
  "1030": " yoghur",
  "1031": " yoghurt",
  "1032": " yoga",
  "1033": " yi",
  "1034": " yipp",
  "1035": " yipped",
  "1036": " yiel",
  "1037": " yield",
  "1038": " yields",
  "1039": " yieldin",
  "1040": " yielding",
  "1041": " yielded",
  "1042": " yet",
  "1043": " yes",
  "1044": " yel",
  "1045": " yelp",
  "1046": " yelps",
  "1047": " yelpin",
  "1048": " yelping",
  "1049": " yelped",
  "1050": " yea",
  "1051": " yeah",
  "1052": " ye",
  "1053": " yest",
  "1054": " yester",
  "1055": " yesterd",
  "1056": " yesterda",
  "1057": " yesterday",
  "1058": " yell",
  "1059": " yells",
  "1060": " yello",
  "1061": " yellow",
  "1062": " yellows",
  "1063": " yellin",
  "1064": " yelling",
  "1065": " yelled",
  "1066": " yeas",
  "1067": " yeast",
  "1068": " year",
  "1069": " years",
  "1070": " yearn",
  "1071": " yay",
  "1072": " yar",
  "1073": " yarn",
  "1074": " yard",
  "1075": " yards",
  "1076": " yan",
  "1077": " yank",
  "1078": " yanke",
  "1079": " yanked",
  "1080": " ya",
  "1081": " yaw",
  "1082": " yawn",
  "1083": " yawns",
  "1084": " yawnin",
  "1085": " yawning",
  "1086": " yawned",
  "1087": " yac",
  "1088": " yach",
  "1089": " yacht",
  "1090": " yachts",
  "1091": " wr",
  "1092": " wro",
  "1093": " wrot",
  "1094": " wrote",
  "1095": " wron",
  "1096": " wrong",
  "1097": " wronge",
  "1098": " wronged",
  "1099": " wri",
  "1100": " writ",
  "1101": " writt",
  "1102": " writte",
  "1103": " written",
  "1104": " writi",
  "1105": " writin",
  "1106": " writing",
  "1107": " writings",
  "1108": " writhe",
  "1109": " write",
  "1110": " writes",
  "1111": " writer",
  "1112": " writers",
  "1113": " wris",
  "1114": " wrist",
  "1115": " wrists",
  "1116": " wrin",
  "1117": " wrink",
  "1118": " wrinkl",
  "1119": " wrinkly",
  "1120": " wrinkli",
  "1121": " wrinklin",
  "1122": " wrinkling",
  "1123": " wrinkle",
  "1124": " wrinkles",
  "1125": " wrinkled",
  "1126": " wrig",
  "1127": " wrigg",
  "1128": " wriggl",
  "1129": " wriggly",
  "1130": " wriggli",
  "1131": " wrigglin",
  "1132": " wriggling",
  "1133": " wriggle",
  "1134": " wriggles",
  "1135": " wriggled",
  "1136": " wre",
  "1137": " wres",
  "1138": " wrest",
  "1139": " wrestl",
  "1140": " wrestle",
  "1141": " wren",
  "1142": " wrenc",
  "1143": " wrenche",
  "1144": " wrenches",
  "1145": " wrench",
  "1146": " wrec",
  "1147": " wreck",
  "1148": " wrecks",
  "1149": " wrecke",
  "1150": " wrecked",
  "1151": " wrea",
  "1152": " wreath",
  "1153": " wra",
  "1154": " wrath",
  "1155": " wrap",
  "1156": " wraps",
  "1157": " wrapp",
  "1158": " wrappi",
  "1159": " wrappin",
  "1160": " wrapping",
  "1161": " wrappe",
  "1162": " wrapper",
  "1163": " wrappers",
  "1164": " wrapped",
  "1165": " wo",
  "1166": " wow",
  "1167": " wov",
  "1168": " wove",
  "1169": " woven",
  "1170": " wou",
  "1171": " woun",
  "1172": " wound",
  "1173": " wounds",
  "1174": " wounde",
  "1175": " wounded",
  "1176": " woul",
  "1177": " would",
  "1178": " wouldn",
  "1179": " wor",
  "1180": " worth",
  "1181": " worthy",
  "1182": " worthw",
  "1183": " worthwh",
  "1184": " worthwhi",
  "1185": " worthwhil",
  "1186": " worthwhile",
  "1187": " worthl",
  "1188": " worthle",
  "1189": " worthles",
  "1190": " worthless",
  "1191": " wors",
  "1192": " worst",
  "1193": " worsh",
  "1194": " worshi",
  "1195": " worship",
  "1196": " worse",
  "1197": " worr",
  "1198": " worry",
  "1199": " worryi",
  "1200": " worryin",
  "1201": " worrying",
  "1202": " worri",
  "1203": " worrie",
  "1204": " worries",
  "1205": " worried",
  "1206": " worriedl",
  "1207": " worriedly",
  "1208": " worn",
  "1209": " worm",
  "1210": " worms",
  "1211": " worl",
  "1212": " world",
  "1213": " worlds",
  "1214": " work",
  "1215": " works",
  "1216": " worksh",
  "1217": " worksho",
  "1218": " workshop",
  "1219": " worko",
  "1220": " workou",
  "1221": " workout",
  "1222": " worki",
  "1223": " workin",
  "1224": " working",
  "1225": " worke",
  "1226": " worker",
  "1227": " workers",
  "1228": " worked",
  "1229": " workb",
  "1230": " workbe",
  "1231": " workben",
  "1232": " workbenc",
  "1233": " workbench",
  "1234": " wore",
  "1235": " word",
  "1236": " words",
  "1237": " woo",
  "1238": " wool",
  "1239": " wooll",
  "1240": " woolly",
  "1241": " woof",
  "1242": " woofs",
  "1243": " woofe",
  "1244": " woofed",
  "1245": " wood",
  "1246": " woodw",
  "1247": " woodwo",
  "1248": " woodwor",
  "1249": " woodwork",
  "1250": " woodworke",
  "1251": " woodworker",
  "1252": " woods",
  "1253": " woodsm",
  "1254": " woodsman",
  "1255": " woodp",
  "1256": " woodpe",
  "1257": " woodpec",
  "1258": " woodpeck",
  "1259": " woodpecke",
  "1260": " woodpecker",
  "1261": " woodl",
  "1262": " woodlan",
  "1263": " woodland",
  "1264": " woode",
  "1265": " wooden",
  "1266": " wooded",
  "1267": " woodc",
  "1268": " woodcu",
  "1269": " woodcut",
  "1270": " woodcutt",
  "1271": " woodcutte",
  "1272": " woodcutter",
  "1273": " woodcutters",
  "1274": " won",
  "1275": " wonk",
  "1276": " wonky",
  "1277": " wond",
  "1278": " wondr",
  "1279": " wondro",
  "1280": " wondrou",
  "1281": " wondrous",
  "1282": " wonde",
  "1283": " wonder",
  "1284": " wonders",
  "1285": " wonderm",
  "1286": " wonderme",
  "1287": " wondermen",
  "1288": " wonderment",
  "1289": " wonderl",
  "1290": " wonderlan",
  "1291": " wonderland",
  "1292": " wonderi",
  "1293": " wonderin",
  "1294": " wondering",
  "1295": " wonderingl",
  "1296": " wonderingly",
  "1297": " wonderf",
  "1298": " wonderfu",
  "1299": " wonderful",
  "1300": " wonderfull",
  "1301": " wonderfully",
  "1302": " wondere",
  "1303": " wondered",
  "1304": " wom",
  "1305": " wome",
  "1306": " women",
  "1307": " woman",
  "1308": " wol",
  "1309": " wolv",
  "1310": " wolve",
  "1311": " wolves",
  "1312": " wolf",
  "1313": " wolfe",
  "1314": " wolfed",
  "1315": " wok",
  "1316": " woke",
  "1317": " woken",
  "1318": " wob",
  "1319": " wobb",
  "1320": " wobbl",
  "1321": " wobbly",
  "1322": " wobbli",
  "1323": " wobblin",
  "1324": " wobbling",
  "1325": " wobble",
  "1326": " wobbles",
  "1327": " wobbled",
  "1328": " wi",
  "1329": " wiz",
  "1330": " wiza",
  "1331": " wizar",
  "1332": " wizard",
  "1333": " wizards",
  "1334": " wiv",
  "1335": " wive",
  "1336": " wives",
  "1337": " with",
  "1338": " withs",
  "1339": " withst",
  "1340": " witho",
  "1341": " withou",
  "1342": " without",
  "1343": " withi",
  "1344": " within",
  "1345": " wit",
  "1346": " wits",
  "1347": " witn",
  "1348": " witne",
  "1349": " witnes",
  "1350": " witness",
  "1351": " witnesse",
  "1352": " witnessed",
  "1353": " withe",
  "1354": " wither",
  "1355": " withere",
  "1356": " withered",
  "1357": " witc",
  "1358": " witche",
  "1359": " witches",
  "1360": " witch",
  "1361": " wis",
  "1362": " wist",
  "1363": " wisp",
  "1364": " wisps",
  "1365": " wishe",
  "1366": " wishes",
  "1367": " wished",
  "1368": " wish",
  "1369": " wishi",
  "1370": " wishin",
  "1371": " wishing",
  "1372": " wise",
  "1373": " wises",
  "1374": " wisest",
  "1375": " wiser",
  "1376": " wisel",
  "1377": " wisely",
  "1378": " wisd",
  "1379": " wisdo",
  "1380": " wisdom",
  "1381": " wisdoms",
  "1382": " wir",
  "1383": " wire",
  "1384": " wires",
  "1385": " wip",
  "1386": " wipi",
  "1387": " wipin",
  "1388": " wiping",
  "1389": " wipe",
  "1390": " wipes",
  "1391": " wiped",
  "1392": " win",
  "1393": " wint",
  "1394": " winte",
  "1395": " winter",
  "1396": " wintery",
  "1397": " wintert",
  "1398": " winterti",
  "1399": " wintertim",
  "1400": " wintertime",
  "1401": " winters",
  "1402": " wins",
  "1403": " winn",
  "1404": " winni",
  "1405": " winnin",
  "1406": " winning",
  "1407": " winne",
  "1408": " winner",
  "1409": " winners",
  "1410": " wink",
  "1411": " winks",
  "1412": " winki",
  "1413": " winkin",
  "1414": " winking",
  "1415": " winke",
  "1416": " winker",
  "1417": " winkers",
  "1418": " winked",
  "1419": " wing",
  "1420": " wings",
  "1421": " wingsp",
  "1422": " wingspan",
  "1423": " wine",
  "1424": " wind",
  "1425": " windy",
  "1426": " winds",
  "1427": " windo",
  "1428": " window",
  "1429": " windows",
  "1430": " windowsi",
  "1431": " windowsil",
  "1432": " windowsill",
  "1433": " windm",
  "1434": " windmi",
  "1435": " windmil",
  "1436": " windmill",
  "1437": " windi",
  "1438": " windin",
  "1439": " winding",
  "1440": " winde",
  "1441": " winded",
  "1442": " winc",
  "1443": " wince",
  "1444": " winced",
  "1445": " wil",
  "1446": " wilt",
  "1447": " wilti",
  "1448": " wiltin",
  "1449": " wilting",
  "1450": " wilte",
  "1451": " wilted",
  "1452": " will",
  "1453": " wills",
  "1454": " willi",
  "1455": " willin",
  "1456": " willing",
  "1457": " willingn",
  "1458": " willingne",
  "1459": " willingnes",
  "1460": " willingness",
  "1461": " willingl",
  "1462": " willingly",
  "1463": " wild",
  "1464": " wildn",
  "1465": " wildne",
  "1466": " wildnes",
  "1467": " wildness",
  "1468": " wildl",
  "1469": " wildly",
  "1470": " wildli",
  "1471": " wildlif",
  "1472": " wildlife",
  "1473": " wildf",
  "1474": " wildfl",
  "1475": " wildflo",
  "1476": " wildflow",
  "1477": " wildflowe",
  "1478": " wildflower",
  "1479": " wildflowers",
  "1480": " wilde",
  "1481": " wildes",
  "1482": " wildest",
  "1483": " wilder",
  "1484": " wildern",
  "1485": " wilderne",
  "1486": " wildernes",
  "1487": " wilderness",
  "1488": " wig",
  "1489": " wigs",
  "1490": " wigg",
  "1491": " wiggl",
  "1492": " wiggly",
  "1493": " wiggli",
  "1494": " wigglin",
  "1495": " wiggling",
  "1496": " wiggle",
  "1497": " wiggles",
  "1498": " wiggler",
  "1499": " wiggled",
  "1500": " wif",
  "1501": " wife",
  "1502": " wid",
  "1503": " width",
  "1504": " wide",
  "1505": " wides",
  "1506": " widest",
  "1507": " wider",
  "1508": " widen",
  "1509": " wideni",
  "1510": " widenin",
  "1511": " widening",
  "1512": " widene",
  "1513": " widened",
  "1514": " widel",
  "1515": " widely",
  "1516": " wic",
  "1517": " wick",
  "1518": " wicke",
  "1519": " wicked",
  "1520": " wickedl",
  "1521": " wickedly",
  "1522": " whe",
  "1523": " wher",
  "1524": " where",
  "1525": " wherev",
  "1526": " whereve",
  "1527": " wherever",
  "1528": " wherea",
  "1529": " whereab",
  "1530": " whereabo",
  "1531": " whereabou",
  "1532": " whereabout",
  "1533": " whereabouts",
  "1534": " when",
  "1535": " whene",
  "1536": " whenev",
  "1537": " wheneve",
  "1538": " whenever",
  "1539": " whee",
  "1540": " wheez",
  "1541": " wheel",
  "1542": " wheels",
  "1543": " wheeli",
  "1544": " wheele",
  "1545": " wheeled",
  "1546": " wheelc",
  "1547": " wheelch",
  "1548": " wheelcha",
  "1549": " wheelchai",
  "1550": " wheelchair",
  "1551": " wheelb",
  "1552": " wheelba",
  "1553": " wheelbar",
  "1554": " wheelbarr",
  "1555": " wheelbarro",
  "1556": " wheelbarrow",
  "1557": " whea",
  "1558": " wheat",
  "1559": " wh",
  "1560": " why",
  "1561": " who",
  "1562": " whos",
  "1563": " whose",
  "1564": " whoo",
  "1565": " whoos",
  "1566": " whoosh",
  "1567": " whooshi",
  "1568": " whooshin",
  "1569": " whooshing",
  "1570": " whoop",
  "1571": " whoopi",
  "1572": " whoopin",
  "1573": " whooping",
  "1574": " whoope",
  "1575": " whooped",
  "1576": " whoof",
  "1577": " whom",
  "1578": " whol",
  "1579": " whole",
  "1580": " whoe",
  "1581": " whoev",
  "1582": " whoeve",
  "1583": " whoever",
  "1584": " whi",
  "1585": " whiz",
  "1586": " whizz",
  "1587": " whizzi",
  "1588": " whizzin",
  "1589": " whizzing",
  "1590": " whizze",
  "1591": " whizzed",
  "1592": " whit",
  "1593": " white",
  "1594": " whites",
  "1595": " whiteb",
  "1596": " whitebo",
  "1597": " whiteboa",
  "1598": " whiteboar",
  "1599": " whiteboard",
  "1600": " whis",
  "1601": " whist",
  "1602": " whistl",
  "1603": " whistli",
  "1604": " whistlin",
  "1605": " whistling",
  "1606": " whistle",
  "1607": " whistles",
  "1608": " whistler",
  "1609": " whistled",
  "1610": " whisp",
  "1611": " whispe",
  "1612": " whisper",
  "1613": " whispers",
  "1614": " whisperi",
  "1615": " whisperin",
  "1616": " whispering",
  "1617": " whispere",
  "1618": " whisperer",
  "1619": " whispered",
  "1620": " whisk",
  "1621": " whiske",
  "1622": " whisker",
  "1623": " whiskers",
  "1624": " whiskere",
  "1625": " whiskered",
  "1626": " whisked",
  "1627": " whir",
  "1628": " whirr",
  "1629": " whirri",
  "1630": " whirrin",
  "1631": " whirring",
  "1632": " whirre",
  "1633": " whirred",
  "1634": " whirl",
  "1635": " whirlw",
  "1636": " whirlwi",
  "1637": " whirlwin",
  "1638": " whirlwind",
  "1639": " whirlp",
  "1640": " whirlpo",
  "1641": " whirlpoo",
  "1642": " whirlpool",
  "1643": " whirli",
  "1644": " whirlin",
  "1645": " whirling",
  "1646": " whirle",
  "1647": " whirled",
  "1648": " whip",
  "1649": " whips",
  "1650": " whipp",
  "1651": " whippi",
  "1652": " whippin",
  "1653": " whipping",
  "1654": " whippe",
  "1655": " whipped",
  "1656": " whin",
  "1657": " whinn",
  "1658": " whinny",
  "1659": " whinni",
  "1660": " whinnie",
  "1661": " whinnies",
  "1662": " whinnied",
  "1663": " whini",
  "1664": " whinin",
  "1665": " whining",
  "1666": " whine",
  "1667": " whines",
  "1668": " whined",
  "1669": " whim",
  "1670": " whimp",
  "1671": " whimpe",
  "1672": " whimper",
  "1673": " whimpers",
  "1674": " whimperi",
  "1675": " whimperin",
  "1676": " whimpering",
  "1677": " whimpere",
  "1678": " whimpered",
  "1679": " whil",
  "1680": " whils",
  "1681": " whilst",
  "1682": " while",
  "1683": " whif",
  "1684": " whiff",
  "1685": " whic",
  "1686": " whiche",
  "1687": " whichev",
  "1688": " whicheve",
  "1689": " whichever",
  "1690": " which",
  "1691": " whet",
  "1692": " whethe",
  "1693": " whether",
  "1694": " wha",
  "1695": " what",
  "1696": " whate",
  "1697": " whatev",
  "1698": " whateve",
  "1699": " whatever",
  "1700": " whal",
  "1701": " whale",
  "1702": " whales",
  "1703": " whac",
  "1704": " whack",
  "1705": " we",
  "1706": " wet",
  "1707": " wett",
  "1708": " wetti",
  "1709": " wettin",
  "1710": " wetting",
  "1711": " wette",
  "1712": " wetter",
  "1713": " wets",
  "1714": " wetsu",
  "1715": " wetsui",
  "1716": " wetsuit",
  "1717": " wetsuits",
  "1718": " wetn",
  "1719": " wetne",
  "1720": " wetnes",
  "1721": " wetness",
  "1722": " wetl",
  "1723": " wetlan",
  "1724": " wetland",
  "1725": " wes",
  "1726": " west",
  "1727": " wer",
  "1728": " were",
  "1729": " weren",
  "1730": " wep",
  "1731": " wept",
  "1732": " wen",
  "1733": " went",
  "1734": " wel",
  "1735": " well",
  "1736": " welli",
  "1737": " wellin",
  "1738": " welling",
  "1739": " welle",
  "1740": " welled",
  "1741": " wellb",
  "1742": " wellbe",
  "1743": " wellbei",
  "1744": " wellbein",
  "1745": " wellbeing",
  "1746": " welc",
  "1747": " welco",
  "1748": " welcom",
  "1749": " welcomi",
  "1750": " welcomin",
  "1751": " welcoming",
  "1752": " welcome",
  "1753": " welcomes",
  "1754": " welcomed",
  "1755": " wei",
  "1756": " weir",
  "1757": " weird",
  "1758": " weirde",
  "1759": " weirdes",
  "1760": " weirdest",
  "1761": " weirder",
  "1762": " weig",
  "1763": " weighe",
  "1764": " weighed",
  "1765": " weigh",
  "1766": " weight",
  "1767": " weights",
  "1768": " weighs",
  "1769": " weighi",
  "1770": " weighin",
  "1771": " weighing",
  "1772": " wee",
  "1773": " weep",
  "1774": " weeps",
  "1775": " weepi",
  "1776": " weepin",
  "1777": " weeping",
  "1778": " weepe",
  "1779": " weeped",
  "1780": " week",
  "1781": " weeks",
  "1782": " weekl",
  "1783": " weekly",
  "1784": " weeke",
  "1785": " weeken",
  "1786": " weekend",
  "1787": " weekends",
  "1788": " weed",
  "1789": " weeds",
  "1790": " weedi",
  "1791": " weedin",
  "1792": " weeding",
  "1793": " wed",
  "1794": " wedg",
  "1795": " wedge",
  "1796": " wedged",
  "1797": " wedd",
  "1798": " weddi",
  "1799": " weddin",
  "1800": " wedding",
  "1801": " weddings",
  "1802": " web",
  "1803": " webs",
  "1804": " webc",
  "1805": " webca",
  "1806": " webcam",
  "1807": " webb",
  "1808": " webbe",
  "1809": " webbed",
  "1810": " wea",
  "1811": " weav",
  "1812": " weavi",
  "1813": " weavin",
  "1814": " weaving",
  "1815": " weave",
  "1816": " weaved",
  "1817": " weat",
  "1818": " weathe",
  "1819": " weather",
  "1820": " wear",
  "1821": " weary",
  "1822": " wears",
  "1823": " weari",
  "1824": " wearin",
  "1825": " wearing",
  "1826": " wearil",
  "1827": " wearily",
  "1828": " weap",
  "1829": " weapo",
  "1830": " weapon",
  "1831": " weapons",
  "1832": " weal",
  "1833": " wealth",
  "1834": " wealthy",
  "1835": " wealthi",
  "1836": " wealthie",
  "1837": " wealthier",
  "1838": " weak",
  "1839": " weakn",
  "1840": " weakne",
  "1841": " weaknes",
  "1842": " weakness",
  "1843": " weaknesse",
  "1844": " weaknesses",
  "1845": " weakl",
  "1846": " weakly",
  "1847": " weake",
  "1848": " weaker",
  "1849": " wan",
  "1850": " want",
  "1851": " wants",
  "1852": " wanti",
  "1853": " wantin",
  "1854": " wanting",
  "1855": " wante",
  "1856": " wanted",
  "1857": " wann",
  "1858": " wanna",
  "1859": " wand",
  "1860": " wands",
  "1861": " wande",
  "1862": " wander",
  "1863": " wanders",
  "1864": " wanderi",
  "1865": " wanderin",
  "1866": " wandering",
  "1867": " wanderings",
  "1868": " wandere",
  "1869": " wandered",
  "1870": " wa",
  "1871": " way",
  "1872": " ways",
  "1873": " wax",
  "1874": " wav",
  "1875": " wavy",
  "1876": " wavi",
  "1877": " wavin",
  "1878": " waving",
  "1879": " wave",
  "1880": " waves",
  "1881": " waver",
  "1882": " wavere",
  "1883": " wavered",
  "1884": " waved",
  "1885": " wat",
  "1886": " wate",
  "1887": " water",
  "1888": " watery",
  "1889": " waters",
  "1890": " waterm",
  "1891": " waterme",
  "1892": " watermel",
  "1893": " watermelo",
  "1894": " watermelon",
  "1895": " wateri",
  "1896": " waterin",
  "1897": " watering",
  "1898": " waterf",
  "1899": " waterfa",
  "1900": " waterfal",
  "1901": " waterfall",
  "1902": " watere",
  "1903": " watered",
  "1904": " watc",
  "1905": " watche",
  "1906": " watches",
  "1907": " watcher",
  "1908": " watched",
  "1909": " watch",
  "1910": " watchi",
  "1911": " watchin",
  "1912": " watching",
  "1913": " watchf",
  "1914": " watchfu",
  "1915": " watchful",
  "1916": " was",
  "1917": " wast",
  "1918": " wasti",
  "1919": " wastin",
  "1920": " wasting",
  "1921": " waste",
  "1922": " wastef",
  "1923": " wastefu",
  "1924": " wasteful",
  "1925": " wasted",
  "1926": " wasp",
  "1927": " wasps",
  "1928": " wasn",
  "1929": " wasnt",
  "1930": " washe",
  "1931": " washes",
  "1932": " washer",
  "1933": " washed",
  "1934": " wash",
  "1935": " washi",
  "1936": " washin",
  "1937": " washing",
  "1938": " washc",
  "1939": " washcl",
  "1940": " washclo",
  "1941": " washcloth",
  "1942": " washa",
  "1943": " washab",
  "1944": " washabl",
  "1945": " washable",
  "1946": " war",
  "1947": " wary",
  "1948": " wart",
  "1949": " warts",
  "1950": " wars",
  "1951": " warr",
  "1952": " warri",
  "1953": " warrio",
  "1954": " warrior",
  "1955": " warriors",
  "1956": " warn",
  "1957": " warns",
  "1958": " warni",
  "1959": " warnin",
  "1960": " warning",
  "1961": " warnings",
  "1962": " warne",
  "1963": " warned",
  "1964": " warm",
  "1965": " warmth",
  "1966": " warms",
  "1967": " warml",
  "1968": " warmly",
  "1969": " warmi",
  "1970": " warmin",
  "1971": " warming",
  "1972": " warme",
  "1973": " warmes",
  "1974": " warmest",
  "1975": " warmer",
  "1976": " warmed",
  "1977": " ware",
  "1978": " wareh",
  "1979": " wareho",
  "1980": " warehou",
  "1981": " warehous",
  "1982": " warehouse",
  "1983": " ward",
  "1984": " wardr",
  "1985": " wardro",
  "1986": " wardrob",
  "1987": " wardrobe",
  "1988": " wardrobes",
  "1989": " warb",
  "1990": " warbl",
  "1991": " warble",
  "1992": " warbler",
  "1993": " wal",
  "1994": " waln",
  "1995": " walnu",
  "1996": " walnut",
  "1997": " wall",
  "1998": " walls",
  "1999": " walle",
  "2000": " wallet",
  "2001": " wallets",
  "2002": " walk",
  "2003": " walks",
  "2004": " walki",
  "2005": " walkin",
  "2006": " walking",
  "2007": " walkie",
  "2008": " walke",
  "2009": " walker",
  "2010": " walked",
  "2011": " wak",
  "2012": " waki",
  "2013": " wakin",
  "2014": " waking",
  "2015": " wake",
  "2016": " wakes",
  "2017": " wai",
  "2018": " wait",
  "2019": " waits",
  "2020": " waitr",
  "2021": " waitre",
  "2022": " waitres",
  "2023": " waitress",
  "2024": " waiti",
  "2025": " waitin",
  "2026": " waiting",
  "2027": " waite",
  "2028": " waiter",
  "2029": " waiters",
  "2030": " waited",
  "2031": " wais",
  "2032": " waist",
  "2033": " waists",
  "2034": " wail",
  "2035": " waile",
  "2036": " wailed",
  "2037": " wah",
  "2038": " wag",
  "2039": " wags",
  "2040": " wago",
  "2041": " wagon",
  "2042": " wagons",
  "2043": " wagg",
  "2044": " waggy",
  "2045": " waggl",
  "2046": " waggle",
  "2047": " waggled",
  "2048": " waggi",
  "2049": " waggin",
  "2050": " wagging",
  "2051": " wagge",
  "2052": " wagged",
  "2053": " waf",
  "2054": " waft",
  "2055": " wafti",
  "2056": " waftin",
  "2057": " wafting",
  "2058": " waff",
  "2059": " waffl",
  "2060": " waffle",
  "2061": " waffles",
  "2062": " wad",
  "2063": " wadi",
  "2064": " wadin",
  "2065": " wading",
  "2066": " wade",
  "2067": " waded",
  "2068": " wadd",
  "2069": " waddl",
  "2070": " waddli",
  "2071": " waddlin",
  "2072": " waddling",
  "2073": " waddle",
  "2074": " waddles",
  "2075": " waddled",
  "2076": " vro",
  "2077": " vroom",
  "2078": " vroomin",
  "2079": " vrooming",
  "2080": " vow",
  "2081": " vows",
  "2082": " vowin",
  "2083": " vowing",
  "2084": " vowed",
  "2085": " vom",
  "2086": " vomit",
  "2087": " vo",
  "2088": " voy",
  "2089": " voya",
  "2090": " voyage",
  "2091": " vol",
  "2092": " volun",
  "2093": " volunte",
  "2094": " volunteer",
  "2095": " volunteers",
  "2096": " volunteered",
  "2097": " volu",
  "2098": " volume",
  "2099": " volc",
  "2100": " volcan",
  "2101": " volcano",
  "2102": " volcanos",
  "2103": " volcanoe",
  "2104": " volcanoes",
  "2105": " void",
  "2106": " voi",
  "2107": " voice",
  "2108": " voic",
  "2109": " voices",
  "2110": " voca",
  "2111": " vocab",
  "2112": " vocabu",
  "2113": " vocabul",
  "2114": " vocabular",
  "2115": " vocabulary",
  "2116": " vit",
  "2117": " vita",
  "2118": " vitam",
  "2119": " vitamin",
  "2120": " vitamins",
  "2121": " vis",
  "2122": " visit",
  "2123": " visits",
  "2124": " visitin",
  "2125": " visiting",
  "2126": " visited",
  "2127": " visi",
  "2128": " visito",
  "2129": " visitor",
  "2130": " visitors",
  "2131": " visio",
  "2132": " vision",
  "2133": " visib",
  "2134": " visible",
  "2135": " vir",
  "2136": " viru",
  "2137": " virus",
  "2138": " virt",
  "2139": " virtu",
  "2140": " virtue",
  "2141": " vin",
  "2142": " vint",
  "2143": " vinta",
  "2144": " vintag",
  "2145": " vintage",
  "2146": " vine",
  "2147": " viney",
  "2148": " vineya",
  "2149": " vineyar",
  "2150": " vineyard",
  "2151": " vines",
  "2152": " vineg",
  "2153": " vinega",
  "2154": " vinegar",
  "2155": " vig",
  "2156": " vigor",
  "2157": " vigorou",
  "2158": " vigorous",
  "2159": " vigorousl",
  "2160": " vigorously",
  "2161": " vie",
  "2162": " view",
  "2163": " views",
  "2164": " vid",
  "2165": " vide",
  "2166": " video",
  "2167": " videos",
  "2168": " vi",
  "2169": " viv",
  "2170": " vivid",
  "2171": " vio",
  "2172": " viole",
  "2173": " violet",
  "2174": " violets",
  "2175": " viol",
  "2176": " violin",
  "2177": " violins",
  "2178": " violini",
  "2179": " violinis",
  "2180": " violinist",
  "2181": " violen",
  "2182": " violent",
  "2183": " violenc",
  "2184": " violence",
  "2185": " vill",
  "2186": " villa",
  "2187": " villain",
  "2188": " villains",
  "2189": " villag",
  "2190": " villager",
  "2191": " villagers",
  "2192": " village",
  "2193": " villages",
  "2194": " vic",
  "2195": " victo",
  "2196": " victor",
  "2197": " victory",
  "2198": " victori",
  "2199": " victorio",
  "2200": " victoriou",
  "2201": " victorious",
  "2202": " victorie",
  "2203": " victories",
  "2204": " vict",
  "2205": " victim",
  "2206": " vib",
  "2207": " vibr",
  "2208": " vibrat",
  "2209": " vibrati",
  "2210": " vibratio",
  "2211": " vibration",
  "2212": " vibrations",
  "2213": " vibrate",
  "2214": " vibran",
  "2215": " vibrant",
  "2216": " ver",
  "2217": " very",
  "2218": " vers",
  "2219": " versi",
  "2220": " versio",
  "2221": " version",
  "2222": " verb",
  "2223": " ven",
  "2224": " venu",
  "2225": " venus",
  "2226": " vent",
  "2227": " ventu",
  "2228": " venture",
  "2229": " ventur",
  "2230": " venturin",
  "2231": " venturing",
  "2232": " ventured",
  "2233": " veno",
  "2234": " venom",
  "2235": " vel",
  "2236": " velve",
  "2237": " velvet",
  "2238": " vat",
  "2239": " vas",
  "2240": " vast",
  "2241": " vastn",
  "2242": " vastne",
  "2243": " vastnes",
  "2244": " vastness",
  "2245": " vase",
  "2246": " vases",
  "2247": " var",
  "2248": " vari",
  "2249": " variou",
  "2250": " various",
  "2251": " varie",
  "2252": " variet",
  "2253": " variety",
  "2254": " vap",
  "2255": " vapor",
  "2256": " van",
  "2257": " vans",
  "2258": " vani",
  "2259": " vanis",
  "2260": " vanishe",
  "2261": " vanishes",
  "2262": " vanished",
  "2263": " vanish",
  "2264": " vanishi",
  "2265": " vanishin",
  "2266": " vanishing",
  "2267": " vanil",
  "2268": " vanill",
  "2269": " vanilla",
  "2270": " vand",
  "2271": " vanda",
  "2272": " vandal",
  "2273": " vandali",
  "2274": " vandalis",
  "2275": " vandalism",
  "2276": " vam",
  "2277": " val",
  "2278": " valve",
  "2279": " valu",
  "2280": " valuin",
  "2281": " valuing",
  "2282": " valued",
  "2283": " value",
  "2284": " values",
  "2285": " valua",
  "2286": " valuab",
  "2287": " valuable",
  "2288": " valuables",
  "2289": " valle",
  "2290": " valley",
  "2291": " valleys",
  "2292": " valid",
  "2293": " vac",
  "2294": " vacu",
  "2295": " vacuu",
  "2296": " vacuum",
  "2297": " vacuumed",
  "2298": " vacat",
  "2299": " vacati",
  "2300": " vacatio",
  "2301": " vacation",
  "2302": " vacations",
  "2303": " va",
  "2304": " vain",
  "2305": " use",
  "2306": " uses",
  "2307": " usele",
  "2308": " useles",
  "2309": " useless",
  "2310": " usef",
  "2311": " usefu",
  "2312": " useful",
  "2313": " usa",
  "2314": " usab",
  "2315": " usable",
  "2316": " us",
  "2317": " usu",
  "2318": " usual",
  "2319": " usua",
  "2320": " usuall",
  "2321": " usually",
  "2322": " usin",
  "2323": " using",
  "2324": " ushe",
  "2325": " usher",
  "2326": " ushere",
  "2327": " ushered",
  "2328": " used",
  "2329": " ur",
  "2330": " urg",
  "2331": " urgin",
  "2332": " urging",
  "2333": " urges",
  "2334": " urgen",
  "2335": " urgent",
  "2336": " urgentl",
  "2337": " urgently",
  "2338": " urged",
  "2339": " urge",
  "2340": " up",
  "2341": " upwa",
  "2342": " upwar",
  "2343": " upward",
  "2344": " upwards",
  "2345": " upst",
  "2346": " upsta",
  "2347": " upstai",
  "2348": " upstair",
  "2349": " upstairs",
  "2350": " ups",
  "2351": " upsid",
  "2352": " upside",
  "2353": " upset",
  "2354": " upsett",
  "2355": " upsettin",
  "2356": " upsetting",
  "2357": " upri",
  "2358": " uprig",
  "2359": " uprigh",
  "2360": " upright",
  "2361": " upp",
  "2362": " upper",
  "2363": " upon",
  "2364": " uplo",
  "2365": " uploa",
  "2366": " upload",
  "2367": " uploaded",
  "2368": " upd",
  "2369": " updat",
  "2370": " updated",
  "2371": " upc",
  "2372": " upcom",
  "2373": " upcomin",
  "2374": " upcoming",
  "2375": " upbe",
  "2376": " upbeat",
  "2377": " unt",
  "2378": " unty",
  "2379": " untyin",
  "2380": " untying",
  "2381": " untw",
  "2382": " untwis",
  "2383": " untwist",
  "2384": " untwisted",
  "2385": " untid",
  "2386": " untidy",
  "2387": " unti",
  "2388": " until",
  "2389": " untied",
  "2390": " untie",
  "2391": " unties",
  "2392": " untan",
  "2393": " untang",
  "2394": " untangl",
  "2395": " untangle",
  "2396": " untangles",
  "2397": " untangled",
  "2398": " ung",
  "2399": " ungu",
  "2400": " unguar",
  "2401": " unguard",
  "2402": " unguarded",
  "2403": " ungr",
  "2404": " ungrat",
  "2405": " ungrate",
  "2406": " ungratef",
  "2407": " ungratefu",
  "2408": " ungrateful",
  "2409": " une",
  "2410": " unex",
  "2411": " unexp",
  "2412": " unexpe",
  "2413": " unexpec",
  "2414": " unexpect",
  "2415": " unexpected",
  "2416": " unexpectedl",
  "2417": " unexpectedly",
  "2418": " unev",
  "2419": " uneven",
  "2420": " uneas",
  "2421": " uneasy",
  "2422": " und",
  "2423": " undr",
  "2424": " undre",
  "2425": " undres",
  "2426": " undress",
  "2427": " undresse",
  "2428": " undressed",
  "2429": " undo",
  "2430": " undon",
  "2431": " undone",
  "2432": " undi",
  "2433": " undis",
  "2434": " undist",
  "2435": " undistu",
  "2436": " undistur",
  "2437": " undisturb",
  "2438": " undisturbe",
  "2439": " undisturbed",
  "2440": " undid",
  "2441": " unde",
  "2442": " undet",
  "2443": " undete",
  "2444": " undeter",
  "2445": " undeterr",
  "2446": " undeterre",
  "2447": " undeterred",
  "2448": " under",
  "2449": " underw",
  "2450": " underwe",
  "2451": " underwea",
  "2452": " underwear",
  "2453": " underwa",
  "2454": " underwat",
  "2455": " underwate",
  "2456": " underwater",
  "2457": " unders",
  "2458": " underst",
  "2459": " understo",
  "2460": " understoo",
  "2461": " understood",
  "2462": " understan",
  "2463": " understand",
  "2464": " understands",
  "2465": " understandi",
  "2466": " understandin",
  "2467": " understanding",
  "2468": " understandingl",
  "2469": " understandingly",
  "2470": " undern",
  "2471": " underne",
  "2472": " undernea",
  "2473": " underneath",
  "2474": " underg",
  "2475": " undergr",
  "2476": " undergro",
  "2477": " undergrow",
  "2478": " undergrowth",
  "2479": " undere",
  "2480": " underes",
  "2481": " underest",
  "2482": " underesti",
  "2483": " underestim",
  "2484": " underestima",
  "2485": " underestimat",
  "2486": " underestimate",
  "2487": " underc",
  "2488": " underco",
  "2489": " undercov",
  "2490": " undercove",
  "2491": " undercover",
  "2492": " unda",
  "2493": " undau",
  "2494": " undaun",
  "2495": " undaunt",
  "2496": " undaunte",
  "2497": " undaunted",
  "2498": " um",
  "2499": " umb",
  "2500": " umbre",
  "2501": " umbrel",
  "2502": " umbrell",
  "2503": " umbrella",
  "2504": " umbrellas",
  "2505": " ul",
  "2506": " ult",
  "2507": " ultim",
  "2508": " ultimat",
  "2509": " ultimate",
  "2510": " ultimatel",
  "2511": " ultimately",
  "2512": " ug",
  "2513": " ugly",
  "2514": " ugli",
  "2515": " uglier",
  "2516": " uglie",
  "2517": " ugliest",
  "2518": " ugh",
  "2519": " ud",
  "2520": " udd",
  "2521": " udder",
  "2522": " ty",
  "2523": " tyr",
  "2524": " tyre",
  "2525": " tyres",
  "2526": " tyra",
  "2527": " tyran",
  "2528": " tyrant",
  "2529": " typ",
  "2530": " typi",
  "2531": " typin",
  "2532": " typing",
  "2533": " type",
  "2534": " types",
  "2535": " tyi",
  "2536": " tyin",
  "2537": " tying",
  "2538": " tw",
  "2539": " two",
  "2540": " twi",
  "2541": " twit",
  "2542": " twitt",
  "2543": " twitte",
  "2544": " twitter",
  "2545": " twitteri",
  "2546": " twitterin",
  "2547": " twittering",
  "2548": " twittere",
  "2549": " twittered",
  "2550": " twitc",
  "2551": " twitch",
  "2552": " twitchy",
  "2553": " twitchi",
  "2554": " twitchin",
  "2555": " twitching",
  "2556": " twitche",
  "2557": " twitched",
  "2558": " twis",
  "2559": " twist",
  "2560": " twisty",
  "2561": " twists",
  "2562": " twisti",
  "2563": " twistin",
  "2564": " twisting",
  "2565": " twiste",
  "2566": " twister",
  "2567": " twisted",
  "2568": " twir",
  "2569": " twirl",
  "2570": " twirly",
  "2571": " twirls",
  "2572": " twirli",
  "2573": " twirlin",
  "2574": " twirling",
  "2575": " twirle",
  "2576": " twirled",
  "2577": " twin",
  "2578": " twins",
  "2579": " twink",
  "2580": " twinkl",
  "2581": " twinkly",
  "2582": " twinkli",
  "2583": " twinklin",
  "2584": " twinkling",
  "2585": " twinkle",
  "2586": " twinkles",
  "2587": " twinkled",
  "2588": " twine",
  "2589": " twil",
  "2590": " twili",
  "2591": " twilig",
  "2592": " twiligh",
  "2593": " twilight",
  "2594": " twig",
  "2595": " twigs",
  "2596": " twic",
  "2597": " twice",
  "2598": " twe",
  "2599": " twen",
  "2600": " twent",
  "2601": " twenty",
  "2602": " twel",
  "2603": " twelv",
  "2604": " twelve",
  "2605": " twee",
  "2606": " tweez",
  "2607": " tweeze",
  "2608": " tweezer",
  "2609": " tweezers",
  "2610": " tweet",
  "2611": " tweeti",
  "2612": " tweetin",
  "2613": " tweeting",
  "2614": " tweete",
  "2615": " tweeted",
  "2616": " tu",
  "2617": " tut",
  "2618": " tutu",
  "2619": " tuto",
  "2620": " tutor",
  "2621": " tutors",
  "2622": " tus",
  "2623": " tusk",
  "2624": " tusks",
  "2625": " tur",
  "2626": " turt",
  "2627": " turtl",
  "2628": " turtle",
  "2629": " turtles",
  "2630": " turr",
  "2631": " turre",
  "2632": " turret",
  "2633": " turrets",
  "2634": " turq",
  "2635": " turqu",
  "2636": " turquo",
  "2637": " turquoi",
  "2638": " turquois",
  "2639": " turquoise",
  "2640": " turn",
  "2641": " turns",
  "2642": " turnst",
  "2643": " turnsti",
  "2644": " turnstil",
  "2645": " turnstile",
  "2646": " turni",
  "2647": " turnin",
  "2648": " turning",
  "2649": " turne",
  "2650": " turned",
  "2651": " turk",
  "2652": " turke",
  "2653": " turkey",
  "2654": " turkeys",
  "2655": " turb",
  "2656": " turba",
  "2657": " turban",
  "2658": " tun",
  "2659": " tunn",
  "2660": " tunne",
  "2661": " tunnel",
  "2662": " tunnels",
  "2663": " tuni",
  "2664": " tune",
  "2665": " tunes",
  "2666": " tuner",
  "2667": " tuna",
  "2668": " tunas",
  "2669": " tum",
  "2670": " tumm",
  "2671": " tummy",
  "2672": " tummi",
  "2673": " tummie",
  "2674": " tummies",
  "2675": " tumb",
  "2676": " tumbl",
  "2677": " tumbli",
  "2678": " tumblin",
  "2679": " tumbling",
  "2680": " tumble",
  "2681": " tumbled",
  "2682": " tul",
  "2683": " tuli",
  "2684": " tulip",
  "2685": " tulips",
  "2686": " tug",
  "2687": " tugs",
  "2688": " tugg",
  "2689": " tuggi",
  "2690": " tuggin",
  "2691": " tugging",
  "2692": " tugge",
  "2693": " tugged",
  "2694": " tuc",
  "2695": " tuck",
  "2696": " tucks",
  "2697": " tucki",
  "2698": " tuckin",
  "2699": " tucking",
  "2700": " tucke",
  "2701": " tucker",
  "2702": " tuckere",
  "2703": " tuckered",
  "2704": " tucked",
  "2705": " tub",
  "2706": " tubs",
  "2707": " tube",
  "2708": " tubes",
  "2709": " tr",
  "2710": " try",
  "2711": " tryi",
  "2712": " tryin",
  "2713": " trying",
  "2714": " tru",
  "2715": " trut",
  "2716": " truth",
  "2717": " truthf",
  "2718": " truthfu",
  "2719": " truthful",
  "2720": " trus",
  "2721": " trust",
  "2722": " trusty",
  "2723": " trustw",
  "2724": " trustwo",
  "2725": " trustwor",
  "2726": " trustwort",
  "2727": " trustworth",
  "2728": " trustworthy",
  "2729": " trusts",
  "2730": " trusti",
  "2731": " trustin",
  "2732": " trusting",
  "2733": " trustingl",
  "2734": " trustingly",
  "2735": " truste",
  "2736": " trusted",
  "2737": " trun",
  "2738": " trunk",
  "2739": " trunks",
  "2740": " trund",
  "2741": " trundl",
  "2742": " trundle",
  "2743": " trundled",
  "2744": " trum",
  "2745": " trump",
  "2746": " trumpe",
  "2747": " trumpet",
  "2748": " trumpets",
  "2749": " trumpeti",
  "2750": " trumpetin",
  "2751": " trumpeting",
  "2752": " trumpete",
  "2753": " trumpeted",
  "2754": " trul",
  "2755": " truly",
  "2756": " truf",
  "2757": " truff",
  "2758": " truffl",
  "2759": " truffle",
  "2760": " true",
  "2761": " trud",
  "2762": " trudg",
  "2763": " trudgi",
  "2764": " trudgin",
  "2765": " trudging",
  "2766": " trudge",
  "2767": " trudged",
  "2768": " truc",
  "2769": " truck",
  "2770": " trucks",
  "2771": " trucke",
  "2772": " trucker",
  "2773": " tro",
  "2774": " trow",
  "2775": " trowe",
  "2776": " trowel",
  "2777": " trov",
  "2778": " trove",
  "2779": " trou",
  "2780": " trout",
  "2781": " trous",
  "2782": " trouse",
  "2783": " trouser",
  "2784": " trousers",
  "2785": " troug",
  "2786": " trough",
  "2787": " troub",
  "2788": " troubl",
  "2789": " troubli",
  "2790": " troublin",
  "2791": " troubling",
  "2792": " trouble",
  "2793": " troubles",
  "2794": " troubleso",
  "2795": " troublesom",
  "2796": " troublesome",
  "2797": " troublem",
  "2798": " troublema",
  "2799": " troublemak",
  "2800": " troublemake",
  "2801": " troublemaker",
  "2802": " troubled",
  "2803": " trot",
  "2804": " trott",
  "2805": " trotti",
  "2806": " trottin",
  "2807": " trotting",
  "2808": " trotte",
  "2809": " trotted",
  "2810": " trots",
  "2811": " trop",
  "2812": " tropi",
  "2813": " tropic",
  "2814": " tropica",
  "2815": " tropical",
  "2816": " troph",
  "2817": " trophy",
  "2818": " trophi",
  "2819": " trophie",
  "2820": " trophies",
  "2821": " trom",
  "2822": " tromb",
  "2823": " trombo",
  "2824": " trombon",
  "2825": " trombone",
  "2826": " trol",
  "2827": " troll",
  "2828": " trolle",
  "2829": " trolley",
  "2830": " tri",
  "2831": " triu",
  "2832": " trium",
  "2833": " triump",
  "2834": " triumph",
  "2835": " triumpha",
  "2836": " triumphan",
  "2837": " triumphant",
  "2838": " triumphantl",
  "2839": " triumphantly",
  "2840": " trip",
  "2841": " trips",
  "2842": " tripp",
  "2843": " trippi",
  "2844": " trippin",
  "2845": " tripping",
  "2846": " trippe",
  "2847": " tripped",
  "2848": " tripo",
  "2849": " tripod",
  "2850": " tripe",
  "2851": " triped",
  "2852": " trio",
  "2853": " trin",
  "2854": " trink",
  "2855": " trinke",
  "2856": " trinket",
  "2857": " trinkets",
  "2858": " trim",
  "2859": " trimm",
  "2860": " trimmi",
  "2861": " trimmin",
  "2862": " trimming",
  "2863": " trimme",
  "2864": " trimmer",
  "2865": " trimmed",
  "2866": " tril",
  "2867": " trill",
  "2868": " trille",
  "2869": " trilled",
  "2870": " trik",
  "2871": " trike",
  "2872": " trig",
  "2873": " trigg",
  "2874": " trigge",
  "2875": " trigger",
  "2876": " triggers",
  "2877": " trie",
  "2878": " tries",
  "2879": " tried",
  "2880": " tric",
  "2881": " tricy",
  "2882": " tricyc",
  "2883": " tricycl",
  "2884": " tricycle",
  "2885": " trick",
  "2886": " tricky",
  "2887": " tricks",
  "2888": " trickst",
  "2889": " trickste",
  "2890": " trickster",
  "2891": " trickl",
  "2892": " trickli",
  "2893": " tricklin",
  "2894": " trickling",
  "2895": " trickle",
  "2896": " trickled",
  "2897": " tricki",
  "2898": " trickin",
  "2899": " tricking",
  "2900": " tricke",
  "2901": " tricked",
  "2902": " trice",
  "2903": " tricer",
  "2904": " tricera",
  "2905": " tricerat",
  "2906": " tricerato",
  "2907": " triceratop",
  "2908": " triceratops",
  "2909": " tria",
  "2910": " trian",
  "2911": " triang",
  "2912": " triangu",
  "2913": " triangul",
  "2914": " triangula",
  "2915": " triangular",
  "2916": " triangl",
  "2917": " triangle",
  "2918": " triangles",
  "2919": " trial",
  "2920": " tre",
  "2921": " tres",
  "2922": " tresp",
  "2923": " trespa",
  "2924": " trespas",
  "2925": " trespass",
  "2926": " trespassi",
  "2927": " trespassin",
  "2928": " trespassing",
  "2929": " trespasse",
  "2930": " trespasser",
  "2931": " tren",
  "2932": " trend",
  "2933": " trenc",
  "2934": " trench",
  "2935": " trem",
  "2936": " tremo",
  "2937": " tremor",
  "2938": " treme",
  "2939": " tremen",
  "2940": " tremend",
  "2941": " tremendo",
  "2942": " tremendou",
  "2943": " tremendous",
  "2944": " tremb",
  "2945": " trembl",
  "2946": " trembli",
  "2947": " tremblin",
  "2948": " trembling",
  "2949": " tremble",
  "2950": " trembles",
  "2951": " trembled",
  "2952": " trek",
  "2953": " trekk",
  "2954": " trekke",
  "2955": " trekked",
  "2956": " tree",
  "2957": " treet",
  "2958": " treeto",
  "2959": " treetop",
  "2960": " treetops",
  "2961": " trees",
  "2962": " treeh",
  "2963": " treeho",
  "2964": " treehou",
  "2965": " treehous",
  "2966": " treehouse",
  "2967": " trea",
  "2968": " treat",
  "2969": " treaty",
  "2970": " treats",
  "2971": " treatm",
  "2972": " treatme",
  "2973": " treatmen",
  "2974": " treatment",
  "2975": " treati",
  "2976": " treatin",
  "2977": " treating",
  "2978": " treate",
  "2979": " treated",
  "2980": " treas",
  "2981": " treasu",
  "2982": " treasur",
  "2983": " treasure",
  "2984": " treasures",
  "2985": " treasured",
  "2986": " tread",
  "2987": " treadm",
  "2988": " treadmi",
  "2989": " treadmil",
  "2990": " treadmill",
  "2991": " treac",
  "2992": " treach",
  "2993": " treache",
  "2994": " treacher",
  "2995": " treachero",
  "2996": " treacherou",
  "2997": " treacherous",
  "2998": " tra",
  "2999": " tray",
  "3000": " trays",
  "3001": " trav",
  "3002": " trave",
  "3003": " travel",
  "3004": " travels",
  "3005": " travell",
  "3006": " travelli",
  "3007": " travellin",
  "3008": " travelling",
  "3009": " travelle",
  "3010": " traveller",
  "3011": " travellers",
  "3012": " travelled",
  "3013": " traveli",
  "3014": " travelin",
  "3015": " traveling",
  "3016": " travele",
  "3017": " traveler",
  "3018": " travelers",
  "3019": " traveled",
  "3020": " tras",
  "3021": " trash",
  "3022": " trashc",
  "3023": " trashca",
  "3024": " trashcan",
  "3025": " trap",
  "3026": " traps",
  "3027": " trapp",
  "3028": " trappi",
  "3029": " trappin",
  "3030": " trapping",
  "3031": " trappe",
  "3032": " trapped",
  "3033": " tran",
  "3034": " trans",
  "3035": " transp",
  "3036": " transpo",
  "3037": " transpor",
  "3038": " transport",
  "3039": " transporte",
  "3040": " transported",
  "3041": " transf",
  "3042": " transfo",
  "3043": " transfor",
  "3044": " transform",
  "3045": " transformi",
  "3046": " transformin",
  "3047": " transforming",
  "3048": " transforme",
  "3049": " transformed",
  "3050": " transforma",
  "3051": " transformat",
  "3052": " transformati",
  "3053": " transformatio",
  "3054": " transformation",
  "3055": " transfi",
  "3056": " transfix",
  "3057": " transfixe",
  "3058": " transfixed",
  "3059": " tranq",
  "3060": " tranqu",
  "3061": " tranqui",
  "3062": " tranquil",
  "3063": " tranquili",
  "3064": " tranquiliz",
  "3065": " tranquilize",
  "3066": " tranquilizer",
  "3067": " tranquilit",
  "3068": " tranquility",
  "3069": " tranc",
  "3070": " trance",
  "3071": " tram",
  "3072": " tramp",
  "3073": " trampo",
  "3074": " trampol",
  "3075": " trampoli",
  "3076": " trampolin",
  "3077": " trampoline",
  "3078": " trampl",
  "3079": " trample",
  "3080": " trampled",
  "3081": " trai",
  "3082": " train",
  "3083": " trains",
  "3084": " traini",
  "3085": " trainin",
  "3086": " training",
  "3087": " traine",
  "3088": " trainer",
  "3089": " trainers",
  "3090": " trained",
  "3091": " trail",
  "3092": " trails",
  "3093": " traili",
  "3094": " trailin",
  "3095": " trailing",
  "3096": " traile",
  "3097": " trailer",
  "3098": " trailed",
  "3099": " trag",
  "3100": " trage",
  "3101": " traged",
  "3102": " tragedy",
  "3103": " traf",
  "3104": " traff",
  "3105": " traffi",
  "3106": " traffic",
  "3107": " trad",
  "3108": " tradi",
  "3109": " tradit",
  "3110": " traditi",
  "3111": " traditio",
  "3112": " tradition",
  "3113": " traditions",
  "3114": " tradin",
  "3115": " trading",
  "3116": " trade",
  "3117": " trades",
  "3118": " trader",
  "3119": " traded",
  "3120": " trac",
  "3121": " tract",
  "3122": " tracto",
  "3123": " tractor",
  "3124": " tractors",
  "3125": " track",
  "3126": " tracks",
  "3127": " tracke",
  "3128": " tracked",
  "3129": " traci",
  "3130": " tracin",
  "3131": " tracing",
  "3132": " trace",
  "3133": " traced",
  "3134": " to",
  "3135": " toy",
  "3136": " toys",
  "3137": " toyb",
  "3138": " toybo",
  "3139": " toybox",
  "3140": " tow",
  "3141": " town",
  "3142": " towns",
  "3143": " townsp",
  "3144": " townspe",
  "3145": " townspeo",
  "3146": " townspeop",
  "3147": " townspeopl",
  "3148": " townspeople",
  "3149": " townsf",
  "3150": " townsfo",
  "3151": " townsfol",
  "3152": " townsfolk",
  "3153": " towe",
  "3154": " tower",
  "3155": " towers",
  "3156": " toweri",
  "3157": " towerin",
  "3158": " towering",
  "3159": " towere",
  "3160": " towered",
  "3161": " towel",
  "3162": " towels",
  "3163": " towa",
  "3164": " towar",
  "3165": " toward",
  "3166": " towards",
  "3167": " tou",
  "3168": " tous",
  "3169": " tousl",
  "3170": " tousli",
  "3171": " touslin",
  "3172": " tousling",
  "3173": " tour",
  "3174": " tours",
  "3175": " tourn",
  "3176": " tourna",
  "3177": " tournam",
  "3178": " tourname",
  "3179": " tournamen",
  "3180": " tournament",
  "3181": " tournaments",
  "3182": " touri",
  "3183": " touris",
  "3184": " tourist",
  "3185": " toug",
  "3186": " tough",
  "3187": " toughe",
  "3188": " toughes",
  "3189": " toughest",
  "3190": " tougher",
  "3191": " touc",
  "3192": " touch",
  "3193": " touchi",
  "3194": " touchin",
  "3195": " touching",
  "3196": " touche",
  "3197": " touches",
  "3198": " touched",
  "3199": " tot",
  "3200": " tota",
  "3201": " total",
  "3202": " totall",
  "3203": " totally",
  "3204": " tos",
  "3205": " toss",
  "3206": " tossi",
  "3207": " tossin",
  "3208": " tossing",
  "3209": " tosse",
  "3210": " tosses",
  "3211": " tossed",
  "3212": " tor",
  "3213": " tort",
  "3214": " torto",
  "3215": " tortoi",
  "3216": " tortois",
  "3217": " tortoise",
  "3218": " torn",
  "3219": " torna",
  "3220": " tornad",
  "3221": " tornado",
  "3222": " tornados",
  "3223": " tornadoe",
  "3224": " tornadoes",
  "3225": " torm",
  "3226": " torme",
  "3227": " tormen",
  "3228": " torment",
  "3229": " tore",
  "3230": " torc",
  "3231": " torch",
  "3232": " torche",
  "3233": " torches",
  "3234": " top",
  "3235": " tops",
  "3236": " topp",
  "3237": " toppl",
  "3238": " topple",
  "3239": " toppled",
  "3240": " toppi",
  "3241": " toppin",
  "3242": " topping",
  "3243": " toppings",
  "3244": " toppe",
  "3245": " topped",
  "3246": " topi",
  "3247": " topic",
  "3248": " topics",
  "3249": " too",
  "3250": " toot",
  "3251": " tooth",
  "3252": " toothy",
  "3253": " toothp",
  "3254": " toothpi",
  "3255": " toothpic",
  "3256": " toothpick",
  "3257": " toothpicks",
  "3258": " toothpa",
  "3259": " toothpas",
  "3260": " toothpast",
  "3261": " toothpaste",
  "3262": " toothb",
  "3263": " toothbr",
  "3264": " toothbru",
  "3265": " toothbrus",
  "3266": " toothbrush",
  "3267": " toothbrushe",
  "3268": " toothbrushes",
  "3269": " tootha",
  "3270": " toothac",
  "3271": " toothach",
  "3272": " toothache",
  "3273": " toote",
  "3274": " tooted",
  "3275": " tool",
  "3276": " tools",
  "3277": " toolk",
  "3278": " toolki",
  "3279": " toolkit",
  "3280": " toolb",
  "3281": " toolbo",
  "3282": " toolbox",
  "3283": " took",
  "3284": " ton",
  "3285": " tons",
  "3286": " toni",
  "3287": " tonig",
  "3288": " tonigh",
  "3289": " tonight",
  "3290": " tong",
  "3291": " tongu",
  "3292": " tongue",
  "3293": " tongues",
  "3294": " tone",
  "3295": " tones",
  "3296": " tom",
  "3297": " tomo",
  "3298": " tomor",
  "3299": " tomorr",
  "3300": " tomorro",
  "3301": " tomorrow",
  "3302": " toma",
  "3303": " tomat",
  "3304": " tomato",
  "3305": " tomatoe",
  "3306": " tomatoes",
  "3307": " tol",
  "3308": " toll",
  "3309": " tole",
  "3310": " toler",
  "3311": " tolera",
  "3312": " told",
  "3313": " tok",
  "3314": " toke",
  "3315": " token",
  "3316": " tokens",
  "3317": " toi",
  "3318": " toil",
  "3319": " toile",
  "3320": " toilet",
  "3321": " toilets",
  "3322": " tog",
  "3323": " toge",
  "3324": " toget",
  "3325": " togeth",
  "3326": " togethe",
  "3327": " together",
  "3328": " togethern",
  "3329": " togetherne",
  "3330": " togethernes",
  "3331": " togetherness",
  "3332": " toe",
  "3333": " toes",
  "3334": " toed",
  "3335": " tod",
  "3336": " todd",
  "3337": " toddl",
  "3338": " toddle",
  "3339": " toddler",
  "3340": " toddlers",
  "3341": " toddled",
  "3342": " toda",
  "3343": " today",
  "3344": " toc",
  "3345": " tock",
  "3346": " tocki",
  "3347": " tockin",
  "3348": " tocking",
  "3349": " tocke",
  "3350": " tocked",
  "3351": " toa",
  "3352": " toas",
  "3353": " toast",
  "3354": " toasty",
  "3355": " toasts",
  "3356": " toaste",
  "3357": " toaster",
  "3358": " toasted",
  "3359": " toad",
  "3360": " toads",
  "3361": " toadst",
  "3362": " toadsto",
  "3363": " toadstoo",
  "3364": " toadstool",
  "3365": " toadstools",
  "3366": " ti",
  "3367": " tit",
  "3368": " titl",
  "3369": " title",
  "3370": " titles",
  "3371": " tis",
  "3372": " tiss",
  "3373": " tissu",
  "3374": " tissue",
  "3375": " tissues",
  "3376": " tir",
  "3377": " tiri",
  "3378": " tirin",
  "3379": " tiring",
  "3380": " tire",
  "3381": " tires",
  "3382": " tirel",
  "3383": " tirele",
  "3384": " tireles",
  "3385": " tireless",
  "3386": " tirelessl",
  "3387": " tirelessly",
  "3388": " tired",
  "3389": " tiredn",
  "3390": " tiredne",
  "3391": " tirednes",
  "3392": " tiredness",
  "3393": " tip",
  "3394": " tipt",
  "3395": " tipto",
  "3396": " tiptoe",
  "3397": " tiptoes",
  "3398": " tiptoed",
  "3399": " tips",
  "3400": " tipp",
  "3401": " tippy",
  "3402": " tippi",
  "3403": " tippin",
  "3404": " tipping",
  "3405": " tippe",
  "3406": " tipped",
  "3407": " tin",
  "3408": " tiny",
  "3409": " tins",
  "3410": " tink",
  "3411": " tinkl",
  "3412": " tinkli",
  "3413": " tinklin",
  "3414": " tinkling",
  "3415": " tinkle",
  "3416": " tinkled",
  "3417": " tinke",
  "3418": " tinker",
  "3419": " tinkeri",
  "3420": " tinkerin",
  "3421": " tinkering",
  "3422": " tini",
  "3423": " tinie",
  "3424": " tinies",
  "3425": " tiniest",
  "3426": " tinier",
  "3427": " ting",
  "3428": " tingl",
  "3429": " tingly",
  "3430": " tingli",
  "3431": " tinglin",
  "3432": " tingling",
  "3433": " tingle",
  "3434": " tine",
  "3435": " tines",
  "3436": " tim",
  "3437": " timi",
  "3438": " timid",
  "3439": " timidl",
  "3440": " timidly",
  "3441": " time",
  "3442": " times",
  "3443": " timer",
  "3444": " timb",
  "3445": " timbe",
  "3446": " timber",
  "3447": " timbers",
  "3448": " til",
  "3449": " tilt",
  "3450": " tilts",
  "3451": " tilte",
  "3452": " tilted",
  "3453": " till",
  "3454": " tile",
  "3455": " tiles",
  "3456": " tig",
  "3457": " tigh",
  "3458": " tight",
  "3459": " tightr",
  "3460": " tightro",
  "3461": " tightrop",
  "3462": " tightrope",
  "3463": " tightn",
  "3464": " tightne",
  "3465": " tightnes",
  "3466": " tightness",
  "3467": " tightl",
  "3468": " tightly",
  "3469": " tighte",
  "3470": " tightes",
  "3471": " tightest",
  "3472": " tighter",
  "3473": " tighten",
  "3474": " tightens",
  "3475": " tighteni",
  "3476": " tightenin",
  "3477": " tightening",
  "3478": " tightene",
  "3479": " tightened",
  "3480": " tige",
  "3481": " tiger",
  "3482": " tigers",
  "3483": " tie",
  "3484": " ties",
  "3485": " tied",
  "3486": " tid",
  "3487": " tidy",
  "3488": " tidyi",
  "3489": " tidyin",
  "3490": " tidying",
  "3491": " tidi",
  "3492": " tidin",
  "3493": " tidil",
  "3494": " tidily",
  "3495": " tidie",
  "3496": " tidies",
  "3497": " tidiest",
  "3498": " tidier",
  "3499": " tidied",
  "3500": " tide",
  "3501": " tides",
  "3502": " tidep",
  "3503": " tidepo",
  "3504": " tidepoo",
  "3505": " tidepool",
  "3506": " tidepools",
  "3507": " tic",
  "3508": " tick",
  "3509": " ticks",
  "3510": " tickl",
  "3511": " tickly",
  "3512": " tickli",
  "3513": " ticklis",
  "3514": " ticklish",
  "3515": " ticklin",
  "3516": " tickling",
  "3517": " tickle",
  "3518": " tickles",
  "3519": " tickled",
  "3520": " ticki",
  "3521": " tickin",
  "3522": " ticking",
  "3523": " ticke",
  "3524": " ticket",
  "3525": " tickets",
  "3526": " ticked",
  "3527": " tia",
  "3528": " tiar",
  "3529": " tiara",
  "3530": " th",
  "3531": " thy",
  "3532": " thym",
  "3533": " thyme",
  "3534": " thu",
  "3535": " thus",
  "3536": " thun",
  "3537": " thund",
  "3538": " thunde",
  "3539": " thunder",
  "3540": " thunders",
  "3541": " thunderst",
  "3542": " thundersto",
  "3543": " thunderstor",
  "3544": " thunderstorm",
  "3545": " thunderstorms",
  "3546": " thundero",
  "3547": " thunderou",
  "3548": " thunderous",
  "3549": " thunderi",
  "3550": " thunderin",
  "3551": " thundering",
  "3552": " thundere",
  "3553": " thundered",
  "3554": " thunderc",
  "3555": " thundercl",
  "3556": " thunderclo",
  "3557": " thunderclou",
  "3558": " thundercloud",
  "3559": " thunderclouds",
  "3560": " thundercla",
  "3561": " thunderclap",
  "3562": " thum",
  "3563": " thump",
  "3564": " thumps",
  "3565": " thumpi",
  "3566": " thumpin",
  "3567": " thumping",
  "3568": " thumpe",
  "3569": " thumped",
  "3570": " thumb",
  "3571": " thumbs",
  "3572": " thud",
  "3573": " thr",
  "3574": " thru",
  "3575": " thrus",
  "3576": " thrust",
  "3577": " thrusti",
  "3578": " thrustin",
  "3579": " thrusting",
  "3580": " thro",
  "3581": " throw",
  "3582": " throws",
  "3583": " thrown",
  "3584": " throwi",
  "3585": " throwin",
  "3586": " throwing",
  "3587": " throwe",
  "3588": " thrower",
  "3589": " throu",
  "3590": " throug",
  "3591": " through",
  "3592": " througho",
  "3593": " throughou",
  "3594": " throughout",
  "3595": " thron",
  "3596": " throne",
  "3597": " throa",
  "3598": " throat",
  "3599": " thri",
  "3600": " thriv",
  "3601": " thrivi",
  "3602": " thrivin",
  "3603": " thriving",
  "3604": " thrive",
  "3605": " thril",
  "3606": " thrill",
  "3607": " thrilli",
  "3608": " thrillin",
  "3609": " thrilling",
  "3610": " thrille",
  "3611": " thrilled",
  "3612": " thrif",
  "3613": " thrift",
  "3614": " thre",
  "3615": " threw",
  "3616": " three",
  "3617": " threa",
  "3618": " threat",
  "3619": " threats",
  "3620": " threate",
  "3621": " threaten",
  "3622": " threateni",
  "3623": " threatenin",
  "3624": " threatening",
  "3625": " threatene",
  "3626": " threatened",
  "3627": " thread",
  "3628": " threads",
  "3629": " threadi",
  "3630": " threadin",
  "3631": " threading",
  "3632": " tho",
  "3633": " thou",
  "3634": " thous",
  "3635": " thousa",
  "3636": " thousan",
  "3637": " thousand",
  "3638": " thousands",
  "3639": " thoug",
  "3640": " though",
  "3641": " thought",
  "3642": " thoughts",
  "3643": " thoughtf",
  "3644": " thoughtfu",
  "3645": " thoughtful",
  "3646": " thoughtfuln",
  "3647": " thoughtfulne",
  "3648": " thoughtfulnes",
  "3649": " thoughtfulness",
  "3650": " thoughtfull",
  "3651": " thoughtfully",
  "3652": " thos",
  "3653": " those",
  "3654": " thor",
  "3655": " thoro",
  "3656": " thorou",
  "3657": " thoroug",
  "3658": " thorough",
  "3659": " thoroughl",
  "3660": " thoroughly",
  "3661": " thorn",
  "3662": " thorny",
  "3663": " thorns",
  "3664": " thi",
  "3665": " this",
  "3666": " thir",
  "3667": " thirt",
  "3668": " thirty",
  "3669": " thirte",
  "3670": " thirtee",
  "3671": " thirteen",
  "3672": " thirs",
  "3673": " thirst",
  "3674": " thirsty",
  "3675": " third",
  "3676": " thin",
  "3677": " thinn",
  "3678": " thinne",
  "3679": " thinner",
  "3680": " think",
  "3681": " thinks",
  "3682": " thinki",
  "3683": " thinkin",
  "3684": " thinking",
  "3685": " thinke",
  "3686": " thinker",
  "3687": " thing",
  "3688": " things",
  "3689": " thie",
  "3690": " thiev",
  "3691": " thieve",
  "3692": " thieves",
  "3693": " thief",
  "3694": " thic",
  "3695": " thick",
  "3696": " thicke",
  "3697": " thickes",
  "3698": " thickest",
  "3699": " thicker",
  "3700": " thicken",
  "3701": " thickene",
  "3702": " thickened",
  "3703": " the",
  "3704": " they",
  "3705": " thes",
  "3706": " these",
  "3707": " ther",
  "3708": " therm",
  "3709": " thermo",
  "3710": " thermos",
  "3711": " thermom",
  "3712": " thermome",
  "3713": " thermomet",
  "3714": " thermomete",
  "3715": " thermometer",
  "3716": " thermometers",
  "3717": " there",
  "3718": " thera",
  "3719": " therap",
  "3720": " therapi",
  "3721": " therapis",
  "3722": " therapist",
  "3723": " then",
  "3724": " them",
  "3725": " thems",
  "3726": " themse",
  "3727": " themsel",
  "3728": " themselv",
  "3729": " themselve",
  "3730": " themselves",
  "3731": " theme",
  "3732": " thei",
  "3733": " their",
  "3734": " theirs",
  "3735": " theb",
  "3736": " thebo",
  "3737": " theboy",
  "3738": " thea",
  "3739": " theat",
  "3740": " theatr",
  "3741": " theatre",
  "3742": " theate",
  "3743": " theater",
  "3744": " tha",
  "3745": " thaw",
  "3746": " that",
  "3747": " than",
  "3748": " thank",
  "3749": " thanks",
  "3750": " thanki",
  "3751": " thankin",
  "3752": " thanking",
  "3753": " thankf",
  "3754": " thankfu",
  "3755": " thankful",
  "3756": " thankfuln",
  "3757": " thankfulne",
  "3758": " thankfulnes",
  "3759": " thankfulness",
  "3760": " thankfull",
  "3761": " thankfully",
  "3762": " thanke",
  "3763": " thanked",
  "3764": " te",
  "3765": " tex",
  "3766": " text",
  "3767": " textu",
  "3768": " textur",
  "3769": " texture",
  "3770": " textures",
  "3771": " tes",
  "3772": " test",
  "3773": " tests",
  "3774": " testi",
  "3775": " testin",
  "3776": " testing",
  "3777": " teste",
  "3778": " tested",
  "3779": " ter",
  "3780": " terr",
  "3781": " terro",
  "3782": " terror",
  "3783": " terri",
  "3784": " territ",
  "3785": " territo",
  "3786": " territor",
  "3787": " territory",
  "3788": " terrif",
  "3789": " terrify",
  "3790": " terrifyi",
  "3791": " terrifyin",
  "3792": " terrifying",
  "3793": " terrifi",
  "3794": " terrifie",
  "3795": " terrified",
  "3796": " terrific",
  "3797": " terrib",
  "3798": " terribl",
  "3799": " terribly",
  "3800": " terrible",
  "3801": " terra",
  "3802": " terrai",
  "3803": " terrain",
  "3804": " term",
  "3805": " terms",
  "3806": " termi",
  "3807": " ten",
  "3808": " tent",
  "3809": " tents",
  "3810": " tenth",
  "3811": " tenta",
  "3812": " tentat",
  "3813": " tentati",
  "3814": " tentativ",
  "3815": " tentative",
  "3816": " tentativel",
  "3817": " tentatively",
  "3818": " tentac",
  "3819": " tentacl",
  "3820": " tentacle",
  "3821": " tentacles",
  "3822": " tens",
  "3823": " tensi",
  "3824": " tensio",
  "3825": " tension",
  "3826": " tense",
  "3827": " tenn",
  "3828": " tenni",
  "3829": " tennis",
  "3830": " tend",
  "3831": " tendi",
  "3832": " tendin",
  "3833": " tending",
  "3834": " tende",
  "3835": " tender",
  "3836": " tendern",
  "3837": " tenderne",
  "3838": " tendernes",
  "3839": " tenderness",
  "3840": " tenderl",
  "3841": " tenderly",
  "3842": " tended",
  "3843": " tena",
  "3844": " tem",
  "3845": " temp",
  "3846": " tempt",
  "3847": " tempti",
  "3848": " temptin",
  "3849": " tempting",
  "3850": " tempte",
  "3851": " tempted",
  "3852": " tempta",
  "3853": " temptat",
  "3854": " temptati",
  "3855": " temptatio",
  "3856": " temptation",
  "3857": " tempo",
  "3858": " tempor",
  "3859": " tempora",
  "3860": " temporar",
  "3861": " temporary",
  "3862": " templ",
  "3863": " temple",
  "3864": " temples",
  "3865": " tempe",
  "3866": " temper",
  "3867": " tempera",
  "3868": " temperat",
  "3869": " temperatu",
  "3870": " temperatur",
  "3871": " temperature",
  "3872": " temperatures",
  "3873": " tel",
  "3874": " tell",
  "3875": " tells",
  "3876": " telli",
  "3877": " tellin",
  "3878": " telling",
  "3879": " tele",
  "3880": " telev",
  "3881": " televi",
  "3882": " televis",
  "3883": " televisi",
  "3884": " televisio",
  "3885": " television",
  "3886": " televisions",
  "3887": " teles",
  "3888": " telesc",
  "3889": " telesco",
  "3890": " telescop",
  "3891": " telescope",
  "3892": " telep",
  "3893": " teleph",
  "3894": " telepho",
  "3895": " telephon",
  "3896": " telephone",
  "3897": " telephones",
  "3898": " tee",
  "3899": " teet",
  "3900": " teeth",
  "3901": " teete",
  "3902": " teeter",
  "3903": " teem",
  "3904": " teemi",
  "3905": " teemin",
  "3906": " teeming",
  "3907": " ted",
  "3908": " tedd",
  "3909": " teddy",
  "3910": " teddyb",
  "3911": " teddybe",
  "3912": " teddybea",
  "3913": " teddybear",
  "3914": " teddi",
  "3915": " teddie",
  "3916": " teddies",
  "3917": " tec",
  "3918": " tech",
  "3919": " techn",
  "3920": " techni",
  "3921": " techniq",
  "3922": " techniqu",
  "3923": " technique",
  "3924": " techniques",
  "3925": " technic",
  "3926": " technici",
  "3927": " technicia",
  "3928": " technician",
  "3929": " tea",
  "3930": " teas",
  "3931": " teasp",
  "3932": " teaspo",
  "3933": " teaspoo",
  "3934": " teaspoon",
  "3935": " teaspoons",
  "3936": " teasi",
  "3937": " teasin",
  "3938": " teasing",
  "3939": " tease",
  "3940": " teases",
  "3941": " teased",
  "3942": " tear",
  "3943": " teary",
  "3944": " tears",
  "3945": " teari",
  "3946": " tearin",
  "3947": " tearing",
  "3948": " tearf",
  "3949": " tearfu",
  "3950": " tearful",
  "3951": " teap",
  "3952": " teapo",
  "3953": " teapot",
  "3954": " team",
  "3955": " teamw",
  "3956": " teamwo",
  "3957": " teamwor",
  "3958": " teamwork",
  "3959": " teams",
  "3960": " teamm",
  "3961": " teamma",
  "3962": " teammat",
  "3963": " teammate",
  "3964": " teammates",
  "3965": " teal",
  "3966": " teac",
  "3967": " teacu",
  "3968": " teacup",
  "3969": " teacups",
  "3970": " teach",
  "3971": " teachi",
  "3972": " teachin",
  "3973": " teaching",
  "3974": " teachings",
  "3975": " teache",
  "3976": " teaches",
  "3977": " teacher",
  "3978": " teachers",
  "3979": " ta",
  "3980": " tax",
  "3981": " taxi",
  "3982": " taxis",
  "3983": " taxe",
  "3984": " taxes",
  "3985": " tau",
  "3986": " taut",
  "3987": " taun",
  "3988": " taunt",
  "3989": " taunts",
  "3990": " taunti",
  "3991": " tauntin",
  "3992": " taunting",
  "3993": " taunte",
  "3994": " taunted",
  "3995": " taug",
  "3996": " taugh",
  "3997": " taught",
  "3998": " tat",
  "3999": " tatt",
  "4000": " tatty",
  "4001": " tattl",
  "4002": " tattle",
  "4003": " tattlet",
  "4004": " tattleta",
  "4005": " tattletal",
  "4006": " tattletale",
  "4007": " tatte",
  "4008": " tatter",
  "4009": " tattere",
  "4010": " tattered",
  "4011": " tas",
  "4012": " tast",
  "4013": " tasty",
  "4014": " tasti",
  "4015": " tastin",
  "4016": " tasting",
  "4017": " tastie",
  "4018": " tasties",
  "4019": " tastiest",
  "4020": " tastier",
  "4021": " taste",
  "4022": " tastes",
  "4023": " taster",
  "4024": " tasted",
  "4025": " task",
  "4026": " tasks",
  "4027": " taske",
  "4028": " tasked",
  "4029": " tar",
  "4030": " tart",
  "4031": " tarp",
  "4032": " targ",
  "4033": " targe",
  "4034": " target",
  "4035": " targets",
  "4036": " tap",
  "4037": " taps",
  "4038": " tapp",
  "4039": " tappi",
  "4040": " tappin",
  "4041": " tapping",
  "4042": " tappe",
  "4043": " tapped",
  "4044": " tapi",
  "4045": " tapin",
  "4046": " taping",
  "4047": " tape",
  "4048": " tapes",
  "4049": " taped",
  "4050": " tan",
  "4051": " tant",
  "4052": " tantr",
  "4053": " tantru",
  "4054": " tantrum",
  "4055": " tantrums",
  "4056": " tank",
  "4057": " tanks",
  "4058": " tang",
  "4059": " tangy",
  "4060": " tangl",
  "4061": " tangle",
  "4062": " tangled",
  "4063": " tam",
  "4064": " tame",
  "4065": " tamer",
  "4066": " tamed",
  "4067": " tamb",
  "4068": " tambo",
  "4069": " tambou",
  "4070": " tambour",
  "4071": " tambouri",
  "4072": " tambourin",
  "4073": " tambourine",
  "4074": " tambourines",
  "4075": " tal",
  "4076": " talo",
  "4077": " talon",
  "4078": " talons",
  "4079": " tall",
  "4080": " talli",
  "4081": " tallie",
  "4082": " tallied",
  "4083": " talle",
  "4084": " talles",
  "4085": " tallest",
  "4086": " taller",
  "4087": " talk",
  "4088": " talks",
  "4089": " talki",
  "4090": " talkin",
  "4091": " talking",
  "4092": " talke",
  "4093": " talker",
  "4094": " talked",
  "4095": " talka",
  "4096": " talkat",
  "4097": " talkati",
  "4098": " talkativ",
  "4099": " talkative",
  "4100": " tale",
  "4101": " tales",
  "4102": " talen",
  "4103": " talent",
  "4104": " talents",
  "4105": " talente",
  "4106": " talented",
  "4107": " tak",
  "4108": " taki",
  "4109": " takin",
  "4110": " taking",
  "4111": " take",
  "4112": " takes",
  "4113": " taker",
  "4114": " takeo",
  "4115": " takeof",
  "4116": " takeoff",
  "4117": " taken",
  "4118": " tai",
  "4119": " tail",
  "4120": " tails",
  "4121": " tailo",
  "4122": " tailor",
  "4123": " tag",
  "4124": " tags",
  "4125": " tagg",
  "4126": " tagge",
  "4127": " tagger",
  "4128": " tagged",
  "4129": " tad",
  "4130": " tadp",
  "4131": " tadpo",
  "4132": " tadpol",
  "4133": " tadpole",
  "4134": " tadpoles",
  "4135": " tac",
  "4136": " taco",
  "4137": " tacos",
  "4138": " tack",
  "4139": " tackl",
  "4140": " tackli",
  "4141": " tacklin",
  "4142": " tackling",
  "4143": " tackle",
  "4144": " tackled",
  "4145": " tab",
  "4146": " tabl",
  "4147": " table",
  "4148": " tablet",
  "4149": " tables",
  "4150": " tablesp",
  "4151": " tablespo",
  "4152": " tablespoo",
  "4153": " tablespoon",
  "4154": " tablec",
  "4155": " tablecl",
  "4156": " tableclo",
  "4157": " tableclot",
  "4158": " tablecloth",
  "4159": " tabb",
  "4160": " tabby",
  "4161": " sy",
  "4162": " sys",
  "4163": " syst",
  "4164": " syste",
  "4165": " system",
  "4166": " syr",
  "4167": " syru",
  "4168": " syrup",
  "4169": " syri",
  "4170": " syrin",
  "4171": " syring",
  "4172": " syringe",
  "4173": " syn",
  "4174": " synt",
  "4175": " synthe",
  "4176": " synthes",
  "4177": " synthesi",
  "4178": " synthesiz",
  "4179": " synthesize",
  "4180": " synthesizer",
  "4181": " sync",
  "4182": " sym",
  "4183": " symp",
  "4184": " sympa",
  "4185": " sympath",
  "4186": " sympathy",
  "4187": " sympathi",
  "4188": " sympathis",
  "4189": " sympathise",
  "4190": " sympathised",
  "4191": " sympat",
  "4192": " sympathe",
  "4193": " sympathet",
  "4194": " sympatheti",
  "4195": " sympathetic",
  "4196": " sympathetica",
  "4197": " sympathetical",
  "4198": " sympatheticall",
  "4199": " sympathetically",
  "4200": " symb",
  "4201": " symbo",
  "4202": " symbol",
  "4203": " symbols",
  "4204": " symboli",
  "4205": " symboliz",
  "4206": " symbolize",
  "4207": " symbolizes",
  "4208": " symbolized",
  "4209": " sw",
  "4210": " swu",
  "4211": " swun",
  "4212": " swung",
  "4213": " swum",
  "4214": " swo",
  "4215": " swor",
  "4216": " swore",
  "4217": " sword",
  "4218": " swords",
  "4219": " swordf",
  "4220": " swordfi",
  "4221": " swordfis",
  "4222": " swordfish",
  "4223": " swoo",
  "4224": " swoos",
  "4225": " swoosh",
  "4226": " swoop",
  "4227": " swoops",
  "4228": " swoopi",
  "4229": " swoopin",
  "4230": " swooping",
  "4231": " swoope",
  "4232": " swooped",
  "4233": " swol",
  "4234": " swoll",
  "4235": " swolle",
  "4236": " swollen",
  "4237": " swi",
  "4238": " swit",
  "4239": " switc",
  "4240": " switche",
  "4241": " switches",
  "4242": " switched",
  "4243": " switch",
  "4244": " switchi",
  "4245": " switchin",
  "4246": " switching",
  "4247": " swis",
  "4248": " swishe",
  "4249": " swishes",
  "4250": " swished",
  "4251": " swish",
  "4252": " swishi",
  "4253": " swishin",
  "4254": " swishing",
  "4255": " swir",
  "4256": " swirl",
  "4257": " swirls",
  "4258": " swirli",
  "4259": " swirlin",
  "4260": " swirling",
  "4261": " swirle",
  "4262": " swirled",
  "4263": " swip",
  "4264": " swipe",
  "4265": " swiped",
  "4266": " swin",
  "4267": " swing",
  "4268": " swings",
  "4269": " swingse",
  "4270": " swingset",
  "4271": " swingi",
  "4272": " swingin",
  "4273": " swinging",
  "4274": " swinge",
  "4275": " swim",
  "4276": " swims",
  "4277": " swimsu",
  "4278": " swimsui",
  "4279": " swimsuit",
  "4280": " swimsuits",
  "4281": " swimm",
  "4282": " swimmi",
  "4283": " swimmin",
  "4284": " swimming",
  "4285": " swimme",
  "4286": " swimmer",
  "4287": " swimmers",
  "4288": " swif",
  "4289": " swift",
  "4290": " swiftl",
  "4291": " swiftly",
  "4292": " swe",
  "4293": " swer",
  "4294": " swerv",
  "4295": " swerve",
  "4296": " swerved",
  "4297": " swep",
  "4298": " swept",
  "4299": " swel",
  "4300": " swell",
  "4301": " swelli",
  "4302": " swellin",
  "4303": " swelling",
  "4304": " swee",
  "4305": " sweet",
  "4306": " sweets",
  "4307": " sweetn",
  "4308": " sweetne",
  "4309": " sweetnes",
  "4310": " sweetness",
  "4311": " sweetl",
  "4312": " sweetly",
  "4313": " sweeti",
  "4314": " sweetie",
  "4315": " sweeties",
  "4316": " sweethe",
  "4317": " sweethea",
  "4318": " sweethear",
  "4319": " sweetheart",
  "4320": " sweethearts",
  "4321": " sweete",
  "4322": " sweetes",
  "4323": " sweetest",
  "4324": " sweeter",
  "4325": " sweeten",
  "4326": " sweep",
  "4327": " sweepi",
  "4328": " sweepin",
  "4329": " sweeping",
  "4330": " swea",
  "4331": " sweat",
  "4332": " sweaty",
  "4333": " sweati",
  "4334": " sweatin",
  "4335": " sweating",
  "4336": " sweate",
  "4337": " sweater",
  "4338": " sweaters",
  "4339": " swear",
  "4340": " swa",
  "4341": " sway",
  "4342": " swayi",
  "4343": " swayin",
  "4344": " swaying",
  "4345": " swaye",
  "4346": " swayed",
  "4347": " swat",
  "4348": " swatt",
  "4349": " swatti",
  "4350": " swattin",
  "4351": " swatting",
  "4352": " swatte",
  "4353": " swatter",
  "4354": " swatted",
  "4355": " swar",
  "4356": " swarm",
  "4357": " swarmi",
  "4358": " swarmin",
  "4359": " swarming",
  "4360": " swap",
  "4361": " swapp",
  "4362": " swappe",
  "4363": " swapped",
  "4364": " swan",
  "4365": " swans",
  "4366": " swam",
  "4367": " swamp",
  "4368": " swal",
  "4369": " swall",
  "4370": " swallo",
  "4371": " swallow",
  "4372": " swallows",
  "4373": " swallowi",
  "4374": " swallowin",
  "4375": " swallowing",
  "4376": " swallowe",
  "4377": " swallowed",
  "4378": " su",
  "4379": " sus",
  "4380": " susp",
  "4381": " suspi",
  "4382": " suspic",
  "4383": " suspici",
  "4384": " suspicio",
  "4385": " suspiciou",
  "4386": " suspicious",
  "4387": " suspiciousl",
  "4388": " suspiciously",
  "4389": " suspicion",
  "4390": " suspicions",
  "4391": " suspe",
  "4392": " suspen",
  "4393": " suspens",
  "4394": " suspense",
  "4395": " suspec",
  "4396": " suspect",
  "4397": " sur",
  "4398": " surv",
  "4399": " survi",
  "4400": " surviv",
  "4401": " survive",
  "4402": " survived",
  "4403": " surve",
  "4404": " survey",
  "4405": " surveye",
  "4406": " surveyed",
  "4407": " surr",
  "4408": " surro",
  "4409": " surrou",
  "4410": " surroun",
  "4411": " surround",
  "4412": " surroundi",
  "4413": " surroundin",
  "4414": " surrounding",
  "4415": " surroundings",
  "4416": " surrounde",
  "4417": " surrounded",
  "4418": " surre",
  "4419": " surren",
  "4420": " surrend",
  "4421": " surrende",
  "4422": " surrender",
  "4423": " surrenderi",
  "4424": " surrenderin",
  "4425": " surrendering",
  "4426": " surrendere",
  "4427": " surrendered",
  "4428": " surp",
  "4429": " surpr",
  "4430": " surpri",
  "4431": " surpris",
  "4432": " surprisi",
  "4433": " surprisin",
  "4434": " surprising",
  "4435": " surprisingl",
  "4436": " surprisingly",
  "4437": " surprise",
  "4438": " surprises",
  "4439": " surprised",
  "4440": " surg",
  "4441": " surge",
  "4442": " surger",
  "4443": " surgery",
  "4444": " surged",
  "4445": " surf",
  "4446": " surfs",
  "4447": " surfi",
  "4448": " surfin",
  "4449": " surfing",
  "4450": " surfe",
  "4451": " surfer",
  "4452": " surfers",
  "4453": " surfed",
  "4454": " surfb",
  "4455": " surfbo",
  "4456": " surfboa",
  "4457": " surfboar",
  "4458": " surfboard",
  "4459": " surfboards",
  "4460": " surfa",
  "4461": " surfac",
  "4462": " surface",
  "4463": " surfaces",
  "4464": " surfaced",
  "4465": " sure",
  "4466": " surel",
  "4467": " surely",
  "4468": " sup",
  "4469": " supr",
  "4470": " supri",
  "4471": " supris",
  "4472": " suprise",
  "4473": " suprised",
  "4474": " supp",
  "4475": " suppo",
  "4476": " suppos",
  "4477": " suppose",
  "4478": " supposed",
  "4479": " suppor",
  "4480": " support",
  "4481": " supports",
  "4482": " supporti",
  "4483": " supportiv",
  "4484": " supportive",
  "4485": " supportin",
  "4486": " supporting",
  "4487": " supporte",
  "4488": " supported",
  "4489": " suppl",
  "4490": " supply",
  "4491": " supplyi",
  "4492": " supplyin",
  "4493": " supplying",
  "4494": " suppli",
  "4495": " supplie",
  "4496": " supplies",
  "4497": " supplied",
  "4498": " suppe",
  "4499": " supper",
  "4500": " supe",
  "4501": " super",
  "4502": " superv",
  "4503": " supervi",
  "4504": " supervis",
  "4505": " superviso",
  "4506": " supervisor",
  "4507": " supervisi",
  "4508": " supervisio",
  "4509": " supervision",
  "4510": " supervise",
  "4511": " superp",
  "4512": " superpo",
  "4513": " superpow",
  "4514": " superpowe",
  "4515": " superpower",
  "4516": " superpowers",
  "4517": " superm",
  "4518": " superma",
  "4519": " supermar",
  "4520": " supermark",
  "4521": " supermarke",
  "4522": " supermarket",
  "4523": " superhe",
  "4524": " superher",
  "4525": " superhero",
  "4526": " superheroe",
  "4527": " superheroes",
  "4528": " sun",
  "4529": " suns",
  "4530": " sunsh",
  "4531": " sunshi",
  "4532": " sunshin",
  "4533": " sunshiny",
  "4534": " sunshine",
  "4535": " sunse",
  "4536": " sunset",
  "4537": " sunsets",
  "4538": " sunsc",
  "4539": " sunscr",
  "4540": " sunscre",
  "4541": " sunscree",
  "4542": " sunscreen",
  "4543": " sunr",
  "4544": " sunri",
  "4545": " sunris",
  "4546": " sunrise",
  "4547": " sunrises",
  "4548": " sunra",
  "4549": " sunray",
  "4550": " sunrays",
  "4551": " sunn",
  "4552": " sunny",
  "4553": " sunni",
  "4554": " sunnin",
  "4555": " sunning",
  "4556": " sunnie",
  "4557": " sunl",
  "4558": " sunli",
  "4559": " sunlit",
  "4560": " sunlig",
  "4561": " sunligh",
  "4562": " sunlight",
  "4563": " sunk",
  "4564": " sunh",
  "4565": " sunha",
  "4566": " sunhat",
  "4567": " sung",
  "4568": " sungl",
  "4569": " sungla",
  "4570": " sunglas",
  "4571": " sunglass",
  "4572": " sunglasse",
  "4573": " sunglasses",
  "4574": " sunf",
  "4575": " sunfl",
  "4576": " sunflo",
  "4577": " sunflow",
  "4578": " sunflowe",
  "4579": " sunflower",
  "4580": " sunflowers",
  "4581": " sund",
  "4582": " sunda",
  "4583": " sundae",
  "4584": " sunb",
  "4585": " sunbu",
  "4586": " sunbur",
  "4587": " sunburn",
  "4588": " sunburne",
  "4589": " sunburned",
  "4590": " sunbl",
  "4591": " sunblo",
  "4592": " sunbloc",
  "4593": " sunblock",
  "4594": " sunbe",
  "4595": " sunbea",
  "4596": " sunbeam",
  "4597": " sunbeams",
  "4598": " sunba",
  "4599": " sunbath",
  "4600": " sunbat",
  "4601": " sunbathe",
  "4602": " sum",
  "4603": " sums",
  "4604": " summ",
  "4605": " summo",
  "4606": " summon",
  "4607": " summone",
  "4608": " summoned",
  "4609": " summi",
  "4610": " summit",
  "4611": " summe",
  "4612": " summer",
  "4613": " summert",
  "4614": " summerti",
  "4615": " summertim",
  "4616": " summertime",
  "4617": " summers",
  "4618": " sul",
  "4619": " sulk",
  "4620": " sulks",
  "4621": " sulki",
  "4622": " sulke",
  "4623": " sulked",
  "4624": " sui",
  "4625": " suit",
  "4626": " suits",
  "4627": " suite",
  "4628": " suited",
  "4629": " suitc",
  "4630": " suitca",
  "4631": " suitcas",
  "4632": " suitcase",
  "4633": " suitcases",
  "4634": " suita",
  "4635": " suitab",
  "4636": " suitabl",
  "4637": " suitable",
  "4638": " sug",
  "4639": " sugg",
  "4640": " sugge",
  "4641": " sugges",
  "4642": " suggest",
  "4643": " suggests",
  "4644": " suggesti",
  "4645": " suggestio",
  "4646": " suggestion",
  "4647": " suggestions",
  "4648": " suggestin",
  "4649": " suggesting",
  "4650": " suggeste",
  "4651": " suggested",
  "4652": " suga",
  "4653": " sugar",
  "4654": " sugary",
  "4655": " suf",
  "4656": " suff",
  "4657": " suffe",
  "4658": " suffer",
  "4659": " suffers",
  "4660": " sufferi",
  "4661": " sufferin",
  "4662": " suffering",
  "4663": " sufferings",
  "4664": " suffere",
  "4665": " suffered",
  "4666": " sue",
  "4667": " sued",
  "4668": " sud",
  "4669": " suds",
  "4670": " sudsy",
  "4671": " sudd",
  "4672": " sudde",
  "4673": " sudden",
  "4674": " suddenl",
  "4675": " suddenly",
  "4676": " suc",
  "4677": " suck",
  "4678": " sucki",
  "4679": " suckin",
  "4680": " sucking",
  "4681": " sucke",
  "4682": " sucker",
  "4683": " suckers",
  "4684": " sucked",
  "4685": " such",
  "4686": " succ",
  "4687": " succu",
  "4688": " succul",
  "4689": " succule",
  "4690": " succulen",
  "4691": " succulent",
  "4692": " succe",
  "4693": " succes",
  "4694": " success",
  "4695": " successf",
  "4696": " successfu",
  "4697": " successful",
  "4698": " successfull",
  "4699": " successfully",
  "4700": " successe",
  "4701": " successes",
  "4702": " succee",
  "4703": " succeed",
  "4704": " succeedi",
  "4705": " succeedin",
  "4706": " succeeding",
  "4707": " succeede",
  "4708": " succeeded",
  "4709": " sub",
  "4710": " subw",
  "4711": " subwa",
  "4712": " subway",
  "4713": " subt",
  "4714": " subtr",
  "4715": " subtra",
  "4716": " subtrac",
  "4717": " subtract",
  "4718": " subtracti",
  "4719": " subtractin",
  "4720": " subtracting",
  "4721": " subs",
  "4722": " subst",
  "4723": " substa",
  "4724": " substan",
  "4725": " substanc",
  "4726": " substance",
  "4727": " subsi",
  "4728": " subsid",
  "4729": " subside",
  "4730": " subm",
  "4731": " subma",
  "4732": " submar",
  "4733": " submari",
  "4734": " submarin",
  "4735": " submarine",
  "4736": " subj",
  "4737": " subje",
  "4738": " subjec",
  "4739": " subject",
  "4740": " subjects",
  "4741": " st",
  "4742": " sty",
  "4743": " styl",
  "4744": " styli",
  "4745": " stylis",
  "4746": " stylist",
  "4747": " stylish",
  "4748": " stylin",
  "4749": " styling",
  "4750": " style",
  "4751": " styles",
  "4752": " styled",
  "4753": " stu",
  "4754": " stut",
  "4755": " stutt",
  "4756": " stutte",
  "4757": " stutter",
  "4758": " stuttere",
  "4759": " stuttered",
  "4760": " stur",
  "4761": " sturd",
  "4762": " sturdy",
  "4763": " sturdi",
  "4764": " sturdie",
  "4765": " sturdier",
  "4766": " stup",
  "4767": " stupi",
  "4768": " stupid",
  "4769": " stun",
  "4770": " stunt",
  "4771": " stunts",
  "4772": " stunn",
  "4773": " stunni",
  "4774": " stunnin",
  "4775": " stunning",
  "4776": " stunne",
  "4777": " stunned",
  "4778": " stung",
  "4779": " stum",
  "4780": " stump",
  "4781": " stumpe",
  "4782": " stumped",
  "4783": " stumb",
  "4784": " stumbl",
  "4785": " stumbli",
  "4786": " stumblin",
  "4787": " stumbling",
  "4788": " stumble",
  "4789": " stumbles",
  "4790": " stumbled",
  "4791": " stuf",
  "4792": " stuff",
  "4793": " stuffy",
  "4794": " stuffi",
  "4795": " stuffin",
  "4796": " stuffing",
  "4797": " stuffe",
  "4798": " stuffed",
  "4799": " stud",
  "4800": " study",
  "4801": " studyi",
  "4802": " studyin",
  "4803": " studying",
  "4804": " studi",
  "4805": " studio",
  "4806": " studie",
  "4807": " studies",
  "4808": " studied",
  "4809": " stude",
  "4810": " studen",
  "4811": " student",
  "4812": " students",
  "4813": " stuc",
  "4814": " stuck",
  "4815": " stub",
  "4816": " stubb",
  "4817": " stubbo",
  "4818": " stubbor",
  "4819": " stubborn",
  "4820": " stubbornn",
  "4821": " stubbornne",
  "4822": " stubbornnes",
  "4823": " stubbornness",
  "4824": " stubbornl",
  "4825": " stubbornly",
  "4826": " stubbe",
  "4827": " stubbed",
  "4828": " str",
  "4829": " stru",
  "4830": " strut",
  "4831": " strutt",
  "4832": " strutte",
  "4833": " strutted",
  "4834": " strun",
  "4835": " strung",
  "4836": " strum",
  "4837": " strums",
  "4838": " strumm",
  "4839": " strummi",
  "4840": " strummin",
  "4841": " strumming",
  "4842": " strumme",
  "4843": " strummed",
  "4844": " strug",
  "4845": " strugg",
  "4846": " struggl",
  "4847": " struggli",
  "4848": " strugglin",
  "4849": " struggling",
  "4850": " struggle",
  "4851": " struggles",
  "4852": " struggled",
  "4853": " struc",
  "4854": " struct",
  "4855": " structu",
  "4856": " structur",
  "4857": " structure",
  "4858": " structures",
  "4859": " struck",
  "4860": " stro",
  "4861": " stron",
  "4862": " strong",
  "4863": " strongl",
  "4864": " strongly",
  "4865": " stronge",
  "4866": " stronges",
  "4867": " strongest",
  "4868": " stronger",
  "4869": " strol",
  "4870": " stroll",
  "4871": " strolls",
  "4872": " strolli",
  "4873": " strollin",
  "4874": " strolling",
  "4875": " strolle",
  "4876": " stroller",
  "4877": " strolled",
  "4878": " strok",
  "4879": " stroki",
  "4880": " strokin",
  "4881": " stroking",
  "4882": " stroke",
  "4883": " strokes",
  "4884": " stroked",
  "4885": " strod",
  "4886": " strode",
  "4887": " stri",
  "4888": " striv",
  "4889": " strivi",
  "4890": " strivin",
  "4891": " striving",
  "4892": " strive",
  "4893": " strived",
  "4894": " strip",
  "4895": " strips",
  "4896": " stripp",
  "4897": " strippe",
  "4898": " stripped",
  "4899": " stripe",
  "4900": " stripes",
  "4901": " striped",
  "4902": " strin",
  "4903": " string",
  "4904": " stringy",
  "4905": " strings",
  "4906": " strik",
  "4907": " striki",
  "4908": " strikin",
  "4909": " striking",
  "4910": " strike",
  "4911": " strikes",
  "4912": " striker",
  "4913": " strikerr",
  "4914": " strikerry",
  "4915": " strid",
  "4916": " stride",
  "4917": " strides",
  "4918": " stric",
  "4919": " strict",
  "4920": " stre",
  "4921": " strew",
  "4922": " strewn",
  "4923": " stret",
  "4924": " stretc",
  "4925": " stretche",
  "4926": " stretches",
  "4927": " stretcher",
  "4928": " stretched",
  "4929": " stretch",
  "4930": " stretchy",
  "4931": " stretchi",
  "4932": " stretchin",
  "4933": " stretching",
  "4934": " stres",
  "4935": " stress",
  "4936": " stresse",
  "4937": " stressed",
  "4938": " stren",
  "4939": " streng",
  "4940": " strength",
  "4941": " strengths",
  "4942": " strengt",
  "4943": " strengthe",
  "4944": " strengthen",
  "4945": " stree",
  "4946": " street",
  "4947": " streets",
  "4948": " streetl",
  "4949": " strea",
  "4950": " stream",
  "4951": " streams",
  "4952": " streami",
  "4953": " streamin",
  "4954": " streaming",
  "4955": " streame",
  "4956": " streamer",
  "4957": " streamers",
  "4958": " streamed",
  "4959": " streak",
  "4960": " streaks",
  "4961": " streake",
  "4962": " streaked",
  "4963": " stra",
  "4964": " stray",
  "4965": " straye",
  "4966": " strayed",
  "4967": " straw",
  "4968": " straws",
  "4969": " strawb",
  "4970": " strawbe",
  "4971": " strawber",
  "4972": " strawberr",
  "4973": " strawberry",
  "4974": " strawberri",
  "4975": " strawberrie",
  "4976": " strawberries",
  "4977": " strat",
  "4978": " strate",
  "4979": " strateg",
  "4980": " strategy",
  "4981": " strap",
  "4982": " straps",
  "4983": " strapp",
  "4984": " strappe",
  "4985": " strapped",
  "4986": " stran",
  "4987": " strang",
  "4988": " strange",
  "4989": " stranges",
  "4990": " strangest",
  "4991": " stranger",
  "4992": " strangers",
  "4993": " strangel",
  "4994": " strangely",
  "4995": " strand",
  "4996": " strands",
  "4997": " strande",
  "4998": " stranded",
  "4999": " strai",
  "5000": " strain",
  "5001": " straine",
  "5002": " strained",
  "5003": " straig",
  "5004": " straigh",
  "5005": " straight",
  "5006": " straighte",
  "5007": " straighten",
  "5008": " straightene",
  "5009": " straightened",
  "5010": " sto",
  "5011": " stow",
  "5012": " stowa",
  "5013": " stowaw",
  "5014": " stowawa",
  "5015": " stowaway",
  "5016": " stov",
  "5017": " stove",
  "5018": " stoves",
  "5019": " stor",
  "5020": " story",
  "5021": " storyt",
  "5022": " storyte",
  "5023": " storytel",
  "5024": " storytell",
  "5025": " storytelli",
  "5026": " storytellin",
  "5027": " storytelling",
  "5028": " storytelle",
  "5029": " storyteller",
  "5030": " storytellers",
  "5031": " storyb",
  "5032": " storybo",
  "5033": " storyboo",
  "5034": " storybook",
  "5035": " storybooks",
  "5036": " storm",
  "5037": " stormy",
  "5038": " storms",
  "5039": " storme",
  "5040": " stormed",
  "5041": " stori",
  "5042": " storin",
  "5043": " storing",
  "5044": " storie",
  "5045": " stories",
  "5046": " store",
  "5047": " stores",
  "5048": " storeo",
  "5049": " storeow",
  "5050": " storeown",
  "5051": " storeowne",
  "5052": " storeowner",
  "5053": " storek",
  "5054": " storeke",
  "5055": " storekee",
  "5056": " storekeep",
  "5057": " storekeepe",
  "5058": " storekeeper",
  "5059": " stored",
  "5060": " stora",
  "5061": " storag",
  "5062": " storage",
  "5063": " stop",
  "5064": " stopw",
  "5065": " stopwa",
  "5066": " stopwat",
  "5067": " stopwatc",
  "5068": " stopwatch",
  "5069": " stops",
  "5070": " stopp",
  "5071": " stoppi",
  "5072": " stoppin",
  "5073": " stopping",
  "5074": " stoppe",
  "5075": " stopped",
  "5076": " stoo",
  "5077": " stoop",
  "5078": " stoope",
  "5079": " stooped",
  "5080": " stool",
  "5081": " stood",
  "5082": " ston",
  "5083": " stone",
  "5084": " stones",
  "5085": " stom",
  "5086": " stomp",
  "5087": " stomps",
  "5088": " stompi",
  "5089": " stompin",
  "5090": " stomping",
  "5091": " stompe",
  "5092": " stomped",
  "5093": " stoma",
  "5094": " stomac",
  "5095": " stomach",
  "5096": " stomachs",
  "5097": " stomacha",
  "5098": " stomachac",
  "5099": " stomachache",
  "5100": " stol",
  "5101": " stole",
  "5102": " stolen",
  "5103": " stoc",
  "5104": " stock",
  "5105": " stocki",
  "5106": " stockin",
  "5107": " stocking",
  "5108": " stockings",
  "5109": " sti",
  "5110": " stit",
  "5111": " stitc",
  "5112": " stitche",
  "5113": " stitches",
  "5114": " stitched",
  "5115": " stitch",
  "5116": " stitchi",
  "5117": " stitchin",
  "5118": " stitching",
  "5119": " stir",
  "5120": " stirs",
  "5121": " stirr",
  "5122": " stirri",
  "5123": " stirrin",
  "5124": " stirring",
  "5125": " stirre",
  "5126": " stirrer",
  "5127": " stirred",
  "5128": " stin",
  "5129": " stink",
  "5130": " stinky",
  "5131": " stinks",
  "5132": " sting",
  "5133": " stingy",
  "5134": " stings",
  "5135": " stingi",
  "5136": " stingin",
  "5137": " stinging",
  "5138": " stinge",
  "5139": " stinger",
  "5140": " stingers",
  "5141": " stil",
  "5142": " still",
  "5143": " stif",
  "5144": " stiff",
  "5145": " stic",
  "5146": " stick",
  "5147": " sticky",
  "5148": " sticks",
  "5149": " sticki",
  "5150": " stickin",
  "5151": " sticking",
  "5152": " sticke",
  "5153": " sticker",
  "5154": " stickers",
  "5155": " ste",
  "5156": " stew",
  "5157": " steth",
  "5158": " stetho",
  "5159": " stethos",
  "5160": " stethosc",
  "5161": " stethosco",
  "5162": " stethoscop",
  "5163": " stethoscope",
  "5164": " stethoscopes",
  "5165": " ster",
  "5166": " stern",
  "5167": " sternn",
  "5168": " sternne",
  "5169": " sternnes",
  "5170": " sternness",
  "5171": " sternl",
  "5172": " sternly",
  "5173": " step",
  "5174": " steps",
  "5175": " stepst",
  "5176": " stepsto",
  "5177": " stepstoo",
  "5178": " stepstool",
  "5179": " stepp",
  "5180": " steppi",
  "5181": " steppin",
  "5182": " stepping",
  "5183": " steppe",
  "5184": " stepped",
  "5185": " stem",
  "5186": " stems",
  "5187": " steg",
  "5188": " stego",
  "5189": " stegos",
  "5190": " stegosa",
  "5191": " stegosau",
  "5192": " stegosaur",
  "5193": " stegosauru",
  "5194": " stegosaurus",
  "5195": " stee",
  "5196": " steer",
  "5197": " steers",
  "5198": " steeri",
  "5199": " steerin",
  "5200": " steering",
  "5201": " steere",
  "5202": " steered",
  "5203": " steep",
  "5204": " steepe",
  "5205": " steeper",
  "5206": " steel",
  "5207": " steed",
  "5208": " stea",
  "5209": " steam",
  "5210": " steamy",
  "5211": " steami",
  "5212": " steamin",
  "5213": " steaming",
  "5214": " steame",
  "5215": " steamed",
  "5216": " steal",
  "5217": " stealth",
  "5218": " stealthi",
  "5219": " stealthil",
  "5220": " stealthily",
  "5221": " steals",
  "5222": " steali",
  "5223": " stealin",
  "5224": " stealing",
  "5225": " steak",
  "5226": " steaks",
  "5227": " steakh",
  "5228": " steakho",
  "5229": " steakhou",
  "5230": " steakhous",
  "5231": " steakhouse",
  "5232": " stead",
  "5233": " steady",
  "5234": " steadi",
  "5235": " steadil",
  "5236": " steadily",
  "5237": " steadie",
  "5238": " steadied",
  "5239": " sta",
  "5240": " stay",
  "5241": " stays",
  "5242": " stayi",
  "5243": " stayin",
  "5244": " staying",
  "5245": " staye",
  "5246": " stayed",
  "5247": " stat",
  "5248": " statu",
  "5249": " statue",
  "5250": " statues",
  "5251": " stati",
  "5252": " statio",
  "5253": " station",
  "5254": " stations",
  "5255": " stationm",
  "5256": " stationma",
  "5257": " stationmas",
  "5258": " stationmast",
  "5259": " stationmaste",
  "5260": " stationmaster",
  "5261": " state",
  "5262": " stas",
  "5263": " stash",
  "5264": " star",
  "5265": " starv",
  "5266": " starvi",
  "5267": " starvin",
  "5268": " starving",
  "5269": " start",
  "5270": " starts",
  "5271": " startl",
  "5272": " startli",
  "5273": " startlin",
  "5274": " startling",
  "5275": " startle",
  "5276": " startled",
  "5277": " starti",
  "5278": " startin",
  "5279": " starting",
  "5280": " starte",
  "5281": " starter",
  "5282": " started",
  "5283": " stars",
  "5284": " starr",
  "5285": " starry",
  "5286": " starl",
  "5287": " starli",
  "5288": " starlig",
  "5289": " starligh",
  "5290": " starlight",
  "5291": " stari",
  "5292": " starin",
  "5293": " staring",
  "5294": " starf",
  "5295": " starfr",
  "5296": " starfru",
  "5297": " starfrui",
  "5298": " starfruit",
  "5299": " starfi",
  "5300": " starfis",
  "5301": " starfish",
  "5302": " stare",
  "5303": " stares",
  "5304": " stared",
  "5305": " starc",
  "5306": " starch",
  "5307": " stap",
  "5308": " stapl",
  "5309": " staple",
  "5310": " stapler",
  "5311": " stan",
  "5312": " stand",
  "5313": " stands",
  "5314": " standi",
  "5315": " standin",
  "5316": " standing",
  "5317": " standa",
  "5318": " standar",
  "5319": " standard",
  "5320": " standards",
  "5321": " stam",
  "5322": " stamp",
  "5323": " stamps",
  "5324": " stampi",
  "5325": " stampin",
  "5326": " stamping",
  "5327": " stampe",
  "5328": " stamped",
  "5329": " stamm",
  "5330": " stamme",
  "5331": " stammer",
  "5332": " stammere",
  "5333": " stammered",
  "5334": " stal",
  "5335": " stall",
  "5336": " stalls",
  "5337": " stalk",
  "5338": " stalks",
  "5339": " stale",
  "5340": " stai",
  "5341": " stair",
  "5342": " stairs",
  "5343": " stairc",
  "5344": " stairca",
  "5345": " staircas",
  "5346": " staircase",
  "5347": " stain",
  "5348": " stains",
  "5349": " staine",
  "5350": " stained",
  "5351": " stag",
  "5352": " stage",
  "5353": " staf",
  "5354": " staff",
  "5355": " staffs",
  "5356": " stad",
  "5357": " stadi",
  "5358": " stadiu",
  "5359": " stadium",
  "5360": " stadiums",
  "5361": " stac",
  "5362": " stack",
  "5363": " stacks",
  "5364": " stacki",
  "5365": " stackin",
  "5366": " stacking",
  "5367": " stacke",
  "5368": " stacked",
  "5369": " stab",
  "5370": " stabl",
  "5371": " stable",
  "5372": " stables",
  "5373": " stabb",
  "5374": " stabbe",
  "5375": " stabbed",
  "5376": " sq",
  "5377": " squ",
  "5378": " squi",
  "5379": " squis",
  "5380": " squishe",
  "5381": " squishes",
  "5382": " squished",
  "5383": " squish",
  "5384": " squishy",
  "5385": " squishi",
  "5386": " squishin",
  "5387": " squishing",
  "5388": " squishie",
  "5389": " squir",
  "5390": " squirt",
  "5391": " squirts",
  "5392": " squirti",
  "5393": " squirtin",
  "5394": " squirting",
  "5395": " squirte",
  "5396": " squirted",
  "5397": " squirr",
  "5398": " squirre",
  "5399": " squirrel",
  "5400": " squirrels",
  "5401": " squirm",
  "5402": " squirms",
  "5403": " squirmi",
  "5404": " squirmin",
  "5405": " squirming",
  "5406": " squirme",
  "5407": " squirmed",
  "5408": " squin",
  "5409": " squint",
  "5410": " squinti",
  "5411": " squintin",
  "5412": " squinting",
  "5413": " squinte",
  "5414": " squinted",
  "5415": " squig",
  "5416": " squigg",
  "5417": " squiggl",
  "5418": " squiggly",
  "5419": " squiggle",
  "5420": " squiggles",
  "5421": " squiggled",
  "5422": " squid",
  "5423": " sque",
  "5424": " squel",
  "5425": " squelc",
  "5426": " squelch",
  "5427": " squee",
  "5428": " squeez",
  "5429": " squeezi",
  "5430": " squeezin",
  "5431": " squeezing",
  "5432": " squeeze",
  "5433": " squeezes",
  "5434": " squeezer",
  "5435": " squeezed",
  "5436": " squea",
  "5437": " squeal",
  "5438": " squeals",
  "5439": " squeali",
  "5440": " squealin",
  "5441": " squealing",
  "5442": " squeale",
  "5443": " squealed",
  "5444": " squeak",
  "5445": " squeaky",
  "5446": " squeaks",
  "5447": " squeaki",
  "5448": " squeakin",
  "5449": " squeaking",
  "5450": " squeake",
  "5451": " squeaked",
  "5452": " squa",
  "5453": " squaw",
  "5454": " squawk",
  "5455": " squawks",
  "5456": " squawki",
  "5457": " squawkin",
  "5458": " squawking",
  "5459": " squawke",
  "5460": " squawked",
  "5461": " squat",
  "5462": " squatt",
  "5463": " squatte",
  "5464": " squatted",
  "5465": " squas",
  "5466": " squashe",
  "5467": " squashes",
  "5468": " squashed",
  "5469": " squash",
  "5470": " squashy",
  "5471": " squar",
  "5472": " square",
  "5473": " squares",
  "5474": " squab",
  "5475": " squabb",
  "5476": " squabbl",
  "5477": " sqe",
  "5478": " sqea",
  "5479": " sqeal",
  "5480": " sp",
  "5481": " spy",
  "5482": " spyg",
  "5483": " spygl",
  "5484": " spygla",
  "5485": " spyglas",
  "5486": " spyglass",
  "5487": " spu",
  "5488": " sput",
  "5489": " sputt",
  "5490": " sputte",
  "5491": " sputter",
  "5492": " sputtere",
  "5493": " sputtered",
  "5494": " spur",
  "5495": " spurt",
  "5496": " spurte",
  "5497": " spurted",
  "5498": " spun",
  "5499": " spr",
  "5500": " spru",
  "5501": " sprun",
  "5502": " sprung",
  "5503": " spro",
  "5504": " sprou",
  "5505": " sprout",
  "5506": " sprouts",
  "5507": " sprouti",
  "5508": " sproutin",
  "5509": " sprouting",
  "5510": " sproute",
  "5511": " sprouted",
  "5512": " spri",
  "5513": " sprit",
  "5514": " spritz",
  "5515": " sprite",
  "5516": " sprin",
  "5517": " sprint",
  "5518": " sprinte",
  "5519": " sprinted",
  "5520": " sprink",
  "5521": " sprinkl",
  "5522": " sprinkli",
  "5523": " sprinklin",
  "5524": " sprinkling",
  "5525": " sprinkle",
  "5526": " sprinkles",
  "5527": " sprinkler",
  "5528": " sprinklers",
  "5529": " sprinkled",
  "5530": " spring",
  "5531": " springy",
  "5532": " springt",
  "5533": " springti",
  "5534": " springtim",
  "5535": " springtime",
  "5536": " springs",
  "5537": " springi",
  "5538": " springin",
  "5539": " springing",
  "5540": " springh",
  "5541": " springha",
  "5542": " springhar",
  "5543": " springhare",
  "5544": " sprig",
  "5545": " spre",
  "5546": " sprea",
  "5547": " spread",
  "5548": " spreads",
  "5549": " spreadi",
  "5550": " spreadin",
  "5551": " spreading",
  "5552": " spra",
  "5553": " spray",
  "5554": " sprays",
  "5555": " sprayi",
  "5556": " sprayin",
  "5557": " spraying",
  "5558": " spraye",
  "5559": " sprayer",
  "5560": " sprayers",
  "5561": " sprayed",
  "5562": " spran",
  "5563": " sprang",
  "5564": " sprai",
  "5565": " sprain",
  "5566": " spo",
  "5567": " spou",
  "5568": " spout",
  "5569": " spoute",
  "5570": " spouted",
  "5571": " spot",
  "5572": " spott",
  "5573": " spotti",
  "5574": " spottin",
  "5575": " spotting",
  "5576": " spotte",
  "5577": " spotted",
  "5578": " spots",
  "5579": " spotl",
  "5580": " spotli",
  "5581": " spotlig",
  "5582": " spotligh",
  "5583": " spotlight",
  "5584": " spotle",
  "5585": " spotles",
  "5586": " spotless",
  "5587": " spor",
  "5588": " sport",
  "5589": " sports",
  "5590": " spoo",
  "5591": " spoon",
  "5592": " spoons",
  "5593": " spoonf",
  "5594": " spoonfu",
  "5595": " spoonful",
  "5596": " spoonfuls",
  "5597": " spoone",
  "5598": " spooned",
  "5599": " spool",
  "5600": " spook",
  "5601": " spooky",
  "5602": " spooke",
  "5603": " spooked",
  "5604": " spon",
  "5605": " spong",
  "5606": " sponge",
  "5607": " sponges",
  "5608": " spok",
  "5609": " spoke",
  "5610": " spokes",
  "5611": " spoken",
  "5612": " spoi",
  "5613": " spoil",
  "5614": " spoilt",
  "5615": " spoils",
  "5616": " spoili",
  "5617": " spoilin",
  "5618": " spoiling",
  "5619": " spoile",
  "5620": " spoiled",
  "5621": " spoe",
  "5622": " spl",
  "5623": " splu",
  "5624": " splut",
  "5625": " splutt",
  "5626": " splutte",
  "5627": " splutter",
  "5628": " splo",
  "5629": " spli",
  "5630": " split",
  "5631": " splitt",
  "5632": " splitti",
  "5633": " splittin",
  "5634": " splitting",
  "5635": " splits",
  "5636": " splin",
  "5637": " splint",
  "5638": " splinte",
  "5639": " splinter",
  "5640": " splinters",
  "5641": " splintere",
  "5642": " splintered",
  "5643": " sple",
  "5644": " splen",
  "5645": " splend",
  "5646": " splendi",
  "5647": " splendid",
  "5648": " spla",
  "5649": " splat",
  "5650": " splatt",
  "5651": " splatte",
  "5652": " splatter",
  "5653": " splattere",
  "5654": " splattered",
  "5655": " splas",
  "5656": " splashe",
  "5657": " splashes",
  "5658": " splasher",
  "5659": " splashed",
  "5660": " splash",
  "5661": " splashy",
  "5662": " splashi",
  "5663": " splashin",
  "5664": " splashing",
  "5665": " spi",
  "5666": " spit",
  "5667": " spitt",
  "5668": " spitti",
  "5669": " spittin",
  "5670": " spitting",
  "5671": " spits",
  "5672": " spite",
  "5673": " spir",
  "5674": " spiri",
  "5675": " spirit",
  "5676": " spirits",
  "5677": " spira",
  "5678": " spiral",
  "5679": " spirals",
  "5680": " spirall",
  "5681": " spiralli",
  "5682": " spirallin",
  "5683": " spiralling",
  "5684": " spin",
  "5685": " spins",
  "5686": " spinn",
  "5687": " spinni",
  "5688": " spinnin",
  "5689": " spinning",
  "5690": " spinne",
  "5691": " spinner",
  "5692": " spine",
  "5693": " spines",
  "5694": " spina",
  "5695": " spinac",
  "5696": " spinach",
  "5697": " spil",
  "5698": " spilt",
  "5699": " spill",
  "5700": " spills",
  "5701": " spilli",
  "5702": " spillin",
  "5703": " spilling",
  "5704": " spille",
  "5705": " spilled",
  "5706": " spik",
  "5707": " spiky",
  "5708": " spike",
  "5709": " spikes",
  "5710": " spig",
  "5711": " spigo",
  "5712": " spigot",
  "5713": " spie",
  "5714": " spies",
  "5715": " spied",
  "5716": " spid",
  "5717": " spide",
  "5718": " spider",
  "5719": " spiders",
  "5720": " spic",
  "5721": " spicy",
  "5722": " spicyn",
  "5723": " spicynu",
  "5724": " spicynut",
  "5725": " spici",
  "5726": " spicin",
  "5727": " spicine",
  "5728": " spicines",
  "5729": " spiciness",
  "5730": " spicie",
  "5731": " spicies",
  "5732": " spiciest",
  "5733": " spicier",
  "5734": " spice",
  "5735": " spicey",
  "5736": " spices",
  "5737": " spia",
  "5738": " spiac",
  "5739": " spiacy",
  "5740": " spe",
  "5741": " spew",
  "5742": " spewe",
  "5743": " spewed",
  "5744": " spen",
  "5745": " spent",
  "5746": " spend",
  "5747": " spends",
  "5748": " spendi",
  "5749": " spendin",
  "5750": " spending",
  "5751": " spel",
  "5752": " spell",
  "5753": " spells",
  "5754": " spelli",
  "5755": " spellin",
  "5756": " spelling",
  "5757": " spelle",
  "5758": " speller",
  "5759": " spelled",
  "5760": " spee",
  "5761": " speed",
  "5762": " speedy",
  "5763": " speeds",
  "5764": " speedi",
  "5765": " speedin",
  "5766": " speeding",
  "5767": " speedil",
  "5768": " speedily",
  "5769": " speede",
  "5770": " speeded",
  "5771": " speec",
  "5772": " speeche",
  "5773": " speeches",
  "5774": " speech",
  "5775": " speechl",
  "5776": " speechle",
  "5777": " speechles",
  "5778": " speechless",
  "5779": " sped",
  "5780": " spec",
  "5781": " spect",
  "5782": " specta",
  "5783": " spectat",
  "5784": " spectato",
  "5785": " spectator",
  "5786": " spectators",
  "5787": " spectac",
  "5788": " spectacu",
  "5789": " spectacul",
  "5790": " spectacula",
  "5791": " spectacular",
  "5792": " speck",
  "5793": " specks",
  "5794": " speckl",
  "5795": " speckle",
  "5796": " speckled",
  "5797": " speci",
  "5798": " specif",
  "5799": " specifi",
  "5800": " specific",
  "5801": " specie",
  "5802": " species",
  "5803": " specia",
  "5804": " special",
  "5805": " specialn",
  "5806": " specialne",
  "5807": " specialnes",
  "5808": " specialness",
  "5809": " speciall",
  "5810": " specially",
  "5811": " speciali",
  "5812": " specialis",
  "5813": " specialist",
  "5814": " spea",
  "5815": " spear",
  "5816": " spears",
  "5817": " speak",
  "5818": " speaks",
  "5819": " speaki",
  "5820": " speakin",
  "5821": " speaking",
  "5822": " speake",
  "5823": " speaker",
  "5824": " speakers",
  "5825": " spa",
  "5826": " spat",
  "5827": " spatu",
  "5828": " spatul",
  "5829": " spatula",
  "5830": " spar",
  "5831": " spars",
  "5832": " sparse",
  "5833": " sparr",
  "5834": " sparro",
  "5835": " sparrow",
  "5836": " sparrows",
  "5837": " spark",
  "5838": " sparky",
  "5839": " sparks",
  "5840": " sparkl",
  "5841": " sparkly",
  "5842": " sparkli",
  "5843": " sparklin",
  "5844": " sparkling",
  "5845": " sparklie",
  "5846": " sparklier",
  "5847": " sparkle",
  "5848": " sparkles",
  "5849": " sparkler",
  "5850": " sparkled",
  "5851": " sparki",
  "5852": " sparkin",
  "5853": " sparking",
  "5854": " sparke",
  "5855": " sparked",
  "5856": " spari",
  "5857": " sparin",
  "5858": " sparing",
  "5859": " sparingl",
  "5860": " sparingly",
  "5861": " spare",
  "5862": " spared",
  "5863": " span",
  "5864": " spann",
  "5865": " spanne",
  "5866": " spanned",
  "5867": " spank",
  "5868": " spanki",
  "5869": " spankin",
  "5870": " spanking",
  "5871": " spag",
  "5872": " spaghe",
  "5873": " spaghet",
  "5874": " spaghett",
  "5875": " spaghetti",
  "5876": " spad",
  "5877": " spade",
  "5878": " spades",
  "5879": " spac",
  "5880": " spaci",
  "5881": " spacio",
  "5882": " spaciou",
  "5883": " spacious",
  "5884": " space",
  "5885": " spaces",
  "5886": " spacesh",
  "5887": " spaceshi",
  "5888": " spaceship",
  "5889": " spaceships",
  "5890": " spacem",
  "5891": " spacema",
  "5892": " spaceman",
  "5893": " so",
  "5894": " sow",
  "5895": " sou",
  "5896": " souv",
  "5897": " souve",
  "5898": " souven",
  "5899": " souveni",
  "5900": " souvenir",
  "5901": " souvenirs",
  "5902": " south",
  "5903": " sour",
  "5904": " sourn",
  "5905": " sourne",
  "5906": " sournes",
  "5907": " sourness",
  "5908": " sourc",
  "5909": " source",
  "5910": " soup",
  "5911": " soups",
  "5912": " soun",
  "5913": " sound",
  "5914": " sounds",
  "5915": " soundl",
  "5916": " soundly",
  "5917": " soundi",
  "5918": " soundin",
  "5919": " sounding",
  "5920": " sounde",
  "5921": " sounded",
  "5922": " soul",
  "5923": " souls",
  "5924": " soug",
  "5925": " sough",
  "5926": " sought",
  "5927": " sor",
  "5928": " sort",
  "5929": " sorts",
  "5930": " sorti",
  "5931": " sortin",
  "5932": " sorting",
  "5933": " sorte",
  "5934": " sorted",
  "5935": " sorr",
  "5936": " sorry",
  "5937": " sorro",
  "5938": " sorrow",
  "5939": " sorrows",
  "5940": " sore",
  "5941": " soren",
  "5942": " sorene",
  "5943": " sorenes",
  "5944": " soreness",
  "5945": " sorc",
  "5946": " sorce",
  "5947": " sorcer",
  "5948": " sorcere",
  "5949": " sorcerer",
  "5950": " sop",
  "5951": " soph",
  "5952": " sophi",
  "5953": " sophis",
  "5954": " sophist",
  "5955": " sophisti",
  "5956": " sophistic",
  "5957": " sophistica",
  "5958": " sophisticat",
  "5959": " sooo",
  "5960": " soo",
  "5961": " sooth",
  "5962": " soothi",
  "5963": " soothin",
  "5964": " soothing",
  "5965": " soothingl",
  "5966": " soothingly",
  "5967": " soot",
  "5968": " soothe",
  "5969": " soothed",
  "5970": " soon",
  "5971": " soone",
  "5972": " sooner",
  "5973": " son",
  "5974": " sons",
  "5975": " song",
  "5976": " songs",
  "5977": " som",
  "5978": " some",
  "5979": " somew",
  "5980": " somewhe",
  "5981": " somewher",
  "5982": " somewhere",
  "5983": " someth",
  "5984": " somethi",
  "5985": " somethin",
  "5986": " something",
  "5987": " somethings",
  "5988": " somet",
  "5989": " someti",
  "5990": " sometim",
  "5991": " sometime",
  "5992": " sometimes",
  "5993": " somer",
  "5994": " somers",
  "5995": " somersa",
  "5996": " somersau",
  "5997": " somersaul",
  "5998": " somersault",
  "5999": " somersaults",
  "6000": " somep",
  "6001": " somepl",
  "6002": " somepla",
  "6003": " someplac",
  "6004": " someplace",
  "6005": " someo",
  "6006": " someon",
  "6007": " someone",
  "6008": " someh",
  "6009": " someho",
  "6010": " somehow",
  "6011": " somed",
  "6012": " someda",
  "6013": " someday",
  "6014": " someb",
  "6015": " somebo",
  "6016": " somebod",
  "6017": " somebody",
  "6018": " sol",
  "6019": " solv",
  "6020": " solvi",
  "6021": " solvin",
  "6022": " solving",
  "6023": " solve",
  "6024": " solves",
  "6025": " solver",
  "6026": " solvers",
  "6027": " solved",
  "6028": " solu",
  "6029": " solut",
  "6030": " soluti",
  "6031": " solutio",
  "6032": " solution",
  "6033": " solutions",
  "6034": " solo",
  "6035": " soli",
  "6036": " solid",
  "6037": " sole",
  "6038": " solem",
  "6039": " solemn",
  "6040": " solemnl",
  "6041": " solemnly",
  "6042": " sold",
  "6043": " soldi",
  "6044": " soldie",
  "6045": " soldier",
  "6046": " soldiers",
  "6047": " sola",
  "6048": " solar",
  "6049": " soi",
  "6050": " soil",
  "6051": " sog",
  "6052": " sogg",
  "6053": " soggy",
  "6054": " sof",
  "6055": " soft",
  "6056": " softn",
  "6057": " softne",
  "6058": " softnes",
  "6059": " softness",
  "6060": " softl",
  "6061": " softly",
  "6062": " softe",
  "6063": " softes",
  "6064": " softest",
  "6065": " softer",
  "6066": " soften",
  "6067": " softene",
  "6068": " softened",
  "6069": " sofa",
  "6070": " sofas",
  "6071": " sod",
  "6072": " soda",
  "6073": " soc",
  "6074": " sock",
  "6075": " socks",
  "6076": " socke",
  "6077": " socket",
  "6078": " soci",
  "6079": " socia",
  "6080": " social",
  "6081": " socc",
  "6082": " socce",
  "6083": " soccer",
  "6084": " sob",
  "6085": " sobs",
  "6086": " sobb",
  "6087": " sobbi",
  "6088": " sobbin",
  "6089": " sobbing",
  "6090": " sobbe",
  "6091": " sobbed",
  "6092": " soa",
  "6093": " soar",
  "6094": " soars",
  "6095": " soari",
  "6096": " soarin",
  "6097": " soaring",
  "6098": " soare",
  "6099": " soared",
  "6100": " soap",
  "6101": " soapy",
  "6102": " soaps",
  "6103": " soak",
  "6104": " soaks",
  "6105": " soaki",
  "6106": " soakin",
  "6107": " soaking",
  "6108": " soake",
  "6109": " soaked",
  "6110": " sn",
  "6111": " snu",
  "6112": " snug",
  "6113": " snugl",
  "6114": " snugly",
  "6115": " snugg",
  "6116": " snuggl",
  "6117": " snuggly",
  "6118": " snuggli",
  "6119": " snugglin",
  "6120": " snuggling",
  "6121": " snuggle",
  "6122": " snuggles",
  "6123": " snuggled",
  "6124": " snuc",
  "6125": " snuck",
  "6126": " sno",
  "6127": " snow",
  "6128": " snowy",
  "6129": " snows",
  "6130": " snowst",
  "6131": " snowsto",
  "6132": " snowstor",
  "6133": " snowstorm",
  "6134": " snowp",
  "6135": " snowpl",
  "6136": " snowplo",
  "6137": " snowplow",
  "6138": " snowpi",
  "6139": " snowpig",
  "6140": " snowm",
  "6141": " snowme",
  "6142": " snowmen",
  "6143": " snowma",
  "6144": " snowman",
  "6145": " snowi",
  "6146": " snowin",
  "6147": " snowing",
  "6148": " snowf",
  "6149": " snowfl",
  "6150": " snowfla",
  "6151": " snowflak",
  "6152": " snowflake",
  "6153": " snowflakes",
  "6154": " snowfa",
  "6155": " snowfal",
  "6156": " snowfall",
  "6157": " snowe",
  "6158": " snowed",
  "6159": " snowd",
  "6160": " snowdr",
  "6161": " snowdro",
  "6162": " snowdrop",
  "6163": " snowb",
  "6164": " snowba",
  "6165": " snowban",
  "6166": " snowbank",
  "6167": " snowbal",
  "6168": " snowball",
  "6169": " snowballs",
  "6170": " snou",
  "6171": " snout",
  "6172": " snor",
  "6173": " snort",
  "6174": " snorts",
  "6175": " snorti",
  "6176": " snortin",
  "6177": " snorting",
  "6178": " snorte",
  "6179": " snorted",
  "6180": " snork",
  "6181": " snorke",
  "6182": " snorkel",
  "6183": " snorkels",
  "6184": " snori",
  "6185": " snorin",
  "6186": " snoring",
  "6187": " snore",
  "6188": " snores",
  "6189": " snored",
  "6190": " snoo",
  "6191": " snooz",
  "6192": " snoozi",
  "6193": " snoozin",
  "6194": " snoozing",
  "6195": " snooze",
  "6196": " snoozed",
  "6197": " snoop",
  "6198": " snoopi",
  "6199": " snoopin",
  "6200": " snooping",
  "6201": " snob",
  "6202": " sni",
  "6203": " snip",
  "6204": " snips",
  "6205": " snipp",
  "6206": " snippi",
  "6207": " snippin",
  "6208": " snipping",
  "6209": " snippe",
  "6210": " snipped",
  "6211": " snif",
  "6212": " sniff",
  "6213": " sniffs",
  "6214": " sniffl",
  "6215": " sniffli",
  "6216": " snifflin",
  "6217": " sniffling",
  "6218": " sniffle",
  "6219": " sniffles",
  "6220": " sniffled",
  "6221": " sniffi",
  "6222": " sniffin",
  "6223": " sniffing",
  "6224": " sniffe",
  "6225": " sniffed",
  "6226": " snic",
  "6227": " snick",
  "6228": " snicke",
  "6229": " snicker",
  "6230": " snickere",
  "6231": " snickered",
  "6232": " sne",
  "6233": " snee",
  "6234": " sneez",
  "6235": " sneezy",
  "6236": " sneezi",
  "6237": " sneezin",
  "6238": " sneezing",
  "6239": " sneeze",
  "6240": " sneezes",
  "6241": " sneezed",
  "6242": " sneer",
  "6243": " sneere",
  "6244": " sneered",
  "6245": " snea",
  "6246": " sneak",
  "6247": " sneaky",
  "6248": " sneaks",
  "6249": " sneaki",
  "6250": " sneakin",
  "6251": " sneaking",
  "6252": " sneakil",
  "6253": " sneakily",
  "6254": " sneake",
  "6255": " sneaker",
  "6256": " sneakers",
  "6257": " sneaked",
  "6258": " sna",
  "6259": " snat",
  "6260": " snatc",
  "6261": " snatche",
  "6262": " snatches",
  "6263": " snatched",
  "6264": " snatch",
  "6265": " snatchi",
  "6266": " snatchin",
  "6267": " snatching",
  "6268": " snar",
  "6269": " snarl",
  "6270": " snarls",
  "6271": " snarli",
  "6272": " snarlin",
  "6273": " snarling",
  "6274": " snarle",
  "6275": " snarled",
  "6276": " snap",
  "6277": " snaps",
  "6278": " snapsh",
  "6279": " snapsho",
  "6280": " snapshot",
  "6281": " snapp",
  "6282": " snappi",
  "6283": " snappin",
  "6284": " snapping",
  "6285": " snappe",
  "6286": " snapped",
  "6287": " snak",
  "6288": " snaki",
  "6289": " snakin",
  "6290": " snaking",
  "6291": " snake",
  "6292": " snakes",
  "6293": " snai",
  "6294": " snail",
  "6295": " snails",
  "6296": " snag",
  "6297": " snagg",
  "6298": " snagge",
  "6299": " snagged",
  "6300": " snac",
  "6301": " snack",
  "6302": " snacks",
  "6303": " snacki",
  "6304": " snackin",
  "6305": " snacking",
  "6306": " snacke",
  "6307": " snacked",
  "6308": " sm",
  "6309": " smu",
  "6310": " smug",
  "6311": " smud",
  "6312": " smudg",
  "6313": " smudge",
  "6314": " smudges",
  "6315": " smudged",
  "6316": " smo",
  "6317": " smoo",
  "6318": " smooth",
  "6319": " smooths",
  "6320": " smoothn",
  "6321": " smoothne",
  "6322": " smoothnes",
  "6323": " smoothness",
  "6324": " smoothl",
  "6325": " smoothly",
  "6326": " smoothi",
  "6327": " smoothie",
  "6328": " smoothies",
  "6329": " smoot",
  "6330": " smoothe",
  "6331": " smoothes",
  "6332": " smoothest",
  "6333": " smoother",
  "6334": " smoothed",
  "6335": " smoos",
  "6336": " smooshe",
  "6337": " smooshed",
  "6338": " smok",
  "6339": " smoky",
  "6340": " smoki",
  "6341": " smokin",
  "6342": " smoking",
  "6343": " smoke",
  "6344": " smokey",
  "6345": " smokes",
  "6346": " smokest",
  "6347": " smokesta",
  "6348": " smokestac",
  "6349": " smokestack",
  "6350": " smoked",
  "6351": " smog",
  "6352": " smoc",
  "6353": " smock",
  "6354": " smi",
  "6355": " smir",
  "6356": " smirk",
  "6357": " smirke",
  "6358": " smirked",
  "6359": " smil",
  "6360": " smili",
  "6361": " smilin",
  "6362": " smiling",
  "6363": " smilie",
  "6364": " smile",
  "6365": " smiley",
  "6366": " smiles",
  "6367": " smiled",
  "6368": " sme",
  "6369": " smel",
  "6370": " smelt",
  "6371": " smell",
  "6372": " smelly",
  "6373": " smells",
  "6374": " smelli",
  "6375": " smellin",
  "6376": " smelling",
  "6377": " smelle",
  "6378": " smelled",
  "6379": " smea",
  "6380": " smear",
  "6381": " smears",
  "6382": " smeare",
  "6383": " smeared",
  "6384": " sma",
  "6385": " smas",
  "6386": " smashe",
  "6387": " smashed",
  "6388": " smash",
  "6389": " smashi",
  "6390": " smashin",
  "6391": " smashing",
  "6392": " smar",
  "6393": " smart",
  "6394": " smarts",
  "6395": " smartn",
  "6396": " smartne",
  "6397": " smartnes",
  "6398": " smartness",
  "6399": " smartl",
  "6400": " smartly",
  "6401": " smarte",
  "6402": " smartes",
  "6403": " smartest",
  "6404": " smarter",
  "6405": " smal",
  "6406": " small",
  "6407": " smalle",
  "6408": " smalles",
  "6409": " smallest",
  "6410": " smaller",
  "6411": " smac",
  "6412": " smack",
  "6413": " smacki",
  "6414": " smackin",
  "6415": " smacking",
  "6416": " smacke",
  "6417": " smacked",
  "6418": " sl",
  "6419": " sly",
  "6420": " slu",
  "6421": " slur",
  "6422": " slurp",
  "6423": " slurpi",
  "6424": " slurpin",
  "6425": " slurping",
  "6426": " slurpe",
  "6427": " slurped",
  "6428": " slun",
  "6429": " slunk",
  "6430": " slum",
  "6431": " slump",
  "6432": " slumpe",
  "6433": " slumped",
  "6434": " slumb",
  "6435": " slumbe",
  "6436": " slumber",
  "6437": " slug",
  "6438": " slo",
  "6439": " slow",
  "6440": " slows",
  "6441": " slowl",
  "6442": " slowly",
  "6443": " slowi",
  "6444": " slowin",
  "6445": " slowing",
  "6446": " slowe",
  "6447": " slowes",
  "6448": " slowest",
  "6449": " slower",
  "6450": " slowed",
  "6451": " sloth",
  "6452": " slot",
  "6453": " slos",
  "6454": " sloshe",
  "6455": " sloshed",
  "6456": " slop",
  "6457": " slope",
  "6458": " sli",
  "6459": " slit",
  "6460": " slithe",
  "6461": " slither",
  "6462": " slithers",
  "6463": " slitheri",
  "6464": " slitherin",
  "6465": " slithering",
  "6466": " slithere",
  "6467": " slithered",
  "6468": " slip",
  "6469": " slips",
  "6470": " slipp",
  "6471": " slippi",
  "6472": " slippin",
  "6473": " slipping",
  "6474": " slippe",
  "6475": " slipper",
  "6476": " slippery",
  "6477": " slippers",
  "6478": " slipped",
  "6479": " slin",
  "6480": " slink",
  "6481": " slinke",
  "6482": " slinked",
  "6483": " sling",
  "6484": " slings",
  "6485": " slingsh",
  "6486": " slingsho",
  "6487": " slingshot",
  "6488": " slim",
  "6489": " slimy",
  "6490": " slime",
  "6491": " slig",
  "6492": " sligh",
  "6493": " slight",
  "6494": " slightl",
  "6495": " slightly",
  "6496": " slighte",
  "6497": " slightes",
  "6498": " slightest",
  "6499": " slid",
  "6500": " slidi",
  "6501": " slidin",
  "6502": " sliding",
  "6503": " slide",
  "6504": " slides",
  "6505": " slic",
  "6506": " slick",
  "6507": " slicke",
  "6508": " slici",
  "6509": " slicin",
  "6510": " slicing",
  "6511": " slice",
  "6512": " slices",
  "6513": " sliced",
  "6514": " sle",
  "6515": " slep",
  "6516": " slept",
  "6517": " slei",
  "6518": " sleig",
  "6519": " sleigh",
  "6520": " slee",
  "6521": " sleev",
  "6522": " sleeve",
  "6523": " sleeves",
  "6524": " sleep",
  "6525": " sleepy",
  "6526": " sleepys",
  "6527": " sleepyhe",
  "6528": " sleepyhea",
  "6529": " sleepyhead",
  "6530": " sleeps",
  "6531": " sleepo",
  "6532": " sleepov",
  "6533": " sleepove",
  "6534": " sleepover",
  "6535": " sleepovers",
  "6536": " sleepi",
  "6537": " sleepin",
  "6538": " sleeping",
  "6539": " sleepine",
  "6540": " sleepines",
  "6541": " sleepiness",
  "6542": " sleepil",
  "6543": " sleepily",
  "6544": " sleepie",
  "6545": " sleepier",
  "6546": " sleek",
  "6547": " sled",
  "6548": " sleds",
  "6549": " sledd",
  "6550": " sleddi",
  "6551": " sleddin",
  "6552": " sledding",
  "6553": " sla",
  "6554": " slav",
  "6555": " slave",
  "6556": " slaves",
  "6557": " slas",
  "6558": " slashe",
  "6559": " slashed",
  "6560": " slap",
  "6561": " slaps",
  "6562": " slapp",
  "6563": " slappi",
  "6564": " slappin",
  "6565": " slapping",
  "6566": " slappe",
  "6567": " slapped",
  "6568": " slam",
  "6569": " slams",
  "6570": " slamm",
  "6571": " slammi",
  "6572": " slammin",
  "6573": " slamming",
  "6574": " slamme",
  "6575": " slammed",
  "6576": " sk",
  "6577": " sky",
  "6578": " skyl",
  "6579": " skyli",
  "6580": " skylin",
  "6581": " skyline",
  "6582": " sku",
  "6583": " skun",
  "6584": " skunk",
  "6585": " skunks",
  "6586": " skul",
  "6587": " skull",
  "6588": " skulls",
  "6589": " ski",
  "6590": " skit",
  "6591": " skitt",
  "6592": " skis",
  "6593": " skir",
  "6594": " skirt",
  "6595": " skirts",
  "6596": " skip",
  "6597": " skips",
  "6598": " skipp",
  "6599": " skippi",
  "6600": " skippin",
  "6601": " skipping",
  "6602": " skippe",
  "6603": " skipper",
  "6604": " skipped",
  "6605": " skin",
  "6606": " skins",
  "6607": " skinn",
  "6608": " skinny",
  "6609": " skinni",
  "6610": " skinnie",
  "6611": " skinnier",
  "6612": " skim",
  "6613": " skimm",
  "6614": " skimmi",
  "6615": " skimmin",
  "6616": " skimming",
  "6617": " skil",
  "6618": " skill",
  "6619": " skills",
  "6620": " skillf",
  "6621": " skillfu",
  "6622": " skillful",
  "6623": " skille",
  "6624": " skilled",
  "6625": " skilf",
  "6626": " skilfu",
  "6627": " skilful",
  "6628": " skii",
  "6629": " skiin",
  "6630": " skiing",
  "6631": " skie",
  "6632": " skies",
  "6633": " skid",
  "6634": " skidd",
  "6635": " skidde",
  "6636": " skidded",
  "6637": " ske",
  "6638": " sket",
  "6639": " sketc",
  "6640": " sketche",
  "6641": " sketched",
  "6642": " sketch",
  "6643": " skep",
  "6644": " skept",
  "6645": " skepti",
  "6646": " skeptic",
  "6647": " skeptica",
  "6648": " skeptical",
  "6649": " skel",
  "6650": " skele",
  "6651": " skelet",
  "6652": " skeleto",
  "6653": " skeleton",
  "6654": " skeletons",
  "6655": " ska",
  "6656": " skat",
  "6657": " skati",
  "6658": " skatin",
  "6659": " skating",
  "6660": " skate",
  "6661": " skates",
  "6662": " skated",
  "6663": " skateb",
  "6664": " skatebo",
  "6665": " skateboa",
  "6666": " skateboar",
  "6667": " skateboard",
  "6668": " si",
  "6669": " siz",
  "6670": " sizz",
  "6671": " sizzl",
  "6672": " sizzli",
  "6673": " sizzlin",
  "6674": " sizzling",
  "6675": " sizzle",
  "6676": " size",
  "6677": " sizes",
  "6678": " sized",
  "6679": " six",
  "6680": " sixt",
  "6681": " sixty",
  "6682": " sixte",
  "6683": " sixtee",
  "6684": " sixteen",
  "6685": " sit",
  "6686": " situ",
  "6687": " situa",
  "6688": " situat",
  "6689": " situati",
  "6690": " situatio",
  "6691": " situation",
  "6692": " situations",
  "6693": " sitt",
  "6694": " sitti",
  "6695": " sittin",
  "6696": " sitting",
  "6697": " sits",
  "6698": " site",
  "6699": " sites",
  "6700": " sis",
  "6701": " sist",
  "6702": " siste",
  "6703": " sister",
  "6704": " sisters",
  "6705": " sir",
  "6706": " sire",
  "6707": " siren",
  "6708": " sirens",
  "6709": " sip",
  "6710": " sips",
  "6711": " sipp",
  "6712": " sippi",
  "6713": " sippin",
  "6714": " sipping",
  "6715": " sippe",
  "6716": " sipped",
  "6717": " sin",
  "6718": " sink",
  "6719": " sinks",
  "6720": " sinki",
  "6721": " sinkin",
  "6722": " sinking",
  "6723": " sini",
  "6724": " sinis",
  "6725": " sinist",
  "6726": " siniste",
  "6727": " sinister",
  "6728": " sing",
  "6729": " sings",
  "6730": " singso",
  "6731": " singson",
  "6732": " singsong",
  "6733": " singl",
  "6734": " single",
  "6735": " singi",
  "6736": " singin",
  "6737": " singing",
  "6738": " singe",
  "6739": " singer",
  "6740": " singers",
  "6741": " singed",
  "6742": " sinc",
  "6743": " since",
  "6744": " sincer",
  "6745": " sincere",
  "6746": " sincerel",
  "6747": " sincerely",
  "6748": " sim",
  "6749": " simp",
  "6750": " simpl",
  "6751": " simply",
  "6752": " simpli",
  "6753": " simple",
  "6754": " simples",
  "6755": " simplest",
  "6756": " simpler",
  "6757": " simi",
  "6758": " simil",
  "6759": " simila",
  "6760": " similar",
  "6761": " sil",
  "6762": " silv",
  "6763": " silve",
  "6764": " silver",
  "6765": " silvery",
  "6766": " silverw",
  "6767": " silverwa",
  "6768": " silverwar",
  "6769": " silverware",
  "6770": " sill",
  "6771": " silly",
  "6772": " silli",
  "6773": " sillin",
  "6774": " silline",
  "6775": " sillines",
  "6776": " silliness",
  "6777": " sillie",
  "6778": " sillies",
  "6779": " silliest",
  "6780": " sillier",
  "6781": " silk",
  "6782": " silky",
  "6783": " sile",
  "6784": " silen",
  "6785": " silent",
  "6786": " silentl",
  "6787": " silently",
  "6788": " silenc",
  "6789": " silence",
  "6790": " sig",
  "6791": " sign",
  "6792": " signs",
  "6793": " signi",
  "6794": " signin",
  "6795": " signing",
  "6796": " signif",
  "6797": " signifi",
  "6798": " signific",
  "6799": " significa",
  "6800": " significan",
  "6801": " signe",
  "6802": " signed",
  "6803": " signa",
  "6804": " signat",
  "6805": " signatu",
  "6806": " signatur",
  "6807": " signature",
  "6808": " signal",
  "6809": " signals",
  "6810": " signali",
  "6811": " signalin",
  "6812": " signaling",
  "6813": " signale",
  "6814": " signaler",
  "6815": " sighe",
  "6816": " sighed",
  "6817": " sigh",
  "6818": " sight",
  "6819": " sights",
  "6820": " sighti",
  "6821": " sightin",
  "6822": " sighting",
  "6823": " sighs",
  "6824": " sighi",
  "6825": " sighin",
  "6826": " sighing",
  "6827": " sif",
  "6828": " sift",
  "6829": " sie",
  "6830": " sid",
  "6831": " side",
  "6832": " sidew",
  "6833": " sidewa",
  "6834": " sideway",
  "6835": " sideways",
  "6836": " sidewal",
  "6837": " sidewalk",
  "6838": " sides",
  "6839": " sidel",
  "6840": " sideli",
  "6841": " sidelin",
  "6842": " sideline",
  "6843": " sidelines",
  "6844": " sidek",
  "6845": " sideki",
  "6846": " sidekic",
  "6847": " sidekick",
  "6848": " sidec",
  "6849": " sideca",
  "6850": " sidecar",
  "6851": " sic",
  "6852": " sick",
  "6853": " sickn",
  "6854": " sickne",
  "6855": " sicknes",
  "6856": " sickness",
  "6857": " sicke",
  "6858": " sicker",
  "6859": " sib",
  "6860": " sibl",
  "6861": " sibli",
  "6862": " siblin",
  "6863": " sibling",
  "6864": " siblings",
  "6865": " she",
  "6866": " sher",
  "6867": " sheri",
  "6868": " sherif",
  "6869": " sheriff",
  "6870": " shel",
  "6871": " shelv",
  "6872": " shelve",
  "6873": " shelves",
  "6874": " shelt",
  "6875": " shelte",
  "6876": " shelter",
  "6877": " shelters",
  "6878": " shelteri",
  "6879": " shelterin",
  "6880": " sheltering",
  "6881": " sheltere",
  "6882": " sheltered",
  "6883": " shell",
  "6884": " shells",
  "6885": " shelf",
  "6886": " shee",
  "6887": " sheet",
  "6888": " sheets",
  "6889": " sheer",
  "6890": " sheep",
  "6891": " sheepi",
  "6892": " sheepis",
  "6893": " sheepish",
  "6894": " sheepishl",
  "6895": " sheepishly",
  "6896": " shed",
  "6897": " sheds",
  "6898": " sh",
  "6899": " shy",
  "6900": " shyn",
  "6901": " shyne",
  "6902": " shynes",
  "6903": " shyness",
  "6904": " shyl",
  "6905": " shyly",
  "6906": " shu",
  "6907": " shut",
  "6908": " shutt",
  "6909": " shuttl",
  "6910": " shuttle",
  "6911": " shutti",
  "6912": " shuttin",
  "6913": " shutting",
  "6914": " shutte",
  "6915": " shutter",
  "6916": " shutters",
  "6917": " shuts",
  "6918": " shuti",
  "6919": " shutin",
  "6920": " shuting",
  "6921": " shus",
  "6922": " shushe",
  "6923": " shushed",
  "6924": " shuf",
  "6925": " shuff",
  "6926": " shuffl",
  "6927": " shuffli",
  "6928": " shufflin",
  "6929": " shuffling",
  "6930": " shuffle",
  "6931": " shuffled",
  "6932": " shud",
  "6933": " shudd",
  "6934": " shudde",
  "6935": " shudder",
  "6936": " shuddere",
  "6937": " shuddered",
  "6938": " shr",
  "6939": " shru",
  "6940": " shrun",
  "6941": " shrunk",
  "6942": " shrunke",
  "6943": " shrunken",
  "6944": " shrug",
  "6945": " shrugs",
  "6946": " shrugg",
  "6947": " shruggi",
  "6948": " shruggin",
  "6949": " shrugging",
  "6950": " shrugge",
  "6951": " shrugged",
  "6952": " shrub",
  "6953": " shrubs",
  "6954": " shri",
  "6955": " shriv",
  "6956": " shrive",
  "6957": " shrivel",
  "6958": " shrivele",
  "6959": " shriveled",
  "6960": " shrin",
  "6961": " shrink",
  "6962": " shrinks",
  "6963": " shrinki",
  "6964": " shrinkin",
  "6965": " shrinking",
  "6966": " shrim",
  "6967": " shrimp",
  "6968": " shrimps",
  "6969": " shrie",
  "6970": " shriek",
  "6971": " shrieks",
  "6972": " shrieke",
  "6973": " shrieked",
  "6974": " shre",
  "6975": " shred",
  "6976": " shredd",
  "6977": " shredde",
  "6978": " shra",
  "6979": " shran",
  "6980": " shrank",
  "6981": " sho",
  "6982": " show",
  "6983": " shows",
  "6984": " shown",
  "6985": " showi",
  "6986": " showin",
  "6987": " showing",
  "6988": " showe",
  "6989": " shower",
  "6990": " showers",
  "6991": " showere",
  "6992": " showered",
  "6993": " showed",
  "6994": " shov",
  "6995": " shovi",
  "6996": " shovin",
  "6997": " shoving",
  "6998": " shove",
  "6999": " shovel",
  "7000": " shovels",
  "7001": " shoveli",
  "7002": " shovelin",
  "7003": " shoveling",
  "7004": " shovele",
  "7005": " shoveled",
  "7006": " shoved",
  "7007": " shou",
  "7008": " shout",
  "7009": " shouts",
  "7010": " shouti",
  "7011": " shoutin",
  "7012": " shouting",
  "7013": " shoute",
  "7014": " shouted",
  "7015": " shoul",
  "7016": " should",
  "7017": " shouldn",
  "7018": " shoulde",
  "7019": " shoulder",
  "7020": " shoulders",
  "7021": " shot",
  "7022": " shots",
  "7023": " shor",
  "7024": " short",
  "7025": " shorts",
  "7026": " shortl",
  "7027": " shortly",
  "7028": " shorte",
  "7029": " shorter",
  "7030": " shortc",
  "7031": " shortcu",
  "7032": " shortcut",
  "7033": " shortcuts",
  "7034": " shore",
  "7035": " shorel",
  "7036": " shoreli",
  "7037": " shorelin",
  "7038": " shoreline",
  "7039": " shop",
  "7040": " shops",
  "7041": " shopp",
  "7042": " shoppi",
  "7043": " shoppin",
  "7044": " shopping",
  "7045": " shoppe",
  "7046": " shopper",
  "7047": " shoppers",
  "7048": " shopped",
  "7049": " shopk",
  "7050": " shopke",
  "7051": " shopkee",
  "7052": " shopkeep",
  "7053": " shopkeepe",
  "7054": " shopkeeper",
  "7055": " shopkeepers",
  "7056": " shoo",
  "7057": " shoot",
  "7058": " shoots",
  "7059": " shooti",
  "7060": " shootin",
  "7061": " shooting",
  "7062": " shoote",
  "7063": " shooter",
  "7064": " shooters",
  "7065": " shook",
  "7066": " shooi",
  "7067": " shooin",
  "7068": " shooing",
  "7069": " shooe",
  "7070": " shooes",
  "7071": " shooed",
  "7072": " shon",
  "7073": " shone",
  "7074": " shoe",
  "7075": " shoes",
  "7076": " shoel",
  "7077": " shoela",
  "7078": " shoelac",
  "7079": " shoelace",
  "7080": " shoelaces",
  "7081": " shoeb",
  "7082": " shoebo",
  "7083": " shoebox",
  "7084": " shoc",
  "7085": " shock",
  "7086": " shocks",
  "7087": " shocki",
  "7088": " shockin",
  "7089": " shocking",
  "7090": " shocke",
  "7091": " shocked",
  "7092": " shi",
  "7093": " shiv",
  "7094": " shive",
  "7095": " shiver",
  "7096": " shivery",
  "7097": " shivers",
  "7098": " shiveri",
  "7099": " shiverin",
  "7100": " shivering",
  "7101": " shivere",
  "7102": " shivered",
  "7103": " shir",
  "7104": " shirt",
  "7105": " shirts",
  "7106": " ship",
  "7107": " shipw",
  "7108": " shipwr",
  "7109": " shipwre",
  "7110": " shipwrec",
  "7111": " shipwreck",
  "7112": " ships",
  "7113": " shin",
  "7114": " shiny",
  "7115": " shinn",
  "7116": " shinni",
  "7117": " shinnin",
  "7118": " shinning",
  "7119": " shini",
  "7120": " shinin",
  "7121": " shining",
  "7122": " shinie",
  "7123": " shinies",
  "7124": " shiniest",
  "7125": " shinier",
  "7126": " shing",
  "7127": " shingl",
  "7128": " shingle",
  "7129": " shingles",
  "7130": " shine",
  "7131": " shiney",
  "7132": " shines",
  "7133": " shined",
  "7134": " shim",
  "7135": " shimm",
  "7136": " shimmi",
  "7137": " shimmie",
  "7138": " shimmied",
  "7139": " shimme",
  "7140": " shimmer",
  "7141": " shimmery",
  "7142": " shimmeri",
  "7143": " shimmerin",
  "7144": " shimmering",
  "7145": " shimmere",
  "7146": " shimmered",
  "7147": " shif",
  "7148": " shift",
  "7149": " shifti",
  "7150": " shiftin",
  "7151": " shifting",
  "7152": " shifte",
  "7153": " shifted",
  "7154": " shie",
  "7155": " shiel",
  "7156": " shield",
  "7157": " shields",
  "7158": " shieldi",
  "7159": " shieldin",
  "7160": " shielding",
  "7161": " shielde",
  "7162": " shielded",
  "7163": " shhh",
  "7164": " shh",
  "7165": " shep",
  "7166": " shephe",
  "7167": " shepher",
  "7168": " shepherd",
  "7169": " sha",
  "7170": " shav",
  "7171": " shavi",
  "7172": " shavin",
  "7173": " shaving",
  "7174": " shave",
  "7175": " shaved",
  "7176": " shat",
  "7177": " shatt",
  "7178": " shatte",
  "7179": " shatter",
  "7180": " shattere",
  "7181": " shattered",
  "7182": " shar",
  "7183": " sharp",
  "7184": " sharpl",
  "7185": " sharply",
  "7186": " sharpi",
  "7187": " sharpin",
  "7188": " sharping",
  "7189": " sharpe",
  "7190": " sharpes",
  "7191": " sharpest",
  "7192": " sharper",
  "7193": " sharpen",
  "7194": " sharpeni",
  "7195": " sharpenin",
  "7196": " sharpening",
  "7197": " sharpene",
  "7198": " sharpened",
  "7199": " shark",
  "7200": " sharks",
  "7201": " shari",
  "7202": " sharin",
  "7203": " sharing",
  "7204": " share",
  "7205": " shares",
  "7206": " shared",
  "7207": " shap",
  "7208": " shapi",
  "7209": " shapin",
  "7210": " shaping",
  "7211": " shape",
  "7212": " shapes",
  "7213": " shaped",
  "7214": " sham",
  "7215": " shamp",
  "7216": " shampo",
  "7217": " shampoo",
  "7218": " shampoos",
  "7219": " shame",
  "7220": " shamef",
  "7221": " shamefu",
  "7222": " shameful",
  "7223": " shamefull",
  "7224": " shamefully",
  "7225": " shal",
  "7226": " shall",
  "7227": " shallo",
  "7228": " shallow",
  "7229": " shallows",
  "7230": " shak",
  "7231": " shaky",
  "7232": " shaki",
  "7233": " shakin",
  "7234": " shaking",
  "7235": " shake",
  "7236": " shakes",
  "7237": " shaker",
  "7238": " shakers",
  "7239": " shaken",
  "7240": " shad",
  "7241": " shady",
  "7242": " shado",
  "7243": " shadow",
  "7244": " shadows",
  "7245": " shade",
  "7246": " shades",
  "7247": " shaded",
  "7248": " shac",
  "7249": " shack",
  "7250": " se",
  "7251": " sew",
  "7252": " sews",
  "7253": " sewn",
  "7254": " sewi",
  "7255": " sewin",
  "7256": " sewing",
  "7257": " sewe",
  "7258": " sewed",
  "7259": " sev",
  "7260": " seve",
  "7261": " sever",
  "7262": " severe",
  "7263": " severel",
  "7264": " severely",
  "7265": " severa",
  "7266": " several",
  "7267": " seven",
  "7268": " sevent",
  "7269": " seventy",
  "7270": " sevente",
  "7271": " seventee",
  "7272": " seventeen",
  "7273": " set",
  "7274": " setu",
  "7275": " setup",
  "7276": " sett",
  "7277": " settl",
  "7278": " settli",
  "7279": " settlin",
  "7280": " settling",
  "7281": " settle",
  "7282": " settled",
  "7283": " setti",
  "7284": " settin",
  "7285": " setting",
  "7286": " settings",
  "7287": " sets",
  "7288": " ses",
  "7289": " sess",
  "7290": " sessi",
  "7291": " sessio",
  "7292": " session",
  "7293": " sessions",
  "7294": " sesa",
  "7295": " sesam",
  "7296": " sesame",
  "7297": " ser",
  "7298": " serv",
  "7299": " servi",
  "7300": " servin",
  "7301": " serving",
  "7302": " servic",
  "7303": " service",
  "7304": " serve",
  "7305": " serves",
  "7306": " server",
  "7307": " served",
  "7308": " serva",
  "7309": " servan",
  "7310": " servant",
  "7311": " servants",
  "7312": " seri",
  "7313": " serio",
  "7314": " seriou",
  "7315": " serious",
  "7316": " seriousl",
  "7317": " seriously",
  "7318": " sere",
  "7319": " seren",
  "7320": " sereni",
  "7321": " serenit",
  "7322": " serenity",
  "7323": " seq",
  "7324": " sequ",
  "7325": " sequi",
  "7326": " sequin",
  "7327": " sequins",
  "7328": " sep",
  "7329": " sepa",
  "7330": " separ",
  "7331": " separa",
  "7332": " separat",
  "7333": " separati",
  "7334": " separatio",
  "7335": " separation",
  "7336": " separatin",
  "7337": " separating",
  "7338": " separate",
  "7339": " separates",
  "7340": " separatel",
  "7341": " separately",
  "7342": " separated",
  "7343": " sen",
  "7344": " sent",
  "7345": " sente",
  "7346": " senten",
  "7347": " sentenc",
  "7348": " sentence",
  "7349": " sentences",
  "7350": " sens",
  "7351": " sensi",
  "7352": " sensit",
  "7353": " sensiti",
  "7354": " sensitiv",
  "7355": " sensitive",
  "7356": " sensin",
  "7357": " sensing",
  "7358": " sensib",
  "7359": " sensibl",
  "7360": " sensible",
  "7361": " sense",
  "7362": " sensed",
  "7363": " sensa",
  "7364": " sensat",
  "7365": " sensati",
  "7366": " sensatio",
  "7367": " sensation",
  "7368": " send",
  "7369": " sends",
  "7370": " sendi",
  "7371": " sendin",
  "7372": " sending",
  "7373": " sende",
  "7374": " sender",
  "7375": " sel",
  "7376": " selv",
  "7377": " selve",
  "7378": " selves",
  "7379": " sell",
  "7380": " sells",
  "7381": " selli",
  "7382": " sellin",
  "7383": " selling",
  "7384": " selle",
  "7385": " seller",
  "7386": " sellers",
  "7387": " self",
  "7388": " selfl",
  "7389": " selfle",
  "7390": " selfles",
  "7391": " selfless",
  "7392": " selfi",
  "7393": " selfis",
  "7394": " selfish",
  "7395": " selfishn",
  "7396": " selfishne",
  "7397": " selfishnes",
  "7398": " selfishness",
  "7399": " selfishl",
  "7400": " selfishly",
  "7401": " sele",
  "7402": " selec",
  "7403": " select",
  "7404": " selecti",
  "7405": " selectio",
  "7406": " selection",
  "7407": " selectin",
  "7408": " selecting",
  "7409": " selecte",
  "7410": " selected",
  "7411": " sei",
  "7412": " seiz",
  "7413": " seize",
  "7414": " seized",
  "7415": " see",
  "7416": " sees",
  "7417": " seesa",
  "7418": " seesaw",
  "7419": " seesaws",
  "7420": " seep",
  "7421": " seen",
  "7422": " seem",
  "7423": " seems",
  "7424": " seemi",
  "7425": " seemin",
  "7426": " seeming",
  "7427": " seemingl",
  "7428": " seemingly",
  "7429": " seeme",
  "7430": " seemed",
  "7431": " seek",
  "7432": " seeki",
  "7433": " seekin",
  "7434": " seeking",
  "7435": " seeke",
  "7436": " seeker",
  "7437": " seei",
  "7438": " seein",
  "7439": " seeing",
  "7440": " seed",
  "7441": " seeds",
  "7442": " seedl",
  "7443": " seedli",
  "7444": " seedlin",
  "7445": " seedling",
  "7446": " sec",
  "7447": " secu",
  "7448": " secur",
  "7449": " securi",
  "7450": " securit",
  "7451": " security",
  "7452": " securin",
  "7453": " securing",
  "7454": " secure",
  "7455": " securel",
  "7456": " securely",
  "7457": " secured",
  "7458": " sect",
  "7459": " secti",
  "7460": " sectio",
  "7461": " section",
  "7462": " sections",
  "7463": " secr",
  "7464": " secre",
  "7465": " secret",
  "7466": " secrets",
  "7467": " secretl",
  "7468": " secretly",
  "7469": " secreti",
  "7470": " secretiv",
  "7471": " secretive",
  "7472": " secreta",
  "7473": " secretar",
  "7474": " secretary",
  "7475": " seco",
  "7476": " secon",
  "7477": " second",
  "7478": " seconds",
  "7479": " sea",
  "7480": " seaw",
  "7481": " seawe",
  "7482": " seawee",
  "7483": " seaweed",
  "7484": " seawa",
  "7485": " seawat",
  "7486": " seawate",
  "7487": " seawater",
  "7488": " seat",
  "7489": " seats",
  "7490": " seati",
  "7491": " seatin",
  "7492": " seating",
  "7493": " seate",
  "7494": " seated",
  "7495": " seatb",
  "7496": " seatbe",
  "7497": " seatbel",
  "7498": " seatbelt",
  "7499": " seatbelts",
  "7500": " seas",
  "7501": " seaso",
  "7502": " season",
  "7503": " seasons",
  "7504": " seasoni",
  "7505": " seasonin",
  "7506": " seasoning",
  "7507": " seasi",
  "7508": " seasid",
  "7509": " seaside",
  "7510": " seashe",
  "7511": " seashel",
  "7512": " seashell",
  "7513": " seashells",
  "7514": " seash",
  "7515": " seasho",
  "7516": " seashor",
  "7517": " seashore",
  "7518": " sear",
  "7519": " searc",
  "7520": " searche",
  "7521": " searches",
  "7522": " searched",
  "7523": " search",
  "7524": " searchi",
  "7525": " searchin",
  "7526": " searching",
  "7527": " seam",
  "7528": " seams",
  "7529": " seamst",
  "7530": " seamstr",
  "7531": " seamstre",
  "7532": " seamstres",
  "7533": " seamstress",
  "7534": " seal",
  "7535": " seals",
  "7536": " seale",
  "7537": " sealed",
  "7538": " seah",
  "7539": " seaho",
  "7540": " seahor",
  "7541": " seahors",
  "7542": " seahorse",
  "7543": " seahorses",
  "7544": " seag",
  "7545": " seagu",
  "7546": " seagul",
  "7547": " seagull",
  "7548": " seagulls",
  "7549": " seab",
  "7550": " seabi",
  "7551": " seabir",
  "7552": " seabird",
  "7553": " seabirds",
  "7554": " sc",
  "7555": " scu",
  "7556": " scut",
  "7557": " scutt",
  "7558": " scuttl",
  "7559": " scuttli",
  "7560": " scuttlin",
  "7561": " scuttling",
  "7562": " scuttle",
  "7563": " scuttled",
  "7564": " scur",
  "7565": " scurv",
  "7566": " scurvy",
  "7567": " scurr",
  "7568": " scurry",
  "7569": " scurryi",
  "7570": " scurryin",
  "7571": " scurrying",
  "7572": " scurri",
  "7573": " scurrie",
  "7574": " scurried",
  "7575": " scul",
  "7576": " sculp",
  "7577": " sculpt",
  "7578": " sculptu",
  "7579": " sculptur",
  "7580": " sculpture",
  "7581": " sculptures",
  "7582": " sculpti",
  "7583": " sculptin",
  "7584": " sculpting",
  "7585": " scr",
  "7586": " scru",
  "7587": " scrun",
  "7588": " scrunc",
  "7589": " scrunche",
  "7590": " scrunched",
  "7591": " scrunch",
  "7592": " scrum",
  "7593": " scrump",
  "7594": " scrumpt",
  "7595": " scrumpti",
  "7596": " scrumptio",
  "7597": " scrumptiou",
  "7598": " scrumptious",
  "7599": " scruf",
  "7600": " scruff",
  "7601": " scruffy",
  "7602": " scrub",
  "7603": " scrubs",
  "7604": " scrubb",
  "7605": " scrubbi",
  "7606": " scrubbin",
  "7607": " scrubbing",
  "7608": " scrubbe",
  "7609": " scrubbed",
  "7610": " scro",
  "7611": " scrol",
  "7612": " scroll",
  "7613": " scri",
  "7614": " scrib",
  "7615": " scribb",
  "7616": " scribbl",
  "7617": " scribbli",
  "7618": " scribblin",
  "7619": " scribbling",
  "7620": " scribble",
  "7621": " scribbles",
  "7622": " scribbled",
  "7623": " scre",
  "7624": " screw",
  "7625": " screws",
  "7626": " screwe",
  "7627": " screwed",
  "7628": " screwd",
  "7629": " screwdr",
  "7630": " screwdri",
  "7631": " screwdriv",
  "7632": " screwdrive",
  "7633": " screwdriver",
  "7634": " screwdrivers",
  "7635": " scree",
  "7636": " screen",
  "7637": " screens",
  "7638": " screeni",
  "7639": " screenin",
  "7640": " screening",
  "7641": " screec",
  "7642": " screeche",
  "7643": " screeched",
  "7644": " screech",
  "7645": " screechi",
  "7646": " screechin",
  "7647": " screeching",
  "7648": " screa",
  "7649": " scream",
  "7650": " screams",
  "7651": " screami",
  "7652": " screamin",
  "7653": " screaming",
  "7654": " screame",
  "7655": " screamed",
  "7656": " scra",
  "7657": " scrat",
  "7658": " scratc",
  "7659": " scratche",
  "7660": " scratches",
  "7661": " scratched",
  "7662": " scratch",
  "7663": " scratchy",
  "7664": " scratchi",
  "7665": " scratchin",
  "7666": " scratching",
  "7667": " scrap",
  "7668": " scraps",
  "7669": " scrape",
  "7670": " scrapes",
  "7671": " scraped",
  "7672": " scrapb",
  "7673": " scram",
  "7674": " scramb",
  "7675": " scrambl",
  "7676": " scramble",
  "7677": " scrambled",
  "7678": " scrab",
  "7679": " scrabb",
  "7680": " scrabbl",
  "7681": " scrabble",
  "7682": " scrabbled",
  "7683": " sco",
  "7684": " scow",
  "7685": " scowl",
  "7686": " scowli",
  "7687": " scowlin",
  "7688": " scowling",
  "7689": " scowle",
  "7690": " scowled",
  "7691": " scou",
  "7692": " scour",
  "7693": " scoure",
  "7694": " scoured",
  "7695": " scor",
  "7696": " scorp",
  "7697": " scorpi",
  "7698": " scorpio",
  "7699": " scorpion",
  "7700": " scori",
  "7701": " scorin",
  "7702": " scoring",
  "7703": " score",
  "7704": " scores",
  "7705": " scored",
  "7706": " scoo",
  "7707": " scoot",
  "7708": " scooti",
  "7709": " scootin",
  "7710": " scooting",
  "7711": " scoote",
  "7712": " scooter",
  "7713": " scooters",
  "7714": " scootere",
  "7715": " scootered",
  "7716": " scooted",
  "7717": " scoop",
  "7718": " scoops",
  "7719": " scoopi",
  "7720": " scoopin",
  "7721": " scooping",
  "7722": " scoope",
  "7723": " scooped",
  "7724": " scol",
  "7725": " scold",
  "7726": " scolds",
  "7727": " scoldi",
  "7728": " scoldin",
  "7729": " scolding",
  "7730": " scolde",
  "7731": " scolded",
  "7732": " scof",
  "7733": " scoff",
  "7734": " scoffe",
  "7735": " scoffed",
  "7736": " sci",
  "7737": " scis",
  "7738": " sciss",
  "7739": " scisso",
  "7740": " scissor",
  "7741": " scissors",
  "7742": " scie",
  "7743": " scien",
  "7744": " scient",
  "7745": " scienti",
  "7746": " scientis",
  "7747": " scientist",
  "7748": " scientists",
  "7749": " scienc",
  "7750": " science",
  "7751": " sche",
  "7752": " sched",
  "7753": " schedu",
  "7754": " schedul",
  "7755": " schedule",
  "7756": " sch",
  "7757": " scho",
  "7758": " schoo",
  "7759": " school",
  "7760": " schooly",
  "7761": " schoolya",
  "7762": " schoolyar",
  "7763": " schoolyard",
  "7764": " schoolw",
  "7765": " schoolwo",
  "7766": " schoolwor",
  "7767": " schoolwork",
  "7768": " schools",
  "7769": " sce",
  "7770": " scep",
  "7771": " scept",
  "7772": " scepti",
  "7773": " sceptic",
  "7774": " sceptica",
  "7775": " sceptical",
  "7776": " scepte",
  "7777": " scepter",
  "7778": " scen",
  "7779": " scent",
  "7780": " scents",
  "7781": " scene",
  "7782": " scenes",
  "7783": " scener",
  "7784": " scenery",
  "7785": " scena",
  "7786": " scenar",
  "7787": " scenari",
  "7788": " scenario",
  "7789": " scenarios",
  "7790": " sca",
  "7791": " scav",
  "7792": " scave",
  "7793": " scaven",
  "7794": " scaveng",
  "7795": " scavenge",
  "7796": " scavenger",
  "7797": " scat",
  "7798": " scatt",
  "7799": " scatte",
  "7800": " scatter",
  "7801": " scatters",
  "7802": " scatteri",
  "7803": " scatterin",
  "7804": " scattering",
  "7805": " scattere",
  "7806": " scattered",
  "7807": " scatted",
  "7808": " scar",
  "7809": " scary",
  "7810": " scarv",
  "7811": " scarve",
  "7812": " scarves",
  "7813": " scars",
  "7814": " scarr",
  "7815": " scarre",
  "7816": " scarred",
  "7817": " scari",
  "7818": " scarin",
  "7819": " scaring",
  "7820": " scarie",
  "7821": " scaries",
  "7822": " scariest",
  "7823": " scarier",
  "7824": " scarf",
  "7825": " scarfs",
  "7826": " scare",
  "7827": " scares",
  "7828": " scared",
  "7829": " scaredy",
  "7830": " scarede",
  "7831": " scareder",
  "7832": " scarec",
  "7833": " scarecr",
  "7834": " scarecro",
  "7835": " scarecrow",
  "7836": " scarecrows",
  "7837": " scan",
  "7838": " scans",
  "7839": " scann",
  "7840": " scanne",
  "7841": " scanner",
  "7842": " scanned",
  "7843": " scam",
  "7844": " scamp",
  "7845": " scampe",
  "7846": " scamper",
  "7847": " scamperi",
  "7848": " scamperin",
  "7849": " scampering",
  "7850": " scampere",
  "7851": " scampered",
  "7852": " scal",
  "7853": " scaly",
  "7854": " scale",
  "7855": " scales",
  "7856": " sa",
  "7857": " say",
  "7858": " says",
  "7859": " sayi",
  "7860": " sayin",
  "7861": " saying",
  "7862": " sax",
  "7863": " saxo",
  "7864": " saxop",
  "7865": " saxoph",
  "7866": " saxopho",
  "7867": " saxophon",
  "7868": " saxophone",
  "7869": " saw",
  "7870": " saws",
  "7871": " sawi",
  "7872": " sawin",
  "7873": " sawing",
  "7874": " sawe",
  "7875": " sawed",
  "7876": " sav",
  "7877": " savo",
  "7878": " savou",
  "7879": " savour",
  "7880": " savouri",
  "7881": " savourin",
  "7882": " savouring",
  "7883": " savoure",
  "7884": " savoured",
  "7885": " savor",
  "7886": " savory",
  "7887": " savori",
  "7888": " savorin",
  "7889": " savoring",
  "7890": " savore",
  "7891": " savored",
  "7892": " savi",
  "7893": " savin",
  "7894": " saving",
  "7895": " savings",
  "7896": " save",
  "7897": " saves",
  "7898": " saver",
  "7899": " saved",
  "7900": " sava",
  "7901": " savan",
  "7902": " savann",
  "7903": " savanna",
  "7904": " savannah",
  "7905": " sau",
  "7906": " saut",
  "7907": " saut�",
  "7908": " sauté",
  "7909": " sautée",
  "7910": " sautéed",
  "7911": " saus",
  "7912": " sausa",
  "7913": " sausag",
  "7914": " sausage",
  "7915": " sausages",
  "7916": " saun",
  "7917": " saunt",
  "7918": " saunte",
  "7919": " saunter",
  "7920": " sauntere",
  "7921": " sauntered",
  "7922": " sauc",
  "7923": " saucy",
  "7924": " sauce",
  "7925": " sauces",
  "7926": " saucer",
  "7927": " saucers",
  "7928": " sat",
  "7929": " sati",
  "7930": " satis",
  "7931": " satisf",
  "7932": " satisfy",
  "7933": " satisfyi",
  "7934": " satisfyin",
  "7935": " satisfying",
  "7936": " satisfi",
  "7937": " satisfie",
  "7938": " satisfied",
  "7939": " satisfa",
  "7940": " satisfac",
  "7941": " satisfact",
  "7942": " satisfacti",
  "7943": " satisfactio",
  "7944": " satisfaction",
  "7945": " sate",
  "7946": " satel",
  "7947": " satell",
  "7948": " satelli",
  "7949": " satellit",
  "7950": " satellite",
  "7951": " satellites",
  "7952": " satc",
  "7953": " satche",
  "7954": " satchel",
  "7955": " sar",
  "7956": " sard",
  "7957": " sardi",
  "7958": " sardin",
  "7959": " sardine",
  "7960": " sardines",
  "7961": " sap",
  "7962": " sapp",
  "7963": " sapph",
  "7964": " sapphi",
  "7965": " sapphir",
  "7966": " sapphire",
  "7967": " sapphires",
  "7968": " sapl",
  "7969": " sapli",
  "7970": " saplin",
  "7971": " sapling",
  "7972": " san",
  "7973": " sank",
  "7974": " sang",
  "7975": " sand",
  "7976": " sandy",
  "7977": " sandw",
  "7978": " sandwi",
  "7979": " sandwic",
  "7980": " sandwiche",
  "7981": " sandwiches",
  "7982": " sandwich",
  "7983": " sands",
  "7984": " sandst",
  "7985": " sandsto",
  "7986": " sandstor",
  "7987": " sandstorm",
  "7988": " sandp",
  "7989": " sandpi",
  "7990": " sandpit",
  "7991": " sande",
  "7992": " sanded",
  "7993": " sandc",
  "7994": " sandca",
  "7995": " sandcas",
  "7996": " sandcast",
  "7997": " sandcastl",
  "7998": " sandcastle",
  "7999": " sandcastles",
  "8000": " sandcar",
  "8001": " sandcak",
  "8002": " sandcake",
  "8003": " sandb",
  "8004": " sandbo",
  "8005": " sandbox",
  "8006": " sandboxe",
  "8007": " sandboxes",
  "8008": " sandba",
  "8009": " sandbag",
  "8010": " sandbags",
  "8011": " sanda",
  "8012": " sandal",
  "8013": " sandals",
  "8014": " sam",
  "8015": " samp",
  "8016": " sampl",
  "8017": " sample",
  "8018": " samples",
  "8019": " sampled",
  "8020": " same",
  "8021": " sal",
  "8022": " salv",
  "8023": " salu",
  "8024": " salut",
  "8025": " salute",
  "8026": " saluted",
  "8027": " salt",
  "8028": " salty",
  "8029": " sals",
  "8030": " salsa",
  "8031": " salo",
  "8032": " salon",
  "8033": " salm",
  "8034": " salmo",
  "8035": " salmon",
  "8036": " sali",
  "8037": " saliv",
  "8038": " saliva",
  "8039": " sale",
  "8040": " sales",
  "8041": " salesp",
  "8042": " salespe",
  "8043": " salesper",
  "8044": " salespers",
  "8045": " salesperso",
  "8046": " salesperson",
  "8047": " salesm",
  "8048": " salesma",
  "8049": " salesman",
  "8050": " sala",
  "8051": " salam",
  "8052": " salama",
  "8053": " salaman",
  "8054": " salamand",
  "8055": " salamande",
  "8056": " salamander",
  "8057": " salad",
  "8058": " salads",
  "8059": " sai",
  "8060": " sail",
  "8061": " sails",
  "8062": " sailo",
  "8063": " sailor",
  "8064": " sailors",
  "8065": " saili",
  "8066": " sailin",
  "8067": " sailing",
  "8068": " saile",
  "8069": " sailed",
  "8070": " sailc",
  "8071": " sailcl",
  "8072": " sailclo",
  "8073": " sailcloth",
  "8074": " sailb",
  "8075": " sailbo",
  "8076": " sailboa",
  "8077": " sailboat",
  "8078": " said",
  "8079": " sag",
  "8080": " sage",
  "8081": " saf",
  "8082": " safe",
  "8083": " safet",
  "8084": " safety",
  "8085": " safes",
  "8086": " safest",
  "8087": " safer",
  "8088": " safel",
  "8089": " safely",
  "8090": " safek",
  "8091": " safeke",
  "8092": " safekee",
  "8093": " safekeep",
  "8094": " safekeepi",
  "8095": " safekeepin",
  "8096": " safekeeping",
  "8097": " safa",
  "8098": " safar",
  "8099": " safari",
  "8100": " safaris",
  "8101": " sad",
  "8102": " sadn",
  "8103": " sadne",
  "8104": " sadnes",
  "8105": " sadness",
  "8106": " sadl",
  "8107": " sadly",
  "8108": " sadd",
  "8109": " saddl",
  "8110": " saddle",
  "8111": " saddles",
  "8112": " saddled",
  "8113": " sadde",
  "8114": " saddes",
  "8115": " saddest",
  "8116": " sadder",
  "8117": " sadden",
  "8118": " saddene",
  "8119": " saddened",
  "8120": " sac",
  "8121": " sacr",
  "8122": " sacri",
  "8123": " sacrif",
  "8124": " sacrifi",
  "8125": " sacrific",
  "8126": " sacrifice",
  "8127": " sacre",
  "8128": " sacred",
  "8129": " sack",
  "8130": " sacks",
  "8131": " sacki",
  "8132": " sackin",
  "8133": " sacking",
  "8134": " sacke",
  "8135": " sacked",
  "8136": " run",
  "8137": " runwa",
  "8138": " runway",
  "8139": " runs",
  "8140": " runn",
  "8141": " runny",
  "8142": " runnin",
  "8143": " running",
  "8144": " runner",
  "8145": " runners",
  "8146": " runa",
  "8147": " runawa",
  "8148": " runaway",
  "8149": " ru",
  "8150": " rust",
  "8151": " rusty",
  "8152": " rustle",
  "8153": " rustles",
  "8154": " rustl",
  "8155": " rustlin",
  "8156": " rustling",
  "8157": " rustled",
  "8158": " rusted",
  "8159": " rush",
  "8160": " rushin",
  "8161": " rushing",
  "8162": " rus",
  "8163": " rushe",
  "8164": " rushes",
  "8165": " rushed",
  "8166": " rung",
  "8167": " rungs",
  "8168": " rum",
  "8169": " rumou",
  "8170": " rumour",
  "8171": " rumours",
  "8172": " rumor",
  "8173": " rumm",
  "8174": " rumma",
  "8175": " rummag",
  "8176": " rummagin",
  "8177": " rummaging",
  "8178": " rummaged",
  "8179": " rummage",
  "8180": " rumb",
  "8181": " rumble",
  "8182": " rumbl",
  "8183": " rumblin",
  "8184": " rumbling",
  "8185": " rumbled",
  "8186": " rule",
  "8187": " rules",
  "8188": " rul",
  "8189": " rulin",
  "8190": " ruling",
  "8191": " ruler",
  "8192": " rulers",
  "8193": " ruled",
  "8194": " ruin",
  "8195": " ruins",
  "8196": " ruined",
  "8197": " rui",
  "8198": " ruinin",
  "8199": " ruining",
  "8200": " rug",
  "8201": " rugs",
  "8202": " ruf",
  "8203": " ruff",
  "8204": " ruffle",
  "8205": " ruffles",
  "8206": " ruffl",
  "8207": " rufflin",
  "8208": " ruffling",
  "8209": " ruffled",
  "8210": " rude",
  "8211": " rud",
  "8212": " ruder",
  "8213": " ruden",
  "8214": " rudene",
  "8215": " rudenes",
  "8216": " rudeness",
  "8217": " rudel",
  "8218": " rudely",
  "8219": " rubi",
  "8220": " rubie",
  "8221": " rubies",
  "8222": " rub",
  "8223": " ruby",
  "8224": " rubs",
  "8225": " rubed",
  "8226": " rubb",
  "8227": " rubble",
  "8228": " rubbis",
  "8229": " rubbish",
  "8230": " rubbin",
  "8231": " rubbing",
  "8232": " rubber",
  "8233": " rubbery",
  "8234": " rubbers",
  "8235": " rubbed",
  "8236": " rou",
  "8237": " rout",
  "8238": " routin",
  "8239": " routine",
  "8240": " route",
  "8241": " routes",
  "8242": " round",
  "8243": " rounds",
  "8244": " rounde",
  "8245": " roundes",
  "8246": " roundest",
  "8247": " rounder",
  "8248": " rounded",
  "8249": " rounda",
  "8250": " roundab",
  "8251": " roundabo",
  "8252": " roundabou",
  "8253": " roundabout",
  "8254": " roug",
  "8255": " roughe",
  "8256": " rougher",
  "8257": " rough",
  "8258": " roughn",
  "8259": " roughne",
  "8260": " roughnes",
  "8261": " roughness",
  "8262": " roughl",
  "8263": " roughly",
  "8264": " rot",
  "8265": " rott",
  "8266": " rottin",
  "8267": " rotting",
  "8268": " rotten",
  "8269": " rotted",
  "8270": " rots",
  "8271": " rotat",
  "8272": " roo",
  "8273": " root",
  "8274": " roots",
  "8275": " rooted",
  "8276": " roost",
  "8277": " rooster",
  "8278": " roosters",
  "8279": " rook",
  "8280": " roof",
  "8281": " roofto",
  "8282": " rooftop",
  "8283": " rooftops",
  "8284": " roofs",
  "8285": " roofer",
  "8286": " rom",
  "8287": " roman",
  "8288": " romant",
  "8289": " romanti",
  "8290": " romantic",
  "8291": " rit",
  "8292": " ritu",
  "8293": " ritua",
  "8294": " ritual",
  "8295": " ris",
  "8296": " risk",
  "8297": " risky",
  "8298": " risks",
  "8299": " riskin",
  "8300": " risking",
  "8301": " risin",
  "8302": " rising",
  "8303": " risen",
  "8304": " rise",
  "8305": " rises",
  "8306": " rin",
  "8307": " rins",
  "8308": " rinsed",
  "8309": " rinse",
  "8310": " rinses",
  "8311": " rink",
  "8312": " ring",
  "8313": " rings",
  "8314": " ringm",
  "8315": " ringma",
  "8316": " ringmas",
  "8317": " ringmast",
  "8318": " ringmaster",
  "8319": " rim",
  "8320": " rid",
  "8321": " ridin",
  "8322": " riding",
  "8323": " ridi",
  "8324": " ridic",
  "8325": " ridicu",
  "8326": " ridicul",
  "8327": " ridiculou",
  "8328": " ridiculous",
  "8329": " rider",
  "8330": " riders",
  "8331": " ride",
  "8332": " rides",
  "8333": " ridd",
  "8334": " riddle",
  "8335": " riddles",
  "8336": " ridden",
  "8337": " rh",
  "8338": " rhy",
  "8339": " rhyth",
  "8340": " rhythm",
  "8341": " rhythms",
  "8342": " rhythmi",
  "8343": " rhythmic",
  "8344": " rhyme",
  "8345": " rhymes",
  "8346": " rhym",
  "8347": " rhymed",
  "8348": " rhin",
  "8349": " rhino",
  "8350": " rhinos",
  "8351": " rhinoc",
  "8352": " rhinocer",
  "8353": " rhinocero",
  "8354": " rhinoceros",
  "8355": " rhinocerose",
  "8356": " rhinoceroses",
  "8357": " ret",
  "8358": " retre",
  "8359": " retrea",
  "8360": " retreat",
  "8361": " retreated",
  "8362": " red",
  "8363": " redu",
  "8364": " reduc",
  "8365": " reduce",
  "8366": " reds",
  "8367": " rede",
  "8368": " redd",
  "8369": " redde",
  "8370": " reddes",
  "8371": " reddest",
  "8372": " redder",
  "8373": " re",
  "8374": " req",
  "8375": " requ",
  "8376": " requi",
  "8377": " require",
  "8378": " requires",
  "8379": " rep",
  "8380": " repre",
  "8381": " repres",
  "8382": " represe",
  "8383": " represen",
  "8384": " represent",
  "8385": " represents",
  "8386": " representin",
  "8387": " representing",
  "8388": " represented",
  "8389": " reg",
  "8390": " regre",
  "8391": " regret",
  "8392": " regrett",
  "8393": " regrettin",
  "8394": " regretting",
  "8395": " regretted",
  "8396": " regrets",
  "8397": " regretf",
  "8398": " regretfu",
  "8399": " regretful",
  "8400": " regretfull",
  "8401": " regretfully",
  "8402": " regreted",
  "8403": " ref",
  "8404": " refre",
  "8405": " refres",
  "8406": " refreshe",
  "8407": " refreshed",
  "8408": " refresh",
  "8409": " refreshm",
  "8410": " refreshme",
  "8411": " refreshmen",
  "8412": " refreshment",
  "8413": " refreshin",
  "8414": " refreshing",
  "8415": " reas",
  "8416": " reass",
  "8417": " reassu",
  "8418": " reassure",
  "8419": " ray",
  "8420": " rays",
  "8421": " rat",
  "8422": " ratt",
  "8423": " rattl",
  "8424": " rattlin",
  "8425": " rattling",
  "8426": " rattled",
  "8427": " rattle",
  "8428": " rats",
  "8429": " rathe",
  "8430": " rather",
  "8431": " ras",
  "8432": " rasp",
  "8433": " raspy",
  "8434": " raspb",
  "8435": " raspber",
  "8436": " raspberr",
  "8437": " raspberry",
  "8438": " raspberri",
  "8439": " raspberrie",
  "8440": " raspberries",
  "8441": " rashe",
  "8442": " rashes",
  "8443": " rash",
  "8444": " rasc",
  "8445": " rasca",
  "8446": " rascal",
  "8447": " rascals",
  "8448": " rar",
  "8449": " rarer",
  "8450": " ran",
  "8451": " rang",
  "8452": " range",
  "8453": " ranger",
  "8454": " rangers",
  "8455": " rand",
  "8456": " rando",
  "8457": " random",
  "8458": " randoml",
  "8459": " randomly",
  "8460": " ranc",
  "8461": " ranche",
  "8462": " rancher",
  "8463": " ranch",
  "8464": " ram",
  "8465": " ramp",
  "8466": " ramps",
  "8467": " ramb",
  "8468": " rambun",
  "8469": " rambunc",
  "8470": " rambunct",
  "8471": " rambuncti",
  "8472": " rambunctiou",
  "8473": " rambunctious",
  "8474": " rai",
  "8475": " raind",
  "8476": " raindr",
  "8477": " raindro",
  "8478": " raindrop",
  "8479": " raindrops",
  "8480": " rain",
  "8481": " rainin",
  "8482": " raining",
  "8483": " rad",
  "8484": " radis",
  "8485": " radishe",
  "8486": " radishes",
  "8487": " radish",
  "8488": " radi",
  "8489": " radio",
  "8490": " radios",
  "8491": " radiat",
  "8492": " radiatin",
  "8493": " radiating",
  "8494": " radiated",
  "8495": " radian",
  "8496": " radiant",
  "8497": " radianc",
  "8498": " radiance",
  "8499": " ra",
  "8500": " raz",
  "8501": " razor",
  "8502": " razors",
  "8503": " raw",
  "8504": " rav",
  "8505": " raven",
  "8506": " ravens",
  "8507": " rare",
  "8508": " rares",
  "8509": " rarest",
  "8510": " rarel",
  "8511": " rarely",
  "8512": " rap",
  "8513": " rapto",
  "8514": " raptor",
  "8515": " rapid",
  "8516": " rapidl",
  "8517": " rapidly",
  "8518": " rake",
  "8519": " rakes",
  "8520": " rak",
  "8521": " rakin",
  "8522": " raking",
  "8523": " raked",
  "8524": " rais",
  "8525": " raisin",
  "8526": " raisins",
  "8527": " raising",
  "8528": " raised",
  "8529": " raise",
  "8530": " raises",
  "8531": " rainy",
  "8532": " rainw",
  "8533": " rainwa",
  "8534": " rainwat",
  "8535": " rainwater",
  "8536": " rains",
  "8537": " rainsto",
  "8538": " rainstor",
  "8539": " rainstorm",
  "8540": " rained",
  "8541": " rainc",
  "8542": " rainco",
  "8543": " raincoa",
  "8544": " raincoat",
  "8545": " raincoats",
  "8546": " raincl",
  "8547": " rainclo",
  "8548": " rainclou",
  "8549": " raincloud",
  "8550": " rainclouds",
  "8551": " rainb",
  "8552": " rainbo",
  "8553": " rainbow",
  "8554": " rainbows",
  "8555": " rail",
  "8556": " railwa",
  "8557": " railway",
  "8558": " rails",
  "8559": " railin",
  "8560": " railing",
  "8561": " railings",
  "8562": " rag",
  "8563": " rags",
  "8564": " ragin",
  "8565": " raging",
  "8566": " ragg",
  "8567": " ragged",
  "8568": " raggedy",
  "8569": " raged",
  "8570": " rage",
  "8571": " raf",
  "8572": " raft",
  "8573": " rafts",
  "8574": " raftin",
  "8575": " rafting",
  "8576": " raff",
  "8577": " raffle",
  "8578": " rac",
  "8579": " raco",
  "8580": " racoon",
  "8581": " racke",
  "8582": " racket",
  "8583": " rack",
  "8584": " racin",
  "8585": " racing",
  "8586": " races",
  "8587": " racer",
  "8588": " racers",
  "8589": " raced",
  "8590": " race",
  "8591": " raceh",
  "8592": " racehor",
  "8593": " racehors",
  "8594": " racehorse",
  "8595": " racec",
  "8596": " racecar",
  "8597": " racc",
  "8598": " racco",
  "8599": " raccoon",
  "8600": " raccoons",
  "8601": " rabi",
  "8602": " rabie",
  "8603": " rabies",
  "8604": " rab",
  "8605": " rabb",
  "8606": " rabbit",
  "8607": " rabbits",
  "8608": " qui",
  "8609": " quiz",
  "8610": " quizz",
  "8611": " quizzes",
  "8612": " quiet",
  "8613": " quietl",
  "8614": " quietly",
  "8615": " quieter",
  "8616": " quieten",
  "8617": " quietened",
  "8618": " quick",
  "8619": " quicks",
  "8620": " quicksan",
  "8621": " quicksand",
  "8622": " quickly",
  "8623": " quicker",
  "8624": " quicken",
  "8625": " quickened",
  "8626": " que",
  "8627": " quest",
  "8628": " questi",
  "8629": " question",
  "8630": " questions",
  "8631": " questionin",
  "8632": " questioning",
  "8633": " questioned",
  "8634": " queen",
  "8635": " queens",
  "8636": " py",
  "8637": " pyth",
  "8638": " pytho",
  "8639": " python",
  "8640": " pyr",
  "8641": " pyra",
  "8642": " pyram",
  "8643": " pyrami",
  "8644": " pyramid",
  "8645": " pyramids",
  "8646": " pyj",
  "8647": " pyja",
  "8648": " pyjam",
  "8649": " pyjamas",
  "8650": " pu",
  "8651": " puz",
  "8652": " puzz",
  "8653": " puzzl",
  "8654": " puzzled",
  "8655": " puzzle",
  "8656": " puzzles",
  "8657": " put",
  "8658": " putt",
  "8659": " puttin",
  "8660": " putting",
  "8661": " puts",
  "8662": " pus",
  "8663": " pushe",
  "8664": " pushes",
  "8665": " pushed",
  "8666": " push",
  "8667": " pushy",
  "8668": " pushu",
  "8669": " pushup",
  "8670": " pushups",
  "8671": " pushin",
  "8672": " pushing",
  "8673": " pure",
  "8674": " pur",
  "8675": " purs",
  "8676": " pursu",
  "8677": " pursuit",
  "8678": " pursue",
  "8679": " purse",
  "8680": " purses",
  "8681": " purr",
  "8682": " purrs",
  "8683": " purrin",
  "8684": " purring",
  "8685": " purred",
  "8686": " purp",
  "8687": " purpo",
  "8688": " purpos",
  "8689": " purpose",
  "8690": " purposes",
  "8691": " purpl",
  "8692": " purple",
  "8693": " purc",
  "8694": " purch",
  "8695": " purchas",
  "8696": " purchased",
  "8697": " purchase",
  "8698": " pup",
  "8699": " pupp",
  "8700": " puppy",
  "8701": " puppi",
  "8702": " puppie",
  "8703": " puppies",
  "8704": " puppe",
  "8705": " puppet",
  "8706": " puppets",
  "8707": " puppete",
  "8708": " puppeteer",
  "8709": " pupi",
  "8710": " pupil",
  "8711": " pupils",
  "8712": " pun",
  "8713": " puni",
  "8714": " punis",
  "8715": " punishe",
  "8716": " punishes",
  "8717": " punished",
  "8718": " punish",
  "8719": " punishm",
  "8720": " punishmen",
  "8721": " punishment",
  "8722": " punishments",
  "8723": " punishin",
  "8724": " punishing",
  "8725": " punc",
  "8726": " punct",
  "8727": " punctu",
  "8728": " puncture",
  "8729": " punche",
  "8730": " punched",
  "8731": " punch",
  "8732": " pum",
  "8733": " pump",
  "8734": " pumps",
  "8735": " pumpk",
  "8736": " pumpkin",
  "8737": " pumpkins",
  "8738": " pumpin",
  "8739": " pumping",
  "8740": " pumped",
  "8741": " pul",
  "8742": " puls",
  "8743": " pulse",
  "8744": " pulp",
  "8745": " pull",
  "8746": " pulls",
  "8747": " pullin",
  "8748": " pulling",
  "8749": " pulled",
  "8750": " pug",
  "8751": " puf",
  "8752": " puff",
  "8753": " puffy",
  "8754": " puffs",
  "8755": " puffin",
  "8756": " puffing",
  "8757": " puffed",
  "8758": " pud",
  "8759": " pudd",
  "8760": " puddl",
  "8761": " puddle",
  "8762": " puddles",
  "8763": " puddin",
  "8764": " pudding",
  "8765": " puc",
  "8766": " puck",
  "8767": " pucker",
  "8768": " puckered",
  "8769": " pub",
  "8770": " publ",
  "8771": " publi",
  "8772": " public",
  "8773": " pre",
  "8774": " prey",
  "8775": " prev",
  "8776": " previ",
  "8777": " previo",
  "8778": " previou",
  "8779": " previous",
  "8780": " preve",
  "8781": " preven",
  "8782": " prevent",
  "8783": " prevents",
  "8784": " preventin",
  "8785": " preventing",
  "8786": " prevented",
  "8787": " preva",
  "8788": " prevai",
  "8789": " prevail",
  "8790": " pret",
  "8791": " pretz",
  "8792": " pretze",
  "8793": " pretzel",
  "8794": " pretzels",
  "8795": " prett",
  "8796": " pretty",
  "8797": " pretti",
  "8798": " prettier",
  "8799": " prettie",
  "8800": " pretties",
  "8801": " prettiest",
  "8802": " prete",
  "8803": " pretend",
  "8804": " pretends",
  "8805": " pretendi",
  "8806": " pretendin",
  "8807": " pretending",
  "8808": " pretende",
  "8809": " pretended",
  "8810": " pres",
  "8811": " press",
  "8812": " pressin",
  "8813": " pressing",
  "8814": " pressed",
  "8815": " presse",
  "8816": " presses",
  "8817": " presi",
  "8818": " presid",
  "8819": " preside",
  "8820": " presiden",
  "8821": " president",
  "8822": " preser",
  "8823": " preserv",
  "8824": " prese",
  "8825": " presen",
  "8826": " present",
  "8827": " presents",
  "8828": " presentin",
  "8829": " presenting",
  "8830": " presented",
  "8831": " presenta",
  "8832": " presentat",
  "8833": " presentati",
  "8834": " presentatio",
  "8835": " presentation",
  "8836": " presenc",
  "8837": " presence",
  "8838": " presc",
  "8839": " presch",
  "8840": " prescho",
  "8841": " preschoo",
  "8842": " preschool",
  "8843": " prep",
  "8844": " prepp",
  "8845": " preppin",
  "8846": " prepping",
  "8847": " prepa",
  "8848": " prepar",
  "8849": " preparin",
  "8850": " preparing",
  "8851": " prepared",
  "8852": " prepara",
  "8853": " preparat",
  "8854": " preparati",
  "8855": " preparatio",
  "8856": " preparation",
  "8857": " preparations",
  "8858": " pref",
  "8859": " prefer",
  "8860": " prefers",
  "8861": " preferr",
  "8862": " preferred",
  "8863": " prefere",
  "8864": " preferen",
  "8865": " preferenc",
  "8866": " preference",
  "8867": " preferences",
  "8868": " pred",
  "8869": " predi",
  "8870": " predic",
  "8871": " predict",
  "8872": " predicted",
  "8873": " prec",
  "8874": " preci",
  "8875": " precis",
  "8876": " precise",
  "8877": " precio",
  "8878": " preciou",
  "8879": " precious",
  "8880": " preca",
  "8881": " precau",
  "8882": " precaut",
  "8883": " precauti",
  "8884": " precautio",
  "8885": " precaution",
  "8886": " precautions",
  "8887": " pr",
  "8888": " pry",
  "8889": " pryin",
  "8890": " prying",
  "8891": " pru",
  "8892": " prun",
  "8893": " prunin",
  "8894": " pruning",
  "8895": " pruned",
  "8896": " prune",
  "8897": " prunes",
  "8898": " prou",
  "8899": " proud",
  "8900": " proudl",
  "8901": " proudly",
  "8902": " prouder",
  "8903": " proude",
  "8904": " proudes",
  "8905": " proudest",
  "8906": " pro",
  "8907": " prov",
  "8908": " provin",
  "8909": " proving",
  "8910": " provi",
  "8911": " provid",
  "8912": " providin",
  "8913": " providing",
  "8914": " provided",
  "8915": " provide",
  "8916": " provides",
  "8917": " proven",
  "8918": " proved",
  "8919": " prove",
  "8920": " prot",
  "8921": " prote",
  "8922": " protes",
  "8923": " protest",
  "8924": " protests",
  "8925": " protested",
  "8926": " protein",
  "8927": " protec",
  "8928": " protecto",
  "8929": " protector",
  "8930": " protect",
  "8931": " protects",
  "8932": " protectin",
  "8933": " protecting",
  "8934": " protecti",
  "8935": " protectiv",
  "8936": " protective",
  "8937": " protectivel",
  "8938": " protectively",
  "8939": " protectio",
  "8940": " protection",
  "8941": " protected",
  "8942": " pros",
  "8943": " prosp",
  "8944": " prosper",
  "8945": " prospero",
  "8946": " prosperou",
  "8947": " prosperous",
  "8948": " prospe",
  "8949": " prospec",
  "8950": " prospect",
  "8951": " prop",
  "8952": " props",
  "8953": " propp",
  "8954": " propped",
  "8955": " propo",
  "8956": " propos",
  "8957": " proposed",
  "8958": " proposa",
  "8959": " proposal",
  "8960": " proper",
  "8961": " propert",
  "8962": " property",
  "8963": " properl",
  "8964": " properly",
  "8965": " prope",
  "8966": " propel",
  "8967": " propell",
  "8968": " propeller",
  "8969": " propellers",
  "8970": " proo",
  "8971": " proof",
  "8972": " pron",
  "8973": " prong",
  "8974": " prongs",
  "8975": " prom",
  "8976": " promp",
  "8977": " prompt",
  "8978": " promptl",
  "8979": " promptly",
  "8980": " promo",
  "8981": " promot",
  "8982": " promi",
  "8983": " promis",
  "8984": " promisin",
  "8985": " promising",
  "8986": " promised",
  "8987": " promise",
  "8988": " promises",
  "8989": " proj",
  "8990": " proje",
  "8991": " projec",
  "8992": " project",
  "8993": " projects",
  "8994": " prog",
  "8995": " progre",
  "8996": " progres",
  "8997": " progress",
  "8998": " progressed",
  "8999": " progr",
  "9000": " progra",
  "9001": " program",
  "9002": " prof",
  "9003": " profu",
  "9004": " profus",
  "9005": " profuse",
  "9006": " profusel",
  "9007": " profusely",
  "9008": " profe",
  "9009": " profes",
  "9010": " profess",
  "9011": " professo",
  "9012": " professor",
  "9013": " professi",
  "9014": " professio",
  "9015": " profession",
  "9016": " professiona",
  "9017": " professional",
  "9018": " prod",
  "9019": " produ",
  "9020": " produc",
  "9021": " product",
  "9022": " products",
  "9023": " producti",
  "9024": " productiv",
  "9025": " productive",
  "9026": " produced",
  "9027": " produce",
  "9028": " produces",
  "9029": " prodd",
  "9030": " prodded",
  "9031": " proc",
  "9032": " procl",
  "9033": " procla",
  "9034": " proclai",
  "9035": " proclaim",
  "9036": " proclaimed",
  "9037": " proce",
  "9038": " proces",
  "9039": " process",
  "9040": " procee",
  "9041": " proceed",
  "9042": " proceeded",
  "9043": " prob",
  "9044": " probl",
  "9045": " proble",
  "9046": " problem",
  "9047": " problems",
  "9048": " proba",
  "9049": " probab",
  "9050": " probabl",
  "9051": " probably",
  "9052": " prin",
  "9053": " print",
  "9054": " prints",
  "9055": " printer",
  "9056": " printers",
  "9057": " printed",
  "9058": " princ",
  "9059": " princi",
  "9060": " princip",
  "9061": " principa",
  "9062": " principal",
  "9063": " prince",
  "9064": " princes",
  "9065": " princess",
  "9066": " princesse",
  "9067": " princesses",
  "9068": " pri",
  "9069": " priz",
  "9070": " prized",
  "9071": " prize",
  "9072": " prizes",
  "9073": " priv",
  "9074": " priva",
  "9075": " privat",
  "9076": " private",
  "9077": " privac",
  "9078": " privacy",
  "9079": " pris",
  "9080": " priso",
  "9081": " prison",
  "9082": " prisoner",
  "9083": " printin",
  "9084": " printing",
  "9085": " pried",
  "9086": " prie",
  "9087": " pries",
  "9088": " priest",
  "9089": " prid",
  "9090": " pride",
  "9091": " prides",
  "9092": " pric",
  "9093": " prick",
  "9094": " prickl",
  "9095": " prickly",
  "9096": " prickle",
  "9097": " prickles",
  "9098": " pricked",
  "9099": " price",
  "9100": " pricey",
  "9101": " prices",
  "9102": " pricel",
  "9103": " pricele",
  "9104": " priceles",
  "9105": " priceless",
  "9106": " predica",
  "9107": " predicam",
  "9108": " predicame",
  "9109": " predicamen",
  "9110": " predicament",
  "9111": " preda",
  "9112": " predat",
  "9113": " predato",
  "9114": " predator",
  "9115": " predators",
  "9116": " pressu",
  "9117": " pressure",
  "9118": " prepare",
  "9119": " prepares",
  "9120": " pran",
  "9121": " prank",
  "9122": " pranks",
  "9123": " pranc",
  "9124": " pranci",
  "9125": " prancin",
  "9126": " prancing",
  "9127": " prance",
  "9128": " pranced",
  "9129": " pra",
  "9130": " pray",
  "9131": " prays",
  "9132": " prayin",
  "9133": " praying",
  "9134": " prayer",
  "9135": " prayers",
  "9136": " prayed",
  "9137": " prai",
  "9138": " prais",
  "9139": " praisin",
  "9140": " praising",
  "9141": " praised",
  "9142": " praise",
  "9143": " praises",
  "9144": " prac",
  "9145": " pract",
  "9146": " practi",
  "9147": " practis",
  "9148": " practisin",
  "9149": " practising",
  "9150": " practised",
  "9151": " practise",
  "9152": " practic",
  "9153": " practicin",
  "9154": " practicing",
  "9155": " practiced",
  "9156": " practice",
  "9157": " practices",
  "9158": " practica",
  "9159": " practical",
  "9160": " practicall",
  "9161": " practically",
  "9162": " pou",
  "9163": " pout",
  "9164": " pouty",
  "9165": " pouts",
  "9166": " poutin",
  "9167": " pouting",
  "9168": " pouted",
  "9169": " pour",
  "9170": " pours",
  "9171": " pourin",
  "9172": " pouring",
  "9173": " pourer",
  "9174": " poured",
  "9175": " pound",
  "9176": " pounds",
  "9177": " poundi",
  "9178": " poundin",
  "9179": " pounding",
  "9180": " pounde",
  "9181": " pounded",
  "9182": " poun",
  "9183": " pounc",
  "9184": " pouncin",
  "9185": " pouncing",
  "9186": " pounced",
  "9187": " pounce",
  "9188": " pounces",
  "9189": " pouc",
  "9190": " pouche",
  "9191": " pouches",
  "9192": " pouch",
  "9193": " po",
  "9194": " pow",
  "9195": " power",
  "9196": " powers",
  "9197": " powerl",
  "9198": " powerle",
  "9199": " powerles",
  "9200": " powerless",
  "9201": " powerf",
  "9202": " powerfu",
  "9203": " powerful",
  "9204": " powerfull",
  "9205": " powerfully",
  "9206": " powered",
  "9207": " powd",
  "9208": " powder",
  "9209": " powdery",
  "9210": " powders",
  "9211": " poth",
  "9212": " potho",
  "9213": " pothol",
  "9214": " pothole",
  "9215": " pot",
  "9216": " pott",
  "9217": " potty",
  "9218": " potter",
  "9219": " pottery",
  "9220": " pots",
  "9221": " poti",
  "9222": " potito",
  "9223": " potitoe",
  "9224": " potio",
  "9225": " potion",
  "9226": " potions",
  "9227": " poten",
  "9228": " potent",
  "9229": " potenti",
  "9230": " potentia",
  "9231": " potential",
  "9232": " pota",
  "9233": " potato",
  "9234": " potatoe",
  "9235": " potatoes",
  "9236": " pos",
  "9237": " post",
  "9238": " postu",
  "9239": " posture",
  "9240": " posts",
  "9241": " postm",
  "9242": " postman",
  "9243": " poster",
  "9244": " posters",
  "9245": " posted",
  "9246": " postc",
  "9247": " postcar",
  "9248": " postcard",
  "9249": " postcards",
  "9250": " poss",
  "9251": " possu",
  "9252": " possum",
  "9253": " possi",
  "9254": " possib",
  "9255": " possibl",
  "9256": " possibly",
  "9257": " possible",
  "9258": " possibi",
  "9259": " possibil",
  "9260": " possibilit",
  "9261": " possibility",
  "9262": " possibiliti",
  "9263": " possibilitie",
  "9264": " possibilities",
  "9265": " posse",
  "9266": " posses",
  "9267": " possess",
  "9268": " possessi",
  "9269": " possessio",
  "9270": " possession",
  "9271": " possessions",
  "9272": " possessed",
  "9273": " posit",
  "9274": " positi",
  "9275": " positiv",
  "9276": " positive",
  "9277": " positio",
  "9278": " position",
  "9279": " positions",
  "9280": " positioned",
  "9281": " posi",
  "9282": " positivit",
  "9283": " positivity",
  "9284": " posed",
  "9285": " pose",
  "9286": " poses",
  "9287": " por",
  "9288": " port",
  "9289": " ports",
  "9290": " portr",
  "9291": " portra",
  "9292": " portrait",
  "9293": " porti",
  "9294": " portio",
  "9295": " portion",
  "9296": " porta",
  "9297": " portal",
  "9298": " porr",
  "9299": " porri",
  "9300": " porrid",
  "9301": " porridg",
  "9302": " porridge",
  "9303": " pork",
  "9304": " porc",
  "9305": " porche",
  "9306": " porches",
  "9307": " porch",
  "9308": " porce",
  "9309": " porcel",
  "9310": " porcela",
  "9311": " porcelain",
  "9312": " pop",
  "9313": " popu",
  "9314": " popul",
  "9315": " popular",
  "9316": " popularit",
  "9317": " popularity",
  "9318": " pops",
  "9319": " popsi",
  "9320": " popsic",
  "9321": " popsicl",
  "9322": " popsicle",
  "9323": " popsicles",
  "9324": " popp",
  "9325": " poppy",
  "9326": " poppin",
  "9327": " popping",
  "9328": " poppi",
  "9329": " poppie",
  "9330": " poppies",
  "9331": " popper",
  "9332": " popped",
  "9333": " poppa",
  "9334": " popc",
  "9335": " popco",
  "9336": " popcor",
  "9337": " popcorn",
  "9338": " poo",
  "9339": " poor",
  "9340": " poorl",
  "9341": " poorly",
  "9342": " poorer",
  "9343": " poop",
  "9344": " pool",
  "9345": " pools",
  "9346": " poof",
  "9347": " poofy",
  "9348": " poofed",
  "9349": " pooc",
  "9350": " pooch",
  "9351": " pond",
  "9352": " ponds",
  "9353": " ponde",
  "9354": " ponder",
  "9355": " ponderi",
  "9356": " ponderin",
  "9357": " pondering",
  "9358": " pondere",
  "9359": " pondered",
  "9360": " pon",
  "9361": " pony",
  "9362": " ponyt",
  "9363": " ponyta",
  "9364": " ponytai",
  "9365": " ponytail",
  "9366": " ponytails",
  "9367": " poni",
  "9368": " ponie",
  "9369": " ponies",
  "9370": " pom",
  "9371": " poms",
  "9372": " pomp",
  "9373": " pompo",
  "9374": " pompom",
  "9375": " pome",
  "9376": " pomeg",
  "9377": " pomegr",
  "9378": " pomegran",
  "9379": " pomegrana",
  "9380": " pomegranat",
  "9381": " pomegranate",
  "9382": " pol",
  "9383": " poll",
  "9384": " pollu",
  "9385": " pollut",
  "9386": " pollutin",
  "9387": " polluting",
  "9388": " polluti",
  "9389": " pollutio",
  "9390": " pollution",
  "9391": " polluted",
  "9392": " pollen",
  "9393": " polk",
  "9394": " polka",
  "9395": " polit",
  "9396": " polite",
  "9397": " politen",
  "9398": " politene",
  "9399": " politenes",
  "9400": " politeness",
  "9401": " politel",
  "9402": " politely",
  "9403": " poli",
  "9404": " polis",
  "9405": " polishe",
  "9406": " polishes",
  "9407": " polished",
  "9408": " polish",
  "9409": " polishin",
  "9410": " polishing",
  "9411": " polic",
  "9412": " policy",
  "9413": " police",
  "9414": " policem",
  "9415": " policemen",
  "9416": " policemens",
  "9417": " policeman",
  "9418": " pole",
  "9419": " poles",
  "9420": " polar",
  "9421": " pok",
  "9422": " pokin",
  "9423": " poking",
  "9424": " poker",
  "9425": " poked",
  "9426": " poke",
  "9427": " pokes",
  "9428": " poin",
  "9429": " point",
  "9430": " pointy",
  "9431": " points",
  "9432": " pointer",
  "9433": " pointed",
  "9434": " poi",
  "9435": " pois",
  "9436": " poiso",
  "9437": " poison",
  "9438": " poisonou",
  "9439": " poisonous",
  "9440": " poisoned",
  "9441": " pointin",
  "9442": " pointing",
  "9443": " poe",
  "9444": " poet",
  "9445": " poets",
  "9446": " poetr",
  "9447": " poetry",
  "9448": " poem",
  "9449": " poems",
  "9450": " pod",
  "9451": " pods",
  "9452": " poc",
  "9453": " pocu",
  "9454": " pocus",
  "9455": " pock",
  "9456": " pocke",
  "9457": " pocket",
  "9458": " pockets",
  "9459": " pocketk",
  "9460": " pocketkn",
  "9461": " pocketkni",
  "9462": " pocketknif",
  "9463": " pocketknife",
  "9464": " pocketf",
  "9465": " pocketfu",
  "9466": " pocketful",
  "9467": " poa",
  "9468": " poac",
  "9469": " poache",
  "9470": " pm",
  "9471": " pl",
  "9472": " plu",
  "9473": " plus",
  "9474": " plush",
  "9475": " plushi",
  "9476": " plushie",
  "9477": " plun",
  "9478": " plunk",
  "9479": " plung",
  "9480": " plunger",
  "9481": " plunged",
  "9482": " plunge",
  "9483": " plum",
  "9484": " plums",
  "9485": " plump",
  "9486": " plumm",
  "9487": " plumme",
  "9488": " plummet",
  "9489": " plummeted",
  "9490": " plumb",
  "9491": " plumber",
  "9492": " plug",
  "9493": " plugs",
  "9494": " plugg",
  "9495": " plugged",
  "9496": " pluc",
  "9497": " pluck",
  "9498": " pluckin",
  "9499": " plucking",
  "9500": " plucked",
  "9501": " plo",
  "9502": " plow",
  "9503": " plot",
  "9504": " plott",
  "9505": " plotted",
  "9506": " plop",
  "9507": " plopp",
  "9508": " plopped",
  "9509": " pli",
  "9510": " plig",
  "9511": " pligh",
  "9512": " plight",
  "9513": " plen",
  "9514": " plent",
  "9515": " plenty",
  "9516": " ple",
  "9517": " pled",
  "9518": " pledg",
  "9519": " pledged",
  "9520": " pleas",
  "9521": " pleasu",
  "9522": " pleasure",
  "9523": " pleasures",
  "9524": " pleased",
  "9525": " please",
  "9526": " pleasan",
  "9527": " pleasant",
  "9528": " pleasantl",
  "9529": " pleasantly",
  "9530": " plea",
  "9531": " plead",
  "9532": " pleadin",
  "9533": " pleading",
  "9534": " pleadingl",
  "9535": " pleadingly",
  "9536": " pleaded",
  "9537": " plas",
  "9538": " plast",
  "9539": " plasti",
  "9540": " plastic",
  "9541": " plaster",
  "9542": " plan",
  "9543": " plant",
  "9544": " plants",
  "9545": " planti",
  "9546": " plantin",
  "9547": " planting",
  "9548": " plante",
  "9549": " planted",
  "9550": " planta",
  "9551": " plantai",
  "9552": " plantain",
  "9553": " plans",
  "9554": " plann",
  "9555": " planni",
  "9556": " plannin",
  "9557": " planning",
  "9558": " planne",
  "9559": " planner",
  "9560": " planned",
  "9561": " plank",
  "9562": " plankt",
  "9563": " plankto",
  "9564": " plankton",
  "9565": " planks",
  "9566": " plane",
  "9567": " planet",
  "9568": " planets",
  "9569": " planeta",
  "9570": " planetar",
  "9571": " planetari",
  "9572": " planetariu",
  "9573": " planetarium",
  "9574": " planes",
  "9575": " planed",
  "9576": " pla",
  "9577": " play",
  "9578": " playth",
  "9579": " playthi",
  "9580": " playthin",
  "9581": " plaything",
  "9582": " playthings",
  "9583": " playt",
  "9584": " playti",
  "9585": " playtim",
  "9586": " playtime",
  "9587": " playtimes",
  "9588": " plays",
  "9589": " playse",
  "9590": " playset",
  "9591": " playr",
  "9592": " playro",
  "9593": " playroo",
  "9594": " playroom",
  "9595": " playm",
  "9596": " playma",
  "9597": " playmat",
  "9598": " playmate",
  "9599": " playmates",
  "9600": " playin",
  "9601": " playing",
  "9602": " playh",
  "9603": " playhou",
  "9604": " playhous",
  "9605": " playhouse",
  "9606": " playg",
  "9607": " playgr",
  "9608": " playgrou",
  "9609": " playgroup",
  "9610": " playground",
  "9611": " playf",
  "9612": " playfu",
  "9613": " playful",
  "9614": " playfull",
  "9615": " playfully",
  "9616": " player",
  "9617": " players",
  "9618": " played",
  "9619": " playd",
  "9620": " playdou",
  "9621": " playdoug",
  "9622": " playdough",
  "9623": " playda",
  "9624": " playdat",
  "9625": " playdate",
  "9626": " playdates",
  "9627": " plat",
  "9628": " platy",
  "9629": " platyp",
  "9630": " platypu",
  "9631": " platypus",
  "9632": " platf",
  "9633": " platfo",
  "9634": " platfor",
  "9635": " platform",
  "9636": " plate",
  "9637": " plates",
  "9638": " plain",
  "9639": " plai",
  "9640": " plaid",
  "9641": " plac",
  "9642": " placin",
  "9643": " placing",
  "9644": " placed",
  "9645": " place",
  "9646": " places",
  "9647": " pit",
  "9648": " pity",
  "9649": " pitt",
  "9650": " pitter",
  "9651": " pits",
  "9652": " pitc",
  "9653": " pitche",
  "9654": " pitches",
  "9655": " pitcher",
  "9656": " pitched",
  "9657": " pitch",
  "9658": " pitchf",
  "9659": " pitchfo",
  "9660": " pitchfor",
  "9661": " pitchfork",
  "9662": " pin",
  "9663": " pins",
  "9664": " pinn",
  "9665": " pinned",
  "9666": " pink",
  "9667": " pinky",
  "9668": " pinks",
  "9669": " pinkl",
  "9670": " pinkle",
  "9671": " pinki",
  "9672": " pine",
  "9673": " pines",
  "9674": " pinec",
  "9675": " pineco",
  "9676": " pinecon",
  "9677": " pinecone",
  "9678": " pinecones",
  "9679": " pinea",
  "9680": " pineap",
  "9681": " pineapp",
  "9682": " pineappl",
  "9683": " pineapple",
  "9684": " pinc",
  "9685": " pinche",
  "9686": " pinches",
  "9687": " pincher",
  "9688": " pinchers",
  "9689": " pinched",
  "9690": " pinch",
  "9691": " pinchy",
  "9692": " pina",
  "9693": " pinat",
  "9694": " pinata",
  "9695": " pi",
  "9696": " pi�",
  "9697": " piñ",
  "9698": " piña",
  "9699": " piñat",
  "9700": " piñata",
  "9701": " piz",
  "9702": " pizz",
  "9703": " pizzas",
  "9704": " pizza",
  "9705": " pix",
  "9706": " pixi",
  "9707": " pixie",
  "9708": " pis",
  "9709": " pisto",
  "9710": " pistol",
  "9711": " pistols",
  "9712": " pir",
  "9713": " pirou",
  "9714": " piroue",
  "9715": " pirouet",
  "9716": " pirouett",
[...]
