{
  "0": "\u0000",
  "1": "\u0001",
  "2": "\u0002",
  "3": "\u0003",
  "4": "\u0004",
  "5": "\u0005",
  "6": "\u0006",
  "7": "\u0007",
  "8": "\b",
  "9": "\t",
  "10": "\n",
  "11": "\u000b",
  "12": "\f",
  "13": "\r",
  "14": "\u000e",
  "15": "\u000f",
  "16": "\u0010",
  "17": "\u0011",
  "18": "\u0012",
  "19": "\u0013",
  "20": "\u0014",
  "21": "\u0015",
  "22": "\u0016",
  "23": "\u0017",
  "24": "\u0018",
  "25": "\u0019",
  "26": "\u001a",
  "27": "\u001b",
  "28": "\u001c",
  "29": "\u001d",
  "30": "\u001e",
  "31": "\u001f",
  "32": " ",
  "33": "!",
  "34": "\"",
  "35": "#",
  "36": "$",
  "37": "%",
  "38": "&",
  "39": "'",
  "40": "(",
  "41": ")",
  "42": "*",
  "43": "+",
  "44": ",",
  "45": "-",
  "46": ".",
  "47": "/",
  "48": "0",
  "49": "1",
  "50": "2",
  "51": "3",
  "52": "4",
  "53": "5",
  "54": "6",
  "55": "7",
  "56": "8",
  "57": "9",
  "58": ":",
  "59": ";",
  "60": "<",
  "61": "=",
  "62": ">",
  "63": "?",
  "64": "@",
  "65": "A",
  "66": "B",
  "67": "C",
  "68": "D",
  "69": "E",
  "70": "F",
  "71": "G",
  "72": "H",
  "73": "I",
  "74": "J",
  "75": "K",
  "76": "L",
  "77": "M",
  "78": "N",
  "79": "O",
  "80": "P",
  "81": "Q",
  "82": "R",
  "83": "S",
  "84": "T",
  "85": "U",
  "86": "V",
  "87": "W",
  "88": "X",
  "89": "Y",
  "90": "Z",
  "91": "[",
  "92": "\\",
  "93": "]",
  "94": "^",
  "95": "_",
  "96": "`",
  "97": "a",
  "98": "b",
  "99": "c",
  "100": "d",
  "101": "e",
  "102": "f",
  "103": "g",
  "104": "h",
  "105": "i",
  "106": "j",
  "107": "k",
  "108": "l",
  "109": "m",
  "110": "n",
  "111": "o",
  "112": "p",
  "113": "q",
  "114": "r",
  "115": "s",
  "116": "t",
  "117": "u",
  "118": "v",
  "119": "w",
  "120": "x",
  "121": "y",
  "122": "z",
  "123": "{",
  "124": "|",
  "125": "}",
  "126": "~",
  "127": "",
  "128": "�",
  "129": "�",
  "130": "�",
  "131": "�",
  "132": "�",
  "133": "�",
  "134": "�",
  "135": "�",
  "136": "�",
  "137": "�",
  "138": "�",
  "139": "�",
  "140": "�",
  "141": "�",
  "142": "�",
  "143": "�",
  "144": "�",
  "145": "�",
  "146": "�",
  "147": "�",
  "148": "�",
  "149": "�",
  "150": "�",
  "151": "�",
  "152": "�",
  "153": "�",
  "154": "�",
  "155": "�",
  "156": "�",
  "157": "�",
  "158": "�",
  "159": "�",
  "160": "�",
  "161": "�",
  "162": "�",
  "163": "�",
  "164": "�",
  "165": "�",
  "166": "�",
  "167": "�",
  "168": "�",
  "169": "�",
  "170": "�",
  "171": "�",
  "172": "�",
  "173": "�",
  "174": "�",
  "175": "�",
  "176": "�",
  "177": "�",
  "178": "�",
  "179": "�",
  "180": "�",
  "181": "�",
  "182": "�",
  "183": "�",
  "184": "�",
  "185": "�",
  "186": "�",
  "187": "�",
  "188": "�",
  "189": "�",
  "190": "�",
  "191": "�",
  "192": "�",
  "193": "�",
  "194": "�",
  "195": "�",
  "196": "�",
  "197": "�",
  "198": "�",
  "199": "�",
  "200": "�",
  "201": "�",
  "202": "�",
  "203": "�",
  "204": "�",
  "205": "�",
  "206": "�",
  "207": "�",
  "208": "�",
  "209": "�",
  "210": "�",
  "211": "�",
  "212": "�",
  "213": "�",
  "214": "�",
  "215": "�",
  "216": "�",
  "217": "�",
  "218": "�",
  "219": "�",
  "220": "�",
  "221": "�",
  "222": "�",
  "223": "�",
  "224": "�",
  "225": "�",
  "226": "�",
  "227": "�",
  "228": "�",
  "229": "�",
  "230": "�",
  "231": "�",
  "232": "�",
  "233": "�",
  "234": "�",
  "235": "�",
  "236": "�",
  "237": "�",
  "238": "�",
  "239": "�",
  "240": "�",
  "241": "�",
  "242": "�",
  "243": "�",
  "244": "�",
  "245": "�",
  "246": "�",
  "247": "�",
  "248": "�",
  "249": "�",
  "250": "�",
  "251": "�",
  "252": "�",
  "253": "�",
  "254": "�",
  "255": "�",
  "256": "<|endoftext|>",
  "257": "<pad>",
  "258": "<unk>",
  "259": " t",
  "260": "he",
  "261": " a",
  "262": "th",
  "263": " s",
  "264": "an",
  "265": " w",
  "266": "nd",
  "267": " h",
  "268": "ed",
  "269": "to",
  "270": "er",
  "271": " b",
  "272": "in",
  "273": "wa",
  "274": "re",
  "275": " f",
  "276": " T",
  "277": "it",
  "278": "ou",
  "279": "as",
  "280": "ha",
  "281": " l",
  "282": " i",
  "283": " d",
  "284": "Th",
  "285": "en",
  "286": " c",
  "287": " p",
  "288": "ar",
  "289": "ay",
  "290": " m",
  "291": "me",
  "292": "ve",
  "293": "om",
  "294": "at",
  "295": " o",
  "296": "le",
  "297": "hi",
  "298": "sa",
  "299": "is",
  "300": "ne",
  "301": "ng",
  "302": "on",
  "303": " n",
  "304": "ey",
  "305": "im",
  "306": "te",
  "307": "ll",
  "308": "id",
  "309": "al",
  "310": "ke",
  "311": "or",
  "312": "ca",
  "313": "st",
  "314": " g",
  "315": "ea",
  "316": "oo",
  "317": " S",
  "318": "la",
  "319": "nt",
  "320": "li",
  "321": "lo",
  "322": "ot",
  "323": "il",
  "324": "ad",
  "325": "ai",
  "326": "un",
  "327": "ri",
  "328": "ut",
  "329": "wi",
  "330": "et",
  "331": "sh",
  "332": "am",
  "333": "ir",
  "334": "pl",
  "335": "el",
  "336": "bi",
  "337": "se",
  "338": "ro",
  "339": "we",
  "340": "de",
  "341": "be",
  "342": "es",
  "343": " r",
  "344": "ry",
  "345": "He",
  "346": " H",
  "347": "da",
  "348": "ma",
  "349": "ho",
  "350": "ly",
  "351": "ig",
  "352": "ee",
  "353": "ie",
  "354": "ow",
  "355": "no",
  "356": "ti",
  "357": "so",
  "358": " \"",
  "359": "mo",
  "360": "fo",
  "361": "Ti",
  "362": " u",
  "363": "fr",
  "364": "ce",
  "365": "pp",
  "366": "On",
  "367": "ra",
  "368": " y",
  "369": "pe",
  "370": "ap",
  "371": "tt",
  "372": "bo",
  "373": "ld",
  "374": " e",
  "375": "Sh",
  "376": "ul",
  "377": "do",
  "378": "ck",
  "379": "yo",
  "380": " I",
  "381": "co",
  "382": "ge",
  "383": "ch",
  "384": "tr",
  "385": "po",
  "386": "us",
  "387": "aw",
  "388": "ok",
  "389": "ta",
  "390": "rd",
  "391": "ac",
  "392": "na",
  "393": "ba",
  "394": "ur",
  "395": "gh",
  "396": "up",
  "397": "og",
  "398": " v",
  "399": "of",
  "400": "bu",
  "401": "ic",
  "402": " L",
  "403": "oy",
  "404": "ug",
  "405": "go",
  "406": "fu",
  "407": "ol",
  "408": "py",
  "409": "Li",
  "410": "nc",
  "411": "wh",
  "412": "di",
  "413": " B",
  "414": "av",
  "415": " k",
  "416": "ec",
  "417": " M",
  "418": "To",
  "419": "'s",
  "420": "wo",
  "421": "mi",
  "422": "ak",
  "423": "fe",
  "424": "pa",
  "425": "fi",
  "426": "rt",
  "427": "si",
  "428": ".\"",
  "429": "gi",
  "430": "ov",
  "431": "ny",
  "432": "ew",
  "433": "ye",
  "434": "sm",
  "435": "op",
  "436": "ik",
  "437": "It",
  "438": "ga",
  "439": "pi",
  "440": "!\"",
  "441": "ki",
  "442": "em",
  "443": "gr",
  "444": "ts",
  "445": "uc",
  "446": "my",
  "447": "ue",
  "448": "ag",
  "449": "pr",
  "450": "od",
  "451": "ys",
  "452": "ev",
  "453": "rs",
  "454": "ni",
  "455": "ei",
  "456": "au",
  "457": " A",
  "458": "fa",
  "459": "sk",
  "460": "cl",
  "461": "ci",
  "462": "iv",
  "463": "Sa",
  "464": "su",
  "465": " j",
  "466": "Su",
  "467": "Ma",
  "468": "fl",
  "469": "ab",
  "470": "Bu",
  "471": "pu",
  "472": "bl",
  "473": "rr",
  "474": "nk",
  "475": "ss",
  "476": "rn",
  "477": "nn",
  "478": "ns",
  "479": "br",
  "480": "ex",
  "481": "ru",
  "482": "?\"",
  "483": "wn",
  "484": "tu",
  "485": "ud",
  "486": "ia",
  "487": "kn",
  "488": "sp",
  "489": "Be",
  "490": "um",
  "491": "sc",
  "492": "'t",
  "493": "ty",
  "494": "ax",
  "495": "cr",
  "496": "os",
  "497": "ep",
  "498": "lt",
  "499": "gs",
  "500": " O",
  "501": "hu",
  "502": "Wh",
  "503": "mp",
  "504": "yi",
  "505": "dr",
  "506": "oc",
  "507": "oi",
  "508": "mm",
  "509": "ls",
  "510": "if",
  "511": "ft",
  "512": "dd",
  "513": "An",
  "514": "ju",
  "515": "Yo",
  "516": " W",
  "517": "ob",
  "518": "ef",
  "519": "Mo",
  "520": "mu",
  "521": "Mi",
  "522": "ui",
  "523": "lu",
  "524": "Sp",
  "525": "af",
  "526": "ox",
  "527": "io",
  "528": "ff",
  "529": "cy",
  "530": "oa",
  "531": "So",
  "532": "rm",
  "533": " F",
  "534": "gg",
  "535": " J",
  "536": "sw",
  "537": "mb",
  "538": "vi",
  "539": " Y",
  "540": "Lu",
  "541": "by",
  "542": "qu",
  "543": "sl",
  "544": ",\"",
  "545": "Bo",
  "546": "Hi",
  "547": "cu",
  "548": "We",
  "549": "ky",
  "550": "Le",
  "551": "jo",
  "552": " D",
  "553": "bb",
  "554": "eo",
  "555": "xc",
  "556": "�",
  "557": "xp",
  "558": "ip",
  "559": "rf",
  "560": "hr",
  "561": "No",
  "562": "gl",
  "563": "Do",
  "564": "Ye",
  "565": " E",
  "566": "Ca",
  "567": "hy",
  "568": "Fr",
  "569": "Am",
  "570": "sn",
  "571": "As",
  "572": " C",
  "573": "oe",
  "574": "Ja",
  "575": "vo",
  "576": "ze",
  "577": "eg",
  "578": "lf",
  "579": "tw",
  "580": "In",
  "581": "Ev",
  "582": "rg",
  "583": "ub",
  "584": " q",
  "585": "iz",
  "586": "wl",
  "587": "Da",
  "588": "ya",
  "589": "gu",
  "590": "Ki",
  "591": "ix",
  "592": "'m",
  "593": "rc",
  "594": "uf",
  "595": " K",
  "596": "Jo",
  "597": "du",
  "598": "Fi",
  "599": "az",
  "600": "ps",
  "601": " P",
  "602": "wr",
  "603": " N",
  "604": "At",
  "605": "yu",
  "606": "Lo",
  "607": "ph",
  "608": "ua",
  "609": "Fl",
  "610": "eh",
  "611": " R",
  "612": "zz",
  "613": "Wo",
  "614": "va",
  "615": "Al",
  "616": " �",
  "617": " G",
  "618": "dv",
  "619": "Bi",
  "620": " z",
  "621": "oh",
  "622": "je",
  "623": "nj",
  "624": "zi",
  "625": "zy",
  "626": "eb",
  "627": "dm",
  "628": "Mr",
  "629": "ja",
  "630": "��",
  "631": "Ju",
  "632": "Ji",
  "633": "dg",
  "634": "Re",
  "635": "ek",
  "636": "cc",
  "637": "Je",
  "638": "ah",
  "639": "\".",
  "640": "Go",
  "641": "Ok",
  "642": "zo",
  "643": "Co",
  "644": "uz",
  "645": "Gr",
  "646": "vy",
  "647": "Wi",
  "648": "Oh",
  "649": "nf",
  "650": "Pl",
  "651": "Ho",
  "652": "Ch",
  "653": "lv",
  "654": "Em",
  "655": "Pe",
  "656": "Ro",
  "657": "St",
  "658": "OK",
  "659": "mf",
  "660": "Mu",
  "661": "!�",
  "662": "My",
  "663": " Z",
  "664": "Bl",
  "665": " -",
  "666": "El",
  "667": "La",
  "668": "Pa",
  "669": "If",
  "670": "pf",
  "671": "Gi",
  "672": "Ha",
  "673": "Of",
  "674": "Pi",
  "675": "Po",
  "676": "Wa",
  "677": "Du",
  "678": "Ar",
  "679": "Tr",
  "680": "Br",
  "681": "Zo",
  "682": "Me",
  "683": "TV",
  "684": "Te",
  "685": "Di",
  "686": "Ba",
  "687": "Fo",
  "688": "Ne",
  "689": "Ra",
  "690": "Zi",
  "691": "Un",
  "692": " 3",
  "693": "Se",
  "694": "Tw",
  "695": "yg",
  "696": " U",
  "697": "ae",
  "698": "Ou",
  "699": " '",
  "700": "Ow",
  "701": "Sn",
  "702": "By",
  "703": "Ka",
  "704": "Yu",
  "705": "Is",
  "706": "Cl",
  "707": "eq",
  "708": "ku",
  "709": "Ru",
  "710": "Ge",
  "711": "Tu",
  "712": "yl",
  "713": "En",
  "714": "xy",
  "715": "'d",
  "716": "Or",
  "717": "hm",
  "718": "Si",
  "719": "Ri",
  "720": "\",",
  "721": "bj",
  "722": "Qu",
  "723": "Pu",
  "724": "Ab",
  "725": "Ta",
  "726": "Ya",
  "727": "Ea",
  "728": "Pr",
  "729": "Sk",
  "730": "Sl",
  "731": "De",
  "732": "Ke",
  "733": "..",
  "734": " V",
  "735": "Ni",
  "736": "Sm",
  "737": "Za",
  "738": " Q",
  "739": "Fa",
  "740": " x",
  "741": "Na",
  "742": "Dr",
  "743": "Cr",
  "744": "yd",
  "745": "\n ",
  "746": "Ve",
  "747": "Au",
  "748": "'.",
  "749": "Ac",
  "750": "Cu",
  "751": "Ex",
  "752": "Ci",
  "753": "Ad",
  "754": "!'",
  "755": "Hu",
  "756": "Gu",
  "757": "Fu",
  "758": "hh",
  "759": "Av",
  "760": "Mm",
  "761": ".'",
  "762": "Vi",
  "763": "aa",
  "764": " X",
  "765": "Oo",
  "766": "Ga",
  "767": "Ah",
  "768": "Sw",
  "769": "Fe",
  "770": "Ot",
  "771": " 1",
  "772": "Uh",
  "773": " \n",
  "774": "Sc",
  "775": "Ew",
  "776": "  ",
  "777": "?'",
  "778": "Op",
  "779": "yn",
  "780": "?!",
  "781": "Up",
  "782": "Gl",
  "783": "Ed",
  "784": "Er",
  "785": "Ce",
  "786": "'\"",
  "787": "Im",
  "788": "Us",
  "789": "--",
  "790": "Ry",
  "791": "10",
  "792": "''",
  "793": "Kn",
  "794": "Ty",
  "795": "Ag",
  "796": " 2",
  "797": "Ox",
  "798": "Wr",
  "799": "',",
  "800": "Ov",
  "801": "Hm",
  "802": " 5",
  "803": "OO",
  "804": "ww",
  "805": "��",
  "806": "Ly",
  "807": ",'",
  "808": "Yi",
  "809": "Gw",
  "810": "'!",
  "811": "Eg",
  "812": "Ig",
  "813": " 4",
  "814": "Sy",
  "815": "Aw",
  "816": "Rh",
  "817": "\"!",
  "818": "OM",
  "819": " 9",
  "820": "uh",
  "821": "TH",
  "822": "ej",
  "823": "HE",
  "824": "Et",
  "825": "11",
  "826": "OP",
  "827": "Ms",
  "828": "20",
  "829": "00",
  "830": "Oc",
  "831": "Um",
  "832": "PO",
  "833": "NO",
  "834": "!,",
  "835": "Ky",
  "836": "AR",
  "837": "AS",
  "838": "!!",
  "839": ":\"",
  "840": "NG",
  "841": "EE",
  "842": " `",
  "843": "LA",
  "844": "AN",
  "845": "CR",
  "846": "RO",
  "847": "Ob",
  "848": "50",
  "849": " $",
  "850": "SP",
  "851": "!?",
  "852": " .",
  "853": "Es",
  "854": "BA",
  "855": " 8",
  "856": "CK",
  "857": "AP",
  "858": "AC",
  "859": "``",
  "860": "ST",
  "861": "SN",
  "862": "\"'",
  "863": "��",
  "864": "â",
  "865": "RE",
  "866": "OU",
  "867": "ON",
  "868": "IN",
  "869": "GO",
  "870": "ER",
  "871": "AT",
  "872": "AA",
  "873": " ,",
  "874": "ZZ",
  "875": "Rr",
  "876": "HO",
  "877": ".`",
  "878": " (",
  "879": " !",
  "880": "Ps",
  "881": "EA",
  "882": "Yv",
  "883": "XI",
  "884": "OW",
  "885": "MA",
  "886": "HA",
  "887": "ES",
  "888": ".,",
  "889": " 6",
  "890": " &",
  "891": "RR",
  "892": "ME",
  "893": " 7",
  "894": "__",
  "895": "QU",
  "896": "IS",
  "897": "IC",
  "898": "HI",
  "899": "EN",
  "900": "\"?",
  "901": "!.",
  "902": "œ",
  "903": "VE",
  "904": "UN",
  "905": "MM",
  "906": "LO",
  "907": "LI",
  "908": "EL",
  "909": "AY",
  "910": "?`",
  "911": "99",
  "912": " ",
  "913": "yy",
  "914": "`,",
  "915": "UG",
  "916": "OH",
  "917": "OF",
  "918": "JJ",
  "919": "%,",
  "920": "���",
  "921": "���",
  "922": "��™",
  "923": "���",
  "924": "��’",
  "925": "���",
  "926": "��”",
  "927": "   ",
  "928": "    ",
  "929": " \n ",
  "930": " \n \n",
  "931": " �",
  "932": " ‘",
  "933": " ‘�",
  "934": " ‘’",
  "935": " „",
  "936": " ”",
  "937": " “",
  "938": " —",
  "939": " –",
  "940": " …",
  "941": " zzz",
  "942": " zuc",
  "943": " zucch",
  "944": " zucchin",
  "945": " zucchini",
  "946": " zoo",
  "947": " zoos",
  "948": " zooke",
  "949": " zookee",
  "950": " zookeep",
  "951": " zookeeper",
  "952": " zookeepers",
  "953": " zo",
  "954": " zoom",
  "955": " zooms",
  "956": " zoomin",
  "957": " zooming",
  "958": " zoomed",
  "959": " zone",
  "960": " zip",
  "961": " zips",
  "962": " zig",
  "963": " zigz",
  "964": " zigza",
  "965": " zigzag",
  "966": " zigzags",
  "967": " zigzagg",
  "968": " zigzaggin",
  "969": " zigzagging",
  "970": " zigzagged",
  "971": " zi",
  "972": " zipp",
  "973": " zippy",
  "974": " zippin",
  "975": " zipping",
  "976": " zipper",
  "977": " zippers",
  "978": " zipped",
  "979": " zer",
  "980": " zero",
  "981": " zeros",
  "982": " zee",
  "983": " ze",
  "984": " zebr",
  "985": " zebras",
  "986": " zeb",
  "987": " zebra",
  "988": " zap",
  "989": " zag",
  "990": " zagg",
  "991": " zaggin",
  "992": " zagging",
  "993": " zagged",
  "994": " za",
  "995": " zapp",
  "996": " zapped",
  "997": " yu",
  "998": " yum",
  "999": " yumm",
  "1000": " yummy",
  "1001": " yummie",
  "1002": " yummiest",
  "1003": " yummi",
  "1004": " yummier",
  "1005": " yuc",
  "1006": " yuck",
  "1007": " yucky",
  "1008": " yow",
  "1009": " yowl",
  "1010": " yowls",
  "1011": " yowled",
  "1012": " you",
  "1013": " youth",
  "1014": " youths",
  "1015": " youthf",
  "1016": " youthfu",
  "1017": " youthful",
  "1018": " your",
  "1019": " yours",
  "1020": " yourse",
  "1021": " yoursel",
  "1022": " yourselv",
  "1023": " yourselve",
  "1024": " yourselves",
  "1025": " yourself",
  "1026": " youn",
  "1027": " young",
  "1028": " youngs",
  "1029": " youngst",
  "1030": " youngster",
  "1031": " youngsters",
  "1032": " younger",
  "1033": " younge",
  "1034": " younges",
  "1035": " youngest",
  "1036": " yo",
  "1037": " yol",
  "1038": " yolk",
  "1039": " yog",
  "1040": " yogu",
  "1041": " yogur",
  "1042": " yogurt",
  "1043": " yogurts",
  "1044": " yoga",
  "1045": " yi",
  "1046": " yipp",
  "1047": " yipped",
  "1048": " yip",
  "1049": " yiel",
  "1050": " yield",
  "1051": " yields",
  "1052": " yieldin",
  "1053": " yielding",
  "1054": " yielded",
  "1055": " yet",
  "1056": " yeti",
  "1057": " yes",
  "1058": " yer",
  "1059": " yel",
  "1060": " yelp",
  "1061": " yelps",
  "1062": " yelpin",
  "1063": " yelping",
  "1064": " yelped",
  "1065": " yea",
  "1066": " yeah",
  "1067": " ye",
  "1068": " yest",
  "1069": " yester",
  "1070": " yesterd",
  "1071": " yesterda",
  "1072": " yesterday",
  "1073": " yell",
  "1074": " yells",
  "1075": " yello",
  "1076": " yellow",
  "1077": " yellows",
  "1078": " yellowis",
  "1079": " yellowish",
  "1080": " yellowe",
  "1081": " yellowes",
  "1082": " yellowest",
  "1083": " yellin",
  "1084": " yelling",
  "1085": " yelled",
  "1086": " yeas",
  "1087": " yeast",
  "1088": " year",
  "1089": " years",
  "1090": " yearn",
  "1091": " yearnin",
  "1092": " yearning",
  "1093": " yearned",
  "1094": " yay",
  "1095": " yar",
  "1096": " yarn",
  "1097": " yarns",
  "1098": " yard",
  "1099": " yards",
  "1100": " yan",
  "1101": " yank",
  "1102": " yanke",
  "1103": " yanked",
  "1104": " ya",
  "1105": " yaw",
  "1106": " yawn",
  "1107": " yawns",
  "1108": " yawnin",
  "1109": " yawning",
  "1110": " yawned",
  "1111": " yapp",
  "1112": " yapped",
  "1113": " yac",
  "1114": " yach",
  "1115": " yacht",
  "1116": " yachts",
  "1117": " xy",
  "1118": " xylo",
  "1119": " xylop",
  "1120": " xyloph",
  "1121": " xylopho",
  "1122": " xylophone",
  "1123": " wr",
  "1124": " wru",
  "1125": " wrun",
  "1126": " wrung",
  "1127": " wro",
  "1128": " wrot",
  "1129": " wrote",
  "1130": " wron",
  "1131": " wrong",
  "1132": " wri",
  "1133": " writ",
  "1134": " writt",
  "1135": " writte",
  "1136": " written",
  "1137": " writi",
  "1138": " writin",
  "1139": " writing",
  "1140": " writings",
  "1141": " write",
  "1142": " writes",
  "1143": " writer",
  "1144": " wris",
  "1145": " wrist",
  "1146": " wrists",
  "1147": " wristb",
  "1148": " wristban",
  "1149": " wristband",
  "1150": " wrin",
  "1151": " wrink",
  "1152": " wrinkl",
  "1153": " wrinkly",
  "1154": " wrinkli",
  "1155": " wrinklin",
  "1156": " wrinkling",
  "1157": " wrinkle",
  "1158": " wrinkles",
  "1159": " wrinkled",
  "1160": " wrig",
  "1161": " wrigg",
  "1162": " wriggl",
  "1163": " wriggly",
  "1164": " wriggli",
  "1165": " wrigglin",
  "1166": " wriggling",
  "1167": " wriggle",
  "1168": " wriggles",
  "1169": " wriggled",
  "1170": " wre",
  "1171": " wres",
  "1172": " wrest",
  "1173": " wrestl",
  "1174": " wrestle",
  "1175": " wren",
  "1176": " wrenc",
  "1177": " wrench",
  "1178": " wrec",
  "1179": " wreck",
  "1180": " wrecks",
  "1181": " wrecke",
  "1182": " wrecked",
  "1183": " wrea",
  "1184": " wreath",
  "1185": " wra",
  "1186": " wrap",
  "1187": " wraps",
  "1188": " wrapp",
  "1189": " wrappi",
  "1190": " wrappin",
  "1191": " wrapping",
  "1192": " wrappings",
  "1193": " wrappe",
  "1194": " wrapper",
  "1195": " wrappers",
  "1196": " wrapped",
  "1197": " wo",
  "1198": " wow",
  "1199": " wov",
  "1200": " wove",
  "1201": " wou",
  "1202": " woun",
  "1203": " wound",
  "1204": " wounds",
  "1205": " wounde",
  "1206": " wounded",
  "1207": " woul",
  "1208": " would",
  "1209": " wouldn",
  "1210": " wor",
  "1211": " worth",
  "1212": " worthy",
  "1213": " worthw",
  "1214": " worthwh",
  "1215": " worthwhi",
  "1216": " worthwhil",
  "1217": " worthwhile",
  "1218": " worthl",
  "1219": " worthle",
  "1220": " worthles",
  "1221": " worthless",
  "1222": " wors",
  "1223": " worst",
  "1224": " worsh",
  "1225": " worshi",
  "1226": " worship",
  "1227": " worse",
  "1228": " worr",
  "1229": " worry",
  "1230": " worryi",
  "1231": " worryin",
  "1232": " worrying",
  "1233": " worri",
  "1234": " worrie",
  "1235": " worries",
  "1236": " worrier",
  "1237": " worried",
  "1238": " worriedl",
  "1239": " worriedly",
  "1240": " worn",
  "1241": " worm",
  "1242": " wormy",
  "1243": " worms",
  "1244": " worl",
  "1245": " world",
  "1246": " worlds",
  "1247": " work",
  "1248": " works",
  "1249": " worksp",
  "1250": " workspa",
  "1251": " workspac",
  "1252": " workspace",
  "1253": " workshe",
  "1254": " workshee",
  "1255": " worksheet",
  "1256": " worksh",
  "1257": " worksho",
  "1258": " workshop",
  "1259": " worki",
  "1260": " workin",
  "1261": " working",
  "1262": " worke",
  "1263": " worker",
  "1264": " workers",
  "1265": " worked",
  "1266": " workb",
  "1267": " workbe",
  "1268": " workben",
  "1269": " workbenc",
  "1270": " workbench",
  "1271": " wore",
  "1272": " word",
  "1273": " words",
  "1274": " woo",
  "1275": " wooz",
  "1276": " woozy",
  "1277": " wool",
  "1278": " wooll",
  "1279": " woolly",
  "1280": " woof",
  "1281": " wood",
  "1282": " woodw",
  "1283": " woodwo",
  "1284": " woodwor",
  "1285": " woodwork",
  "1286": " woodworke",
  "1287": " woodworker",
  "1288": " woods",
  "1289": " woodsm",
  "1290": " woodsman",
  "1291": " woodp",
  "1292": " woodpi",
  "1293": " woodpil",
  "1294": " woodpile",
  "1295": " woodpe",
  "1296": " woodpec",
  "1297": " woodpeck",
  "1298": " woodpecke",
  "1299": " woodpecker",
  "1300": " woodl",
  "1301": " woodlan",
  "1302": " woodland",
  "1303": " woodlands",
  "1304": " woode",
  "1305": " wooden",
  "1306": " woodc",
  "1307": " woodcu",
  "1308": " woodcut",
  "1309": " woodcutt",
  "1310": " woodcutte",
  "1311": " woodcutter",
  "1312": " won",
  "1313": " wond",
  "1314": " wondr",
  "1315": " wondro",
  "1316": " wondrou",
  "1317": " wondrous",
  "1318": " wonde",
  "1319": " wonder",
  "1320": " wonders",
  "1321": " wonderm",
  "1322": " wonderme",
  "1323": " wondermen",
  "1324": " wonderment",
  "1325": " wonderl",
  "1326": " wonderlan",
  "1327": " wonderland",
  "1328": " wonderi",
  "1329": " wonderin",
  "1330": " wondering",
  "1331": " wonderf",
  "1332": " wonderfu",
  "1333": " wonderful",
  "1334": " wonderfull",
  "1335": " wonderfully",
  "1336": " wondere",
  "1337": " wondered",
  "1338": " wom",
  "1339": " wome",
  "1340": " women",
  "1341": " woman",
  "1342": " wol",
  "1343": " wolv",
  "1344": " wolve",
  "1345": " wolves",
  "1346": " wolf",
  "1347": " wolfe",
  "1348": " wolfed",
  "1349": " wok",
  "1350": " woke",
  "1351": " woken",
  "1352": " wob",
  "1353": " wobb",
  "1354": " wobbl",
  "1355": " wobbly",
  "1356": " wobbli",
  "1357": " wobblin",
  "1358": " wobbling",
  "1359": " wobble",
  "1360": " wobbles",
  "1361": " wobbled",
  "1362": " wi",
  "1363": " wiz",
  "1364": " wiza",
  "1365": " wizar",
  "1366": " wizard",
  "1367": " wizards",
  "1368": " wiv",
  "1369": " wive",
  "1370": " wives",
  "1371": " with",
  "1372": " witho",
  "1373": " withou",
  "1374": " without",
  "1375": " withi",
  "1376": " within",
  "1377": " wit",
  "1378": " wits",
  "1379": " witn",
  "1380": " witne",
  "1381": " witnes",
  "1382": " witness",
  "1383": " witnessi",
  "1384": " witnessin",
  "1385": " witnessing",
  "1386": " witnesse",
  "1387": " witnessed",
  "1388": " withe",
  "1389": " wither",
  "1390": " withere",
  "1391": " withered",
  "1392": " witc",
  "1393": " witche",
  "1394": " witches",
  "1395": " witch",
  "1396": " wis",
  "1397": " wisp",
  "1398": " wishe",
  "1399": " wishes",
  "1400": " wished",
  "1401": " wish",
  "1402": " wishi",
  "1403": " wishin",
  "1404": " wishing",
  "1405": " wise",
  "1406": " wises",
  "1407": " wisest",
  "1408": " wiser",
  "1409": " wisel",
  "1410": " wisely",
  "1411": " wisd",
  "1412": " wisdo",
  "1413": " wisdom",
  "1414": " wir",
  "1415": " wire",
  "1416": " wires",
  "1417": " wip",
  "1418": " wipi",
  "1419": " wipin",
  "1420": " wiping",
  "1421": " wipe",
  "1422": " wipes",
  "1423": " wiper",
  "1424": " wiped",
  "1425": " win",
  "1426": " wint",
  "1427": " winte",
  "1428": " winter",
  "1429": " wintery",
  "1430": " winters",
  "1431": " winterg",
  "1432": " wintergr",
  "1433": " wintergre",
  "1434": " wintergree",
  "1435": " wintergreen",
  "1436": " wins",
  "1437": " winn",
  "1438": " winni",
  "1439": " winnin",
  "1440": " winning",
  "1441": " winnings",
  "1442": " winne",
  "1443": " winner",
  "1444": " winners",
  "1445": " wink",
  "1446": " winks",
  "1447": " winki",
  "1448": " winkin",
  "1449": " winking",
  "1450": " winke",
  "1451": " winkey",
  "1452": " winked",
  "1453": " wing",
  "1454": " wings",
  "1455": " winge",
  "1456": " winged",
  "1457": " wine",
  "1458": " wines",
  "1459": " wineb",
  "1460": " winebe",
  "1461": " wineber",
  "1462": " wineberr",
  "1463": " wineberry",
  "1464": " wind",
  "1465": " windy",
  "1466": " winds",
  "1467": " windsh",
  "1468": " windshi",
  "1469": " windshie",
  "1470": " windshiel",
  "1471": " windshield",
  "1472": " windo",
  "1473": " window",
  "1474": " windows",
  "1475": " windowsi",
  "1476": " windowsil",
  "1477": " windowsill",
  "1478": " windm",
  "1479": " windmi",
  "1480": " windmil",
  "1481": " windmill",
  "1482": " windi",
  "1483": " windin",
  "1484": " winding",
  "1485": " windie",
  "1486": " windier",
  "1487": " winc",
  "1488": " wince",
  "1489": " winced",
  "1490": " wil",
  "1491": " wilt",
  "1492": " wilti",
  "1493": " wiltin",
  "1494": " wilting",
  "1495": " wilte",
  "1496": " wilted",
  "1497": " will",
  "1498": " willo",
  "1499": " willow",
  "1500": " willi",
  "1501": " willin",
  "1502": " willing",
  "1503": " willingn",
  "1504": " willingne",
  "1505": " willingnes",
  "1506": " willingness",
  "1507": " wild",
  "1508": " wilds",
  "1509": " wildl",
  "1510": " wildly",
  "1511": " wildli",
  "1512": " wildlif",
  "1513": " wildlife",
  "1514": " wildf",
  "1515": " wildfl",
  "1516": " wildflo",
  "1517": " wildflow",
  "1518": " wildflowe",
  "1519": " wildflower",
  "1520": " wildflowers",
  "1521": " wilde",
  "1522": " wildes",
  "1523": " wildest",
  "1524": " wilder",
  "1525": " wildern",
  "1526": " wilderne",
  "1527": " wildernes",
  "1528": " wilderness",
  "1529": " wig",
  "1530": " wigs",
  "1531": " wigg",
  "1532": " wiggl",
  "1533": " wiggly",
  "1534": " wiggli",
  "1535": " wigglin",
  "1536": " wiggling",
  "1537": " wiggle",
  "1538": " wiggles",
  "1539": " wiggled",
  "1540": " wif",
  "1541": " wife",
  "1542": " wid",
  "1543": " width",
  "1544": " wide",
  "1545": " wides",
  "1546": " widest",
  "1547": " wider",
  "1548": " widen",
  "1549": " wideni",
  "1550": " widenin",
  "1551": " widening",
  "1552": " widene",
  "1553": " widened",
  "1554": " widel",
  "1555": " widely",
  "1556": " wic",
  "1557": " wick",
  "1558": " wicke",
  "1559": " wicked",
  "1560": " wickedl",
  "1561": " wickedly",
  "1562": " whe",
  "1563": " wher",
  "1564": " where",
  "1565": " wherev",
  "1566": " whereve",
  "1567": " wherever",
  "1568": " wherea",
  "1569": " when",
  "1570": " whene",
  "1571": " whenev",
  "1572": " wheneve",
  "1573": " whenever",
  "1574": " whee",
  "1575": " wheez",
  "1576": " wheeze",
  "1577": " wheezed",
  "1578": " wheel",
  "1579": " wheels",
  "1580": " wheeli",
  "1581": " wheelin",
  "1582": " wheeling",
  "1583": " wheele",
  "1584": " wheeled",
  "1585": " wheelc",
  "1586": " wheelch",
  "1587": " wheelcha",
  "1588": " wheelchai",
  "1589": " wheelchair",
  "1590": " wheelb",
  "1591": " wheelba",
  "1592": " wheelbar",
  "1593": " wheelbarr",
  "1594": " wheelbarro",
  "1595": " wheelbarrow",
  "1596": " whea",
  "1597": " wheat",
  "1598": " wh",
  "1599": " why",
  "1600": " who",
  "1601": " whos",
  "1602": " whose",
  "1603": " whoo",
  "1604": " whoos",
  "1605": " whoosh",
  "1606": " whooshi",
  "1607": " whooshin",
  "1608": " whooshing",
  "1609": " whoop",
  "1610": " whoopi",
  "1611": " whoopin",
  "1612": " whooping",
  "1613": " whoope",
  "1614": " whoopee",
  "1615": " whom",
  "1616": " whol",
  "1617": " whole",
  "1618": " whoe",
  "1619": " whoev",
  "1620": " whoeve",
  "1621": " whoever",
  "1622": " whoa",
  "1623": " whi",
  "1624": " whiz",
  "1625": " whizz",
  "1626": " whizzi",
  "1627": " whizzin",
  "1628": " whizzing",
  "1629": " whizze",
  "1630": " whizzed",
  "1631": " whit",
  "1632": " whitt",
  "1633": " whittl",
  "1634": " whittle",
  "1635": " whittled",
  "1636": " white",
  "1637": " whites",
  "1638": " whiteb",
  "1639": " whitebo",
  "1640": " whiteboa",
  "1641": " whiteboar",
  "1642": " whiteboard",
  "1643": " whis",
  "1644": " whist",
  "1645": " whistl",
  "1646": " whistli",
  "1647": " whistlin",
  "1648": " whistling",
  "1649": " whistle",
  "1650": " whistles",
  "1651": " whistler",
  "1652": " whistled",
  "1653": " whisp",
  "1654": " whispe",
  "1655": " whisper",
  "1656": " whispery",
  "1657": " whispers",
  "1658": " whisperi",
  "1659": " whisperin",
  "1660": " whispering",
  "1661": " whispere",
  "1662": " whisperer",
  "1663": " whispered",
  "1664": " whisk",
  "1665": " whiske",
  "1666": " whisker",
  "1667": " whiskers",
  "1668": " whisked",
  "1669": " whir",
  "1670": " whirr",
  "1671": " whirri",
  "1672": " whirrin",
  "1673": " whirring",
  "1674": " whirre",
  "1675": " whirred",
  "1676": " whirl",
  "1677": " whirlw",
  "1678": " whirlwi",
  "1679": " whirlwin",
  "1680": " whirlwind",
  "1681": " whirli",
  "1682": " whirlin",
  "1683": " whirling",
  "1684": " whirle",
  "1685": " whirled",
  "1686": " whip",
  "1687": " whips",
  "1688": " whipp",
  "1689": " whippi",
  "1690": " whippin",
  "1691": " whipping",
  "1692": " whippe",
  "1693": " whipped",
  "1694": " whin",
  "1695": " whinn",
  "1696": " whinny",
  "1697": " whinni",
  "1698": " whinnie",
  "1699": " whinnied",
  "1700": " whini",
  "1701": " whinin",
  "1702": " whining",
  "1703": " whine",
  "1704": " whines",
  "1705": " whined",
  "1706": " whim",
  "1707": " whimp",
  "1708": " whimpe",
  "1709": " whimper",
  "1710": " whimpers",
  "1711": " whimperi",
  "1712": " whimperin",
  "1713": " whimpering",
  "1714": " whimpere",
  "1715": " whimpered",
  "1716": " whil",
  "1717": " whils",
  "1718": " whilst",
  "1719": " while",
  "1720": " whif",
  "1721": " whiff",
  "1722": " whic",
  "1723": " whiche",
  "1724": " whichev",
  "1725": " whicheve",
  "1726": " whichever",
  "1727": " which",
  "1728": " whet",
  "1729": " whethe",
  "1730": " whether",
  "1731": " wha",
  "1732": " what",
  "1733": " whate",
  "1734": " whatev",
  "1735": " whateve",
  "1736": " whatever",
  "1737": " whal",
  "1738": " whale",
  "1739": " whales",
  "1740": " whac",
  "1741": " whack",
  "1742": " we",
  "1743": " wet",
  "1744": " wett",
  "1745": " wetti",
  "1746": " wettin",
  "1747": " wetting",
  "1748": " wette",
  "1749": " wettes",
  "1750": " wettest",
  "1751": " wetter",
  "1752": " wets",
  "1753": " wetsu",
  "1754": " wetsui",
  "1755": " wetsuit",
  "1756": " wetn",
  "1757": " wetne",
  "1758": " wetnes",
  "1759": " wetness",
  "1760": " wes",
  "1761": " west",
  "1762": " wer",
  "1763": " were",
  "1764": " weren",
  "1765": " wep",
  "1766": " wept",
  "1767": " wen",
  "1768": " went",
  "1769": " wel",
  "1770": " well",
  "1771": " wells",
  "1772": " welli",
  "1773": " wellin",
  "1774": " welling",
  "1775": " wellie",
  "1776": " wellies",
  "1777": " welle",
  "1778": " welled",
  "1779": " welc",
  "1780": " welco",
  "1781": " welcom",
  "1782": " welcomi",
  "1783": " welcomin",
  "1784": " welcoming",
  "1785": " welcome",
  "1786": " welcomed",
  "1787": " wei",
  "1788": " weir",
  "1789": " weird",
  "1790": " weirde",
  "1791": " weirdes",
  "1792": " weirdest",
  "1793": " weirder",
  "1794": " weig",
  "1795": " weighe",
  "1796": " weighed",
  "1797": " weigh",
  "1798": " weight",
  "1799": " weights",
  "1800": " weightl",
  "1801": " weighs",
  "1802": " weighi",
  "1803": " weighin",
  "1804": " weighing",
  "1805": " wee",
  "1806": " weep",
  "1807": " weeps",
  "1808": " weepi",
  "1809": " weepin",
  "1810": " weeping",
  "1811": " weepe",
  "1812": " weeper",
  "1813": " weepers",
  "1814": " weeped",
  "1815": " week",
  "1816": " weeks",
  "1817": " weekl",
  "1818": " weekly",
  "1819": " weeke",
  "1820": " weeken",
  "1821": " weekend",
  "1822": " weekends",
  "1823": " weed",
  "1824": " weeds",
  "1825": " weedi",
  "1826": " weedin",
  "1827": " weeding",
  "1828": " weede",
  "1829": " weeded",
  "1830": " wed",
  "1831": " wedg",
  "1832": " wedge",
  "1833": " wedged",
  "1834": " wedd",
  "1835": " weddi",
  "1836": " weddin",
  "1837": " wedding",
  "1838": " web",
  "1839": " webs",
  "1840": " webb",
  "1841": " webbe",
  "1842": " webbed",
  "1843": " wea",
  "1844": " weav",
  "1845": " weavi",
  "1846": " weavin",
  "1847": " weaving",
  "1848": " weave",
  "1849": " weaved",
  "1850": " weat",
  "1851": " weathe",
  "1852": " weather",
  "1853": " wear",
  "1854": " weary",
  "1855": " wears",
  "1856": " weari",
  "1857": " wearin",
  "1858": " wearing",
  "1859": " weap",
  "1860": " weapo",
  "1861": " weapon",
  "1862": " weapons",
  "1863": " weal",
  "1864": " wealth",
  "1865": " wealthy",
  "1866": " wealthi",
  "1867": " wealthie",
  "1868": " wealthies",
  "1869": " wealthiest",
  "1870": " wealthier",
  "1871": " weak",
  "1872": " weakn",
  "1873": " weakne",
  "1874": " weaknes",
  "1875": " weakness",
  "1876": " weaknesse",
  "1877": " weaknesses",
  "1878": " weakl",
  "1879": " weakly",
  "1880": " weake",
  "1881": " weakes",
  "1882": " weakest",
  "1883": " weaker",
  "1884": " wan",
  "1885": " want",
  "1886": " wants",
  "1887": " wanti",
  "1888": " wantin",
  "1889": " wanting",
  "1890": " wante",
  "1891": " wanted",
  "1892": " wann",
  "1893": " wanna",
  "1894": " wand",
  "1895": " wands",
  "1896": " wande",
  "1897": " wander",
  "1898": " wanderi",
  "1899": " wanderin",
  "1900": " wandering",
  "1901": " wanderings",
  "1902": " wandere",
  "1903": " wandered",
  "1904": " wa",
  "1905": " way",
  "1906": " ways",
  "1907": " wax",
  "1908": " wav",
  "1909": " wavy",
  "1910": " wavi",
  "1911": " wavin",
  "1912": " waving",
  "1913": " wave",
  "1914": " waves",
  "1915": " waved",
  "1916": " wat",
  "1917": " wate",
  "1918": " water",
  "1919": " watery",
  "1920": " waters",
  "1921": " watersl",
  "1922": " watersli",
  "1923": " waterslid",
  "1924": " waterslide",
  "1925": " waterp",
  "1926": " waterpr",
  "1927": " waterpro",
  "1928": " waterproo",
  "1929": " waterproof",
  "1930": " waterm",
  "1931": " waterme",
  "1932": " watermel",
  "1933": " watermelo",
  "1934": " watermelon",
  "1935": " wateri",
  "1936": " waterin",
  "1937": " watering",
  "1938": " waterf",
  "1939": " waterfa",
  "1940": " waterfal",
  "1941": " waterfall",
  "1942": " waterfalls",
  "1943": " watere",
  "1944": " watered",
  "1945": " watc",
  "1946": " watche",
  "1947": " watches",
  "1948": " watcher",
  "1949": " watched",
  "1950": " watch",
  "1951": " watchm",
  "1952": " watchman",
  "1953": " watchi",
  "1954": " watchin",
  "1955": " watching",
  "1956": " watchf",
  "1957": " watchfu",
  "1958": " watchful",
  "1959": " was",
  "1960": " wast",
  "1961": " wasti",
  "1962": " wastin",
  "1963": " wasting",
  "1964": " waste",
  "1965": " wastes",
  "1966": " wastef",
  "1967": " wastefu",
  "1968": " wasteful",
  "1969": " wasted",
  "1970": " wasp",
  "1971": " wasps",
  "1972": " wasn",
  "1973": " washe",
  "1974": " washes",
  "1975": " washer",
  "1976": " washers",
  "1977": " washed",
  "1978": " wash",
  "1979": " washs",
  "1980": " washi",
  "1981": " washin",
  "1982": " washing",
  "1983": " washc",
  "1984": " washcl",
  "1985": " washclo",
  "1986": " washcloth",
  "1987": " washa",
  "1988": " washab",
  "1989": " washabl",
  "1990": " washable",
  "1991": " war",
  "1992": " wary",
  "1993": " wars",
  "1994": " warr",
  "1995": " warri",
  "1996": " warrio",
  "1997": " warrior",
  "1998": " warriors",
  "1999": " warn",
  "2000": " warns",
  "2001": " warni",
  "2002": " warnin",
  "2003": " warning",
  "2004": " warnings",
  "2005": " warne",
  "2006": " warned",
  "2007": " warm",
  "2008": " warmth",
  "2009": " warms",
  "2010": " warml",
  "2011": " warmly",
  "2012": " warmi",
  "2013": " warmin",
  "2014": " warming",
  "2015": " warme",
  "2016": " warmes",
  "2017": " warmest",
  "2018": " warmer",
  "2019": " warmed",
  "2020": " ware",
  "2021": " wares",
  "2022": " ward",
  "2023": " wardr",
  "2024": " wardro",
  "2025": " wardrob",
  "2026": " wardrobe",
  "2027": " wal",
  "2028": " walr",
  "2029": " walru",
  "2030": " walrus",
  "2031": " wall",
  "2032": " walls",
  "2033": " walle",
  "2034": " wallet",
  "2035": " wallets",
  "2036": " walk",
  "2037": " walkw",
  "2038": " walkwa",
  "2039": " walkway",
  "2040": " walks",
  "2041": " walki",
  "2042": " walkin",
  "2043": " walking",
  "2044": " walkie",
  "2045": " walke",
  "2046": " walker",
  "2047": " walked",
  "2048": " wak",
  "2049": " waki",
  "2050": " wakin",
  "2051": " waking",
  "2052": " wake",
  "2053": " wakes",
  "2054": " wai",
  "2055": " wait",
  "2056": " waits",
  "2057": " waitr",
  "2058": " waitre",
  "2059": " waitres",
  "2060": " waitress",
  "2061": " waiti",
  "2062": " waitin",
  "2063": " waiting",
  "2064": " waite",
  "2065": " waiter",
  "2066": " waiters",
  "2067": " waited",
  "2068": " wais",
  "2069": " waist",
  "2070": " waists",
  "2071": " waistc",
  "2072": " waistco",
  "2073": " waistcoa",
  "2074": " waistcoat",
  "2075": " wail",
  "2076": " waile",
  "2077": " wailed",
  "2078": " wag",
  "2079": " wags",
  "2080": " wago",
  "2081": " wagon",
  "2082": " wagons",
  "2083": " wagg",
  "2084": " waggy",
  "2085": " waggl",
  "2086": " waggle",
  "2087": " waggled",
  "2088": " waggi",
  "2089": " waggin",
  "2090": " wagging",
  "2091": " wagge",
  "2092": " wagged",
  "2093": " waf",
  "2094": " waft",
  "2095": " wafti",
  "2096": " waftin",
  "2097": " wafting",
  "2098": " wafte",
  "2099": " wafted",
  "2100": " waff",
  "2101": " waffl",
  "2102": " waffle",
  "2103": " waffles",
  "2104": " wad",
  "2105": " wade",
  "2106": " waded",
  "2107": " wadd",
  "2108": " waddl",
  "2109": " waddli",
  "2110": " waddlin",
  "2111": " waddling",
  "2112": " waddle",
  "2113": " waddles",
  "2114": " waddled",
  "2115": " waa",
  "2116": " vro",
  "2117": " vroom",
  "2118": " vow",
  "2119": " vows",
  "2120": " vowin",
  "2121": " vowing",
  "2122": " vowed",
  "2123": " vom",
  "2124": " vomit",
  "2125": " vo",
  "2126": " voy",
  "2127": " voya",
  "2128": " voyage",
  "2129": " vote",
  "2130": " vol",
  "2131": " volun",
  "2132": " volunte",
  "2133": " volunteer",
  "2134": " volunteered",
  "2135": " volu",
  "2136": " volume",
  "2137": " volta",
  "2138": " voltage",
  "2139": " volle",
  "2140": " volley",
  "2141": " volleyb",
  "2142": " volleyba",
  "2143": " volleybal",
  "2144": " volleyball",
  "2145": " volc",
  "2146": " volcan",
  "2147": " volcano",
  "2148": " volcanoe",
  "2149": " volcanoes",
  "2150": " voi",
  "2151": " voice",
  "2152": " voic",
  "2153": " voices",
  "2154": " vit",
  "2155": " vita",
  "2156": " vitam",
  "2157": " vitamin",
  "2158": " vitamins",
  "2159": " vis",
  "2160": " visit",
  "2161": " visits",
  "2162": " visitin",
  "2163": " visiting",
  "2164": " visited",
  "2165": " visi",
  "2166": " visito",
  "2167": " visitor",
  "2168": " visitors",
  "2169": " visio",
  "2170": " vision",
  "2171": " visib",
  "2172": " visible",
  "2173": " vir",
  "2174": " viru",
  "2175": " virus",
  "2176": " virt",
  "2177": " virtu",
  "2178": " virtue",
  "2179": " virtual",
  "2180": " vin",
  "2181": " vine",
  "2182": " viney",
  "2183": " vineya",
  "2184": " vineyar",
  "2185": " vineyard",
  "2186": " vines",
  "2187": " vineg",
  "2188": " vinega",
  "2189": " vinegar",
  "2190": " vig",
  "2191": " vigor",
  "2192": " vigorou",
  "2193": " vigorous",
  "2194": " vigorousl",
  "2195": " vigorously",
  "2196": " vigil",
  "2197": " vigilan",
  "2198": " vigilant",
  "2199": " vie",
  "2200": " view",
  "2201": " views",
  "2202": " viewer",
  "2203": " viewers",
  "2204": " viewed",
  "2205": " vid",
  "2206": " vide",
  "2207": " video",
  "2208": " videos",
  "2209": " vi",
  "2210": " vix",
  "2211": " vixen",
  "2212": " viv",
  "2213": " vivid",
  "2214": " vio",
  "2215": " viole",
  "2216": " violet",
  "2217": " violets",
  "2218": " viol",
  "2219": " violin",
  "2220": " violins",
  "2221": " violini",
  "2222": " violinis",
  "2223": " violinist",
  "2224": " violen",
  "2225": " violent",
  "2226": " violentl",
  "2227": " violently",
  "2228": " violenc",
  "2229": " violence",
  "2230": " violat",
  "2231": " violated",
  "2232": " vill",
  "2233": " villa",
  "2234": " villain",
  "2235": " villains",
  "2236": " villag",
  "2237": " villager",
  "2238": " villagers",
  "2239": " village",
  "2240": " villages",
  "2241": " vic",
  "2242": " victo",
  "2243": " victor",
  "2244": " victory",
  "2245": " victori",
  "2246": " victorio",
  "2247": " victoriou",
  "2248": " victorious",
  "2249": " vict",
  "2250": " victim",
  "2251": " vici",
  "2252": " viciou",
  "2253": " vicious",
  "2254": " vibe",
  "2255": " vibes",
  "2256": " vib",
  "2257": " vibr",
  "2258": " vibrat",
  "2259": " vibratin",
  "2260": " vibrating",
  "2261": " vibrati",
  "2262": " vibratio",
  "2263": " vibration",
  "2264": " vibrate",
  "2265": " vibran",
  "2266": " vibrant",
  "2267": " ver",
  "2268": " very",
  "2269": " vers",
  "2270": " versi",
  "2271": " versio",
  "2272": " version",
  "2273": " verse",
  "2274": " verb",
  "2275": " ven",
  "2276": " vent",
  "2277": " ventu",
  "2278": " venture",
  "2279": " ventur",
  "2280": " venturin",
  "2281": " venturing",
  "2282": " ventured",
  "2283": " veno",
  "2284": " venom",
  "2285": " veng",
  "2286": " venge",
  "2287": " vengef",
  "2288": " vengefu",
  "2289": " vengeful",
  "2290": " vel",
  "2291": " velve",
  "2292": " velvet",
  "2293": " ve",
  "2294": " vet",
  "2295": " veter",
  "2296": " veteri",
  "2297": " veterin",
  "2298": " veterina",
  "2299": " veterinar",
  "2300": " veterinari",
  "2301": " veterinarian",
  "2302": " veterinarians",
  "2303": " ves",
  "2304": " vest",
  "2305": " vests",
  "2306": " vend",
  "2307": " vendo",
  "2308": " vendor",
  "2309": " vendors",
  "2310": " vendi",
  "2311": " vendin",
  "2312": " vending",
  "2313": " vein",
  "2314": " veins",
  "2315": " vei",
  "2316": " veil",
  "2317": " veils",
  "2318": " veh",
  "2319": " vehi",
  "2320": " vehic",
  "2321": " vehicl",
  "2322": " vehicle",
  "2323": " vehicles",
  "2324": " veg",
  "2325": " vegg",
  "2326": " veggi",
  "2327": " veggie",
  "2328": " veggies",
  "2329": " vege",
  "2330": " veget",
  "2331": " vegeta",
  "2332": " vegetab",
  "2333": " vegetabl",
  "2334": " vegetable",
  "2335": " vegetables",
  "2336": " vas",
  "2337": " vast",
  "2338": " vastn",
  "2339": " vastne",
  "2340": " vastnes",
  "2341": " vastness",
  "2342": " vase",
  "2343": " vases",
  "2344": " var",
  "2345": " vari",
  "2346": " variou",
  "2347": " various",
  "2348": " varie",
  "2349": " variet",
  "2350": " variety",
  "2351": " van",
  "2352": " vans",
  "2353": " vani",
  "2354": " vanis",
  "2355": " vanishe",
  "2356": " vanished",
  "2357": " vanish",
  "2358": " vanishi",
  "2359": " vanishin",
  "2360": " vanishing",
  "2361": " vanil",
  "2362": " vanill",
  "2363": " vanilla",
  "2364": " vam",
  "2365": " vamp",
  "2366": " vampi",
  "2367": " vampire",
  "2368": " val",
  "2369": " valve",
  "2370": " valu",
  "2371": " valuin",
  "2372": " valuing",
  "2373": " valued",
  "2374": " value",
  "2375": " values",
  "2376": " valua",
  "2377": " valuab",
  "2378": " valuable",
  "2379": " valuables",
  "2380": " valle",
  "2381": " valley",
  "2382": " valleys",
  "2383": " valid",
  "2384": " vac",
  "2385": " vacu",
  "2386": " vacuu",
  "2387": " vacuum",
  "2388": " vacuumed",
  "2389": " vacat",
  "2390": " vacati",
  "2391": " vacatio",
  "2392": " vacation",
  "2393": " vacations",
  "2394": " va",
  "2395": " vain",
  "2396": " ut",
  "2397": " utt",
  "2398": " utter",
  "2399": " uttered",
  "2400": " uten",
  "2401": " utens",
  "2402": " utensi",
  "2403": " utensil",
  "2404": " utensils",
  "2405": " use",
  "2406": " uses",
  "2407": " usele",
  "2408": " useles",
  "2409": " useless",
  "2410": " usef",
  "2411": " usefu",
  "2412": " useful",
  "2413": " us",
  "2414": " usu",
  "2415": " usual",
  "2416": " usua",
  "2417": " usuall",
  "2418": " usually",
  "2419": " usin",
  "2420": " using",
  "2421": " used",
  "2422": " ur",
  "2423": " urg",
  "2424": " urgin",
  "2425": " urging",
  "2426": " urges",
  "2427": " urgen",
  "2428": " urgent",
  "2429": " urgentl",
  "2430": " urgently",
  "2431": " urged",
  "2432": " urge",
  "2433": " urc",
  "2434": " urch",
  "2435": " urchin",
  "2436": " up",
  "2437": " upwa",
  "2438": " upwar",
  "2439": " upward",
  "2440": " upwards",
  "2441": " upst",
  "2442": " upstre",
  "2443": " upstrea",
  "2444": " upstream",
  "2445": " upsta",
  "2446": " upstai",
  "2447": " upstair",
  "2448": " upstairs",
  "2449": " ups",
  "2450": " upsid",
  "2451": " upside",
  "2452": " upset",
  "2453": " upsett",
  "2454": " upsettin",
  "2455": " upsetting",
  "2456": " upri",
  "2457": " upriv",
  "2458": " upriver",
  "2459": " uprig",
  "2460": " uprigh",
  "2461": " upright",
  "2462": " upr",
  "2463": " uproo",
  "2464": " uproot",
  "2465": " upp",
  "2466": " upper",
  "2467": " upon",
  "2468": " upd",
  "2469": " updat",
  "2470": " upc",
  "2471": " upcom",
  "2472": " upcomin",
  "2473": " upcoming",
  "2474": " unt",
  "2475": " unty",
  "2476": " untyin",
  "2477": " untying",
  "2478": " untw",
  "2479": " untwis",
  "2480": " untwist",
  "2481": " untwisted",
  "2482": " untid",
  "2483": " untidy",
  "2484": " unti",
  "2485": " until",
  "2486": " untied",
  "2487": " untie",
  "2488": " unties",
  "2489": " untan",
  "2490": " untang",
  "2491": " untangl",
  "2492": " untangli",
  "2493": " untanglin",
  "2494": " untangling",
  "2495": " untangle",
  "2496": " untangles",
  "2497": " untangled",
  "2498": " ung",
  "2499": " ungr",
  "2500": " ungrat",
  "2501": " ungrate",
  "2502": " ungratef",
  "2503": " ungratefu",
  "2504": " ungrateful",
  "2505": " une",
  "2506": " unex",
  "2507": " unexp",
  "2508": " unexpe",
  "2509": " unexpec",
  "2510": " unexpect",
  "2511": " unexpected",
  "2512": " unexpectedl",
  "2513": " unexpectedly",
  "2514": " unev",
  "2515": " uneven",
  "2516": " uneas",
  "2517": " uneasy",
  "2518": " unear",
  "2519": " uneart",
  "2520": " unearthe",
  "2521": " unearthed",
  "2522": " und",
  "2523": " undr",
  "2524": " undre",
  "2525": " undres",
  "2526": " undress",
  "2527": " undresse",
  "2528": " undressed",
  "2529": " undo",
  "2530": " undon",
  "2531": " undone",
  "2532": " undoi",
  "2533": " undoin",
  "2534": " undoing",
  "2535": " undi",
  "2536": " undid",
  "2537": " unde",
  "2538": " undet",
  "2539": " undete",
  "2540": " undeter",
  "2541": " undeterr",
  "2542": " undeterre",
  "2543": " undeterred",
  "2544": " under",
  "2545": " underw",
  "2546": " underwe",
  "2547": " underwea",
  "2548": " underwear",
  "2549": " underwa",
  "2550": " underwat",
  "2551": " underwate",
  "2552": " underwater",
  "2553": " unders",
  "2554": " underst",
  "2555": " understo",
  "2556": " understoo",
  "2557": " understood",
  "2558": " understan",
  "2559": " understand",
  "2560": " understands",
  "2561": " understandi",
  "2562": " understandin",
  "2563": " understanding",
  "2564": " understandingl",
  "2565": " understandingly",
  "2566": " undern",
  "2567": " underne",
  "2568": " undernea",
  "2569": " underneath",
  "2570": " underg",
  "2571": " undergr",
  "2572": " undergro",
  "2573": " undergrow",
  "2574": " undergrowth",
  "2575": " undere",
  "2576": " underes",
  "2577": " underest",
  "2578": " underesti",
  "2579": " underestim",
  "2580": " underestima",
  "2581": " underestimat",
  "2582": " underestimate",
  "2583": " underestimated",
  "2584": " un",
  "2585": " unz",
  "2586": " unzi",
  "2587": " unzip",
  "2588": " unzips",
  "2589": " unzipp",
  "2590": " unzippin",
  "2591": " unzipping",
  "2592": " unzipped",
  "2593": " unw",
  "2594": " unwr",
  "2595": " unwra",
  "2596": " unwrap",
  "2597": " unwraps",
  "2598": " unwrapp",
  "2599": " unwrappin",
  "2600": " unwrapping",
  "2601": " unwrapped",
  "2602": " unwou",
  "2603": " unwound",
  "2604": " unwe",
  "2605": " unwell",
  "2606": " unwan",
  "2607": " unwant",
  "2608": " unwante",
  "2609": " unwanted",
  "2610": " unu",
  "2611": " unusa",
  "2612": " unusal",
  "2613": " unus",
  "2614": " unusu",
  "2615": " unusual",
  "2616": " unusua",
  "2617": " unusuall",
  "2618": " unusually",
  "2619": " unused",
  "2620": " unto",
  "2621": " untou",
  "2622": " untouc",
  "2623": " untouche",
  "2624": " untouched",
  "2625": " unst",
  "2626": " unstu",
  "2627": " unstuc",
  "2628": " unstuck",
  "2629": " unsta",
  "2630": " unstab",
  "2631": " unstable",
  "2632": " unsa",
  "2633": " unsaf",
  "2634": " unsafe",
  "2635": " uns",
  "2636": " unsu",
  "2637": " unsure",
  "2638": " unsup",
  "2639": " unsuper",
  "2640": " unsuperv",
  "2641": " unsupervi",
  "2642": " unsupervis",
  "2643": " unsupervised",
  "2644": " unsuc",
  "2645": " unsucc",
  "2646": " unsucce",
  "2647": " unsucces",
  "2648": " unsuccess",
  "2649": " unsuccessf",
  "2650": " unsuccessfu",
  "2651": " unsuccessful",
  "2652": " unsto",
  "2653": " unstop",
  "2654": " unstopp",
  "2655": " unstoppa",
  "2656": " unstoppab",
  "2657": " unstoppabl",
  "2658": " unstoppable",
  "2659": " unste",
  "2660": " unstea",
  "2661": " unstead",
  "2662": " unsteady",
  "2663": " unso",
  "2664": " unsol",
  "2665": " unsolv",
  "2666": " unsolved",
  "2667": " unsh",
  "2668": " unshe",
  "2669": " unsheat",
  "2670": " unsheathe",
  "2671": " unsheathed",
  "2672": " unse",
  "2673": " unsel",
  "2674": " unself",
  "2675": " unselfis",
  "2676": " unselfish",
  "2677": " unseen",
  "2678": " unsc",
  "2679": " unscre",
  "2680": " unscrew",
  "2681": " unscrewed",
  "2682": " unscr",
  "2683": " unscat",
  "2684": " unscathe",
  "2685": " unscathed",
  "2686": " unre",
  "2687": " unrec",
  "2688": " unreco",
  "2689": " unrecor",
  "2690": " unrecord",
  "2691": " unrecorded",
  "2692": " unrea",
  "2693": " unr",
  "2694": " unro",
  "2695": " unroll",
  "2696": " unrolled",
  "2697": " unra",
  "2698": " unrave",
  "2699": " unravel",
  "2700": " unraveled",
  "2701": " unp",
  "2702": " unpr",
  "2703": " unpred",
  "2704": " unpredi",
  "2705": " unpredic",
  "2706": " unpredict",
  "2707": " unpredicta",
  "2708": " unpredictab",
  "2709": " unpredictabl",
  "2710": " unpredictable",
  "2711": " unpo",
  "2712": " unpop",
  "2713": " unpopu",
  "2714": " unpopul",
  "2715": " unpopular",
  "2716": " unple",
  "2717": " unpleas",
  "2718": " unpleasan",
  "2719": " unpleasant",
  "2720": " unpl",
  "2721": " unplu",
  "2722": " unplug",
  "2723": " unplugg",
  "2724": " unplugged",
  "2725": " unpa",
  "2726": " unpac",
  "2727": " unpack",
  "2728": " unpackin",
  "2729": " unpacking",
  "2730": " unpacked",
  "2731": " unne",
  "2732": " unnec",
  "2733": " unnece",
  "2734": " unneces",
  "2735": " unnecess",
  "2736": " unnecessar",
  "2737": " unnecessary",
  "2738": " unn",
  "2739": " unnot",
  "2740": " unnoti",
  "2741": " unnotic",
  "2742": " unnoticed",
  "2743": " unm",
  "2744": " unlo",
  "2745": " unloc",
  "2746": " unlock",
  "2747": " unlocks",
  "2748": " unlockin",
  "2749": " unlocking",
  "2750": " unlocked",
  "2751": " unloa",
  "2752": " unload",
  "2753": " unloadin",
  "2754": " unloading",
  "2755": " unloaded",
  "2756": " unli",
  "2757": " unlike",
  "2758": " unlikel",
  "2759": " unlikely",
  "2760": " unle",
  "2761": " unles",
  "2762": " unless",
  "2763": " unl",
  "2764": " unlu",
  "2765": " unluc",
  "2766": " unluck",
  "2767": " unlucky",
  "2768": " unk",
  "2769": " unkn",
  "2770": " unkno",
  "2771": " unknow",
  "2772": " unknown",
  "2773": " unknowin",
  "2774": " unknowing",
  "2775": " unknowingl",
  "2776": " unknowingly",
  "2777": " unki",
  "2778": " unkind",
  "2779": " unit",
  "2780": " unity",
  "2781": " unitin",
  "2782": " uniting",
  "2783": " united",
  "2784": " unite",
  "2785": " unites",
  "2786": " unis",
  "2787": " uniso",
  "2788": " unison",
  "2789": " unin",
  "2790": " unint",
  "2791": " uninter",
  "2792": " unintere",
  "2793": " uninteres",
  "2794": " uninterest",
  "2795": " uninteresti",
  "2796": " uninterestin",
  "2797": " uninteresting",
  "2798": " unim",
  "2799": " unimp",
  "2800": " unimpre",
  "2801": " unimpres",
  "2802": " unimpress",
  "2803": " unimpressed",
  "2804": " unimpo",
  "2805": " unimpor",
  "2806": " unimport",
  "2807": " unimportan",
  "2808": " unimportant",
  "2809": " uni",
  "2810": " univ",
  "2811": " univer",
  "2812": " univers",
  "2813": " universi",
  "2814": " universit",
  "2815": " university",
  "2816": " universe",
  "2817": " universes",
  "2818": " uniq",
  "2819": " uniqu",
  "2820": " uniquen",
  "2821": " uniquene",
  "2822": " uniquenes",
  "2823": " uniqueness",
  "2824": " unique",
  "2825": " unif",
  "2826": " unifor",
  "2827": " uniform",
  "2828": " uniforms",
  "2829": " unic",
  "2830": " unicy",
  "2831": " unicyc",
  "2832": " unicycle",
  "2833": " unicor",
  "2834": " unicorn",
  "2835": " unicorns",
  "2836": " unhe",
  "2837": " unhel",
  "2838": " unhelp",
  "2839": " unhelpf",
  "2840": " unhelpfu",
  "2841": " unhelpful",
  "2842": " unhea",
  "2843": " unheal",
  "2844": " unhealt",
  "2845": " unhealth",
  "2846": " unhealthy",
  "2847": " unha",
  "2848": " unhar",
  "2849": " unharm",
  "2850": " unharmed",
  "2851": " unhap",
  "2852": " unhapp",
  "2853": " unhappy",
  "2854": " unhappin",
  "2855": " unhappine",
  "2856": " unhappines",
  "2857": " unhappiness",
  "2858": " unhappi",
  "2859": " unhappil",
  "2860": " unhappily",
  "2861": " unh",
  "2862": " unhu",
  "2863": " unhur",
  "2864": " unhurt",
  "2865": " unhoo",
  "2866": " unhook",
  "2867": " unhooked",
  "2868": " unf",
  "2869": " unfu",
  "2870": " unfur",
  "2871": " unfurl",
  "2872": " unfurled",
  "2873": " unful",
  "2874": " unfulf",
  "2875": " unfulfi",
  "2876": " unfulfill",
  "2877": " unfulfilled",
  "2878": " unfre",
  "2879": " unfree",
  "2880": " unfreez",
  "2881": " unfreeze",
  "2882": " unfreezes",
  "2883": " unfr",
  "2884": " unfro",
  "2885": " unfroz",
  "2886": " unfrozen",
  "2887": " unfroze",
  "2888": " unfor",
  "2889": " unfort",
  "2890": " unfortu",
  "2891": " unfortun",
  "2892": " unfortunat",
  "2893": " unfortunate",
  "2894": " unfortunatel",
  "2895": " unfortunately",
  "2896": " unforg",
  "2897": " unforge",
  "2898": " unforget",
  "2899": " unforgett",
  "2900": " unforgetta",
  "2901": " unforgettab",
  "2902": " unforgettable",
  "2903": " unfo",
  "2904": " unfol",
  "2905": " unfold",
  "2906": " unfoldin",
  "2907": " unfolding",
  "2908": " unfolded",
  "2909": " unfin",
  "2910": " unfini",
  "2911": " unfinis",
  "2912": " unfinishe",
  "2913": " unfinished",
  "2914": " unfai",
  "2915": " unfair",
  "2916": " unfairl",
  "2917": " unfairly",
  "2918": " unfa",
  "2919": " unfaz",
  "2920": " unfazed",
  "2921": " unfam",
  "2922": " unfami",
  "2923": " unfamili",
  "2924": " unfamiliar",
  "2925": " undergrou",
  "2926": " underground",
  "2927": " unc",
  "2928": " uncu",
  "2929": " uncur",
  "2930": " uncurl",
  "2931": " uncon",
  "2932": " uncont",
  "2933": " uncontr",
  "2934": " uncontro",
  "2935": " uncontrol",
  "2936": " uncontroll",
  "2937": " uncontrolla",
  "2938": " uncontrollab",
  "2939": " uncontrollabl",
  "2940": " uncontrollably",
  "2941": " uncons",
  "2942": " unconsc",
  "2943": " unconsci",
  "2944": " unconsciou",
  "2945": " unconscious",
  "2946": " uncom",
  "2947": " uncomf",
  "2948": " uncomfo",
  "2949": " uncomfor",
  "2950": " uncomfort",
  "2951": " uncomforta",
  "2952": " uncomfortab",
  "2953": " uncomfortabl",
  "2954": " uncomfortable",
  "2955": " unco",
  "2956": " uncov",
  "2957": " uncover",
  "2958": " uncovered",
  "2959": " uncond",
  "2960": " uncondi",
  "2961": " uncondit",
  "2962": " unconditi",
  "2963": " unconditio",
  "2964": " uncondition",
  "2965": " unconditiona",
  "2966": " unconditional",
  "2967": " uncle",
  "2968": " uncles",
  "2969": " uncer",
  "2970": " uncert",
  "2971": " uncerta",
  "2972": " uncertai",
  "2973": " uncertain",
  "2974": " uncertaint",
  "2975": " uncertainty",
  "2976": " unb",
  "2977": " unbu",
  "2978": " unbuc",
  "2979": " unbuck",
  "2980": " unbuckle",
  "2981": " unbuckl",
  "2982": " unbuckled",
  "2983": " unbr",
  "2984": " unbro",
  "2985": " unbrok",
  "2986": " unbroken",
  "2987": " unbe",
  "2988": " unbeli",
  "2989": " unbelie",
  "2990": " unbeliev",
  "2991": " unbelieva",
  "2992": " unbelievab",
  "2993": " unbelievable",
  "2994": " unbek",
  "2995": " unbekn",
  "2996": " unbekno",
  "2997": " unbeknow",
  "2998": " unbeknown",
  "2999": " unbear",
  "3000": " unbeara",
  "3001": " unbearab",
  "3002": " unbearabl",
  "3003": " unbearable",
  "3004": " una",
  "3005": " unawa",
  "3006": " unawar",
  "3007": " unaware",
  "3008": " unav",
  "3009": " unavo",
  "3010": " unavoid",
  "3011": " unavoida",
  "3012": " unavoidab",
  "3013": " unavoidable",
  "3014": " unaf",
  "3015": " unafr",
  "3016": " unafra",
  "3017": " unafraid",
  "3018": " unab",
  "3019": " unable",
  "3020": " um",
  "3021": " umb",
  "3022": " umbre",
  "3023": " umbrel",
  "3024": " umbrell",
  "3025": " umbrella",
  "3026": " umbrellas",
  "3027": " ul",
  "3028": " ult",
  "3029": " ultim",
  "3030": " ultimat",
  "3031": " ultimate",
  "3032": " uh",
  "3033": " ug",
  "3034": " ugly",
  "3035": " ugli",
  "3036": " uglie",
  "3037": " ugliest",
  "3038": " ty",
  "3039": " tyr",
  "3040": " tyre",
  "3041": " tyres",
  "3042": " tyra",
  "3043": " tyran",
  "3044": " tyrann",
  "3045": " tyranno",
  "3046": " tyrannos",
  "3047": " tyrannosa",
  "3048": " tyrannosau",
  "3049": " tyrannosaur",
  "3050": " tyrannosauru",
  "3051": " tyrannosaurus",
  "3052": " typ",
  "3053": " typi",
  "3054": " typin",
  "3055": " typing",
  "3056": " type",
  "3057": " types",
  "3058": " typed",
  "3059": " tyi",
  "3060": " tyin",
  "3061": " tying",
  "3062": " tw",
  "3063": " two",
  "3064": " twi",
  "3065": " twit",
  "3066": " twitt",
  "3067": " twitte",
  "3068": " twitter",
  "3069": " twittere",
  "3070": " twittered",
  "3071": " twitc",
  "3072": " twitch",
  "3073": " twitchi",
  "3074": " twitchin",
  "3075": " twitching",
  "3076": " twitche",
  "3077": " twitched",
  "3078": " twis",
  "3079": " twist",
  "3080": " twisty",
  "3081": " twists",
  "3082": " twisti",
  "3083": " twistin",
  "3084": " twisting",
  "3085": " twiste",
  "3086": " twister",
  "3087": " twisted",
  "3088": " twir",
  "3089": " twirl",
  "3090": " twirly",
  "3091": " twirls",
  "3092": " twirli",
  "3093": " twirlin",
  "3094": " twirling",
  "3095": " twirle",
  "3096": " twirler",
  "3097": " twirled",
  "3098": " twin",
  "3099": " twins",
  "3100": " twink",
  "3101": " twinkl",
  "3102": " twinkly",
  "3103": " twinkli",
  "3104": " twinklin",
  "3105": " twinkling",
  "3106": " twinkle",
  "3107": " twinkles",
  "3108": " twinkled",
  "3109": " twing",
  "3110": " twinge",
  "3111": " twine",
  "3112": " twig",
  "3113": " twigs",
  "3114": " twid",
  "3115": " twidd",
  "3116": " twiddl",
  "3117": " twiddle",
  "3118": " twic",
  "3119": " twice",
  "3120": " twe",
  "3121": " twen",
  "3122": " twent",
  "3123": " twenty",
  "3124": " twel",
  "3125": " twelv",
  "3126": " twelve",
  "3127": " twee",
  "3128": " tweez",
  "3129": " tweeze",
  "3130": " tweezer",
  "3131": " tweet",
  "3132": " tweeti",
  "3133": " tweetin",
  "3134": " tweeting",
  "3135": " tweete",
  "3136": " tweeted",
  "3137": " tv",
  "3138": " tu",
  "3139": " tut",
  "3140": " tutu",
  "3141": " tutt",
  "3142": " tutti",
  "3143": " tuto",
  "3144": " tutor",
  "3145": " tutors",
  "3146": " tutori",
  "3147": " tutorin",
  "3148": " tutoring",
  "3149": " tus",
  "3150": " tuss",
  "3151": " tussl",
  "3152": " tussle",
  "3153": " tusk",
  "3154": " tusks",
  "3155": " tur",
  "3156": " turt",
  "3157": " turtl",
  "3158": " turtle",
  "3159": " turtles",
  "3160": " turr",
  "3161": " turre",
  "3162": " turret",
  "3163": " turrets",
  "3164": " turq",
  "3165": " turqu",
  "3166": " turquo",
  "3167": " turquoi",
  "3168": " turquois",
  "3169": " turquoise",
  "3170": " turn",
  "3171": " turny",
  "3172": " turns",
  "3173": " turni",
  "3174": " turnip",
  "3175": " turnips",
  "3176": " turnin",
  "3177": " turning",
  "3178": " turne",
  "3179": " turned",
  "3180": " turm",
  "3181": " turmo",
  "3182": " turmoi",
  "3183": " turmoil",
  "3184": " turk",
  "3185": " turke",
  "3186": " turkey",
  "3187": " turkeys",
  "3188": " turb",
  "3189": " turbu",
  "3190": " turbul",
  "3191": " turbule",
  "3192": " turbulen",
  "3193": " turbulenc",
  "3194": " turbulence",
  "3195": " turba",
  "3196": " turban",
  "3197": " tun",
  "3198": " tunn",
  "3199": " tunne",
  "3200": " tunnel",
  "3201": " tunnels",
  "3202": " tune",
  "3203": " tunes",
  "3204": " tuna",
  "3205": " tum",
  "3206": " tumm",
  "3207": " tummy",
  "3208": " tummya",
  "3209": " tummyac",
  "3210": " tummyach",
  "3211": " tummyache",
  "3212": " tummi",
  "3213": " tummie",
  "3214": " tummies",
  "3215": " tumb",
  "3216": " tumbl",
  "3217": " tumbli",
  "3218": " tumblin",
  "3219": " tumbling",
  "3220": " tumble",
  "3221": " tumbled",
  "3222": " tul",
  "3223": " tuli",
  "3224": " tulip",
  "3225": " tulips",
  "3226": " tug",
  "3227": " tugs",
  "3228": " tugg",
  "3229": " tuggi",
  "3230": " tuggin",
  "3231": " tugging",
  "3232": " tugge",
  "3233": " tugged",
  "3234": " tuc",
  "3235": " tuck",
  "3236": " tucks",
  "3237": " tucki",
  "3238": " tuckin",
  "3239": " tucking",
  "3240": " tucke",
  "3241": " tucker",
  "3242": " tuckere",
  "3243": " tuckered",
  "3244": " tucked",
  "3245": " tub",
  "3246": " tube",
  "3247": " tubes",
  "3248": " tr",
  "3249": " try",
  "3250": " tryi",
  "3251": " tryin",
  "3252": " trying",
  "3253": " tru",
  "3254": " trut",
  "3255": " truth",
  "3256": " truths",
  "3257": " truthf",
  "3258": " truthfu",
  "3259": " truthful",
  "3260": " trus",
  "3261": " trust",
  "3262": " trusty",
  "3263": " trustw",
  "3264": " trustwo",
  "3265": " trustwor",
  "3266": " trustwort",
  "3267": " trustworth",
  "3268": " trustworthy",
  "3269": " trusts",
  "3270": " trusti",
  "3271": " trustin",
  "3272": " trusting",
  "3273": " truste",
  "3274": " trusted",
  "3275": " trun",
  "3276": " trunk",
  "3277": " trunks",
  "3278": " trund",
  "3279": " trundl",
  "3280": " trundle",
  "3281": " trum",
  "3282": " trump",
  "3283": " trumpe",
  "3284": " trumpet",
  "3285": " trumpets",
  "3286": " trumpeti",
  "3287": " trumpetin",
  "3288": " trumpeting",
  "3289": " trumpete",
  "3290": " trumpeted",
  "3291": " trul",
  "3292": " truly",
  "3293": " true",
  "3294": " trud",
  "3295": " trudg",
  "3296": " trudgi",
  "3297": " trudgin",
  "3298": " trudging",
  "3299": " trudge",
  "3300": " trudged",
  "3301": " truc",
  "3302": " truck",
  "3303": " trucks",
  "3304": " tro",
  "3305": " trov",
  "3306": " trove",
  "3307": " trou",
  "3308": " trout",
  "3309": " trous",
  "3310": " trouse",
  "3311": " trouser",
  "3312": " trousers",
  "3313": " troup",
  "3314": " troupe",
  "3315": " troug",
  "3316": " trough",
  "3317": " troub",
  "3318": " troubl",
  "3319": " troubli",
  "3320": " troublin",
  "3321": " troubling",
  "3322": " trouble",
  "3323": " troubles",
  "3324": " troubleso",
  "3325": " troublesom",
  "3326": " troublesome",
  "3327": " troublem",
  "3328": " troublema",
  "3329": " troublemak",
  "3330": " troublemake",
  "3331": " troublemaker",
  "3332": " troubled",
  "3333": " trot",
  "3334": " trott",
  "3335": " trotti",
  "3336": " trottin",
  "3337": " trotting",
  "3338": " trotte",
  "3339": " trotted",
  "3340": " trots",
  "3341": " trop",
  "3342": " tropi",
  "3343": " tropic",
  "3344": " tropica",
  "3345": " tropical",
  "3346": " troph",
  "3347": " trophy",
  "3348": " trophi",
  "3349": " trophie",
  "3350": " trophies",
  "3351": " trol",
  "3352": " troll",
  "3353": " trolls",
  "3354": " trolle",
  "3355": " trolley",
  "3356": " tri",
  "3357": " triu",
  "3358": " trium",
  "3359": " triump",
  "3360": " triumph",
  "3361": " triumpha",
  "3362": " triumphan",
  "3363": " triumphant",
  "3364": " triumphantl",
  "3365": " triumphantly",
  "3366": " trip",
  "3367": " trips",
  "3368": " tripp",
  "3369": " trippi",
  "3370": " trippin",
  "3371": " tripping",
  "3372": " trippe",
  "3373": " tripped",
  "3374": " trio",
  "3375": " trin",
  "3376": " trink",
  "3377": " trinke",
  "3378": " trinket",
  "3379": " trinkets",
  "3380": " trim",
  "3381": " trimm",
  "3382": " trimmi",
  "3383": " trimmin",
  "3384": " trimming",
  "3385": " trimme",
  "3386": " trimmed",
  "3387": " tril",
  "3388": " trill",
  "3389": " trik",
  "3390": " trike",
  "3391": " trig",
  "3392": " trigg",
  "3393": " trigge",
  "3394": " trigger",
  "3395": " triggers",
  "3396": " triggere",
  "3397": " triggered",
  "3398": " trie",
  "3399": " tries",
  "3400": " tried",
  "3401": " tric",
  "3402": " tricy",
  "3403": " tricyc",
  "3404": " tricycl",
  "3405": " tricycle",
  "3406": " tricycles",
  "3407": " trick",
  "3408": " tricky",
  "3409": " tricks",
  "3410": " trickst",
  "3411": " trickste",
  "3412": " trickster",
  "3413": " trickl",
  "3414": " trickli",
  "3415": " tricklin",
  "3416": " trickling",
  "3417": " trickle",
  "3418": " trickled",
  "3419": " tricki",
  "3420": " trickin",
  "3421": " tricking",
  "3422": " tricke",
  "3423": " tricked",
  "3424": " trice",
  "3425": " tricer",
  "3426": " tricera",
  "3427": " tricerat",
  "3428": " tricerato",
  "3429": " triceratop",
  "3430": " triceratops",
  "3431": " tria",
  "3432": " trian",
  "3433": " triang",
  "3434": " triangl",
  "3435": " triangle",
  "3436": " triangles",
  "3437": " trial",
  "3438": " tre",
  "3439": " tres",
  "3440": " tresp",
  "3441": " trespa",
  "3442": " trespas",
  "3443": " trespass",
  "3444": " trespassi",
  "3445": " trespassin",
  "3446": " trespassing",
  "3447": " trespasse",
  "3448": " trespasser",
  "3449": " trespassers",
  "3450": " trespassed",
  "3451": " tren",
  "3452": " trend",
  "3453": " trenc",
  "3454": " trench",
  "3455": " trem",
  "3456": " treme",
  "3457": " tremen",
  "3458": " tremend",
  "3459": " tremendo",
  "3460": " tremendou",
  "3461": " tremendous",
  "3462": " tremb",
  "3463": " trembl",
  "3464": " trembly",
  "3465": " trembli",
  "3466": " tremblin",
  "3467": " trembling",
  "3468": " tremble",
  "3469": " trembles",
  "3470": " trembled",
  "3471": " trek",
  "3472": " trekk",
  "3473": " trekke",
  "3474": " trekked",
  "3475": " tree",
  "3476": " treet",
  "3477": " treeto",
  "3478": " treetop",
  "3479": " treetops",
  "3480": " trees",
  "3481": " treeh",
  "3482": " treeho",
  "3483": " treehou",
  "3484": " treehous",
  "3485": " treehouse",
  "3486": " trea",
  "3487": " treat",
  "3488": " treats",
  "3489": " treatm",
  "3490": " treatme",
  "3491": " treatmen",
  "3492": " treatment",
  "3493": " treatments",
  "3494": " treati",
  "3495": " treatin",
  "3496": " treating",
  "3497": " treate",
  "3498": " treated",
  "3499": " treas",
  "3500": " treasu",
  "3501": " treasur",
  "3502": " treasure",
  "3503": " treasures",
  "3504": " treasured",
  "3505": " tread",
  "3506": " treac",
  "3507": " treach",
  "3508": " treache",
  "3509": " treacher",
  "3510": " treachero",
  "3511": " treacherou",
  "3512": " treacherous",
  "3513": " tra",
  "3514": " tray",
  "3515": " trays",
  "3516": " trav",
  "3517": " trave",
  "3518": " travel",
  "3519": " travels",
  "3520": " travell",
  "3521": " travelli",
  "3522": " travellin",
  "3523": " travelling",
  "3524": " travelle",
  "3525": " traveller",
  "3526": " travellers",
  "3527": " travelled",
  "3528": " traveli",
  "3529": " travelin",
  "3530": " traveling",
  "3531": " travele",
  "3532": " traveler",
  "3533": " travelers",
  "3534": " traveled",
  "3535": " tras",
  "3536": " trash",
  "3537": " trap",
  "3538": " traps",
  "3539": " trapp",
  "3540": " trappi",
  "3541": " trappin",
  "3542": " trapping",
  "3543": " trappe",
  "3544": " trapped",
  "3545": " tran",
  "3546": " trans",
  "3547": " transp",
  "3548": " transpo",
  "3549": " transpor",
  "3550": " transport",
  "3551": " transporte",
  "3552": " transported",
  "3553": " transf",
  "3554": " transfo",
  "3555": " transfor",
  "3556": " transform",
  "3557": " transformi",
  "3558": " transformin",
  "3559": " transforming",
  "3560": " transforme",
  "3561": " transformed",
  "3562": " transforma",
  "3563": " transformat",
  "3564": " transformati",
  "3565": " transformatio",
  "3566": " transformation",
  "3567": " tranq",
  "3568": " tranqu",
  "3569": " tranqui",
  "3570": " tranquil",
  "3571": " tranquili",
  "3572": " tranquiliz",
  "3573": " tranquilize",
  "3574": " tranquilizer",
  "3575": " tram",
  "3576": " tramp",
  "3577": " trampo",
  "3578": " trampol",
  "3579": " trampoli",
  "3580": " trampolin",
  "3581": " trampoline",
  "3582": " trampolines",
  "3583": " trampl",
  "3584": " trample",
  "3585": " trampled",
  "3586": " trai",
  "3587": " trait",
  "3588": " traits",
  "3589": " train",
  "3590": " trains",
  "3591": " traini",
  "3592": " trainin",
  "3593": " training",
  "3594": " traine",
  "3595": " trainer",
  "3596": " trained",
  "3597": " trail",
  "3598": " trails",
  "3599": " traili",
  "3600": " trailin",
  "3601": " trailing",
  "3602": " traile",
  "3603": " trailer",
  "3604": " trag",
  "3605": " tragi",
  "3606": " tragic",
  "3607": " trage",
  "3608": " traged",
  "3609": " tragedy",
  "3610": " traf",
  "3611": " traff",
  "3612": " traffi",
  "3613": " traffic",
  "3614": " trad",
  "3615": " tradi",
  "3616": " tradit",
  "3617": " traditi",
  "3618": " traditio",
  "3619": " tradition",
  "3620": " tradin",
  "3621": " trading",
  "3622": " trade",
  "3623": " trades",
  "3624": " trader",
  "3625": " traders",
  "3626": " traded",
  "3627": " trac",
  "3628": " tract",
  "3629": " tracto",
  "3630": " tractor",
  "3631": " tractors",
  "3632": " track",
  "3633": " tracks",
  "3634": " tracki",
  "3635": " trackin",
  "3636": " tracking",
  "3637": " tracke",
  "3638": " tracked",
  "3639": " traci",
  "3640": " tracin",
  "3641": " tracing",
  "3642": " trace",
  "3643": " traced",
  "3644": " to",
  "3645": " toy",
  "3646": " toys",
  "3647": " toyb",
  "3648": " toybo",
  "3649": " toybox",
  "3650": " tow",
  "3651": " town",
  "3652": " towns",
  "3653": " townsp",
  "3654": " townspe",
  "3655": " townspeo",
  "3656": " townspeop",
  "3657": " townspeopl",
  "3658": " townspeople",
  "3659": " townsf",
  "3660": " townsfo",
  "3661": " townsfol",
  "3662": " townsfolk",
  "3663": " towe",
  "3664": " tower",
  "3665": " towers",
  "3666": " toweri",
  "3667": " towerin",
  "3668": " towering",
  "3669": " towere",
  "3670": " towered",
  "3671": " towel",
  "3672": " towels",
  "3673": " towa",
  "3674": " towar",
  "3675": " toward",
  "3676": " towards",
  "3677": " tou",
  "3678": " tous",
  "3679": " tousl",
  "3680": " tour",
  "3681": " tours",
  "3682": " tourn",
  "3683": " tourna",
  "3684": " tournam",
  "3685": " tourname",
  "3686": " tournamen",
  "3687": " tournament",
  "3688": " toug",
  "3689": " tough",
  "3690": " toughe",
  "3691": " toughes",
  "3692": " toughest",
  "3693": " tougher",
  "3694": " touc",
  "3695": " touch",
  "3696": " touchi",
  "3697": " touchin",
  "3698": " touching",
  "3699": " touche",
  "3700": " touches",
  "3701": " touched",
  "3702": " tot",
  "3703": " tota",
  "3704": " total",
  "3705": " totall",
  "3706": " totally",
  "3707": " tos",
  "3708": " toss",
  "3709": " tossi",
  "3710": " tossin",
  "3711": " tossing",
  "3712": " tosse",
  "3713": " tosses",
  "3714": " tossed",
  "3715": " tor",
  "3716": " tort",
  "3717": " torto",
  "3718": " tortoi",
  "3719": " tortois",
  "3720": " tortoise",
  "3721": " torn",
  "3722": " torna",
  "3723": " tornad",
  "3724": " tornado",
  "3725": " tornados",
  "3726": " tornadoe",
  "3727": " tornadoes",
  "3728": " tore",
  "3729": " torc",
  "3730": " torch",
  "3731": " top",
  "3732": " tops",
  "3733": " topp",
  "3734": " toppl",
  "3735": " topple",
  "3736": " toppled",
  "3737": " toppi",
  "3738": " toppin",
  "3739": " topping",
  "3740": " toppings",
  "3741": " topi",
  "3742": " topic",
  "3743": " topics",
  "3744": " too",
  "3745": " toot",
  "3746": " tooth",
  "3747": " toothp",
  "3748": " toothpi",
  "3749": " toothpic",
  "3750": " toothpick",
  "3751": " toothpicks",
  "3752": " toothpa",
  "3753": " toothpas",
  "3754": " toothpast",
  "3755": " toothpaste",
  "3756": " toothb",
  "3757": " toothbr",
  "3758": " toothbru",
  "3759": " toothbrus",
  "3760": " toothbrush",
  "3761": " toothbrushe",
  "3762": " toothbrushes",
  "3763": " tootha",
  "3764": " toothac",
  "3765": " toothach",
  "3766": " toothache",
  "3767": " toote",
  "3768": " tooted",
  "3769": " tool",
  "3770": " tools",
  "3771": " toolb",
  "3772": " toolbo",
  "3773": " toolbox",
  "3774": " took",
  "3775": " ton",
  "3776": " tons",
  "3777": " toni",
  "3778": " tonig",
  "3779": " tonigh",
  "3780": " tonight",
  "3781": " tong",
  "3782": " tongu",
  "3783": " tongue",
  "3784": " tongues",
  "3785": " tongs",
  "3786": " tone",
  "3787": " tones",
  "3788": " tom",
  "3789": " tomo",
  "3790": " tomor",
  "3791": " tomorr",
  "3792": " tomorro",
  "3793": " tomorrow",
  "3794": " toma",
  "3795": " tomat",
  "3796": " tomato",
  "3797": " tomatoe",
  "3798": " tomatoes",
  "3799": " tol",
  "3800": " toll",
  "3801": " tole",
  "3802": " toler",
  "3803": " tolera",
  "3804": " toleran",
  "3805": " tolerant",
  "3806": " told",
  "3807": " tok",
  "3808": " toke",
  "3809": " token",
  "3810": " tokens",
  "3811": " toi",
  "3812": " toil",
  "3813": " toile",
  "3814": " toilet",
  "3815": " toilets",
  "3816": " tog",
  "3817": " toge",
  "3818": " toget",
  "3819": " togeth",
  "3820": " togethe",
  "3821": " together",
  "3822": " togethern",
  "3823": " togetherne",
  "3824": " togethernes",
  "3825": " togetherness",
  "3826": " tof",
  "3827": " toff",
  "3828": " toffe",
  "3829": " toffee",
  "3830": " toffees",
  "3831": " toe",
  "3832": " toes",
  "3833": " tod",
  "3834": " todd",
  "3835": " toddl",
  "3836": " toddli",
  "3837": " toddlin",
  "3838": " toddling",
  "3839": " toddle",
  "3840": " toddler",
  "3841": " toddlers",
  "3842": " toddled",
  "3843": " toda",
  "3844": " today",
  "3845": " toc",
  "3846": " tock",
  "3847": " tocks",
  "3848": " tocki",
  "3849": " tockin",
  "3850": " tocking",
  "3851": " tocke",
  "3852": " tocked",
  "3853": " toa",
  "3854": " toas",
  "3855": " toast",
  "3856": " toasty",
  "3857": " toasts",
  "3858": " toaste",
  "3859": " toaster",
  "3860": " toasted",
  "3861": " toad",
  "3862": " toads",
  "3863": " toadst",
  "3864": " toadsto",
  "3865": " toadstoo",
  "3866": " toadstool",
  "3867": " ti",
  "3868": " tit",
  "3869": " titl",
  "3870": " title",
  "3871": " titles",
  "3872": " tis",
  "3873": " tiss",
  "3874": " tissu",
  "3875": " tissue",
  "3876": " tissues",
  "3877": " tir",
  "3878": " tiri",
  "3879": " tirin",
  "3880": " tiring",
  "3881": " tire",
  "3882": " tires",
  "3883": " tirel",
  "3884": " tirele",
  "3885": " tireles",
  "3886": " tireless",
  "3887": " tirelessl",
  "3888": " tirelessly",
  "3889": " tired",
  "3890": " tiredn",
  "3891": " tiredne",
  "3892": " tirednes",
  "3893": " tiredness",
  "3894": " tip",
  "3895": " tipt",
  "3896": " tipto",
  "3897": " tiptoe",
  "3898": " tiptoes",
  "3899": " tiptoed",
  "3900": " tips",
  "3901": " tipp",
  "3902": " tippy",
  "3903": " tippi",
  "3904": " tippin",
  "3905": " tipping",
  "3906": " tippe",
  "3907": " tipped",
  "3908": " tin",
  "3909": " tiny",
  "3910": " tins",
  "3911": " tinse",
  "3912": " tinsel",
  "3913": " tink",
  "3914": " tinkl",
  "3915": " tinkli",
  "3916": " tinklin",
  "3917": " tinkling",
  "3918": " tinke",
  "3919": " tinker",
  "3920": " tinkeri",
  "3921": " tinkerin",
  "3922": " tinkering",
  "3923": " tini",
  "3924": " tinie",
  "3925": " tinies",
  "3926": " tiniest",
  "3927": " ting",
  "3928": " tingl",
  "3929": " tingly",
  "3930": " tingli",
  "3931": " tinglin",
  "3932": " tingling",
  "3933": " tingle",
  "3934": " tim",
  "3935": " timi",
  "3936": " timin",
  "3937": " timing",
  "3938": " timid",
  "3939": " timidl",
  "3940": " timidly",
  "3941": " time",
  "3942": " times",
  "3943": " timer",
  "3944": " timeo",
  "3945": " timeou",
  "3946": " timeout",
  "3947": " til",
  "3948": " tilt",
  "3949": " tilts",
  "3950": " tilti",
  "3951": " tiltin",
  "3952": " tilting",
  "3953": " tilte",
  "3954": " tilted",
  "3955": " till",
  "3956": " tile",
  "3957": " tiles",
  "3958": " tig",
  "3959": " tigh",
  "3960": " tight",
  "3961": " tightr",
  "3962": " tightro",
  "3963": " tightrop",
  "3964": " tightrope",
  "3965": " tightropes",
  "3966": " tightn",
  "3967": " tightne",
  "3968": " tightnes",
  "3969": " tightness",
  "3970": " tightl",
  "3971": " tightly",
  "3972": " tighte",
  "3973": " tightes",
  "3974": " tightest",
  "3975": " tighter",
  "3976": " tighten",
  "3977": " tightens",
  "3978": " tighteni",
  "3979": " tightenin",
  "3980": " tightening",
  "3981": " tightene",
  "3982": " tightened",
  "3983": " tige",
  "3984": " tiger",
  "3985": " tigers",
  "3986": " tie",
  "3987": " ties",
  "3988": " tied",
  "3989": " tid",
  "3990": " tidy",
  "3991": " tidyi",
  "3992": " tidyin",
  "3993": " tidying",
  "3994": " tidi",
  "3995": " tidin",
  "3996": " tidine",
  "3997": " tidines",
  "3998": " tidiness",
  "3999": " tidie",
  "4000": " tidies",
  "4001": " tidiest",
  "4002": " tidier",
  "4003": " tidied",
  "4004": " tide",
  "4005": " tides",
  "4006": " tic",
  "4007": " tick",
  "4008": " ticks",
  "4009": " tickl",
  "4010": " tickly",
  "4011": " tickli",
  "4012": " ticklis",
  "4013": " ticklish",
  "4014": " ticklin",
  "4015": " tickling",
  "4016": " tickle",
  "4017": " tickles",
  "4018": " tickled",
  "4019": " ticki",
  "4020": " tickin",
  "4021": " ticking",
  "4022": " ticke",
  "4023": " ticket",
  "4024": " tickets",
  "4025": " ticked",
  "4026": " tia",
  "4027": " tiar",
  "4028": " tiara",
  "4029": " th",
  "4030": " thw",
  "4031": " thu",
  "4032": " thus",
  "4033": " thun",
  "4034": " thund",
  "4035": " thunde",
  "4036": " thunder",
  "4037": " thunders",
  "4038": " thunderst",
  "4039": " thundersto",
  "4040": " thunderstor",
  "4041": " thunderstorm",
  "4042": " thunderstorms",
  "4043": " thundero",
  "4044": " thunderou",
  "4045": " thunderous",
  "4046": " thunderi",
  "4047": " thunderin",
  "4048": " thundering",
  "4049": " thundere",
  "4050": " thundered",
  "4051": " thunderc",
  "4052": " thundercl",
  "4053": " thunderclo",
  "4054": " thunderclou",
  "4055": " thundercloud",
  "4056": " thunderclouds",
  "4057": " thundercla",
  "4058": " thunderclap",
  "4059": " thum",
  "4060": " thump",
  "4061": " thumpi",
  "4062": " thumpin",
  "4063": " thumping",
  "4064": " thumpe",
  "4065": " thumped",
  "4066": " thumb",
  "4067": " thumbt",
  "4068": " thumbta",
  "4069": " thumbtac",
  "4070": " thumbtack",
  "4071": " thumbtacks",
  "4072": " thumbs",
  "4073": " thud",
  "4074": " thr",
  "4075": " thru",
  "4076": " thro",
  "4077": " throw",
  "4078": " throws",
  "4079": " thrown",
  "4080": " throwi",
  "4081": " throwin",
  "4082": " throwing",
  "4083": " throwe",
  "4084": " thrower",
  "4085": " throu",
  "4086": " throug",
  "4087": " through",
  "4088": " througho",
  "4089": " throughou",
  "4090": " throughout",
  "4091": " thron",
  "4092": " throne",
  "4093": " thrones",
  "4094": " throb",
  "4095": " throa",
  "4096": " throat",
  "4097": " throats",
  "4098": " thri",
  "4099": " thriv",
  "4100": " thrive",
  "4101": " thril",
  "4102": " thrill",
  "4103": " thrilli",
  "4104": " thrillin",
  "4105": " thrilling",
  "4106": " thrille",
  "4107": " thrilled",
  "4108": " thrif",
  "4109": " thrift",
  "4110": " thre",
  "4111": " threw",
  "4112": " three",
  "4113": " threa",
  "4114": " threat",
  "4115": " threats",
  "4116": " threate",
  "4117": " threaten",
  "4118": " threateni",
  "4119": " threatenin",
  "4120": " threatening",
  "4121": " threatene",
  "4122": " threatened",
  "4123": " thread",
  "4124": " threads",
  "4125": " threadi",
  "4126": " threadin",
  "4127": " threading",
  "4128": " threade",
  "4129": " threaded",
  "4130": " thra",
  "4131": " thras",
  "4132": " thrash",
  "4133": " tho",
  "4134": " thou",
  "4135": " thous",
  "4136": " thousa",
  "4137": " thousan",
  "4138": " thousand",
  "4139": " thousands",
  "4140": " thoug",
  "4141": " though",
  "4142": " thought",
  "4143": " thoughts",
  "4144": " thoughtf",
  "4145": " thoughtfu",
  "4146": " thoughtful",
  "4147": " thoughtfuln",
  "4148": " thoughtfulne",
  "4149": " thoughtfulnes",
  "4150": " thoughtfulness",
  "4151": " thoughtfull",
  "4152": " thoughtfully",
  "4153": " thos",
  "4154": " those",
  "4155": " thor",
  "4156": " thoro",
  "4157": " thorou",
  "4158": " thoroug",
  "4159": " thorough",
  "4160": " thoroughl",
  "4161": " thoroughly",
  "4162": " thorn",
  "4163": " thorns",
  "4164": " thi",
  "4165": " this",
  "4166": " thir",
  "4167": " thirt",
  "4168": " thirty",
  "4169": " thirte",
  "4170": " thirtee",
  "4171": " thirteen",
  "4172": " thirs",
  "4173": " thirst",
  "4174": " thirsty",
  "4175": " third",
  "4176": " thin",
  "4177": " thinn",
  "4178": " thinne",
  "4179": " thinnes",
  "4180": " thinnest",
  "4181": " thinner",
  "4182": " think",
  "4183": " thinks",
  "4184": " thinki",
  "4185": " thinkin",
  "4186": " thinking",
  "4187": " thinke",
  "4188": " thinker",
  "4189": " thinkers",
  "4190": " thing",
  "4191": " things",
  "4192": " thim",
  "4193": " thimb",
  "4194": " thimbl",
  "4195": " thimble",
  "4196": " thimbleb",
  "4197": " thimblebe",
  "4198": " thimbleber",
  "4199": " thimbleberr",
  "4200": " thimbleberry",
  "4201": " thie",
  "4202": " thiev",
  "4203": " thieve",
  "4204": " thieves",
  "4205": " thief",
  "4206": " thic",
  "4207": " thick",
  "4208": " thicke",
  "4209": " thickes",
  "4210": " thickest",
  "4211": " thicker",
  "4212": " the",
  "4213": " they",
  "4214": " theyd",
  "4215": " thes",
  "4216": " these",
  "4217": " ther",
  "4218": " therm",
  "4219": " thermo",
  "4220": " thermom",
  "4221": " thermome",
  "4222": " thermomet",
  "4223": " thermomete",
  "4224": " thermometer",
  "4225": " thermometers",
  "4226": " there",
  "4227": " thera",
  "4228": " therap",
  "4229": " therapi",
  "4230": " therapis",
  "4231": " therapist",
  "4232": " then",
  "4233": " them",
  "4234": " thems",
  "4235": " themse",
  "4236": " themsel",
  "4237": " themselv",
  "4238": " themselve",
  "4239": " themselves",
  "4240": " themself",
  "4241": " theme",
  "4242": " thei",
  "4243": " their",
  "4244": " theirs",
  "4245": " thea",
  "4246": " theat",
  "4247": " theatr",
  "4248": " theatre",
  "4249": " theate",
  "4250": " theater",
  "4251": " tha",
  "4252": " thaw",
  "4253": " that",
  "4254": " thats",
  "4255": " than",
  "4256": " thank",
  "4257": " thanks",
  "4258": " thanki",
  "4259": " thankin",
  "4260": " thanking",
  "4261": " thankf",
  "4262": " thankfu",
  "4263": " thankful",
  "4264": " thankfuln",
  "4265": " thankfulne",
  "4266": " thankfulnes",
  "4267": " thankfulness",
  "4268": " thankfull",
  "4269": " thankfully",
  "4270": " thanke",
  "4271": " thanked",
  "4272": " te",
  "4273": " tex",
  "4274": " text",
  "4275": " textu",
  "4276": " textur",
  "4277": " texture",
  "4278": " textures",
  "4279": " tes",
  "4280": " test",
  "4281": " tests",
  "4282": " testi",
  "4283": " testin",
  "4284": " testing",
  "4285": " teste",
  "4286": " tested",
  "4287": " ter",
  "4288": " terr",
  "4289": " terro",
  "4290": " terror",
  "4291": " terrori",
  "4292": " terri",
  "4293": " territ",
  "4294": " territo",
  "4295": " territor",
  "4296": " territory",
  "4297": " terrif",
  "4298": " terrify",
  "4299": " terrifyi",
  "4300": " terrifyin",
  "4301": " terrifying",
  "4302": " terrifi",
  "4303": " terrifie",
  "4304": " terrified",
  "4305": " terrific",
  "4306": " terrib",
  "4307": " terribl",
  "4308": " terribly",
  "4309": " terrible",
  "4310": " terra",
  "4311": " terrai",
  "4312": " terrain",
  "4313": " tern",
  "4314": " term",
  "4315": " terms",
  "4316": " termi",
  "4317": " ten",
  "4318": " tent",
  "4319": " tents",
  "4320": " tenth",
  "4321": " tenta",
  "4322": " tentat",
  "4323": " tentati",
  "4324": " tentativ",
  "4325": " tentative",
  "4326": " tentativel",
  "4327": " tentatively",
  "4328": " tentac",
  "4329": " tentacl",
  "4330": " tentacle",
  "4331": " tentacles",
  "4332": " tens",
  "4333": " tensi",
  "4334": " tensio",
  "4335": " tension",
  "4336": " tenn",
  "4337": " tenni",
  "4338": " tennis",
  "4339": " tend",
  "4340": " tendi",
  "4341": " tendin",
  "4342": " tending",
  "4343": " tende",
  "4344": " tender",
  "4345": " tenderl",
  "4346": " tenderly",
  "4347": " tended",
  "4348": " tem",
  "4349": " temp",
  "4350": " tempt",
  "4351": " tempti",
  "4352": " temptin",
  "4353": " tempting",
  "4354": " tempte",
  "4355": " tempted",
  "4356": " tempta",
  "4357": " temptat",
  "4358": " temptati",
  "4359": " temptatio",
  "4360": " temptation",
  "4361": " tempo",
  "4362": " tempor",
  "4363": " tempora",
  "4364": " temporar",
  "4365": " temporary",
  "4366": " templ",
  "4367": " temple",
  "4368": " tempe",
  "4369": " temper",
  "4370": " tempera",
  "4371": " temperat",
  "4372": " temperatu",
  "4373": " temperatur",
  "4374": " temperature",
  "4375": " tel",
  "4376": " tell",
  "4377": " tells",
  "4378": " telli",
  "4379": " tellin",
  "4380": " telling",
  "4381": " telle",
  "4382": " teller",
  "4383": " tele",
  "4384": " telev",
  "4385": " televi",
  "4386": " televis",
  "4387": " televisi",
  "4388": " televisio",
  "4389": " television",
  "4390": " televisions",
  "4391": " teles",
  "4392": " telesc",
  "4393": " telesco",
  "4394": " telescop",
  "4395": " telescope",
  "4396": " telep",
  "4397": " teleph",
  "4398": " telepho",
  "4399": " telephon",
  "4400": " telephone",
  "4401": " telephones",
  "4402": " tee",
  "4403": " teet",
  "4404": " teeth",
  "4405": " teete",
  "4406": " teeter",
  "4407": " teetere",
  "4408": " teetered",
  "4409": " teep",
  "4410": " teepe",
  "4411": " teepee",
  "4412": " teen",
  "4413": " teena",
  "4414": " teenag",
  "4415": " teenage",
  "4416": " teenager",
  "4417": " teem",
  "4418": " teemi",
  "4419": " teemin",
  "4420": " teeming",
  "4421": " ted",
  "4422": " tedd",
  "4423": " teddy",
  "4424": " teddyb",
  "4425": " teddybe",
  "4426": " teddybea",
  "4427": " teddybear",
  "4428": " teddi",
  "4429": " teddie",
  "4430": " teddies",
  "4431": " tec",
  "4432": " tech",
  "4433": " techn",
  "4434": " techno",
  "4435": " technol",
  "4436": " technolo",
  "4437": " technolog",
  "4438": " technology",
  "4439": " techni",
  "4440": " techniq",
  "4441": " techniqu",
  "4442": " technique",
  "4443": " techniques",
  "4444": " technic",
  "4445": " technici",
  "4446": " technicia",
  "4447": " technician",
  "4448": " tea",
  "4449": " teas",
  "4450": " teasp",
  "4451": " teaspo",
  "4452": " teaspoo",
  "4453": " teaspoon",
  "4454": " teaspoons",
  "4455": " teasi",
  "4456": " teasin",
  "4457": " teasing",
  "4458": " tease",
  "4459": " teases",
  "4460": " teased",
  "4461": " tear",
  "4462": " teary",
  "4463": " tears",
  "4464": " teari",
  "4465": " tearin",
  "4466": " tearing",
  "4467": " tearf",
  "4468": " tearfu",
  "4469": " tearful",
  "4470": " tearfull",
  "4471": " tearfully",
  "4472": " teap",
  "4473": " teapo",
  "4474": " teapot",
  "4475": " team",
  "4476": " teamw",
  "4477": " teamwo",
  "4478": " teamwor",
  "4479": " teamwork",
  "4480": " teams",
  "4481": " teamm",
  "4482": " teamma",
  "4483": " teammat",
  "4484": " teammate",
  "4485": " teammates",
  "4486": " teac",
  "4487": " teacu",
  "4488": " teacup",
  "4489": " teacups",
  "4490": " teach",
  "4491": " teachi",
  "4492": " teachin",
  "4493": " teaching",
  "4494": " teachings",
  "4495": " teache",
  "4496": " teaches",
  "4497": " teacher",
  "4498": " teachers",
  "4499": " ta",
  "4500": " tax",
  "4501": " taxi",
  "4502": " taxis",
  "4503": " tau",
  "4504": " taun",
  "4505": " taunt",
  "4506": " taunte",
  "4507": " taunted",
  "4508": " taug",
  "4509": " taugh",
  "4510": " taught",
  "4511": " tat",
  "4512": " tatt",
  "4513": " tatte",
  "4514": " tatter",
  "4515": " tattere",
  "4516": " tattered",
  "4517": " tas",
  "4518": " tast",
  "4519": " tasty",
  "4520": " tasti",
  "4521": " tastin",
  "4522": " tasting",
  "4523": " tastie",
  "4524": " tasties",
  "4525": " tastiest",
  "4526": " tastier",
  "4527": " taste",
  "4528": " tastes",
  "4529": " tastef",
  "4530": " tastefu",
  "4531": " tasteful",
  "4532": " tasted",
  "4533": " tass",
  "4534": " tasse",
  "4535": " tassel",
  "4536": " tassels",
  "4537": " task",
  "4538": " tasks",
  "4539": " taske",
  "4540": " tasked",
  "4541": " tar",
  "4542": " tart",
  "4543": " tarp",
  "4544": " targ",
  "4545": " targe",
  "4546": " target",
  "4547": " targets",
  "4548": " tap",
  "4549": " taps",
  "4550": " tapp",
  "4551": " tappi",
  "4552": " tappin",
  "4553": " tapping",
  "4554": " tappe",
  "4555": " tapped",
  "4556": " tapi",
  "4557": " tapin",
  "4558": " taping",
  "4559": " tape",
  "4560": " tapes",
  "4561": " taped",
  "4562": " tan",
  "4563": " tant",
  "4564": " tantr",
  "4565": " tantru",
  "4566": " tantrum",
  "4567": " tantrums",
  "4568": " tank",
  "4569": " tanks",
  "4570": " tang",
  "4571": " tangy",
  "4572": " tangl",
  "4573": " tangle",
  "4574": " tangled",
  "4575": " tam",
  "4576": " tame",
  "4577": " tamer",
  "4578": " tamb",
  "4579": " tambo",
  "4580": " tambou",
  "4581": " tambour",
  "4582": " tambouri",
  "4583": " tambourin",
  "4584": " tambourine",
  "4585": " tal",
  "4586": " talo",
  "4587": " talon",
  "4588": " talons",
  "4589": " tall",
  "4590": " talle",
  "4591": " talles",
  "4592": " tallest",
  "4593": " taller",
  "4594": " talk",
  "4595": " talks",
  "4596": " talki",
  "4597": " talkin",
  "4598": " talking",
  "4599": " talke",
  "4600": " talked",
  "4601": " talka",
  "4602": " talkat",
  "4603": " talkati",
  "4604": " talkativ",
  "4605": " talkative",
  "4606": " tale",
  "4607": " tales",
  "4608": " talen",
  "4609": " talent",
  "4610": " talents",
  "4611": " talente",
  "4612": " talented",
  "4613": " tak",
  "4614": " taki",
  "4615": " takin",
  "4616": " taking",
  "4617": " take",
  "4618": " takes",
  "4619": " taker",
  "4620": " takeo",
  "4621": " takeou",
  "4622": " takeout",
  "4623": " takeof",
  "4624": " takeoff",
  "4625": " taken",
  "4626": " tai",
  "4627": " tail",
  "4628": " tails",
  "4629": " tailo",
  "4630": " tailor",
  "4631": " tag",
  "4632": " tags",
  "4633": " tagg",
  "4634": " tagge",
  "4635": " tagged",
  "4636": " tad",
  "4637": " tadp",
  "4638": " tadpo",
  "4639": " tadpol",
  "4640": " tadpole",
  "4641": " tadpoles",
  "4642": " tac",
  "4643": " tact",
  "4644": " tacti",
  "4645": " tactic",
  "4646": " tactics",
  "4647": " taco",
  "4648": " tacos",
  "4649": " tack",
  "4650": " tackl",
  "4651": " tackli",
  "4652": " tacklin",
  "4653": " tackling",
  "4654": " tackle",
  "4655": " tab",
  "4656": " tabl",
  "4657": " table",
  "4658": " tablet",
  "4659": " tables",
  "4660": " tablec",
  "4661": " tablecl",
  "4662": " tableclo",
  "4663": " tableclot",
  "4664": " tablecloth",
  "4665": " sy",
  "4666": " sys",
  "4667": " syst",
  "4668": " syste",
  "4669": " system",
  "4670": " syr",
  "4671": " syru",
  "4672": " syrup",
  "4673": " syri",
  "4674": " syrin",
  "4675": " syring",
  "4676": " syringe",
  "4677": " sym",
  "4678": " symp",
  "4679": " sympa",
  "4680": " sympat",
  "4681": " sympathe",
  "4682": " sympathet",
  "4683": " sympatheti",
  "4684": " sympathetic",
  "4685": " sympathetica",
  "4686": " sympathetical",
  "4687": " sympatheticall",
  "4688": " sympathetically",
  "4689": " symb",
  "4690": " symbo",
  "4691": " symbol",
  "4692": " symbols",
  "4693": " symboli",
  "4694": " symboliz",
  "4695": " symbolize",
  "4696": " symbolized",
  "4697": " sw",
  "4698": " swu",
  "4699": " swun",
  "4700": " swung",
  "4701": " swum",
  "4702": " swo",
  "4703": " swor",
  "4704": " swore",
  "4705": " sword",
  "4706": " swords",
  "4707": " swoo",
  "4708": " swoos",
  "4709": " swoosh",
  "4710": " swooshi",
  "4711": " swooshin",
  "4712": " swooshing",
  "4713": " swoop",
  "4714": " swoops",
  "4715": " swoopi",
  "4716": " swoopin",
  "4717": " swooping",
  "4718": " swoope",
  "4719": " swooped",
  "4720": " swol",
  "4721": " swoll",
  "4722": " swolle",
  "4723": " swollen",
  "4724": " swi",
  "4725": " swit",
  "4726": " switc",
  "4727": " switche",
  "4728": " switches",
  "4729": " switched",
  "4730": " switch",
  "4731": " switchi",
  "4732": " switchin",
  "4733": " switching",
  "4734": " swis",
  "4735": " swishe",
  "4736": " swished",
  "4737": " swish",
  "4738": " swishi",
  "4739": " swishin",
  "4740": " swishing",
  "4741": " swir",
  "4742": " swirl",
  "4743": " swirls",
  "4744": " swirli",
  "4745": " swirlin",
  "4746": " swirling",
  "4747": " swirle",
  "4748": " swirled",
  "4749": " swip",
  "4750": " swipe",
  "4751": " swiped",
  "4752": " swin",
  "4753": " swing",
  "4754": " swings",
  "4755": " swingse",
  "4756": " swingset",
  "4757": " swingi",
  "4758": " swingin",
  "4759": " swinging",
  "4760": " swinge",
  "4761": " swinger",
  "4762": " swim",
  "4763": " swims",
  "4764": " swimsu",
  "4765": " swimsui",
  "4766": " swimsuit",
  "4767": " swimsuits",
  "4768": " swimm",
  "4769": " swimmi",
  "4770": " swimmin",
  "4771": " swimming",
  "4772": " swimme",
  "4773": " swimmer",
  "4774": " swimmers",
  "4775": " swif",
  "4776": " swift",
  "4777": " swiftl",
  "4778": " swiftly",
  "4779": " swe",
  "4780": " swer",
  "4781": " swerv",
  "4782": " swerve",
  "4783": " swerved",
  "4784": " swep",
  "4785": " swept",
  "4786": " swel",
  "4787": " swell",
  "4788": " swelle",
  "4789": " swelled",
  "4790": " swee",
  "4791": " sweet",
  "4792": " sweety",
  "4793": " sweets",
  "4794": " sweetn",
  "4795": " sweetne",
  "4796": " sweetnes",
  "4797": " sweetness",
  "4798": " sweetl",
  "4799": " sweetly",
  "4800": " sweeti",
  "4801": " sweetie",
  "4802": " sweeties",
  "4803": " sweethe",
  "4804": " sweethea",
  "4805": " sweethear",
  "4806": " sweetheart",
  "4807": " sweete",
  "4808": " sweetes",
  "4809": " sweetest",
  "4810": " sweeter",
  "4811": " sweep",
  "4812": " sweepi",
  "4813": " sweepin",
  "4814": " sweeping",
  "4815": " swea",
  "4816": " sweat",
  "4817": " sweaty",
  "4818": " sweati",
  "4819": " sweatin",
  "4820": " sweating",
  "4821": " sweate",
  "4822": " sweater",
  "4823": " sweaters",
  "4824": " sweated",
  "4825": " swa",
  "4826": " sway",
  "4827": " swayi",
  "4828": " swayin",
  "4829": " swaying",
  "4830": " swaye",
  "4831": " swayed",
  "4832": " swat",
  "4833": " swatt",
  "4834": " swatti",
  "4835": " swattin",
  "4836": " swatting",
  "4837": " swatte",
  "4838": " swatter",
  "4839": " swatted",
  "4840": " swar",
  "4841": " swarm",
  "4842": " swarmi",
  "4843": " swarmin",
  "4844": " swarming",
  "4845": " swap",
  "4846": " swapp",
  "4847": " swappe",
  "4848": " swapped",
  "4849": " swan",
  "4850": " swans",
  "4851": " swam",
  "4852": " swamp",
  "4853": " swal",
  "4854": " swall",
  "4855": " swallo",
  "4856": " swallow",
  "4857": " swallows",
  "4858": " swallowi",
  "4859": " swallowin",
  "4860": " swallowing",
  "4861": " swallowe",
  "4862": " swallowed",
  "4863": " su",
  "4864": " sus",
  "4865": " susp",
  "4866": " suspi",
  "4867": " suspic",
  "4868": " suspici",
  "4869": " suspicio",
  "4870": " suspiciou",
  "4871": " suspicious",
  "4872": " suspiciousl",
  "4873": " suspiciously",
  "4874": " suspe",
  "4875": " suspen",
  "4876": " suspens",
  "4877": " suspense",
  "4878": " suspec",
  "4879": " suspect",
  "4880": " suspecte",
  "4881": " suspected",
  "4882": " sush",
  "4883": " sushi",
  "4884": " sur",
  "4885": " surv",
  "4886": " survi",
  "4887": " surviv",
  "4888": " survivo",
  "4889": " survivor",
  "4890": " survivors",
  "4891": " survive",
  "4892": " survived",
  "4893": " surve",
  "4894": " survey",
  "4895": " surveye",
  "4896": " surveyed",
  "4897": " surr",
  "4898": " surro",
  "4899": " surrou",
  "4900": " surroun",
  "4901": " surround",
  "4902": " surroundi",
  "4903": " surroundin",
  "4904": " surrounding",
  "4905": " surroundings",
  "4906": " surrounde",
  "4907": " surrounded",
  "4908": " surre",
  "4909": " surren",
  "4910": " surrend",
  "4911": " surrende",
  "4912": " surrender",
  "4913": " surrenderi",
  "4914": " surrenderin",
  "4915": " surrendering",
  "4916": " surrendere",
  "4917": " surrendered",
  "4918": " surp",
  "4919": " surpr",
  "4920": " surpri",
  "4921": " surpriz",
  "4922": " surprize",
  "4923": " surpris",
  "4924": " surprisi",
  "4925": " surprisin",
  "4926": " surprising",
  "4927": " surprisingl",
  "4928": " surprisingly",
  "4929": " surprise",
  "4930": " surprises",
  "4931": " surprised",
  "4932": " surg",
  "4933": " surge",
  "4934": " surger",
  "4935": " surgery",
  "4936": " surged",
  "4937": " surf",
  "4938": " surfi",
  "4939": " surfin",
  "4940": " surfing",
  "4941": " surfe",
  "4942": " surfer",
  "4943": " surfers",
  "4944": " surfed",
  "4945": " surfb",
  "4946": " surfbo",
  "4947": " surfboa",
  "4948": " surfboar",
  "4949": " surfboard",
  "4950": " surfboards",
  "4951": " surfa",
  "4952": " surfac",
  "4953": " surface",
  "4954": " surfaces",
  "4955": " surfaced",
  "4956": " sure",
  "4957": " surel",
  "4958": " surely",
  "4959": " sup",
  "4960": " supr",
  "4961": " supri",
  "4962": " supris",
  "4963": " suprise",
  "4964": " supp",
  "4965": " suppo",
  "4966": " suppos",
  "4967": " suppose",
  "4968": " supposed",
  "4969": " suppor",
  "4970": " support",
  "4971": " supports",
  "4972": " supporti",
  "4973": " supportiv",
  "4974": " supportive",
  "4975": " supportin",
  "4976": " supporting",
  "4977": " supporte",
  "4978": " supported",
  "4979": " suppl",
  "4980": " supply",
  "4981": " supplyi",
  "4982": " supplyin",
  "4983": " supplying",
  "4984": " suppli",
  "4985": " supplie",
  "4986": " supplies",
  "4987": " supplied",
  "4988": " suppe",
  "4989": " supper",
  "4990": " supe",
  "4991": " super",
  "4992": " superv",
  "4993": " supervi",
  "4994": " supervis",
  "4995": " supervisi",
  "4996": " supervisio",
  "4997": " supervision",
  "4998": " supervise",
  "4999": " superp",
  "5000": " superpo",
  "5001": " superpow",
  "5002": " superpowe",
  "5003": " superpower",
  "5004": " superpowers",
  "5005": " superm",
  "5006": " superma",
  "5007": " supermar",
  "5008": " supermark",
  "5009": " supermarke",
  "5010": " supermarket",
  "5011": " superi",
  "5012": " superio",
  "5013": " superior",
  "5014": " superhe",
  "5015": " superher",
  "5016": " superhero",
  "5017": " superheroe",
  "5018": " superheroes",
  "5019": " sun",
  "5020": " suns",
  "5021": " sunsh",
  "5022": " sunshi",
  "5023": " sunshin",
  "5024": " sunshine",
  "5025": " sunse",
  "5026": " sunset",
  "5027": " sunsets",
  "5028": " sunsc",
  "5029": " sunscr",
  "5030": " sunscre",
  "5031": " sunscree",
  "5032": " sunscreen",
  "5033": " sunr",
  "5034": " sunri",
  "5035": " sunris",
  "5036": " sunrise",
  "5037": " sunrises",
  "5038": " sunra",
  "5039": " sunray",
  "5040": " sunrays",
  "5041": " sunn",
  "5042": " sunny",
  "5043": " sunni",
  "5044": " sunnin",
  "5045": " sunning",
  "5046": " sunnie",
  "5047": " sunnier",
  "5048": " sunl",
  "5049": " sunli",
  "5050": " sunlit",
  "5051": " sunlig",
  "5052": " sunligh",
  "5053": " sunlight",
  "5054": " sunk",
  "5055": " sunke",
  "5056": " sunken",
  "5057": " sunh",
  "5058": " sunha",
  "5059": " sunhat",
  "5060": " sung",
  "5061": " sungl",
  "5062": " sungla",
  "5063": " sunglas",
  "5064": " sunglass",
  "5065": " sunglasse",
  "5066": " sunglasses",
  "5067": " sunf",
  "5068": " sunfl",
  "5069": " sunflo",
  "5070": " sunflow",
  "5071": " sunflowe",
  "5072": " sunflower",
  "5073": " sunflowers",
  "5074": " sund",
  "5075": " sundo",
  "5076": " sundow",
  "5077": " sundown",
  "5078": " sunda",
  "5079": " sundae",
  "5080": " sunb",
  "5081": " sunbu",
  "5082": " sunbur",
  "5083": " sunburn",
  "5084": " sunburns",
  "5085": " sunbe",
  "5086": " sunbea",
  "5087": " sunbeam",
  "5088": " sunbeams",
  "5089": " sunba",
  "5090": " sunbath",
  "5091": " sunbathi",
  "5092": " sunbathin",
  "5093": " sunbathing",
  "5094": " sunbat",
  "5095": " sunbathe",
  "5096": " sum",
  "5097": " sums",
  "5098": " summ",
  "5099": " summo",
  "5100": " summon",
  "5101": " summone",
  "5102": " summoned",
  "5103": " summi",
  "5104": " summit",
  "5105": " summe",
  "5106": " summer",
  "5107": " summert",
  "5108": " summerti",
  "5109": " summertim",
  "5110": " summertime",
  "5111": " summers",
  "5112": " sul",
  "5113": " sulk",
  "5114": " sulks",
  "5115": " sulke",
  "5116": " sulked",
  "5117": " sui",
  "5118": " suit",
  "5119": " suits",
  "5120": " suitc",
  "5121": " suitca",
  "5122": " suitcas",
  "5123": " suitcase",
  "5124": " suitcases",
  "5125": " suita",
  "5126": " suitab",
  "5127": " suitabl",
  "5128": " suitable",
  "5129": " sug",
  "5130": " sugg",
  "5131": " sugge",
  "5132": " sugges",
  "5133": " suggest",
  "5134": " suggests",
  "5135": " suggesti",
  "5136": " suggestio",
  "5137": " suggestion",
  "5138": " suggestions",
  "5139": " suggestin",
  "5140": " suggesting",
  "5141": " suggeste",
  "5142": " suggested",
  "5143": " suga",
  "5144": " sugar",
  "5145": " sugary",
  "5146": " suf",
  "5147": " suff",
  "5148": " suffo",
  "5149": " suffoc",
  "5150": " suffoca",
  "5151": " suffocat",
  "5152": " suffocate",
  "5153": " suffe",
  "5154": " suffer",
  "5155": " suffers",
  "5156": " sufferi",
  "5157": " sufferin",
  "5158": " suffering",
  "5159": " suffere",
  "5160": " suffered",
  "5161": " sue",
  "5162": " sud",
  "5163": " suds",
  "5164": " sudd",
  "5165": " sudde",
  "5166": " sudden",
  "5167": " suddenl",
  "5168": " suddenly",
  "5169": " suc",
  "5170": " suck",
  "5171": " sucks",
  "5172": " sucki",
  "5173": " suckin",
  "5174": " sucking",
  "5175": " sucke",
  "5176": " sucker",
  "5177": " suckers",
  "5178": " sucked",
  "5179": " such",
  "5180": " succ",
  "5181": " succu",
  "5182": " succul",
  "5183": " succule",
  "5184": " succulen",
  "5185": " succulent",
  "5186": " succe",
  "5187": " succes",
  "5188": " success",
  "5189": " successf",
  "5190": " successfu",
  "5191": " successful",
  "5192": " successfull",
  "5193": " successfully",
  "5194": " successe",
  "5195": " successes",
  "5196": " succee",
  "5197": " succeed",
  "5198": " succeedi",
  "5199": " succeedin",
  "5200": " succeeding",
  "5201": " succeede",
  "5202": " succeeded",
  "5203": " sub",
  "5204": " subw",
  "5205": " subwa",
  "5206": " subway",
  "5207": " subt",
  "5208": " subtr",
  "5209": " subtra",
  "5210": " subtrac",
  "5211": " subtract",
  "5212": " subtracti",
  "5213": " subtractin",
  "5214": " subtracting",
  "5215": " subs",
  "5216": " subst",
  "5217": " substa",
  "5218": " substan",
  "5219": " substanc",
  "5220": " substance",
  "5221": " subsi",
  "5222": " subsid",
  "5223": " subside",
  "5224": " subsided",
  "5225": " subm",
  "5226": " subma",
  "5227": " submar",
  "5228": " submari",
  "5229": " submarin",
  "5230": " submarine",
  "5231": " subj",
  "5232": " subje",
  "5233": " subjec",
  "5234": " subject",
  "5235": " subjects",
  "5236": " st",
  "5237": " sty",
  "5238": " styl",
  "5239": " styli",
  "5240": " stylis",
  "5241": " stylist",
  "5242": " stylish",
  "5243": " style",
  "5244": " styles",
  "5245": " styled",
  "5246": " stu",
  "5247": " stut",
  "5248": " stutt",
  "5249": " stutte",
  "5250": " stutter",
  "5251": " stuttere",
  "5252": " stuttered",
  "5253": " stur",
  "5254": " sturd",
  "5255": " sturdy",
  "5256": " stup",
  "5257": " stupi",
  "5258": " stupid",
  "5259": " stun",
  "5260": " stunt",
  "5261": " stunts",
  "5262": " stunn",
  "5263": " stunni",
  "5264": " stunnin",
  "5265": " stunning",
  "5266": " stunne",
  "5267": " stunned",
  "5268": " stung",
  "5269": " stum",
  "5270": " stump",
  "5271": " stumpe",
  "5272": " stumped",
  "5273": " stumb",
  "5274": " stumbl",
  "5275": " stumbli",
  "5276": " stumblin",
  "5277": " stumbling",
  "5278": " stumble",
  "5279": " stumbles",
  "5280": " stumbled",
  "5281": " stuf",
  "5282": " stuff",
  "5283": " stuffy",
  "5284": " stuffi",
  "5285": " stuffin",
  "5286": " stuffing",
  "5287": " stuffe",
  "5288": " stuffed",
  "5289": " stud",
  "5290": " study",
  "5291": " studyi",
  "5292": " studyin",
  "5293": " studying",
  "5294": " studi",
  "5295": " studio",
  "5296": " studie",
  "5297": " studies",
  "5298": " studied",
  "5299": " stude",
  "5300": " studen",
  "5301": " student",
  "5302": " students",
  "5303": " stuc",
  "5304": " stuck",
  "5305": " stub",
  "5306": " stubo",
  "5307": " stubor",
  "5308": " stuborn",
  "5309": " stubb",
  "5310": " stubbo",
  "5311": " stubbor",
  "5312": " stubborn",
  "5313": " stubbornn",
  "5314": " stubbornne",
  "5315": " stubbornnes",
  "5316": " stubbornness",
  "5317": " stubbornl",
  "5318": " stubbornly",
  "5319": " stubbe",
  "5320": " stubbed",
  "5321": " str",
  "5322": " stru",
  "5323": " strut",
  "5324": " strutt",
  "5325": " strutti",
  "5326": " struttin",
  "5327": " strutting",
  "5328": " strutte",
  "5329": " strutted",
  "5330": " strum",
  "5331": " strums",
  "5332": " strumm",
  "5333": " strummi",
  "5334": " strummin",
  "5335": " strumming",
  "5336": " strumme",
  "5337": " strummed",
  "5338": " strug",
  "5339": " strugg",
  "5340": " struggl",
  "5341": " struggli",
  "5342": " strugglin",
  "5343": " struggling",
  "5344": " struggle",
  "5345": " struggles",
  "5346": " struggled",
  "5347": " struc",
  "5348": " struct",
  "5349": " structu",
  "5350": " structur",
  "5351": " structure",
  "5352": " structures",
  "5353": " struck",
  "5354": " stro",
  "5355": " stron",
  "5356": " strong",
  "5357": " strongl",
  "5358": " strongly",
  "5359": " stronge",
  "5360": " stronges",
  "5361": " strongest",
  "5362": " stronger",
  "5363": " strol",
  "5364": " stroll",
  "5365": " strolls",
  "5366": " strolli",
  "5367": " strollin",
  "5368": " strolling",
  "5369": " strolle",
  "5370": " stroller",
  "5371": " strolled",
  "5372": " strok",
  "5373": " stroki",
  "5374": " strokin",
  "5375": " stroking",
  "5376": " stroke",
  "5377": " strokes",
  "5378": " stroked",
  "5379": " strod",
  "5380": " strode",
  "5381": " stri",
  "5382": " striv",
  "5383": " strive",
  "5384": " strip",
  "5385": " strips",
  "5386": " stripe",
  "5387": " stripey",
  "5388": " stripes",
  "5389": " striped",
  "5390": " strin",
  "5391": " string",
  "5392": " strings",
  "5393": " strik",
  "5394": " striki",
  "5395": " strikin",
  "5396": " striking",
  "5397": " strike",
  "5398": " strikes",
  "5399": " strid",
  "5400": " stride",
  "5401": " strides",
  "5402": " stric",
  "5403": " strict",
  "5404": " stre",
  "5405": " strew",
  "5406": " strewn",
  "5407": " stret",
  "5408": " stretc",
  "5409": " stretche",
  "5410": " stretches",
  "5411": " stretcher",
  "5412": " stretched",
  "5413": " stretch",
  "5414": " stretchy",
  "5415": " stretchi",
  "5416": " stretchin",
  "5417": " stretching",
  "5418": " stres",
  "5419": " stress",
  "5420": " stresse",
  "5421": " stressed",
  "5422": " stren",
  "5423": " streng",
  "5424": " strength",
  "5425": " strengths",
  "5426": " strengt",
  "5427": " strengthe",
  "5428": " strengthen",
  "5429": " strengthene",
  "5430": " strengthened",
  "5431": " stree",
  "5432": " street",
  "5433": " streets",
  "5434": " strea",
  "5435": " stream",
  "5436": " streams",
  "5437": " streami",
  "5438": " streamin",
  "5439": " streaming",
  "5440": " streame",
  "5441": " streamer",
  "5442": " streamers",
  "5443": " streamed",
  "5444": " streak",
  "5445": " streaky",
  "5446": " streaks",
  "5447": " streake",
  "5448": " streaked",
  "5449": " stra",
  "5450": " stray",
  "5451": " strayi",
  "5452": " strayin",
  "5453": " straying",
  "5454": " straye",
  "5455": " strayed",
  "5456": " straw",
  "5457": " straws",
  "5458": " strawb",
  "5459": " strawbe",
  "5460": " strawber",
  "5461": " strawberr",
  "5462": " strawberry",
  "5463": " strawberri",
  "5464": " strawberrie",
  "5465": " strawberries",
  "5466": " strat",
  "5467": " strate",
  "5468": " strateg",
  "5469": " strategy",
  "5470": " strap",
  "5471": " straps",
  "5472": " strapp",
  "5473": " strappe",
  "5474": " strapped",
  "5475": " stran",
  "5476": " strang",
  "5477": " strange",
  "5478": " stranges",
  "5479": " strangest",
  "5480": " stranger",
  "5481": " strangers",
  "5482": " strangel",
  "5483": " strangely",
  "5484": " strand",
  "5485": " strands",
  "5486": " strande",
  "5487": " stranded",
  "5488": " strai",
  "5489": " strain",
  "5490": " straine",
  "5491": " strainer",
  "5492": " strained",
  "5493": " straig",
  "5494": " straigh",
  "5495": " straight",
  "5496": " straighte",
  "5497": " straighten",
  "5498": " straightene",
  "5499": " straightened",
  "5500": " straighta",
  "5501": " straightaw",
  "5502": " straightawa",
  "5503": " straightaway",
  "5504": " sto",
  "5505": " stov",
  "5506": " stove",
  "5507": " stovet",
  "5508": " stoveto",
  "5509": " stovetop",
  "5510": " stoves",
  "5511": " stor",
  "5512": " story",
  "5513": " storyt",
  "5514": " storyte",
  "5515": " storytel",
  "5516": " storytell",
  "5517": " storytelle",
  "5518": " storyteller",
  "5519": " storyb",
  "5520": " storybo",
  "5521": " storyboo",
  "5522": " storybook",
  "5523": " storybooks",
  "5524": " storm",
  "5525": " stormy",
  "5526": " storms",
  "5527": " storme",
  "5528": " stormed",
  "5529": " stork",
  "5530": " stori",
  "5531": " storin",
  "5532": " storing",
  "5533": " storie",
  "5534": " stories",
  "5535": " store",
  "5536": " stores",
  "5537": " storeo",
  "5538": " storeow",
  "5539": " storeown",
  "5540": " storeowne",
  "5541": " storeowner",
  "5542": " storek",
  "5543": " storeke",
  "5544": " storekee",
  "5545": " storekeep",
  "5546": " storekeepe",
  "5547": " storekeeper",
  "5548": " stored",
  "5549": " stora",
  "5550": " storag",
  "5551": " storage",
  "5552": " stop",
  "5553": " stops",
  "5554": " stopp",
  "5555": " stoppi",
  "5556": " stoppin",
  "5557": " stopping",
  "5558": " stoppe",
  "5559": " stopped",
  "5560": " stoo",
  "5561": " stoop",
  "5562": " stoope",
  "5563": " stooped",
  "5564": " stool",
  "5565": " stools",
  "5566": " stood",
  "5567": " ston",
  "5568": " stone",
  "5569": " stones",
  "5570": " stom",
  "5571": " stomp",
  "5572": " stomps",
  "5573": " stompi",
  "5574": " stompin",
  "5575": " stomping",
  "5576": " stompe",
  "5577": " stomped",
  "5578": " stoma",
  "5579": " stomac",
  "5580": " stomach",
  "5581": " stomachs",
  "5582": " stomacha",
  "5583": " stomachac",
  "5584": " stomachache",
  "5585": " stol",
  "5586": " stole",
  "5587": " stolen",
  "5588": " stoc",
  "5589": " stock",
  "5590": " stocki",
  "5591": " stockin",
  "5592": " stocking",
  "5593": " stockings",
  "5594": " sti",
  "5595": " stit",
  "5596": " stitc",
  "5597": " stitche",
  "5598": " stitches",
  "5599": " stitched",
  "5600": " stitch",
  "5601": " stitchi",
  "5602": " stitchin",
  "5603": " stitching",
  "5604": " stir",
  "5605": " stirs",
  "5606": " stirrr",
  "5607": " stirr",
  "5608": " stirri",
  "5609": " stirrin",
  "5610": " stirring",
  "5611": " stirre",
  "5612": " stirrer",
  "5613": " stirred",
  "5614": " stin",
  "5615": " stink",
  "5616": " stinky",
  "5617": " stinks",
  "5618": " sting",
  "5619": " stingy",
  "5620": " stings",
  "5621": " stingi",
  "5622": " stingin",
  "5623": " stinging",
  "5624": " stinge",
  "5625": " stinger",
  "5626": " stingers",
  "5627": " stil",
  "5628": " stilt",
  "5629": " stilts",
  "5630": " still",
  "5631": " stilln",
  "5632": " stillne",
  "5633": " stillnes",
  "5634": " stillness",
  "5635": " stif",
  "5636": " stiff",
  "5637": " stiffl",
  "5638": " stiffly",
  "5639": " stiffe",
  "5640": " stiffen",
  "5641": " stiffene",
  "5642": " stiffened",
  "5643": " stic",
  "5644": " stick",
  "5645": " sticky",
  "5646": " sticks",
  "5647": " sticki",
  "5648": " stickin",
  "5649": " sticking",
  "5650": " sticke",
  "5651": " sticker",
  "5652": " stickers",
  "5653": " ste",
  "5654": " stew",
  "5655": " stewa",
  "5656": " stewar",
  "5657": " steward",
  "5658": " steth",
  "5659": " stetho",
  "5660": " stethos",
  "5661": " stethosc",
  "5662": " stethosco",
  "5663": " stethoscop",
  "5664": " stethoscope",
  "5665": " stethoscopes",
  "5666": " ster",
  "5667": " stern",
  "5668": " sternl",
  "5669": " sternly",
  "5670": " step",
  "5671": " steps",
  "5672": " stepp",
  "5673": " steppi",
  "5674": " steppin",
  "5675": " stepping",
  "5676": " steppe",
  "5677": " stepped",
  "5678": " sten",
  "5679": " stenc",
  "5680": " stench",
  "5681": " stem",
  "5682": " stems",
  "5683": " steg",
  "5684": " stego",
  "5685": " stee",
  "5686": " steer",
  "5687": " steers",
  "5688": " steeri",
  "5689": " steerin",
  "5690": " steering",
  "5691": " steere",
  "5692": " steered",
  "5693": " steep",
  "5694": " steepn",
  "5695": " steepne",
  "5696": " steepnes",
  "5697": " steepness",
  "5698": " steepe",
  "5699": " steeper",
  "5700": " steel",
  "5701": " stea",
  "5702": " steam",
  "5703": " steamy",
  "5704": " steami",
  "5705": " steamin",
  "5706": " steaming",
  "5707": " steame",
  "5708": " steamed",
  "5709": " steal",
  "5710": " steals",
  "5711": " steali",
  "5712": " stealin",
  "5713": " stealing",
  "5714": " steak",
  "5715": " steaks",
  "5716": " stead",
  "5717": " steady",
  "5718": " steadi",
  "5719": " steadil",
  "5720": " steadily",
  "5721": " sta",
  "5722": " stay",
  "5723": " stays",
  "5724": " stayi",
  "5725": " stayin",
  "5726": " staying",
  "5727": " staye",
  "5728": " stayed",
  "5729": " stat",
  "5730": " statu",
  "5731": " statue",
  "5732": " statues",
  "5733": " stati",
  "5734": " statio",
  "5735": " station",
  "5736": " stations",
  "5737": " stationm",
  "5738": " stationma",
  "5739": " stationmas",
  "5740": " stationmast",
  "5741": " stationmaste",
  "5742": " stationmaster",
  "5743": " state",
  "5744": " states",
  "5745": " statem",
  "5746": " stateme",
  "5747": " statemen",
  "5748": " statement",
  "5749": " stas",
  "5750": " stash",
  "5751": " star",
  "5752": " starv",
  "5753": " starvi",
  "5754": " starvin",
  "5755": " starving",
  "5756": " starve",
  "5757": " start",
  "5758": " starts",
  "5759": " startl",
  "5760": " startli",
  "5761": " startlin",
  "5762": " startling",
  "5763": " startle",
  "5764": " startled",
  "5765": " starti",
  "5766": " startin",
  "5767": " starting",
  "5768": " starte",
  "5769": " started",
  "5770": " stars",
  "5771": " starr",
  "5772": " starry",
  "5773": " starre",
  "5774": " starred",
  "5775": " starl",
  "5776": " starli",
  "5777": " starlig",
  "5778": " starligh",
  "5779": " starlight",
  "5780": " stari",
  "5781": " starin",
  "5782": " staring",
  "5783": " starf",
  "5784": " starfi",
  "5785": " starfis",
  "5786": " starfish",
  "5787": " stare",
  "5788": " stares",
  "5789": " stared",
  "5790": " stard",
  "5791": " stardu",
  "5792": " stardus",
  "5793": " stardust",
  "5794": " stap",
  "5795": " stapl",
  "5796": " staple",
  "5797": " stapler",
  "5798": " stan",
  "5799": " stand",
  "5800": " stands",
  "5801": " standi",
  "5802": " standin",
  "5803": " standing",
  "5804": " standa",
  "5805": " standar",
  "5806": " standard",
  "5807": " standards",
  "5808": " stam",
  "5809": " stamp",
  "5810": " stamps",
  "5811": " stampi",
  "5812": " stampin",
  "5813": " stamping",
  "5814": " stampe",
  "5815": " stamped",
  "5816": " stamm",
  "5817": " stamme",
  "5818": " stammer",
  "5819": " stammere",
  "5820": " stammered",
  "5821": " stal",
  "5822": " stall",
  "5823": " stalls",
  "5824": " stalk",
  "5825": " stalks",
  "5826": " stale",
  "5827": " stak",
  "5828": " stake",
  "5829": " stai",
  "5830": " stair",
  "5831": " stairw",
  "5832": " stairwa",
  "5833": " stairway",
  "5834": " stairs",
  "5835": " stairc",
  "5836": " stairca",
  "5837": " staircas",
  "5838": " staircase",
  "5839": " stain",
  "5840": " stains",
  "5841": " staine",
  "5842": " stained",
  "5843": " stag",
  "5844": " stage",
  "5845": " stages",
  "5846": " staf",
  "5847": " staff",
  "5848": " staffs",
  "5849": " stad",
  "5850": " stadi",
  "5851": " stadiu",
  "5852": " stadium",
  "5853": " stac",
  "5854": " stack",
  "5855": " stacks",
  "5856": " stacki",
  "5857": " stackin",
  "5858": " stacking",
  "5859": " stacke",
  "5860": " stacked",
  "5861": " stab",
  "5862": " stabl",
  "5863": " stable",
  "5864": " stables",
  "5865": " stablem",
  "5866": " stablema",
  "5867": " stableman",
  "5868": " stabi",
  "5869": " stabil",
  "5870": " stabili",
  "5871": " stabilit",
  "5872": " stability",
  "5873": " stabb",
  "5874": " stabbe",
  "5875": " stabbed",
  "5876": " ss",
  "5877": " sss",
  "5878": " sssss",
  "5879": " sq",
  "5880": " squ",
  "5881": " squi",
  "5882": " squis",
  "5883": " squishe",
  "5884": " squishes",
  "5885": " squished",
  "5886": " squish",
  "5887": " squishy",
  "5888": " squishi",
  "5889": " squishin",
  "5890": " squishing",
  "5891": " squir",
  "5892": " squirt",
  "5893": " squirts",
  "5894": " squirti",
  "5895": " squirtin",
  "5896": " squirting",
  "5897": " squirte",
  "5898": " squirted",
  "5899": " squirr",
  "5900": " squirre",
  "5901": " squirrel",
  "5902": " squirrels",
  "5903": " squirrell",
  "5904": " squirm",
  "5905": " squirms",
  "5906": " squirmi",
  "5907": " squirmin",
  "5908": " squirming",
  "5909": " squirme",
  "5910": " squirmed",
  "5911": " squin",
  "5912": " squint",
  "5913": " squinti",
  "5914": " squintin",
  "5915": " squinting",
  "5916": " squinte",
  "5917": " squinted",
  "5918": " squig",
  "5919": " squigg",
  "5920": " squiggl",
  "5921": " squiggle",
  "5922": " squiggles",
  "5923": " sque",
  "5924": " squee",
  "5925": " squeez",
  "5926": " squeezi",
  "5927": " squeezin",
  "5928": " squeezing",
  "5929": " squeeze",
  "5930": " squeezes",
  "5931": " squeezed",
  "5932": " squea",
  "5933": " squeal",
  "5934": " squeals",
  "5935": " squeali",
  "5936": " squealin",
  "5937": " squealing",
  "5938": " squeale",
  "5939": " squealed",
  "5940": " squeak",
  "5941": " squeaky",
  "5942": " squeaks",
  "5943": " squeaki",
  "5944": " squeakin",
  "5945": " squeaking",
  "5946": " squeake",
  "5947": " squeaked",
  "5948": " squa",
  "5949": " squaw",
  "5950": " squawk",
  "5951": " squawks",
  "5952": " squawki",
  "5953": " squawkin",
  "5954": " squawking",
  "5955": " squawke",
  "5956": " squawked",
  "5957": " squat",
  "5958": " squatt",
  "5959": " squatte",
  "5960": " squatted",
  "5961": " squats",
  "5962": " squas",
  "5963": " squashe",
  "5964": " squashes",
  "5965": " squashed",
  "5966": " squash",
  "5967": " squar",
  "5968": " square",
  "5969": " squares",
  "5970": " sp",
  "5971": " spy",
  "5972": " spu",
  "5973": " sput",
  "5974": " sputt",
  "5975": " sputte",
  "5976": " sputter",
  "5977": " sputtere",
  "5978": " sputtered",
  "5979": " spur",
  "5980": " spurr",
  "5981": " spun",
  "5982": " spr",
  "5983": " spru",
  "5984": " sprun",
  "5985": " sprung",
  "5986": " spro",
  "5987": " sprou",
  "5988": " sprout",
  "5989": " sprouts",
  "5990": " sprouti",
  "5991": " sproutin",
  "5992": " sprouting",
  "5993": " sproute",
  "5994": " sprouted",
  "5995": " spri",
  "5996": " sprit",
  "5997": " sprite",
  "5998": " sprin",
  "5999": " sprint",
  "6000": " sprinti",
  "6001": " sprintin",
  "6002": " sprinting",
  "6003": " sprinte",
  "6004": " sprinted",
  "6005": " sprink",
  "6006": " sprinkl",
  "6007": " sprinkli",
  "6008": " sprinklin",
  "6009": " sprinkling",
  "6010": " sprinkle",
  "6011": " sprinkles",
  "6012": " sprinkler",
  "6013": " sprinklers",
  "6014": " sprinkled",
  "6015": " spring",
  "6016": " springy",
  "6017": " springt",
  "6018": " springti",
  "6019": " springtim",
  "6020": " springtime",
  "6021": " springs",
  "6022": " springi",
  "6023": " springin",
  "6024": " springing",
  "6025": " springe",
  "6026": " springer",
  "6027": " springed",
  "6028": " spre",
  "6029": " sprea",
  "6030": " spread",
  "6031": " spreads",
  "6032": " spreadi",
  "6033": " spreadin",
  "6034": " spreading",
  "6035": " spreada",
  "6036": " spreadab",
  "6037": " spreadabl",
  "6038": " spreadable",
  "6039": " spra",
  "6040": " spray",
  "6041": " sprays",
  "6042": " sprayi",
  "6043": " sprayin",
  "6044": " spraying",
  "6045": " spraye",
  "6046": " sprayed",
  "6047": " spraw",
  "6048": " sprawl",
  "6049": " spran",
  "6050": " sprang",
  "6051": " sprai",
  "6052": " sprain",
  "6053": " spraine",
  "6054": " sprained",
  "6055": " spo",
  "6056": " spou",
  "6057": " spout",
  "6058": " spot",
  "6059": " spott",
  "6060": " spotty",
  "6061": " spotti",
  "6062": " spottin",
  "6063": " spotting",
  "6064": " spotte",
  "6065": " spotted",
  "6066": " spots",
  "6067": " spotl",
  "6068": " spotli",
  "6069": " spotlig",
  "6070": " spotligh",
  "6071": " spotlight",
  "6072": " spotle",
  "6073": " spotles",
  "6074": " spotless",
  "6075": " spor",
  "6076": " sport",
  "6077": " sporty",
  "6078": " sports",
  "6079": " sportsm",
  "6080": " sportsma",
  "6081": " sportsman",
  "6082": " spoo",
  "6083": " spoon",
  "6084": " spoons",
  "6085": " spoonf",
  "6086": " spoonfu",
  "6087": " spoonful",
  "6088": " spoonfuls",
  "6089": " spoone",
  "6090": " spooned",
  "6091": " spook",
  "6092": " spooky",
  "6093": " spooke",
  "6094": " spooked",
  "6095": " spon",
  "6096": " spong",
  "6097": " spongy",
  "6098": " sponge",
  "6099": " sponges",
  "6100": " spok",
  "6101": " spoke",
  "6102": " spokes",
  "6103": " spoken",
  "6104": " spoi",
  "6105": " spoil",
  "6106": " spoilt",
  "6107": " spoils",
  "6108": " spoili",
  "6109": " spoilin",
  "6110": " spoiling",
  "6111": " spoile",
  "6112": " spoiler",
  "6113": " spoilers",
  "6114": " spoiled",
  "6115": " spl",
  "6116": " splu",
  "6117": " splut",
  "6118": " splutt",
  "6119": " splutte",
  "6120": " splutter",
  "6121": " splo",
  "6122": " spli",
  "6123": " split",
  "6124": " splitt",
  "6125": " splitti",
  "6126": " splittin",
  "6127": " splitting",
  "6128": " splits",
  "6129": " splis",
  "6130": " splish",
  "6131": " splin",
  "6132": " splint",
  "6133": " splinte",
  "6134": " splinter",
  "6135": " splinters",
  "6136": " splintere",
  "6137": " splintered",
  "6138": " sple",
  "6139": " splen",
  "6140": " splend",
  "6141": " splendi",
  "6142": " splendid",
  "6143": " spla",
  "6144": " splat",
  "6145": " splatt",
  "6146": " splatte",
  "6147": " splatter",
  "6148": " splattere",
  "6149": " splattered",
  "6150": " splas",
  "6151": " splashe",
  "6152": " splashes",
  "6153": " splashed",
  "6154": " splash",
  "6155": " splashy",
  "6156": " splashi",
  "6157": " splashin",
  "6158": " splashing",
  "6159": " spi",
  "6160": " spit",
  "6161": " spitt",
  "6162": " spitti",
  "6163": " spittin",
  "6164": " spitting",
  "6165": " spits",
  "6166": " spite",
  "6167": " spir",
  "6168": " spiri",
  "6169": " spirit",
  "6170": " spirits",
  "6171": " spirite",
  "6172": " spirited",
  "6173": " spira",
  "6174": " spiral",
  "6175": " spirali",
  "6176": " spiralin",
  "6177": " spiraling",
  "6178": " spin",
  "6179": " spins",
  "6180": " spinn",
  "6181": " spinni",
  "6182": " spinnin",
  "6183": " spinning",
  "6184": " spinne",
  "6185": " spinner",
  "6186": " spine",
  "6187": " spines",
  "6188": " spina",
  "6189": " spinac",
  "6190": " spinach",
  "6191": " spil",
  "6192": " spilt",
  "6193": " spill",
  "6194": " spills",
  "6195": " spilli",
  "6196": " spillin",
  "6197": " spilling",
  "6198": " spille",
  "6199": " spilled",
  "6200": " spik",
  "6201": " spiky",
  "6202": " spike",
  "6203": " spikey",
  "6204": " spikes",
  "6205": " spie",
  "6206": " spies",
  "6207": " spied",
  "6208": " spid",
  "6209": " spide",
  "6210": " spider",
  "6211": " spiders",
  "6212": " spic",
  "6213": " spicy",
  "6214": " spick",
  "6215": " spici",
  "6216": " spicin",
  "6217": " spicine",
  "6218": " spicines",
  "6219": " spiciness",
  "6220": " spicie",
  "6221": " spicies",
  "6222": " spiciest",
  "6223": " spicier",
  "6224": " spice",
  "6225": " spices",
  "6226": " spe",
  "6227": " spew",
  "6228": " spen",
  "6229": " spent",
  "6230": " spend",
  "6231": " spends",
  "6232": " spendi",
  "6233": " spendin",
  "6234": " spending",
  "6235": " spel",
  "6236": " spell",
  "6237": " spells",
  "6238": " spelli",
  "6239": " spellin",
  "6240": " spelling",
  "6241": " spelle",
  "6242": " speller",
  "6243": " spelled",
  "6244": " spee",
  "6245": " speed",
  "6246": " speedy",
  "6247": " speeds",
  "6248": " speedi",
  "6249": " speedin",
  "6250": " speeding",
  "6251": " speede",
  "6252": " speeded",
  "6253": " speec",
  "6254": " speech",
  "6255": " speechl",
  "6256": " speechle",
  "6257": " speechles",
  "6258": " speechless",
  "6259": " sped",
  "6260": " spec",
  "6261": " spect",
  "6262": " specta",
  "6263": " spectac",
  "6264": " spectacu",
  "6265": " spectacul",
  "6266": " spectacula",
  "6267": " spectacular",
  "6268": " spectacl",
  "6269": " spectacle",
  "6270": " speck",
  "6271": " specks",
  "6272": " speckl",
  "6273": " speckle",
  "6274": " speckled",
  "6275": " speci",
  "6276": " specie",
  "6277": " species",
  "6278": " specia",
  "6279": " special",
  "6280": " specialn",
  "6281": " specialne",
  "6282": " specialnes",
  "6283": " specialness",
  "6284": " speciall",
  "6285": " specially",
  "6286": " speciali",
  "6287": " specialis",
  "6288": " specialist",
  "6289": " specialists",
  "6290": " spea",
  "6291": " spear",
  "6292": " spears",
  "6293": " speak",
  "6294": " speaks",
  "6295": " speaki",
  "6296": " speakin",
  "6297": " speaking",
  "6298": " speake",
  "6299": " speaker",
  "6300": " speakers",
  "6301": " spa",
  "6302": " spat",
  "6303": " spatu",
  "6304": " spatul",
  "6305": " spatula",
  "6306": " spar",
  "6307": " sparr",
  "6308": " sparro",
  "6309": " sparrow",
  "6310": " sparrows",
  "6311": " spark",
  "6312": " sparks",
  "6313": " sparkl",
  "6314": " sparkly",
  "6315": " sparkli",
  "6316": " sparklin",
  "6317": " sparkling",
  "6318": " sparklie",
  "6319": " sparkle",
  "6320": " sparkles",
  "6321": " sparkler",
  "6322": " sparklers",
  "6323": " sparkled",
  "6324": " sparki",
  "6325": " sparkin",
  "6326": " sparking",
  "6327": " sparke",
  "6328": " sparked",
  "6329": " spari",
  "6330": " sparin",
  "6331": " sparing",
  "6332": " sparingl",
  "6333": " sparingly",
  "6334": " spare",
  "6335": " span",
  "6336": " spann",
  "6337": " spanne",
  "6338": " spanned",
  "6339": " spank",
  "6340": " spanki",
  "6341": " spankin",
  "6342": " spanking",
  "6343": " spag",
  "6344": " spaghe",
  "6345": " spaghet",
  "6346": " spaghett",
  "6347": " spaghetti",
  "6348": " spad",
  "6349": " spade",
  "6350": " spades",
  "6351": " spac",
  "6352": " spaci",
  "6353": " spacio",
  "6354": " spaciou",
  "6355": " spacious",
  "6356": " space",
  "6357": " spaces",
  "6358": " spacesh",
  "6359": " spaceshi",
  "6360": " spaceship",
  "6361": " spaceships",
  "6362": " spacem",
  "6363": " spacema",
  "6364": " spaceman",
  "6365": " so",
  "6366": " soy",
  "6367": " sow",
  "6368": " sowe",
  "6369": " sowed",
  "6370": " sou",
  "6371": " souv",
  "6372": " souve",
  "6373": " souven",
  "6374": " souveni",
  "6375": " souvenir",
  "6376": " souvenirs",
  "6377": " south",
  "6378": " sour",
  "6379": " sourn",
  "6380": " sourne",
  "6381": " sournes",
  "6382": " sourness",
  "6383": " sourc",
  "6384": " source",
  "6385": " soup",
  "6386": " soups",
  "6387": " soun",
  "6388": " sound",
  "6389": " sounds",
  "6390": " soundl",
  "6391": " soundly",
  "6392": " soundi",
  "6393": " soundin",
  "6394": " sounding",
  "6395": " sounde",
  "6396": " sounded",
  "6397": " soul",
  "6398": " souls",
  "6399": " soug",
  "6400": " sough",
  "6401": " sought",
  "6402": " sor",
  "6403": " sort",
  "6404": " sorts",
  "6405": " sorti",
  "6406": " sortin",
  "6407": " sorting",
  "6408": " sorte",
  "6409": " sorter",
  "6410": " sorted",
  "6411": " sorr",
  "6412": " sorry",
  "6413": " sorro",
  "6414": " sorrow",
  "6415": " sorrows",
  "6416": " sore",
  "6417": " sorc",
  "6418": " sorce",
  "6419": " sorcer",
  "6420": " sorcere",
  "6421": " sorcerer",
  "6422": " sorb",
  "6423": " sorbe",
  "6424": " sorbet",
  "6425": " sop",
  "6426": " sopp",
  "6427": " sooo",
  "6428": " soo",
  "6429": " sooth",
  "6430": " soothi",
  "6431": " soothin",
  "6432": " soothing",
  "6433": " soothingl",
  "6434": " soothingly",
  "6435": " soot",
  "6436": " soothe",
  "6437": " soothed",
  "6438": " soooo",
  "6439": " sooooo",
  "6440": " soon",
  "6441": " soone",
  "6442": " sooner",
  "6443": " son",
  "6444": " sons",
  "6445": " song",
  "6446": " songs",
  "6447": " songb",
  "6448": " songbi",
  "6449": " songbir",
  "6450": " songbird",
  "6451": " songbirds",
  "6452": " som",
  "6453": " some",
  "6454": " somew",
  "6455": " somewhe",
  "6456": " somewher",
  "6457": " somewhere",
  "6458": " somewh",
  "6459": " somewha",
  "6460": " somewhat",
  "6461": " someth",
  "6462": " somethi",
  "6463": " somethin",
  "6464": " something",
  "6465": " somethings",
  "6466": " somet",
  "6467": " someti",
  "6468": " sometim",
  "6469": " sometime",
  "6470": " sometimes",
  "6471": " somer",
  "6472": " somers",
  "6473": " somersa",
  "6474": " somersau",
  "6475": " somersaul",
  "6476": " somersault",
  "6477": " somersaults",
  "6478": " somersaulti",
  "6479": " somersaultin",
  "6480": " somersaulting",
  "6481": " somep",
  "6482": " somepl",
  "6483": " somepla",
  "6484": " someplac",
  "6485": " someplace",
  "6486": " someo",
  "6487": " someon",
  "6488": " someone",
  "6489": " someh",
  "6490": " someho",
  "6491": " somehow",
  "6492": " somed",
  "6493": " someda",
  "6494": " someday",
  "6495": " someb",
  "6496": " somebo",
  "6497": " somebod",
  "6498": " somebody",
  "6499": " sol",
  "6500": " solv",
  "6501": " solvi",
  "6502": " solvin",
  "6503": " solving",
  "6504": " solve",
  "6505": " solves",
  "6506": " solver",
  "6507": " solved",
  "6508": " solu",
  "6509": " solut",
  "6510": " soluti",
  "6511": " solutio",
  "6512": " solution",
  "6513": " solutions",
  "6514": " solo",
  "6515": " soli",
  "6516": " solid",
  "6517": " sole",
  "6518": " solem",
  "6519": " solemn",
  "6520": " solemnl",
  "6521": " solemnly",
  "6522": " sold",
  "6523": " soldi",
  "6524": " soldie",
  "6525": " soldier",
  "6526": " soldiers",
  "6527": " sola",
  "6528": " solar",
  "6529": " soi",
  "6530": " soil",
  "6531": " sog",
  "6532": " sogg",
  "6533": " soggy",
  "6534": " sof",
  "6535": " soft",
  "6536": " softn",
  "6537": " softne",
  "6538": " softnes",
  "6539": " softness",
  "6540": " softl",
  "6541": " softly",
  "6542": " softe",
  "6543": " softes",
  "6544": " softest",
  "6545": " softer",
  "6546": " soften",
  "6547": " softens",
  "6548": " softene",
  "6549": " softened",
  "6550": " sofa",
  "6551": " sofas",
  "6552": " sod",
  "6553": " soda",
  "6554": " soc",
  "6555": " sock",
  "6556": " socks",
  "6557": " socke",
  "6558": " socket",
  "6559": " socked",
  "6560": " soci",
  "6561": " socia",
  "6562": " social",
  "6563": " socc",
  "6564": " socce",
  "6565": " soccer",
  "6566": " sob",
  "6567": " sobs",
  "6568": " sobb",
  "6569": " sobbi",
  "6570": " sobbin",
  "6571": " sobbing",
  "6572": " sobbe",
  "6573": " sobbed",
  "6574": " soa",
  "6575": " soar",
  "6576": " soars",
  "6577": " soari",
  "6578": " soarin",
  "6579": " soaring",
  "6580": " soare",
  "6581": " soared",
  "6582": " soap",
  "6583": " soapy",
  "6584": " soaps",
  "6585": " soapsu",
  "6586": " soapsud",
  "6587": " soapsuds",
  "6588": " soak",
  "6589": " soaky",
  "6590": " soaks",
  "6591": " soaki",
  "6592": " soakin",
  "6593": " soaking",
  "6594": " soake",
  "6595": " soaked",
  "6596": " sn",
  "6597": " snu",
  "6598": " snug",
  "6599": " snugl",
  "6600": " snugly",
  "6601": " snugg",
  "6602": " snuggl",
  "6603": " snuggly",
  "6604": " snuggli",
  "6605": " snugglin",
  "6606": " snuggling",
  "6607": " snuggle",
  "6608": " snuggles",
  "6609": " snuggled",
  "6610": " snuc",
  "6611": " snuck",
  "6612": " sno",
  "6613": " snow",
  "6614": " snowy",
  "6615": " snows",
  "6616": " snowst",
  "6617": " snowsto",
  "6618": " snowstor",
  "6619": " snowstorm",
  "6620": " snowm",
  "6621": " snowme",
  "6622": " snowmen",
  "6623": " snowma",
  "6624": " snowman",
  "6625": " snowi",
  "6626": " snowin",
  "6627": " snowing",
  "6628": " snowf",
  "6629": " snowfl",
  "6630": " snowfla",
  "6631": " snowflak",
  "6632": " snowflake",
  "6633": " snowflakes",
  "6634": " snowe",
  "6635": " snowed",
  "6636": " snowd",
  "6637": " snowdr",
  "6638": " snowdro",
  "6639": " snowdrop",
  "6640": " snowdo",
  "6641": " snowdog",
  "6642": " snowb",
  "6643": " snowba",
  "6644": " snowbal",
  "6645": " snowball",
  "6646": " snowballs",
  "6647": " snou",
  "6648": " snout",
  "6649": " snot",
  "6650": " snor",
  "6651": " snort",
  "6652": " snorts",
  "6653": " snorti",
  "6654": " snortin",
  "6655": " snorting",
  "6656": " snorte",
  "6657": " snorted",
  "6658": " snork",
  "6659": " snorke",
  "6660": " snorkel",
  "6661": " snorkels",
  "6662": " snorkell",
  "6663": " snori",
  "6664": " snorin",
  "6665": " snoring",
  "6666": " snore",
  "6667": " snores",
  "6668": " snored",
  "6669": " snoo",
  "6670": " snooz",
  "6671": " snoozi",
  "6672": " snoozin",
  "6673": " snoozing",
  "6674": " snooze",
  "6675": " snoozed",
  "6676": " snoot",
  "6677": " snooty",
  "6678": " snoop",
  "6679": " snoopi",
  "6680": " snoopin",
  "6681": " snooping",
  "6682": " sni",
  "6683": " snip",
  "6684": " snipp",
  "6685": " snippi",
  "6686": " snippin",
  "6687": " snipping",
  "6688": " snippe",
  "6689": " snipped",
  "6690": " snif",
  "6691": " sniff",
  "6692": " sniffs",
  "6693": " sniffl",
  "6694": " sniffly",
  "6695": " sniffli",
  "6696": " snifflin",
  "6697": " sniffling",
  "6698": " sniffle",
  "6699": " sniffles",
  "6700": " sniffled",
  "6701": " sniffi",
  "6702": " sniffin",
  "6703": " sniffing",
  "6704": " sniffe",
  "6705": " sniffed",
  "6706": " snic",
  "6707": " snick",
  "6708": " snicke",
  "6709": " snicker",
  "6710": " snickere",
  "6711": " snickered",
  "6712": " sne",
  "6713": " snee",
  "6714": " sneez",
  "6715": " sneezy",
  "6716": " sneezi",
  "6717": " sneezin",
  "6718": " sneezing",
  "6719": " sneeze",
  "6720": " sneezes",
  "6721": " sneezed",
  "6722": " sneer",
  "6723": " sneere",
  "6724": " sneered",
  "6725": " snea",
  "6726": " sneak",
  "6727": " sneaky",
  "6728": " sneaks",
  "6729": " sneaki",
  "6730": " sneakin",
  "6731": " sneaking",
  "6732": " sneake",
  "6733": " sneaker",
  "6734": " sneakers",
  "6735": " sneaked",
  "6736": " sna",
  "6737": " snat",
  "6738": " snatc",
  "6739": " snatche",
  "6740": " snatches",
  "6741": " snatched",
  "6742": " snatch",
  "6743": " snatchi",
  "6744": " snatchin",
  "6745": " snatching",
  "6746": " snar",
  "6747": " snarl",
  "6748": " snarls",
  "6749": " snarli",
  "6750": " snarlin",
  "6751": " snarling",
  "6752": " snarle",
  "6753": " snarled",
  "6754": " snap",
  "6755": " snaps",
  "6756": " snapp",
  "6757": " snappi",
  "6758": " snappin",
  "6759": " snapping",
  "6760": " snappe",
  "6761": " snapped",
  "6762": " snapd",
  "6763": " snapdr",
  "6764": " snapdra",
  "6765": " snapdrag",
  "6766": " snapdrago",
  "6767": " snapdragon",
  "6768": " snak",
  "6769": " snake",
  "6770": " snakes",
  "6771": " snaked",
  "6772": " snai",
  "6773": " snail",
  "6774": " snails",
  "6775": " snac",
  "6776": " snack",
  "6777": " snacks",
  "6778": " snacki",
  "6779": " snackin",
  "6780": " snacking",
  "6781": " snacke",
  "6782": " snacked",
  "6783": " sm",
  "6784": " smu",
  "6785": " smug",
  "6786": " smud",
  "6787": " smudg",
  "6788": " smudge",
  "6789": " smudges",
  "6790": " smudged",
  "6791": " smo",
  "6792": " smot",
  "6793": " smothe",
  "6794": " smother",
  "6795": " smothere",
  "6796": " smothered",
  "6797": " smor",
  "6798": " smore",
  "6799": " smores",
  "6800": " smoo",
  "6801": " smooth",
  "6802": " smooths",
  "6803": " smoothn",
  "6804": " smoothne",
  "6805": " smoothnes",
  "6806": " smoothness",
  "6807": " smoothl",
  "6808": " smoothly",
  "6809": " smoothi",
  "6810": " smoothie",
  "6811": " smoot",
  "6812": " smoothe",
  "6813": " smoothes",
  "6814": " smoothest",
  "6815": " smoother",
  "6816": " smoothed",
  "6817": " smok",
  "6818": " smoky",
  "6819": " smoki",
  "6820": " smokin",
  "6821": " smoking",
  "6822": " smoke",
  "6823": " smokes",
  "6824": " smokest",
  "6825": " smokesta",
  "6826": " smokestac",
  "6827": " smokestack",
  "6828": " smoked",
  "6829": " smoc",
  "6830": " smock",
  "6831": " smi",
  "6832": " smir",
  "6833": " smirk",
  "6834": " smirke",
  "6835": " smirked",
  "6836": " smil",
  "6837": " smili",
  "6838": " smilin",
  "6839": " smiling",
  "6840": " smile",
  "6841": " smiley",
  "6842": " smiles",
  "6843": " smiled",
  "6844": " sme",
  "6845": " smel",
  "6846": " smelt",
  "6847": " smell",
  "6848": " smelly",
  "6849": " smells",
  "6850": " smelli",
  "6851": " smellin",
  "6852": " smelling",
  "6853": " smelle",
  "6854": " smelled",
  "6855": " smea",
  "6856": " smear",
  "6857": " smears",
  "6858": " smeare",
  "6859": " smeared",
  "6860": " sma",
  "6861": " smas",
  "6862": " smashe",
  "6863": " smashed",
  "6864": " smash",
  "6865": " smashi",
  "6866": " smashin",
  "6867": " smashing",
  "6868": " smar",
  "6869": " smart",
  "6870": " smarts",
  "6871": " smartn",
  "6872": " smartne",
  "6873": " smartnes",
  "6874": " smartness",
  "6875": " smartl",
  "6876": " smartly",
  "6877": " smarte",
  "6878": " smartes",
  "6879": " smartest",
  "6880": " smarter",
  "6881": " smal",
  "6882": " small",
  "6883": " smalls",
  "6884": " smalle",
  "6885": " smalles",
  "6886": " smallest",
  "6887": " smaller",
  "6888": " smac",
  "6889": " smack",
  "6890": " smacke",
  "6891": " smacked",
  "6892": " sl",
  "6893": " sly",
  "6894": " slyl",
  "6895": " slyly",
  "6896": " slu",
  "6897": " slur",
  "6898": " slurp",
  "6899": " slurpi",
  "6900": " slurpin",
  "6901": " slurping",
  "6902": " slurpe",
  "6903": " slurped",
  "6904": " slun",
  "6905": " slunk",
  "6906": " slum",
  "6907": " slump",
  "6908": " slumpe",
  "6909": " slumped",
  "6910": " slumb",
  "6911": " slumbe",
  "6912": " slumber",
  "6913": " slug",
  "6914": " slugg",
  "6915": " sluggi",
  "6916": " sluggis",
  "6917": " sluggish",
  "6918": " slo",
  "6919": " slow",
  "6920": " slows",
  "6921": " slowl",
  "6922": " slowly",
  "6923": " slowi",
  "6924": " slowin",
  "6925": " slowing",
  "6926": " slowe",
  "6927": " slowes",
  "6928": " slowest",
  "6929": " slower",
  "6930": " slowed",
  "6931": " slou",
  "6932": " slouc",
  "6933": " slouche",
  "6934": " slouched",
  "6935": " sloth",
  "6936": " slot",
  "6937": " slots",
  "6938": " slop",
  "6939": " slopp",
  "6940": " sloppy",
  "6941": " slope",
  "6942": " slob",
  "6943": " slobb",
  "6944": " slobbe",
  "6945": " slobber",
  "6946": " slobbery",
  "6947": " sli",
  "6948": " sliv",
  "6949": " slive",
  "6950": " sliver",
  "6951": " slit",
  "6952": " slithe",
  "6953": " slither",
  "6954": " slithers",
  "6955": " slitheri",
  "6956": " slitherin",
  "6957": " slithering",
  "6958": " slithere",
  "6959": " slithered",
  "6960": " slip",
  "6961": " slips",
  "6962": " slipp",
  "6963": " slippy",
  "6964": " slippi",
  "6965": " slippin",
  "6966": " slipping",
  "6967": " slippe",
  "6968": " slipper",
  "6969": " slippery",
  "6970": " slippers",
  "6971": " slipped",
  "6972": " slin",
  "6973": " slink",
  "6974": " slinke",
  "6975": " slinked",
  "6976": " sling",
  "6977": " slings",
  "6978": " slingsh",
  "6979": " slingsho",
  "6980": " slingshot",
  "6981": " slim",
  "6982": " slimy",
  "6983": " slime",
  "6984": " slig",
  "6985": " sligh",
  "6986": " slight",
  "6987": " slightl",
  "6988": " slightly",
  "6989": " slid",
  "6990": " slidi",
  "6991": " slidin",
  "6992": " sliding",
  "6993": " slide",
  "6994": " slides",
  "6995": " slider",
  "6996": " slidei",
  "6997": " slidein",
  "6998": " slideing",
  "6999": " slidee",
  "7000": " slideed",
  "7001": " slic",
  "7002": " slici",
  "7003": " slicin",
  "7004": " slicing",
  "7005": " slice",
  "7006": " slices",
  "7007": " sliced",
  "7008": " sle",
  "7009": " slep",
  "7010": " slept",
  "7011": " slei",
  "7012": " sleig",
  "7013": " sleigh",
  "7014": " slee",
  "7015": " sleev",
  "7016": " sleeve",
  "7017": " sleeves",
  "7018": " sleep",
  "7019": " sleepy",
  "7020": " sleepw",
  "7021": " sleepwa",
  "7022": " sleepwal",
  "7023": " sleepwalk",
  "7024": " sleeps",
  "7025": " sleepo",
  "7026": " sleepov",
  "7027": " sleepove",
  "7028": " sleepover",
  "7029": " sleepi",
  "7030": " sleepin",
  "7031": " sleeping",
  "7032": " sleepine",
  "7033": " sleepines",
  "7034": " sleepiness",
  "7035": " sleepil",
  "7036": " sleepily",
  "7037": " sleepie",
  "7038": " sleepier",
  "7039": " sleepe",
  "7040": " sleeper",
  "7041": " sleek",
  "7042": " sled",
  "7043": " sleds",
  "7044": " sledd",
  "7045": " sleddi",
  "7046": " sleddin",
  "7047": " sledding",
  "7048": " sla",
  "7049": " slay",
  "7050": " slav",
  "7051": " slave",
  "7052": " slaves",
  "7053": " slat",
  "7054": " slathe",
  "7055": " slather",
  "7056": " slathere",
  "7057": " slathered",
  "7058": " slas",
  "7059": " slashe",
  "7060": " slashed",
  "7061": " slash",
  "7062": " slap",
  "7063": " slaps",
  "7064": " slapp",
  "7065": " slappi",
  "7066": " slappin",
  "7067": " slapping",
  "7068": " slappe",
  "7069": " slapped",
  "7070": " slam",
  "7071": " slams",
  "7072": " slamm",
  "7073": " slamme",
  "7074": " slammed",
  "7075": " sk",
  "7076": " sky",
  "7077": " skyw",
  "7078": " skywa",
  "7079": " skywar",
  "7080": " skyward",
  "7081": " skyl",
  "7082": " sku",
  "7083": " skun",
  "7084": " skunk",
  "7085": " skul",
  "7086": " skull",
  "7087": " skulls",
  "7088": " ski",
  "7089": " skit",
  "7090": " skitt",
  "7091": " skitte",
  "7092": " skitter",
  "7093": " skitteri",
  "7094": " skitterin",
  "7095": " skittering",
  "7096": " skittere",
  "7097": " skittered",
  "7098": " skir",
  "7099": " skirt",
  "7100": " skirts",
  "7101": " skip",
  "7102": " skips",
  "7103": " skipp",
  "7104": " skippi",
  "7105": " skippin",
  "7106": " skipping",
  "7107": " skippe",
  "7108": " skipper",
  "7109": " skipped",
  "7110": " skin",
  "7111": " skinn",
  "7112": " skinny",
  "7113": " skinne",
  "7114": " skinned",
  "7115": " skim",
  "7116": " skimm",
  "7117": " skimmi",
  "7118": " skimmin",
  "7119": " skimming",
  "7120": " skil",
  "7121": " skill",
  "7122": " skills",
  "7123": " skillf",
  "7124": " skillfu",
  "7125": " skillful",
  "7126": " skillfull",
  "7127": " skillfully",
  "7128": " skille",
  "7129": " skilled",
  "7130": " skie",
  "7131": " skies",
  "7132": " skid",
  "7133": " skidd",
  "7134": " skidde",
  "7135": " skidded",
  "7136": " ske",
  "7137": " skew",
  "7138": " skewe",
  "7139": " skewer",
  "7140": " sket",
  "7141": " sketc",
  "7142": " sketche",
  "7143": " sketched",
  "7144": " sketch",
  "7145": " skep",
  "7146": " skept",
  "7147": " skepti",
  "7148": " skeptic",
  "7149": " skeptica",
  "7150": " skeptical",
  "7151": " skel",
  "7152": " skele",
  "7153": " skelet",
  "7154": " skeleto",
  "7155": " skeleton",
  "7156": " skeletons",
  "7157": " ska",
  "7158": " skat",
  "7159": " skati",
  "7160": " skatin",
  "7161": " skating",
  "7162": " skate",
  "7163": " skates",
  "7164": " skated",
  "7165": " skateb",
  "7166": " skatebo",
  "7167": " skateboa",
  "7168": " skateboar",
  "7169": " skateboard",
  "7170": " skateboards",
  "7171": " si",
  "7172": " siz",
  "7173": " sizz",
  "7174": " sizzl",
  "7175": " sizzli",
  "7176": " sizzlin",
  "7177": " sizzling",
  "7178": " sizzle",
  "7179": " sizzled",
  "7180": " size",
  "7181": " sizes",
  "7182": " sized",
  "7183": " six",
  "7184": " sixth",
  "7185": " sixt",
  "7186": " sixty",
  "7187": " sixte",
  "7188": " sixtee",
  "7189": " sixteen",
  "7190": " sit",
  "7191": " situ",
  "7192": " situa",
  "7193": " situat",
  "7194": " situati",
  "7195": " situatio",
  "7196": " situation",
  "7197": " situations",
  "7198": " sitt",
  "7199": " sitti",
  "7200": " sittin",
  "7201": " sitting",
  "7202": " sits",
  "7203": " site",
  "7204": " sis",
  "7205": " sist",
  "7206": " siste",
  "7207": " sister",
  "7208": " sisters",
  "7209": " sisterl",
  "7210": " sisterly",
  "7211": " sir",
  "7212": " sire",
  "7213": " siren",
  "7214": " sirens",
  "7215": " sip",
  "7216": " sips",
  "7217": " sipp",
  "7218": " sippi",
  "7219": " sippin",
  "7220": " sipping",
  "7221": " sippe",
  "7222": " sipped",
  "7223": " sin",
  "7224": " sink",
  "7225": " sinks",
  "7226": " sinki",
  "7227": " sinkin",
  "7228": " sinking",
  "7229": " sini",
  "7230": " sinis",
  "7231": " sinist",
  "7232": " siniste",
  "7233": " sinister",
  "7234": " sing",
  "7235": " sings",
  "7236": " singl",
  "7237": " single",
  "7238": " singi",
  "7239": " singin",
  "7240": " singing",
  "7241": " singe",
  "7242": " singer",
  "7243": " singers",
  "7244": " singed",
  "7245": " sinc",
  "7246": " since",
  "7247": " sincer",
  "7248": " sincere",
  "7249": " sim",
  "7250": " simp",
  "7251": " simpl",
  "7252": " simply",
  "7253": " simple",
  "7254": " simples",
  "7255": " simplest",
  "7256": " simpler",
  "7257": " simm",
  "7258": " simme",
  "7259": " simmer",
  "7260": " simi",
  "7261": " simil",
  "7262": " simila",
  "7263": " similar",
  "7264": " similari",
  "7265": " similarit",
  "7266": " similariti",
  "7267": " similaritie",
  "7268": " similarities",
  "7269": " sil",
  "7270": " silv",
  "7271": " silve",
  "7272": " silver",
  "7273": " silverw",
  "7274": " silverwa",
  "7275": " silverwar",
  "7276": " silverware",
  "7277": " sill",
  "7278": " silly",
  "7279": " silli",
  "7280": " sillin",
  "7281": " silline",
  "7282": " sillines",
  "7283": " silliness",
  "7284": " sillie",
  "7285": " sillies",
  "7286": " silliest",
  "7287": " sillier",
  "7288": " silk",
  "7289": " silky",
  "7290": " silh",
  "7291": " silho",
  "7292": " silhou",
  "7293": " silhoue",
  "7294": " silhouet",
  "7295": " silhouett",
  "7296": " silhouette",
  "7297": " sile",
  "7298": " silen",
  "7299": " silent",
  "7300": " silentl",
  "7301": " silently",
  "7302": " silenc",
  "7303": " silence",
  "7304": " sig",
  "7305": " sign",
  "7306": " signs",
  "7307": " signi",
  "7308": " signin",
  "7309": " signing",
  "7310": " signif",
  "7311": " signifi",
  "7312": " signific",
  "7313": " significa",
  "7314": " significan",
  "7315": " significanc",
  "7316": " significance",
  "7317": " signe",
  "7318": " signed",
  "7319": " signa",
  "7320": " signat",
  "7321": " signatu",
  "7322": " signatur",
  "7323": " signature",
  "7324": " signal",
  "7325": " signals",
  "7326": " signall",
  "7327": " signalli",
  "7328": " signallin",
  "7329": " signalling",
  "7330": " sighe",
  "7331": " sighed",
  "7332": " sigh",
  "7333": " sight",
  "7334": " sights",
  "7335": " sighs",
  "7336": " sighi",
  "7337": " sighin",
  "7338": " sighing",
  "7339": " sif",
  "7340": " sift",
  "7341": " sid",
  "7342": " side",
  "7343": " sidew",
  "7344": " sidewa",
  "7345": " sideway",
  "7346": " sideways",
  "7347": " sidewal",
  "7348": " sidewalk",
  "7349": " sides",
  "7350": " sidel",
  "7351": " sideli",
  "7352": " sidelin",
  "7353": " sideline",
  "7354": " sidelines",
  "7355": " sidek",
  "7356": " sideki",
  "7357": " sidekic",
  "7358": " sidekick",
  "7359": " sic",
  "7360": " sick",
  "7361": " sickn",
  "7362": " sickne",
  "7363": " sicknes",
  "7364": " sickness",
  "7365": " sicke",
  "7366": " sicker",
  "7367": " sib",
  "7368": " sibl",
  "7369": " sibli",
  "7370": " siblin",
  "7371": " sibling",
  "7372": " siblings",
  "7373": " she",
  "7374": " shel",
  "7375": " shelv",
  "7376": " shelve",
  "7377": " shelves",
  "7378": " shelt",
  "7379": " shelte",
  "7380": " shelter",
  "7381": " shelters",
  "7382": " sheltere",
  "7383": " sheltered",
  "7384": " shell",
  "7385": " shells",
  "7386": " shelf",
  "7387": " shee",
  "7388": " sheet",
  "7389": " sheets",
  "7390": " sheep",
  "7391": " sheepi",
  "7392": " sheepis",
  "7393": " sheepish",
  "7394": " sheepishl",
  "7395": " sheepishly",
  "7396": " sheepd",
  "7397": " sheepdo",
  "7398": " sheepdog",
  "7399": " shed",
  "7400": " shea",
  "7401": " shear",
  "7402": " sh",
  "7403": " shy",
  "7404": " shyn",
  "7405": " shyne",
  "7406": " shynes",
  "7407": " shyness",
  "7408": " shyl",
  "7409": " shyly",
  "7410": " shye",
  "7411": " shu",
  "7412": " shut",
  "7413": " shutt",
  "7414": " shuttl",
  "7415": " shuttle",
  "7416": " shutti",
  "7417": " shuttin",
  "7418": " shutting",
  "7419": " shuts",
  "7420": " shus",
  "7421": " shushe",
  "7422": " shushed",
  "7423": " shush",
  "7424": " shuf",
  "7425": " shuff",
  "7426": " shuffl",
  "7427": " shuffli",
  "7428": " shufflin",
  "7429": " shuffling",
  "7430": " shuffle",
  "7431": " shuffled",
  "7432": " shud",
  "7433": " shudd",
  "7434": " shudde",
  "7435": " shudder",
  "7436": " shuddere",
  "7437": " shuddered",
  "7438": " shr",
  "7439": " shru",
  "7440": " shrun",
  "7441": " shrunk",
  "7442": " shrunke",
  "7443": " shrunken",
  "7444": " shrug",
  "7445": " shrugs",
  "7446": " shrugg",
  "7447": " shruggi",
  "7448": " shruggin",
  "7449": " shrugging",
  "7450": " shrugge",
  "7451": " shrugged",
  "7452": " shrub",
  "7453": " shrubs",
  "7454": " shri",
  "7455": " shrin",
  "7456": " shrink",
  "7457": " shrinks",
  "7458": " shrinki",
  "7459": " shrinkin",
  "7460": " shrinking",
  "7461": " shrim",
  "7462": " shrimp",
  "7463": " shrimps",
  "7464": " shril",
  "7465": " shrill",
  "7466": " shrie",
  "7467": " shriek",
  "7468": " shrieki",
  "7469": " shriekin",
  "7470": " shrieking",
  "7471": " shrieke",
  "7472": " shrieked",
  "7473": " shre",
  "7474": " shred",
  "7475": " shra",
  "7476": " shran",
  "7477": " shrank",
  "7478": " sho",
  "7479": " show",
  "7480": " showy",
  "7481": " shows",
  "7482": " shown",
  "7483": " showi",
  "7484": " showin",
  "7485": " showing",
  "7486": " showe",
  "7487": " shower",
  "7488": " showers",
  "7489": " showere",
  "7490": " showered",
  "7491": " showed",
  "7492": " shov",
  "7493": " shovi",
  "7494": " shovin",
  "7495": " shoving",
  "7496": " shove",
  "7497": " shovel",
  "7498": " shovels",
  "7499": " shovele",
  "7500": " shoveled",
  "7501": " shoved",
  "7502": " shou",
  "7503": " shout",
  "7504": " shouts",
  "7505": " shouti",
  "7506": " shoutin",
  "7507": " shouting",
  "7508": " shoute",
  "7509": " shouted",
  "7510": " shoul",
  "7511": " should",
  "7512": " shouldn",
  "7513": " shoulde",
  "7514": " shoulder",
  "7515": " shoulders",
  "7516": " shot",
  "7517": " shots",
  "7518": " shor",
  "7519": " short",
  "7520": " shorts",
  "7521": " shortl",
  "7522": " shortly",
  "7523": " shorte",
  "7524": " shorter",
  "7525": " shortc",
  "7526": " shortcu",
  "7527": " shortcut",
  "7528": " shortcuts",
  "7529": " shore",
  "7530": " shorel",
  "7531": " shoreli",
  "7532": " shorelin",
  "7533": " shoreline",
  "7534": " shop",
  "7535": " shops",
  "7536": " shopp",
  "7537": " shoppi",
  "7538": " shoppin",
  "7539": " shopping",
  "7540": " shoppe",
  "7541": " shopper",
  "7542": " shoppers",
  "7543": " shopped",
  "7544": " shopk",
  "7545": " shopke",
  "7546": " shopkee",
  "7547": " shopkeep",
  "7548": " shopkeepe",
  "7549": " shopkeeper",
  "7550": " shoo",
  "7551": " shoot",
  "7552": " shoots",
  "7553": " shooti",
  "7554": " shootin",
  "7555": " shooting",
  "7556": " shoote",
  "7557": " shooter",
  "7558": " shoos",
  "7559": " shook",
  "7560": " shooe",
  "7561": " shooed",
  "7562": " shon",
  "7563": " shone",
  "7564": " shoe",
  "7565": " shoes",
  "7566": " shoel",
  "7567": " shoela",
  "7568": " shoelac",
  "7569": " shoelace",
  "7570": " shoelaces",
  "7571": " shoeb",
  "7572": " shoebo",
  "7573": " shoebox",
  "7574": " shoc",
  "7575": " shock",
  "7576": " shocke",
  "7577": " shocked",
  "7578": " shi",
  "7579": " shiv",
  "7580": " shive",
  "7581": " shiver",
  "7582": " shivery",
  "7583": " shivers",
  "7584": " shiveri",
  "7585": " shiverin",
  "7586": " shivering",
  "7587": " shivere",
  "7588": " shivered",
  "7589": " shir",
  "7590": " shirt",
  "7591": " shirts",
  "7592": " ship",
  "7593": " shipw",
  "7594": " shipwr",
  "7595": " shipwre",
  "7596": " shipwrec",
  "7597": " shipwreck",
  "7598": " ships",
  "7599": " shin",
  "7600": " shiny",
  "7601": " shinn",
  "7602": " shinne",
  "7603": " shinned",
  "7604": " shini",
  "7605": " shinin",
  "7606": " shining",
  "7607": " shinie",
  "7608": " shinies",
  "7609": " shiniest",
  "7610": " shinier",
  "7611": " shine",
  "7612": " shiney",
  "7613": " shines",
  "7614": " shined",
  "7615": " shim",
  "7616": " shimm",
  "7617": " shimmi",
  "7618": " shimmie",
  "7619": " shimmied",
  "7620": " shimme",
  "7621": " shimmer",
  "7622": " shimmery",
  "7623": " shimmeri",
  "7624": " shimmerin",
  "7625": " shimmering",
  "7626": " shimmere",
  "7627": " shimmered",
  "7628": " shif",
  "7629": " shift",
  "7630": " shifte",
  "7631": " shifted",
  "7632": " shie",
  "7633": " shiel",
  "7634": " shield",
  "7635": " shields",
  "7636": " shhh",
  "7637": " shh",
  "7638": " shep",
  "7639": " shephe",
  "7640": " shepher",
  "7641": " shepherd",
  "7642": " sha",
  "7643": " shav",
  "7644": " shavi",
  "7645": " shavin",
  "7646": " shaving",
  "7647": " shave",
  "7648": " shaved",
  "7649": " shat",
  "7650": " shatt",
  "7651": " shatte",
  "7652": " shatter",
  "7653": " shatters",
  "7654": " shattere",
  "7655": " shattered",
  "7656": " shar",
  "7657": " sharp",
  "7658": " sharpl",
  "7659": " sharply",
  "7660": " sharpi",
  "7661": " sharpin",
  "7662": " sharping",
  "7663": " sharpe",
  "7664": " sharper",
  "7665": " sharpen",
  "7666": " sharpeni",
  "7667": " sharpenin",
  "7668": " sharpening",
  "7669": " sharpene",
  "7670": " sharpener",
  "7671": " sharpened",
  "7672": " sharped",
  "7673": " shark",
  "7674": " sharks",
  "7675": " shari",
  "7676": " sharin",
  "7677": " sharing",
  "7678": " share",
  "7679": " shares",
  "7680": " sharer",
  "7681": " sharers",
  "7682": " shared",
  "7683": " shap",
  "7684": " shapi",
  "7685": " shapin",
  "7686": " shaping",
  "7687": " shape",
  "7688": " shapes",
  "7689": " shaped",
  "7690": " sham",
  "7691": " shamp",
  "7692": " shampo",
  "7693": " shampoo",
  "7694": " shampoos",
  "7695": " shame",
  "7696": " shamef",
  "7697": " shamefu",
  "7698": " shameful",
  "7699": " shamefull",
  "7700": " shamefully",
  "7701": " shal",
  "7702": " shall",
  "7703": " shallo",
  "7704": " shallow",
  "7705": " shak",
  "7706": " shaky",
  "7707": " shaki",
  "7708": " shakin",
  "7709": " shaking",
  "7710": " shake",
  "7711": " shakes",
  "7712": " shaker",
  "7713": " shakers",
  "7714": " shaken",
  "7715": " shag",
  "7716": " shagg",
  "7717": " shaggy",
  "7718": " shad",
  "7719": " shady",
  "7720": " shado",
  "7721": " shadow",
  "7722": " shadowy",
  "7723": " shadows",
  "7724": " shadi",
  "7725": " shadin",
  "7726": " shading",
  "7727": " shade",
  "7728": " shades",
  "7729": " se",
  "7730": " sew",
  "7731": " sews",
  "7732": " sewi",
  "7733": " sewin",
  "7734": " sewing",
  "7735": " sewe",
  "7736": " sewer",
  "7737": " sewed",
  "7738": " sev",
  "7739": " seve",
  "7740": " sever",
  "7741": " severe",
  "7742": " severel",
  "7743": " severely",
  "7744": " severa",
  "7745": " several",
  "7746": " seven",
  "7747": " sevent",
  "7748": " seventy",
  "7749": " sevente",
  "7750": " seventee",
  "7751": " seventeen",
  "7752": " set",
  "7753": " setu",
  "7754": " setup",
  "7755": " sett",
  "7756": " settl",
  "7757": " settli",
  "7758": " settlin",
  "7759": " settling",
  "7760": " settle",
  "7761": " settles",
  "7762": " settled",
  "7763": " setti",
  "7764": " settin",
  "7765": " setting",
  "7766": " settings",
  "7767": " sets",
  "7768": " ses",
  "7769": " sess",
  "7770": " sessi",
  "7771": " sessio",
  "7772": " session",
  "7773": " sesa",
  "7774": " sesam",
  "7775": " sesame",
  "7776": " ser",
  "7777": " serv",
  "7778": " servi",
  "7779": " servin",
  "7780": " serving",
  "7781": " servic",
  "7782": " service",
  "7783": " services",
  "7784": " serviceb",
  "7785": " servicebe",
  "7786": " serviceber",
  "7787": " serviceberr",
  "7788": " serviceberry",
  "7789": " serve",
  "7790": " serves",
  "7791": " server",
  "7792": " served",
  "7793": " serva",
  "7794": " servan",
  "7795": " servant",
  "7796": " servants",
  "7797": " seri",
  "7798": " serio",
  "7799": " seriou",
  "7800": " serious",
  "7801": " seriousl",
  "7802": " seriously",
  "7803": " sere",
  "7804": " seren",
  "7805": " sereni",
  "7806": " serenit",
  "7807": " serenity",
  "7808": " serene",
  "7809": " seq",
  "7810": " sequ",
  "7811": " sequi",
  "7812": " sequin",
  "7813": " sequins",
  "7814": " sep",
  "7815": " sepa",
  "7816": " separ",
  "7817": " separa",
  "7818": " separat",
  "7819": " separati",
  "7820": " separatin",
  "7821": " separating",
  "7822": " separate",
  "7823": " separates",
  "7824": " separatel",
  "7825": " separately",
  "7826": " separated",
  "7827": " sen",
  "7828": " sent",
  "7829": " senti",
  "7830": " sentim",
  "7831": " sentime",
  "7832": " sentimen",
  "7833": " sentiment",
  "7834": " sente",
  "7835": " senten",
  "7836": " sentenc",
  "7837": " sentence",
  "7838": " sentences",
  "7839": " sens",
  "7840": " sensi",
  "7841": " sensit",
  "7842": " sensiti",
  "7843": " sensitiv",
  "7844": " sensitive",
  "7845": " sensin",
  "7846": " sensing",
  "7847": " sensib",
  "7848": " sensibl",
  "7849": " sensibly",
  "7850": " sensible",
  "7851": " sense",
  "7852": " senses",
  "7853": " sensed",
  "7854": " sensa",
  "7855": " sensat",
  "7856": " sensati",
  "7857": " sensatio",
  "7858": " sensation",
  "7859": " send",
  "7860": " sends",
  "7861": " sendi",
  "7862": " sendin",
  "7863": " sending",
  "7864": " sel",
  "7865": " selv",
  "7866": " selve",
  "7867": " selves",
  "7868": " sell",
  "7869": " sells",
  "7870": " selli",
  "7871": " sellin",
  "7872": " selling",
  "7873": " selle",
  "7874": " seller",
  "7875": " sellers",
  "7876": " self",
  "7877": " selfl",
  "7878": " selfle",
  "7879": " selfles",
  "7880": " selfless",
  "7881": " selfi",
  "7882": " selfis",
  "7883": " selfish",
  "7884": " selfishn",
  "7885": " selfishne",
  "7886": " selfishnes",
  "7887": " selfishness",
  "7888": " selfishl",
  "7889": " selfishly",
  "7890": " sele",
  "7891": " selec",
  "7892": " select",
  "7893": " selecti",
  "7894": " selectio",
  "7895": " selection",
  "7896": " selecte",
  "7897": " selected",
  "7898": " see",
  "7899": " sees",
  "7900": " seesa",
  "7901": " seesaw",
  "7902": " seesaws",
  "7903": " seesawe",
  "7904": " seesawed",
  "7905": " seen",
  "7906": " seem",
  "7907": " seems",
  "7908": " seemi",
  "7909": " seemin",
  "7910": " seeming",
  "7911": " seemingl",
  "7912": " seemingly",
  "7913": " seeme",
  "7914": " seemed",
  "7915": " seek",
  "7916": " seeki",
  "7917": " seekin",
  "7918": " seeking",
  "7919": " seeke",
  "7920": " seeker",
  "7921": " seei",
  "7922": " seein",
  "7923": " seeing",
  "7924": " seed",
  "7925": " seeds",
  "7926": " seedl",
  "7927": " seedli",
  "7928": " seedlin",
  "7929": " seedling",
  "7930": " sec",
  "7931": " secu",
  "7932": " secur",
  "7933": " securi",
  "7934": " securit",
  "7935": " security",
  "7936": " secure",
  "7937": " securel",
  "7938": " securely",
  "7939": " secured",
  "7940": " sect",
  "7941": " secti",
  "7942": " sectio",
  "7943": " section",
  "7944": " sections",
  "7945": " secr",
  "7946": " secre",
  "7947": " secret",
  "7948": " secrets",
  "7949": " secretl",
  "7950": " secretly",
  "7951": " secreti",
  "7952": " secretiv",
  "7953": " secretive",
  "7954": " seco",
  "7955": " secon",
  "7956": " second",
  "7957": " seconds",
  "7958": " sea",
  "7959": " seaw",
  "7960": " seawe",
  "7961": " seawee",
  "7962": " seaweed",
  "7963": " seawa",
  "7964": " seat",
  "7965": " seats",
  "7966": " seati",
  "7967": " seatin",
  "7968": " seating",
  "7969": " seate",
  "7970": " seated",
  "7971": " seatb",
  "7972": " seatbe",
  "7973": " seatbel",
  "7974": " seatbelt",
  "7975": " seatbelts",
  "7976": " seas",
  "7977": " seaso",
  "7978": " season",
  "7979": " seasons",
  "7980": " seasoni",
  "7981": " seasonin",
  "7982": " seasoning",
  "7983": " seasi",
  "7984": " seasid",
  "7985": " seaside",
  "7986": " seashe",
  "7987": " seashel",
  "7988": " seashell",
  "7989": " seashells",
  "7990": " seash",
  "7991": " seasho",
  "7992": " seashor",
  "7993": " seashore",
  "7994": " sear",
  "7995": " searc",
  "7996": " searche",
  "7997": " searches",
  "7998": " searcher",
  "7999": " searched",
  "8000": " search",
  "8001": " searchi",
  "8002": " searchin",
  "8003": " searching",
  "8004": " seam",
  "8005": " seams",
  "8006": " seal",
  "8007": " seals",
  "8008": " seale",
  "8009": " sealed",
  "8010": " seah",
  "8011": " seaho",
  "8012": " seahor",
  "8013": " seahors",
  "8014": " seahorse",
  "8015": " seahorses",
  "8016": " seag",
  "8017": " seagu",
  "8018": " seagul",
  "8019": " seagull",
  "8020": " seagulls",
  "8021": " seaf",
  "8022": " seafo",
  "8023": " seafoo",
  "8024": " seafood",
  "8025": " sc",
  "8026": " scy",
  "8027": " scyt",
  "8028": " scythe",
  "8029": " scu",
  "8030": " scut",
  "8031": " scutt",
  "8032": " scuttl",
  "8033": " scuttli",
  "8034": " scuttlin",
  "8035": " scuttling",
  "8036": " scuttle",
  "8037": " scuttled",
  "8038": " scur",
  "8039": " scurv",
  "8040": " scurvy",
  "8041": " scurr",
  "8042": " scurry",
  "8043": " scurryi",
  "8044": " scurryin",
  "8045": " scurrying",
  "8046": " scurri",
  "8047": " scurrie",
  "8048": " scurried",
  "8049": " scul",
  "8050": " sculp",
  "8051": " sculpt",
  "8052": " sculptu",
  "8053": " sculptur",
  "8054": " sculpture",
  "8055": " sculptures",
  "8056": " scuf",
  "8057": " scuff",
  "8058": " scr",
  "8059": " scru",
  "8060": " scrun",
  "8061": " scrunc",
  "8062": " scrunche",
  "8063": " scrunched",
  "8064": " scrunch",
  "8065": " scrunchi",
  "8066": " scrunchin",
  "8067": " scrunching",
  "8068": " scruf",
  "8069": " scruff",
  "8070": " scruffy",
  "8071": " scrub",
  "8072": " scrubs",
  "8073": " scrubb",
  "8074": " scrubbi",
  "8075": " scrubbin",
  "8076": " scrubbing",
  "8077": " scrubbe",
  "8078": " scrubbed",
  "8079": " scro",
  "8080": " scri",
  "8081": " scrib",
  "8082": " scribb",
  "8083": " scribbl",
  "8084": " scribbli",
  "8085": " scribblin",
  "8086": " scribbling",
  "8087": " scribble",
  "8088": " scribbles",
  "8089": " scribbled",
  "8090": " scre",
  "8091": " screw",
  "8092": " screws",
  "8093": " screwe",
  "8094": " screwed",
  "8095": " screwd",
  "8096": " screwdr",
  "8097": " screwdri",
  "8098": " screwdriv",
  "8099": " screwdrive",
  "8100": " screwdriver",
  "8101": " scree",
  "8102": " screen",
  "8103": " screens",
  "8104": " screec",
  "8105": " screeche",
  "8106": " screeches",
  "8107": " screeched",
  "8108": " screech",
  "8109": " screechi",
  "8110": " screechin",
  "8111": " screeching",
  "8112": " screa",
  "8113": " scream",
  "8114": " screams",
  "8115": " screami",
  "8116": " screamin",
  "8117": " screaming",
  "8118": " screame",
  "8119": " screamed",
  "8120": " scra",
  "8121": " scrat",
  "8122": " scratc",
  "8123": " scratche",
  "8124": " scratches",
  "8125": " scratcher",
  "8126": " scratched",
  "8127": " scratch",
  "8128": " scratchy",
  "8129": " scratchi",
  "8130": " scratchin",
  "8131": " scratching",
  "8132": " scrap",
  "8133": " scraps",
  "8134": " scrape",
  "8135": " scrapes",
  "8136": " scraped",
  "8137": " scram",
  "8138": " scramb",
  "8139": " scrambl",
  "8140": " scramble",
  "8141": " scrambled",
  "8142": " scrag",
  "8143": " scragg",
  "8144": " scraggl",
  "8145": " scraggly",
  "8146": " sco",
  "8147": " scow",
  "8148": " scowl",
  "8149": " scowls",
  "8150": " scowli",
  "8151": " scowlin",
  "8152": " scowling",
  "8153": " scowle",
  "8154": " scowled",
  "8155": " scou",
  "8156": " scout",
  "8157": " scor",
  "8158": " scori",
  "8159": " scorin",
  "8160": " scoring",
  "8161": " score",
  "8162": " scores",
  "8163": " scored",
  "8164": " scorc",
  "8165": " scorche",
  "8166": " scorched",
  "8167": " scoo",
  "8168": " scoot",
  "8169": " scooti",
  "8170": " scootin",
  "8171": " scooting",
  "8172": " scoote",
  "8173": " scooter",
  "8174": " scooters",
  "8175": " scooteri",
  "8176": " scooterin",
  "8177": " scootering",
  "8178": " scooted",
  "8179": " scoop",
  "8180": " scoops",
  "8181": " scoopi",
  "8182": " scoopin",
  "8183": " scooping",
  "8184": " scoope",
  "8185": " scooped",
  "8186": " scon",
  "8187": " scone",
  "8188": " scones",
  "8189": " scol",
  "8190": " scold",
  "8191": " scolds",
  "8192": " scoldi",
  "8193": " scoldin",
  "8194": " scolding",
  "8195": " scolde",
  "8196": " scolded",
  "8197": " scof",
  "8198": " scoff",
  "8199": " scoffe",
  "8200": " scoffed",
  "8201": " sci",
  "8202": " scis",
  "8203": " sciss",
  "8204": " scisso",
  "8205": " scissor",
  "8206": " scissors",
  "8207": " scie",
  "8208": " scien",
  "8209": " scient",
  "8210": " scienti",
  "8211": " scientis",
  "8212": " scientist",
  "8213": " scientists",
  "8214": " scienc",
  "8215": " science",
  "8216": " sche",
  "8217": " sched",
  "8218": " schedu",
  "8219": " schedul",
  "8220": " schedule",
  "8221": " schedules",
  "8222": " sch",
  "8223": " scho",
  "8224": " schoo",
  "8225": " school",
  "8226": " schooly",
  "8227": " schoolya",
  "8228": " schoolyar",
  "8229": " schoolyard",
  "8230": " schools",
  "8231": " schoolb",
  "8232": " schoolba",
  "8233": " schoolbag",
  "8234": " sce",
  "8235": " scep",
  "8236": " scept",
  "8237": " scepti",
  "8238": " sceptic",
  "8239": " sceptica",
  "8240": " sceptical",
  "8241": " scepticall",
  "8242": " sceptically",
  "8243": " scepte",
  "8244": " scepter",
  "8245": " scen",
  "8246": " scent",
  "8247": " scents",
  "8248": " scene",
  "8249": " scenes",
  "8250": " scener",
  "8251": " scenery",
  "8252": " sca",
  "8253": " scav",
  "8254": " scave",
  "8255": " scaven",
  "8256": " scaveng",
  "8257": " scavengi",
  "8258": " scavengin",
  "8259": " scavenging",
  "8260": " scat",
  "8261": " scatt",
  "8262": " scatte",
  "8263": " scatter",
  "8264": " scatters",
  "8265": " scatteri",
  "8266": " scatterin",
  "8267": " scattering",
  "8268": " scattere",
  "8269": " scattered",
  "8270": " scatted",
  "8271": " scar",
  "8272": " scary",
  "8273": " scarv",
  "8274": " scarve",
  "8275": " scarves",
  "8276": " scars",
  "8277": " scarr",
  "8278": " scarry",
  "8279": " scarre",
  "8280": " scarred",
  "8281": " scari",
  "8282": " scarin",
  "8283": " scaring",
  "8284": " scarie",
  "8285": " scaries",
  "8286": " scariest",
  "8287": " scarier",
  "8288": " scarf",
  "8289": " scarfs",
  "8290": " scare",
  "8291": " scares",
  "8292": " scared",
  "8293": " scaredy",
  "8294": " scarec",
  "8295": " scarecr",
  "8296": " scarecro",
  "8297": " scarecrow",
  "8298": " scarecrows",
  "8299": " scan",
  "8300": " scans",
  "8301": " scann",
  "8302": " scanne",
  "8303": " scanner",
  "8304": " scanned",
  "8305": " scam",
  "8306": " scamp",
  "8307": " scampe",
  "8308": " scamper",
  "8309": " scamperi",
  "8310": " scamperin",
  "8311": " scampering",
  "8312": " scampere",
  "8313": " scampered",
  "8314": " scal",
  "8315": " scaly",
  "8316": " scale",
  "8317": " scales",
  "8318": " scaled",
  "8319": " sa",
  "8320": " say",
  "8321": " says",
  "8322": " sayi",
  "8323": " sayin",
  "8324": " saying",
  "8325": " sax",
  "8326": " saxo",
  "8327": " saxop",
  "8328": " saxoph",
  "8329": " saxopho",
  "8330": " saxophon",
  "8331": " saxophone",
  "8332": " saxophones",
  "8333": " saw",
  "8334": " saws",
  "8335": " sawi",
  "8336": " sawin",
  "8337": " sawing",
  "8338": " sawe",
  "8339": " sawed",
  "8340": " sav",
  "8341": " savo",
  "8342": " savou",
  "8343": " savour",
  "8344": " savouri",
  "8345": " savourin",
  "8346": " savouring",
  "8347": " savoure",
  "8348": " savoured",
  "8349": " savor",
  "8350": " savori",
  "8351": " savorin",
  "8352": " savoring",
  "8353": " savore",
  "8354": " savored",
  "8355": " savi",
  "8356": " savio",
  "8357": " savior",
  "8358": " savin",
  "8359": " saving",
  "8360": " savings",
  "8361": " save",
  "8362": " saves",
  "8363": " saver",
  "8364": " saved",
  "8365": " sava",
  "8366": " savan",
  "8367": " savann",
  "8368": " savanna",
  "8369": " savannah",
  "8370": " sau",
  "8371": " saus",
  "8372": " sausa",
  "8373": " sausag",
  "8374": " sausage",
  "8375": " sausages",
  "8376": " sauc",
  "8377": " sauce",
  "8378": " sauces",
  "8379": " saucer",
  "8380": " saucers",
  "8381": " saucep",
  "8382": " saucepa",
  "8383": " saucepan",
  "8384": " sat",
  "8385": " sati",
  "8386": " satis",
  "8387": " satisf",
  "8388": " satisfy",
  "8389": " satisfyi",
  "8390": " satisfyin",
  "8391": " satisfying",
  "8392": " satisfi",
  "8393": " satisfie",
  "8394": " satisfied",
  "8395": " satisfa",
  "8396": " satisfac",
  "8397": " satisfact",
  "8398": " satisfacti",
  "8399": " satisfactio",
  "8400": " satisfaction",
  "8401": " sate",
  "8402": " satel",
  "8403": " satell",
  "8404": " satelli",
  "8405": " satellit",
  "8406": " satellite",
  "8407": " satellites",
  "8408": " satc",
  "8409": " satche",
  "8410": " satchel",
  "8411": " sap",
  "8412": " sapl",
  "8413": " sapli",
  "8414": " saplin",
  "8415": " sapling",
  "8416": " san",
  "8417": " sank",
  "8418": " sang",
  "8419": " sand",
  "8420": " sandy",
  "8421": " sandyw",
  "8422": " sandywi",
  "8423": " sandywic",
  "8424": " sandywich",
  "8425": " sandw",
  "8426": " sandwi",
  "8427": " sandwic",
  "8428": " sandwiche",
  "8429": " sandwiches",
  "8430": " sandwich",
  "8431": " sandp",
  "8432": " sandpi",
  "8433": " sandpit",
  "8434": " sandpil",
  "8435": " sandpile",
  "8436": " sandpiles",
  "8437": " sandpa",
  "8438": " sandpap",
  "8439": " sandpape",
  "8440": " sandpaper",
  "8441": " sande",
  "8442": " sanded",
  "8443": " sandc",
  "8444": " sandca",
  "8445": " sandcas",
  "8446": " sandcast",
  "8447": " sandcastl",
  "8448": " sandcastle",
  "8449": " sandcastles",
  "8450": " sandb",
  "8451": " sandbo",
  "8452": " sandbox",
  "8453": " sandba",
  "8454": " sandbag",
  "8455": " sandbags",
  "8456": " sanda",
  "8457": " sandal",
  "8458": " sandals",
  "8459": " sam",
  "8460": " samp",
  "8461": " sampl",
  "8462": " sample",
  "8463": " same",
  "8464": " sal",
  "8465": " salv",
  "8466": " salve",
  "8467": " salu",
  "8468": " salut",
  "8469": " salute",
  "8470": " saluted",
  "8471": " salt",
  "8472": " salty",
  "8473": " sals",
  "8474": " salsa",
  "8475": " salo",
  "8476": " salon",
  "8477": " salm",
  "8478": " salmo",
  "8479": " salmon",
  "8480": " salmonb",
  "8481": " salmonbe",
  "8482": " salmonber",
  "8483": " salmonberr",
  "8484": " salmonberry",
  "8485": " sali",
  "8486": " saliv",
  "8487": " saliva",
  "8488": " salivat",
  "8489": " sale",
  "8490": " sales",
  "8491": " salesp",
  "8492": " salespe",
  "8493": " salesper",
  "8494": " salespers",
  "8495": " salesperso",
  "8496": " salesperson",
  "8497": " sala",
  "8498": " salad",
  "8499": " salads",
  "8500": " sak",
  "8501": " sake",
  "8502": " sai",
  "8503": " sail",
  "8504": " sails",
  "8505": " sailo",
  "8506": " sailor",
  "8507": " sailors",
  "8508": " saili",
  "8509": " sailin",
  "8510": " sailing",
  "8511": " saile",
  "8512": " sailed",
  "8513": " sailc",
  "8514": " sailcl",
  "8515": " sailclo",
  "8516": " sailcloth",
  "8517": " sailb",
  "8518": " sailbo",
  "8519": " sailboa",
  "8520": " sailboat",
  "8521": " said",
  "8522": " sag",
  "8523": " saf",
  "8524": " safe",
  "8525": " safet",
  "8526": " safety",
  "8527": " safes",
  "8528": " safest",
  "8529": " safer",
  "8530": " safel",
  "8531": " safely",
  "8532": " safek",
  "8533": " safeke",
  "8534": " safekee",
  "8535": " safekeep",
  "8536": " safekeepi",
  "8537": " safekeepin",
  "8538": " safekeeping",
  "8539": " safa",
  "8540": " safar",
  "8541": " safari",
  "8542": " safaris",
  "8543": " sad",
  "8544": " sadn",
  "8545": " sadne",
  "8546": " sadnes",
  "8547": " sadness",
  "8548": " sadl",
  "8549": " sadly",
  "8550": " sadd",
  "8551": " saddl",
  "8552": " saddle",
  "8553": " saddles",
  "8554": " sadde",
  "8555": " saddes",
  "8556": " saddest",
  "8557": " sadder",
  "8558": " sadden",
  "8559": " saddene",
  "8560": " saddened",
  "8561": " sac",
  "8562": " sacr",
  "8563": " sacri",
  "8564": " sacrif",
  "8565": " sacrifi",
  "8566": " sacrific",
  "8567": " sacrifice",
  "8568": " sacrificed",
  "8569": " sacre",
  "8570": " sacred",
  "8571": " sack",
  "8572": " sacks",
  "8573": " sacki",
  "8574": " sackin",
  "8575": " sacking",
  "8576": " sacke",
  "8577": " sacked",
  "8578": " run",
  "8579": " runwa",
  "8580": " runway",
  "8581": " runs",
  "8582": " runn",
  "8583": " runny",
  "8584": " runnin",
  "8585": " running",
  "8586": " runner",
  "8587": " runners",
  "8588": " ru",
  "8589": " rust",
  "8590": " rusty",
  "8591": " rustle",
  "8592": " rustles",
  "8593": " rustl",
  "8594": " rustlin",
  "8595": " rustling",
  "8596": " rustled",
  "8597": " rusted",
  "8598": " rush",
  "8599": " rushin",
  "8600": " rushing",
  "8601": " rus",
  "8602": " rushe",
  "8603": " rushes",
  "8604": " rushed",
  "8605": " rung",
  "8606": " rungs",
  "8607": " rum",
  "8608": " rumou",
  "8609": " rumour",
  "8610": " rumours",
  "8611": " rumor",
  "8612": " rumors",
  "8613": " rumm",
  "8614": " rumma",
  "8615": " rummag",
  "8616": " rummagin",
  "8617": " rummaging",
  "8618": " rummaged",
  "8619": " rumb",
  "8620": " rumble",
  "8621": " rumbles",
  "8622": " rumbl",
  "8623": " rumbly",
  "8624": " rumblin",
  "8625": " rumbling",
  "8626": " rumbled",
  "8627": " rule",
  "8628": " rules",
  "8629": " rul",
  "8630": " rulin",
  "8631": " ruling",
  "8632": " ruler",
  "8633": " rulers",
  "8634": " ruled",
  "8635": " ruin",
  "8636": " ruins",
  "8637": " ruined",
  "8638": " rui",
  "8639": " ruinin",
  "8640": " ruining",
  "8641": " rug",
  "8642": " rugs",
  "8643": " ruf",
  "8644": " ruff",
  "8645": " ruffle",
  "8646": " ruffles",
  "8647": " ruffl",
  "8648": " rufflin",
  "8649": " ruffling",
  "8650": " ruffled",
  "8651": " rude",
  "8652": " rud",
  "8653": " ruder",
  "8654": " ruden",
  "8655": " rudene",
  "8656": " rudenes",
  "8657": " rudeness",
  "8658": " rudel",
  "8659": " rudely",
  "8660": " ruc",
  "8661": " ruck",
  "8662": " rub",
  "8663": " ruby",
  "8664": " rubs",
  "8665": " rubbb",
  "8666": " rubbbin",
  "8667": " rubbbing",
  "8668": " rubb",
  "8669": " rubbis",
  "8670": " rubbish",
  "8671": " rubbin",
  "8672": " rubbing",
  "8673": " rubber",
  "8674": " rubbery",
  "8675": " rubbed",
  "8676": " rrr",
  "8677": " rou",
  "8678": " rout",
  "8679": " routin",
  "8680": " routine",
  "8681": " routines",
  "8682": " route",
  "8683": " routes",
  "8684": " round",
  "8685": " rounds",
  "8686": " rounde",
  "8687": " roundes",
  "8688": " roundest",
  "8689": " rounder",
  "8690": " rounded",
  "8691": " rounda",
  "8692": " roundab",
  "8693": " roundabo",
  "8694": " roundabou",
  "8695": " roundabout",
  "8696": " roug",
  "8697": " roughe",
  "8698": " rougher",
  "8699": " rough",
  "8700": " roughn",
  "8701": " roughne",
  "8702": " roughnes",
  "8703": " roughness",
  "8704": " roughl",
  "8705": " roughly",
  "8706": " rot",
  "8707": " rott",
  "8708": " rottin",
  "8709": " rotting",
  "8710": " rotten",
  "8711": " rotted",
  "8712": " rots",
  "8713": " roo",
  "8714": " root",
  "8715": " roots",
  "8716": " rooted",
  "8717": " roost",
  "8718": " rooster",
  "8719": " rook",
  "8720": " roof",
  "8721": " roofto",
  "8722": " rooftop",
  "8723": " rooftops",
  "8724": " roofs",
  "8725": " rom",
  "8726": " romp",
  "8727": " ro",
  "8728": " roy",
  "8729": " royal",
  "8730": " royalt",
  "8731": " royalty",
  "8732": " row",
  "8733": " rows",
  "8734": " rowin",
  "8735": " rowing",
  "8736": " rowed",
  "8737": " rowb",
  "8738": " rowbo",
  "8739": " rowboat",
  "8740": " rose",
  "8741": " roses",
  "8742": " rosem",
  "8743": " rosemar",
  "8744": " rosemary",
  "8745": " roseb",
  "8746": " rosebu",
  "8747": " rosebush",
  "8748": " ros",
  "8749": " rosy",
  "8750": " rop",
  "8751": " rope",
  "8752": " ropes",
  "8753": " room",
  "8754": " rooms",
  "8755": " roll",
  "8756": " rolls",
  "8757": " rollin",
  "8758": " rolling",
  "8759": " roller",
  "8760": " rolled",
  "8761": " role",
  "8762": " roles",
  "8763": " rod",
  "8764": " rods",
  "8765": " roden",
  "8766": " rodent",
  "8767": " rodents",
  "8768": " rode",
  "8769": " rodeo",
  "8770": " roc",
  "8771": " rocke",
  "8772": " rocket",
  "8773": " rockets",
  "8774": " rocketshi",
  "8775": " rocketship",
  "8776": " rock",
  "8777": " rocky",
  "8778": " rocks",
  "8779": " rockin",
  "8780": " rocking",
  "8781": " rocker",
  "8782": " rocked",
  "8783": " rob",
  "8784": " robot",
  "8785": " robots",
  "8786": " roboti",
  "8787": " robotic",
  "8788": " robin",
  "8789": " robins",
  "8790": " robe",
  "8791": " robes",
  "8792": " robb",
  "8793": " robber",
  "8794": " robbers",
  "8795": " robbed",
  "8796": " roas",
  "8797": " roast",
  "8798": " roastin",
  "8799": " roasting",
  "8800": " roasted",
  "8801": " roar",
  "8802": " roars",
  "8803": " roarin",
  "8804": " roaring",
  "8805": " roared",
  "8806": " roam",
  "8807": " roamin",
  "8808": " roaming",
  "8809": " roamed",
  "8810": " road",
  "8811": " roads",
  "8812": " roadsid",
  "8813": " roadside",
  "8814": " rit",
  "8815": " ritu",
  "8816": " ritua",
  "8817": " ritual",
  "8818": " ris",
  "8819": " risk",
  "8820": " risky",
  "8821": " risks",
  "8822": " riskin",
  "8823": " risking",
  "8824": " risin",
  "8825": " rising",
  "8826": " risen",
  "8827": " rise",
  "8828": " rises",
  "8829": " rin",
  "8830": " rins",
  "8831": " rinsed",
  "8832": " rinse",
  "8833": " rinses",
  "8834": " rink",
  "8835": " ring",
  "8836": " rings",
  "8837": " ringm",
  "8838": " ringma",
  "8839": " ringmas",
  "8840": " ringmast",
  "8841": " ringmaster",
  "8842": " ringer",
  "8843": " rim",
  "8844": " rid",
  "8845": " ridin",
  "8846": " riding",
  "8847": " ridg",
  "8848": " ridge",
  "8849": " ridges",
  "8850": " rider",
  "8851": " riders",
  "8852": " ride",
  "8853": " rides",
  "8854": " ridd",
  "8855": " riddle",
  "8856": " riddles",
  "8857": " ridden",
  "8858": " ri",
  "8859": " riv",
  "8860": " river",
  "8861": " rivers",
  "8862": " riverb",
  "8863": " riverbed",
  "8864": " riverban",
  "8865": " riverbank",
  "8866": " rival",
  "8867": " rip",
  "8868": " rips",
  "8869": " ripp",
  "8870": " ripple",
  "8871": " ripples",
  "8872": " rippl",
  "8873": " rippled",
  "8874": " rippin",
  "8875": " ripping",
  "8876": " ripped",
  "8877": " ripen",
  "8878": " ripe",
  "8879": " ripest",
  "8880": " ringin",
  "8881": " ringing",
  "8882": " rig",
  "8883": " righ",
  "8884": " right",
  "8885": " rights",
  "8886": " rightf",
  "8887": " rightfu",
  "8888": " rightfull",
  "8889": " rightfully",
  "8890": " rightful",
  "8891": " rif",
  "8892": " rifle",
  "8893": " ric",
  "8894": " ricke",
  "8895": " ricket",
  "8896": " rickety",
  "8897": " riche",
  "8898": " riches",
  "8899": " richest",
  "8900": " richer",
  "8901": " rich",
  "8902": " rice",
  "8903": " rib",
  "8904": " ribb",
  "8905": " ribbon",
  "8906": " ribbons",
  "8907": " ribbit",
  "8908": " rh",
  "8909": " rhy",
  "8910": " rhyth",
  "8911": " rhythm",
  "8912": " rhythms",
  "8913": " rhyme",
  "8914": " rhym",
  "8915": " rhymed",
  "8916": " rhom",
  "8917": " rhomb",
  "8918": " rhombu",
  "8919": " rhombus",
  "8920": " rhin",
  "8921": " rhino",
  "8922": " rhinoc",
  "8923": " rhinocer",
  "8924": " rhinocero",
  "8925": " rhinoceros",
  "8926": " rhinocerose",
  "8927": " rhinoceroses",
  "8928": " ret",
  "8929": " retre",
  "8930": " retrea",
  "8931": " retreat",
  "8932": " retreated",
  "8933": " red",
  "8934": " redu",
  "8935": " reduc",
  "8936": " reds",
  "8937": " redd",
  "8938": " redde",
  "8939": " reddes",
  "8940": " reddest",
  "8941": " redder",
  "8942": " re",
  "8943": " req",
  "8944": " requ",
  "8945": " requi",
  "8946": " require",
  "8947": " requires",
  "8948": " rep",
  "8949": " repre",
  "8950": " repres",
  "8951": " represe",
  "8952": " represen",
  "8953": " represent",
  "8954": " represented",
  "8955": " reg",
  "8956": " regre",
  "8957": " regret",
  "8958": " regrett",
  "8959": " regrettin",
  "8960": " regretting",
  "8961": " regretted",
  "8962": " regrets",
  "8963": " regretf",
  "8964": " regretfu",
  "8965": " regretful",
  "8966": " regretfull",
  "8967": " regretfully",
  "8968": " regreted",
  "8969": " ref",
  "8970": " refre",
  "8971": " refres",
  "8972": " refreshe",
  "8973": " refreshed",
  "8974": " refresh",
  "8975": " refreshin",
  "8976": " refreshing",
  "8977": " reas",
  "8978": " reass",
  "8979": " reassu",
  "8980": " reassure",
  "8981": " rex",
  "8982": " rewa",
  "8983": " rewar",
  "8984": " reward",
  "8985": " rewards",
  "8986": " rewardin",
  "8987": " rewarding",
  "8988": " rewarded",
  "8989": " rev",
  "8990": " revv",
  "8991": " revvin",
  "8992": " revving",
  "8993": " revved",
  "8994": " revo",
  "8995": " revoi",
  "8996": " revoir",
  "8997": " rever",
  "8998": " revers",
  "8999": " reversi",
  "9000": " reversin",
  "9001": " reversing",
  "9002": " reversed",
  "9003": " reverse",
  "9004": " reverses",
  "9005": " reve",
  "9006": " reven",
  "9007": " reveng",
  "9008": " revenge",
  "9009": " revea",
  "9010": " reveal",
  "9011": " reveals",
  "9012": " revealin",
  "9013": " revealing",
  "9014": " revealed",
  "9015": " reu",
  "9016": " reun",
  "9017": " reuni",
  "9018": " reunit",
  "9019": " reunited",
  "9020": " reunite",
  "9021": " reunio",
  "9022": " reunion",
  "9023": " retu",
  "9024": " retur",
  "9025": " return",
  "9026": " returns",
  "9027": " returnin",
  "9028": " returning",
  "9029": " returned",
  "9030": " retr",
  "9031": " retri",
  "9032": " retrie",
  "9033": " retriev",
  "9034": " retrieved",
  "9035": " retrieve",
  "9036": " retra",
  "9037": " retrac",
  "9038": " retracin",
  "9039": " retracing",
  "9040": " retraced",
  "9041": " reti",
  "9042": " retir",
  "9043": " retired",
  "9044": " res",
  "9045": " resu",
  "9046": " resur",
  "9047": " resurf",
  "9048": " resurfa",
  "9049": " resurfac",
  "9050": " resum",
  "9051": " resumed",
  "9052": " resume",
  "9053": " resul",
  "9054": " result",
  "9055": " results",
  "9056": " resulted",
  "9057": " resto",
  "9058": " restor",
  "9059": " restori",
  "9060": " restorin",
  "9061": " restoring",
  "9062": " restored",
  "9063": " restore",
  "9064": " restores",
  "9065": " rest",
  "9066": " rests",
  "9067": " restr",
  "9068": " restl",
  "9069": " restle",
  "9070": " restles",
  "9071": " restless",
  "9072": " restlessn",
  "9073": " restlessne",
  "9074": " restlessnes",
  "9075": " restlessness",
  "9076": " restin",
  "9077": " resting",
  "9078": " restf",
  "9079": " restfu",
  "9080": " restful",
  "9081": " rested",
  "9082": " resta",
  "9083": " restau",
  "9084": " restaur",
  "9085": " restauran",
  "9086": " restaurant",
  "9087": " restaurants",
  "9088": " restar",
  "9089": " restart",
  "9090": " resp",
  "9091": " respo",
  "9092": " respond",
  "9093": " respondi",
  "9094": " respondin",
  "9095": " responding",
  "9096": " responde",
  "9097": " responded",
  "9098": " respon",
  "9099": " respons",
  "9100": " responsi",
  "9101": " responsib",
  "9102": " responsibl",
  "9103": " responsibly",
  "9104": " responsible",
  "9105": " responsibi",
  "9106": " responsibil",
  "9107": " responsibili",
  "9108": " responsibilit",
  "9109": " responsibility",
  "9110": " responsibiliti",
  "9111": " responsibilitie",
  "9112": " responsibilities",
  "9113": " response",
  "9114": " respe",
  "9115": " respec",
  "9116": " respect",
  "9117": " respects",
  "9118": " respectin",
  "9119": " respecting",
  "9120": " respecti",
  "9121": " respectiv",
  "9122": " respective",
  "9123": " respectf",
  "9124": " respectfu",
  "9125": " respectful",
  "9126": " respectfull",
  "9127": " respectfully",
  "9128": " respected",
  "9129": " reso",
  "9130": " resou",
  "9131": " resour",
  "9132": " resourc",
  "9133": " resource",
  "9134": " resources",
  "9135": " resourcef",
  "9136": " resourcefu",
  "9137": " resourceful",
  "9138": " resor",
  "9139": " resort",
  "9140": " resol",
  "9141": " resolv",
  "9142": " resolved",
  "9143": " resolve",
  "9144": " resolu",
  "9145": " resolut",
  "9146": " resoluti",
  "9147": " resolutio",
  "9148": " resolution",
  "9149": " resi",
  "9150": " resis",
  "9151": " resist",
  "9152": " resists",
  "9153": " resistin",
  "9154": " resisting",
  "9155": " resisted",
  "9156": " resistan",
  "9157": " resistanc",
  "9158": " resistance",
  "9159": " resil",
  "9160": " resili",
  "9161": " resilie",
  "9162": " resilien",
  "9163": " resilient",
  "9164": " resilienc",
  "9165": " resilience",
  "9166": " resid",
  "9167": " reside",
  "9168": " reser",
  "9169": " reserv",
  "9170": " reserved",
  "9171": " reserve",
  "9172": " rese",
  "9173": " resea",
  "9174": " resear",
  "9175": " researc",
  "9176": " research",
  "9177": " resc",
  "9178": " rescu",
  "9179": " rescuin",
  "9180": " rescuing",
  "9181": " rescuer",
  "9182": " rescuers",
  "9183": " rescued",
  "9184": " rescue",
  "9185": " rescues",
  "9186": " requir",
  "9187": " required",
  "9188": " reque",
  "9189": " reques",
  "9190": " request",
  "9191": " requests",
  "9192": " requestin",
  "9193": " requesting",
  "9194": " requested",
  "9195": " rept",
  "9196": " repti",
  "9197": " reptil",
  "9198": " reptile",
  "9199": " repr",
  "9200": " repri",
  "9201": " reprim",
  "9202": " repriman",
  "9203": " reprimand",
  "9204": " reprimande",
  "9205": " reprimanded",
  "9206": " repo",
  "9207": " repor",
  "9208": " report",
  "9209": " reporter",
  "9210": " reporters",
  "9211": " reported",
  "9212": " repl",
  "9213": " reply",
  "9214": " replyin",
  "9215": " replying",
  "9216": " repli",
  "9217": " replied",
  "9218": " replie",
  "9219": " replies",
  "9220": " reple",
  "9221": " replen",
  "9222": " repleni",
  "9223": " replenis",
  "9224": " replenishe",
  "9225": " replenished",
  "9226": " replan",
  "9227": " replant",
  "9228": " replante",
  "9229": " replanted",
  "9230": " repla",
  "9231": " replac",
  "9232": " replacin",
  "9233": " replacing",
  "9234": " replaced",
  "9235": " replace",
  "9236": " replaces",
  "9237": " replacem",
  "9238": " replaceme",
  "9239": " replacemen",
  "9240": " replacement",
  "9241": " repe",
  "9242": " repet",
  "9243": " repeti",
  "9244": " repetit",
  "9245": " repetiti",
  "9246": " repel",
  "9247": " repell",
  "9248": " repelle",
  "9249": " repellen",
  "9250": " repellent",
  "9251": " repea",
  "9252": " repeat",
  "9253": " repeats",
  "9254": " repeatin",
  "9255": " repeating",
  "9256": " repeated",
  "9257": " repa",
  "9258": " repay",
  "9259": " repai",
  "9260": " repair",
  "9261": " repairs",
  "9262": " repairm",
  "9263": " repairman",
  "9264": " repairin",
  "9265": " repairing",
  "9266": " repaired",
  "9267": " ren",
  "9268": " rent",
  "9269": " rented",
  "9270": " rene",
  "9271": " renew",
  "9272": " renewed",
  "9273": " rem",
  "9274": " remo",
  "9275": " remov",
  "9276": " removin",
  "9277": " removing",
  "9278": " removed",
  "9279": " remove",
  "9280": " removes",
  "9281": " remot",
  "9282": " remote",
  "9283": " remor",
  "9284": " remors",
  "9285": " remorse",
  "9286": " remi",
  "9287": " remind",
  "9288": " reminds",
  "9289": " remindi",
  "9290": " remindin",
  "9291": " reminding",
  "9292": " reminde",
  "9293": " reminder",
  "9294": " reminders",
  "9295": " reminded",
  "9296": " remed",
  "9297": " remedy",
  "9298": " reme",
  "9299": " remem",
  "9300": " rememb",
  "9301": " remember",
  "9302": " remembers",
  "9303": " rememberi",
  "9304": " rememberin",
  "9305": " remembering",
  "9306": " remembered",
  "9307": " rema",
  "9308": " remar",
  "9309": " remark",
  "9310": " remarked",
  "9311": " remarka",
  "9312": " remarkab",
  "9313": " remarkabl",
  "9314": " remarkable",
  "9315": " remain",
  "9316": " remains",
  "9317": " remained",
  "9318": " remai",
  "9319": " remaind",
  "9320": " remainde",
  "9321": " remainder",
  "9322": " remainin",
  "9323": " remaining",
  "9324": " rel",
  "9325": " rely",
  "9326": " relyin",
  "9327": " relying",
  "9328": " relu",
  "9329": " reluc",
  "9330": " reluct",
  "9331": " reluctan",
  "9332": " reluctant",
  "9333": " reluctantl",
  "9334": " reluctantly",
  "9335": " reli",
  "9336": " relie",
  "9337": " reliev",
  "9338": " relieved",
  "9339": " relief",
  "9340": " relia",
  "9341": " reliab",
  "9342": " reliabl",
  "9343": " reliably",
  "9344": " reliable",
  "9345": " reliabi",
  "9346": " reliabil",
  "9347": " reliabili",
  "9348": " reliabilit",
  "9349": " reliability",
  "9350": " rele",
  "9351": " relea",
  "9352": " releas",
  "9353": " releasin",
  "9354": " releasing",
  "9355": " released",
  "9356": " release",
  "9357": " releases",
  "9358": " rela",
  "9359": " relax",
  "9360": " relaxin",
  "9361": " relaxing",
  "9362": " relaxed",
  "9363": " relaxe",
  "9364": " relaxes",
  "9365": " relaxa",
  "9366": " relaxat",
  "9367": " relaxati",
  "9368": " relaxatio",
  "9369": " relaxation",
  "9370": " relat",
  "9371": " relati",
  "9372": " relativ",
  "9373": " relative",
  "9374": " relatio",
  "9375": " relation",
  "9376": " relations",
  "9377": " relationsh",
  "9378": " relationshi",
  "9379": " relationship",
  "9380": " relationships",
  "9381": " related",
  "9382": " rej",
  "9383": " rejo",
  "9384": " rejoin",
  "9385": " rejoi",
  "9386": " rejoic",
  "9387": " rejoicin",
  "9388": " rejoicing",
  "9389": " rejoiced",
  "9390": " reje",
  "9391": " rejec",
  "9392": " reject",
  "9393": " rejected",
  "9394": " rein",
  "9395": " reins",
  "9396": " rei",
  "9397": " reind",
  "9398": " reinde",
  "9399": " reindee",
  "9400": " reindeer",
  "9401": " reindeers",
  "9402": " reig",
  "9403": " reign",
  "9404": " rehe",
  "9405": " rehea",
  "9406": " rehear",
  "9407": " rehears",
  "9408": " rehearsa",
  "9409": " rehearsal",
  "9410": " regu",
  "9411": " regul",
  "9412": " regula",
  "9413": " regular",
  "9414": " regularl",
  "9415": " regularly",
  "9416": " regulari",
  "9417": " regularit",
  "9418": " regularity",
  "9419": " regi",
  "9420": " regis",
  "9421": " regist",
  "9422": " register",
  "9423": " rega",
  "9424": " regar",
  "9425": " regard",
  "9426": " regardl",
  "9427": " regardle",
  "9428": " regardles",
  "9429": " regardless",
  "9430": " regain",
  "9431": " regained",
  "9432": " refu",
  "9433": " refus",
  "9434": " refusin",
  "9435": " refusing",
  "9436": " refused",
  "9437": " refuse",
  "9438": " refuses",
  "9439": " refusa",
  "9440": " refusal",
  "9441": " refund",
  "9442": " refug",
  "9443": " refuge",
  "9444": " refugee",
  "9445": " refr",
  "9446": " refri",
  "9447": " refrig",
  "9448": " refriger",
  "9449": " refrigera",
  "9450": " refrigerato",
  "9451": " refrigerator",
  "9452": " refl",
  "9453": " refle",
  "9454": " reflec",
  "9455": " reflect",
  "9456": " reflects",
  "9457": " reflectin",
  "9458": " reflecting",
  "9459": " reflecti",
  "9460": " reflectio",
  "9461": " reflection",
  "9462": " reflections",
  "9463": " reflected",
  "9464": " refi",
  "9465": " refil",
  "9466": " refill",
  "9467": " refer",
  "9468": " refere",
  "9469": " referee",
  "9470": " referees",
  "9471": " reed",
  "9472": " reeds",
  "9473": " ree",
  "9474": " reel",
  "9475": " reeled",
  "9476": " reef",
  "9477": " reefs",
  "9478": " rec",
  "9479": " recy",
  "9480": " recyc",
  "9481": " recycl",
  "9482": " recyclin",
  "9483": " recycling",
  "9484": " recycled",
  "9485": " recycle",
  "9486": " rect",
  "9487": " rectan",
  "9488": " rectang",
  "9489": " rectangu",
  "9490": " rectangul",
  "9491": " rectangula",
  "9492": " rectangular",
  "9493": " rectangl",
  "9494": " rectangle",
  "9495": " rectangles",
  "9496": " reco",
  "9497": " recov",
  "9498": " recover",
  "9499": " recovered",
  "9500": " recor",
  "9501": " record",
  "9502": " records",
  "9503": " recordin",
  "9504": " recording",
  "9505": " recordings",
  "9506": " recorder",
  "9507": " recorded",
  "9508": " recom",
  "9509": " recomm",
  "9510": " recomme",
  "9511": " recommend",
  "9512": " recommends",
  "9513": " recommendi",
  "9514": " recommendin",
  "9515": " recommending",
  "9516": " recommende",
  "9517": " recommended",
  "9518": " recommenda",
  "9519": " recommendat",
  "9520": " recommendati",
  "9521": " recommendatio",
  "9522": " recommendation",
  "9523": " recommendations",
  "9524": " recog",
  "9525": " recogn",
  "9526": " recogni",
  "9527": " recogniz",
  "9528": " recognizin",
  "9529": " recognizing",
  "9530": " recognized",
  "9531": " recognize",
  "9532": " recognizes",
  "9533": " recognis",
  "9534": " recognised",
  "9535": " recognise",
  "9536": " reck",
  "9537": " reckl",
  "9538": " reckle",
  "9539": " reckles",
  "9540": " reckless",
  "9541": " reci",
  "9542": " recit",
  "9543": " recite",
  "9544": " recip",
  "9545": " recipe",
  "9546": " recipes",
  "9547": " rech",
  "9548": " recha",
  "9549": " rechar",
  "9550": " recharg",
  "9551": " recharged",
  "9552": " recharge",
  "9553": " rece",
  "9554": " reces",
  "9555": " recess",
  "9556": " recep",
  "9557": " recept",
  "9558": " recepti",
  "9559": " receptio",
  "9560": " reception",
  "9561": " receptioni",
  "9562": " receptionis",
  "9563": " receptionist",
  "9564": " recen",
  "9565": " recent",
  "9566": " recentl",
  "9567": " recently",
  "9568": " recei",
  "9569": " receiv",
  "9570": " receivin",
  "9571": " receiving",
  "9572": " receiver",
  "9573": " received",
  "9574": " receive",
  "9575": " receives",
  "9576": " receip",
  "9577": " receipt",
  "9578": " reca",
  "9579": " recal",
  "9580": " recall",
  "9581": " recalled",
  "9582": " reb",
  "9583": " rebu",
  "9584": " rebui",
  "9585": " rebuil",
  "9586": " rebuilt",
  "9587": " rebuild",
  "9588": " rea",
  "9589": " reassur",
  "9590": " reassurin",
  "9591": " reassuring",
  "9592": " reassuringl",
  "9593": " reassuringly",
  "9594": " reassured",
  "9595": " reassuran",
  "9596": " reassuranc",
  "9597": " reassurance",
  "9598": " reaso",
  "9599": " reason",
  "9600": " reasons",
  "9601": " rear",
  "9602": " rearv",
  "9603": " rearvi",
  "9604": " rearvie",
  "9605": " rearview",
  "9606": " rearr",
  "9607": " rearran",
  "9608": " rearrang",
  "9609": " rearrange",
  "9610": " reap",
  "9611": " reapp",
  "9612": " reappe",
  "9613": " reappea",
  "9614": " reappear",
  "9615": " reappearin",
  "9616": " reappearing",
  "9617": " reappeared",
  "9618": " reapin",
  "9619": " reaping",
  "9620": " real",
  "9621": " reall",
  "9622": " really",
  "9623": " reali",
  "9624": " realiz",
  "9625": " realizin",
  "9626": " realizing",
  "9627": " realized",
  "9628": " realize",
  "9629": " realizes",
  "9630": " realiza",
  "9631": " realizat",
  "9632": " realizati",
  "9633": " realizatio",
  "9634": " realization",
  "9635": " realit",
  "9636": " reality",
  "9637": " realis",
  "9638": " realist",
  "9639": " realisti",
  "9640": " realistic",
  "9641": " realisin",
  "9642": " realising",
  "9643": " realised",
  "9644": " realise",
  "9645": " read",
  "9646": " ready",
  "9647": " reads",
  "9648": " readin",
  "9649": " reading",
  "9650": " readi",
  "9651": " reader",
  "9652": " readers",
  "9653": " reac",
  "9654": " react",
  "9655": " reacti",
  "9656": " reactio",
  "9657": " reaction",
  "9658": " reacted",
  "9659": " reache",
  "9660": " reaches",
  "9661": " reached",
  "9662": " reach",
  "9663": " reachin",
  "9664": " reaching",
  "9665": " ray",
  "9666": " rays",
  "9667": " rat",
  "9668": " ratt",
  "9669": " rattl",
  "9670": " rattlin",
  "9671": " rattling",
  "9672": " rattled",
  "9673": " rattle",
  "9674": " rats",
  "9675": " rati",
  "9676": " ratio",
  "9677": " rathe",
  "9678": " rather",
  "9679": " ras",
  "9680": " rasp",
  "9681": " raspy",
  "9682": " raspb",
  "9683": " raspber",
  "9684": " raspberr",
  "9685": " raspberry",
  "9686": " raspberri",
[...]
